000003a4
fffff8f3
fffffe20
fffff84e
00000359
00000847
fffffb5f
00000b9d
00000805
fffffde5
0000043c
fffff91b
00000779
00000140
000000c6
fffff8a0
fffff5e7
fffffdc6
000002ad
fffffde6
fffff59c
fffff09b
fffffb10
000001b1
00000319
0000080d
fffffcb4
0000063f
00000abf
fffffe96
fffff851
0000055b
fffffd56
fffffc53
000007e0
ffffff8a
fffffabd
0000066f
ffffffbb
0000075b
000009b0
fffffb41
fffffc06
fffffc73
ffffff22
000004e6
000005f2
fffffcc7
00000115
fffffbfa
fffff85c
00000fdc
00000352
00000680
00000442
0000038c
fffff55e
fffffe13
fffffe30
000002f1
fffffae9
fffff5ed
fffffe29
ffffff5f
000004b2
0000023e
fffff9a3
000004f3
000003a1
00000475
fffff626
fffffc33
fffffa45
ffffff26
000006da
fffffa14
0000040c
000000e7
00000a39
ffffff72
fffffe30
00000538
000002e9
000000e3
00000750
fffffe33
0000000e
00000031
000007b7
fffffda5
fffffdc0
000005f1
fffffea2
00000447
ffffff0d
0000040b
00000279
fffff7c4
fffff09b
fffffcc6
fffff6ee
fffff2e5
fffffd1d
fffff728
fffffc0c
fffffb9b
fffff56c
000008fd
000004eb
fffff414
fffffdd9
fffffe42
fffffb63
000000a4
fffff7ab
fffff661
fffffb1d
0000016e
fffff978
fffff653
000002c1
fffffa5d
fffff43f
00000d86
fffffab4
000004c3
fffff4a8
fffff982
