01
fa
fa
0a
02
fc
ff
01
06
fe
02
fb
01
07
0b
01
06
fe
ff
03
02
ff
0a
06
fb
fb
fa
01
01
08
fc
fb
01
02
00
fa
ff
07
03
06
04
0b
fb
09
0d
08
0b
0b
fa
ff
08
00
09
08
fb
f9
fd
09
09
fb
fb
fb
0b
fc
04
09
06
0b
10
0a
09
f8
fa
fb
01
00
fc
09
0a
02
04
03
fd
05
f9
06
fb
0b
06
0a
03
06
fd
06
0a
1c
0c
05
0e
09
03
10
10
04
04
06
fa
01
fc
fe
08
02
fb
04
fc
fb
f9
08
04
0f
0a
14
14
10
fc
f0
f6
f2
0b
0a
15
03
f0
eb
f5
fb
f7
f7
fe
0a
fe
07
00
04
02
01
07
fe
0a
08
10
02
f2
ef
fa
fb
06
04
0d
09
09
f8
f8
fe
04
03
0b
06
06
ff
06
09
05
06
09
02
f3
f0
f9
01
fb
00
fb
f7
ff
fc
04
0f
0a
0a
fe
f2
01
07
01
0b
02
fa
03
fc
0e
15
fb
f2
fb
ed
f3
01
f1
f9
f8
f8
07
0b
05
14
12
07
09
0a
fe
f4
fa
fc
0b
fa
f9
0c
06
00
fd
f8
fe
f1
ef
ec
ea
ef
05
07
10
09
0d
0b
23
0e
0f
fb
05
05
f7
fd
0a
fb
02
04
fb
f8
01
fa
ec
ec
f0
e3
e3
f0
fc
07
0f
08
06
14
1d
03
02
07
06
fc
06
02
01
fa
01
fb
fa
f0
e9
ee
eb
ec
e6
ed
e6
f5
fe
0e
05
05
0e
f9
0e
fe
0a
17
18
01
08
fb
04
fb
08
fa
ff
f1
f6
ee
fc
e9
e6
f2
01
07
09
ef
f0
f4
fb
00
02
ff
11
0a
05
fd
f7
fe
08
03
fd
04
00
f1
f3
ff
fb
f9
0c
13
19
14
06
e5
d7
e3
f9
f8
fa
05
01
fc
f2
f7
05
fe
01
fb
fd
01
02
09
00
0c
0a
1d
11
0a
21
0e
09
e4
cb
d9
f3
f5
ed
03
09
0a
03
f7
0a
0a
ff
fc
00
06
0a
10
12
1d
1a
19
0e
15
19
0a
01
e6
d4
e1
ec
ef
f8
0d
0b
fd
0a
05
ff
05
08
06
fa
02
17
19
13
05
09
08
f8
0b
16
f9
01
ef
f2
04
f2
f6
0d
03
00
17
1b
fa
07
02
fd
02
fa
06
14
1a
fe
01
f6
02
f6
04
11
f4
f1
fc
07
04
07
fb
12
06
07
00
07
07
0f
09
08
0a
06
0d
02
fe
f4
03
02
03
f3
fa
f8
ef
e9
04
10
10
10
09
fa
ff
fb
f0
f1
03
09
ff
01
00
06
0e
ff
00
00
07
04
02
f7
f3
e2
ed
ee
07
18
1b
15
07
fe
f9
ee
e9
f4
0d
09
00
05
06
02
fe
07
05
05
fe
ff
0f
0b
fc
00
02
10
13
15
11
0d
05
05
f7
f8
f3
f4
08
04
0a
05
fb
09
16
0e
07
fd
0b
08
18
09
0c
15
16
14
11
09
ff
fc
fe
f1
eb
00
f3
fe
f8
08
ff
0a
fc
ff
0f
07
e9
fd
f9
07
05
0e
07
06
0f
0c
09
13
0d
f0
ee
ef
00
fa
00
f9
09
fe
fe
fb
fb
09
12
f5
f8
fa
ff
13
16
08
19
18
0f
05
12
1c
12
f6
fe
fa
f8
02
f9
f6
07
fd
0a
fa
0a
03
03
05
06
01
0a
04
18
1d
19
0c
ff
08
ff
06
fc
f2
f8
ea
04
00
ff
f6
fe
fd
00
fb
06
fd
04
0a
0c
00
ff
03
0c
fd
ef
ff
fb
fd
07
ef
00
f7
f1
0a
04
06
08
08
06
02
00
f9
03
01
f9
02
02
f7
00
f7
fa
ed
e7
ed
f3
ef
e6
e5
ee
fc
0c
06
05
ff
02
ff
fa
fb
05
fd
02
fc
fb
ff
fa
00
fe
03
fe
f9
fa
0a
04
fd
fe
fe
fb
f8
04
03
f9
08
03
00
fc
06
02
03
00
f9
0b
04
05
ff
04
00
fb
ff
fb
01
fd
f8
fe
fc
02
08
00
03
fe
fb
02
0a
01
00
fd
0a
fa
02
fb
0b
04
0a
fb
02
09
01
ff
f9
02
0a
0b
ff
05
03
09
f9
fa
fa
0b
ff
fa
fd
fe
00
09
02
fa
0a
f9
fd
06
ff
02
09
02
00
fa
03
f5
fd
fd
fc
00
07
0b
09
07
fd
07
fc
fa
03
07
fa
ff
04
fd
06
f9
01
fd
03
02
f4
f5
f4
ff
f5
03
00
f8
f9
00
05
fa
0a
f9
ff
06
f9
fb
fd
07
03
04
f8
04
f0
f6
f7
fd
02
f6
e8
ee
f6
f1
fb
f6
f6
06
05
f0
fe
ff
fb
fb
05
09
06
03
07
00
03
f9
fc
f1
ee
f6
f8
f6
f9
f4
e5
eb
e3
e2
ea
f6
ea
fe
fc
0c
fa
07
06
04
f9
fd
f5
fc
f3
f1
fc
fc
f8
ff
01
01
ff
ef
f4
df
e1
e8
f3
ea
05
fe
fd
f8
05
fd
fa
fb
fe
04
fc
09
ff
fd
07
00
fb
fc
00
f5
fb
f7
f0
e8
eb
ff
02
04
0c
09
09
0d
11
06
02
08
03
01
fe
ff
fe
02
fc
fd
ff
f8
00
0b
06
02
02
fc
02
0c
11
1d
1d
0c
05
06
16
fe
fc
07
fc
08
f1
08
fb
04
f3
06
fb
fc
fc
0b
0d
11
03
12
12
16
28
1e
11
25
26
1e
06
00
06
01
06
f7
ff
ff
06
ff
f1
f6
fd
00
ff
03
1c
12
0a
16
1a
1a
16
18
18
11
1e
1c
0d
05
01
07
00
fb
ff
0d
0d
0c
00
05
09
0c
12
13
17
1e
01
fb
0d
12
18
25
0a
fc
0d
19
0d
07
fc
ff
07
f5
f7
07
05
07
05
06
0c
08
0f
f8
f6
fe
f1
dc
ee
ee
ef
f4
e8
e2
f0
11
14
01
05
0a
fb
01
fd
f8
ff
13
17
03
0a
0a
07
f5
e3
f3
f6
de
e0
d5
e1
db
de
d5
de
0b
14
fd
fd
ff
01
fa
fc
0b
05
07
fb
09
12
08
fc
e8
f1
00
ff
f6
ed
e5
f7
e6
e8
d3
fa
fe
06
0b
09
09
05
00
0c
09
fe
06
02
fb
07
fb
fb
f0
fa
04
0a
03
0a
f6
e9
ea
f3
f2
fa
fb
08
09
05
0a
09
fb
07
02
fa
ff
fe
09
07
04
03
ff
f6
06
00
06
03
f7
f4
07
fc
fb
f7
fa
0a
0c
0a
fb
06
fc
01
03
fc
04
f8
08
0b
09
10
f6
05
10
11
15
04
0e
11
22
07
fc
f8
0f
10
03
04
fa
fe
04
00
03
02
0e
fa
02
08
15
08
f5
fd
1b
06
ff
11
07
0f
0b
0a
00
08
10
04
fc
ff
08
06
fd
04
05
06
0d
fa
f8
f7
fe
fc
fe
03
07
fd
fd
f8
08
02
ed
04
0d
0f
05
07
03
04
05
fb
0b
01
f9
ea
f2
00
f1
de
e9
de
ff
fc
08
03
f5
f6
f3
f2
e4
fc
0a
05
0b
08
f9
fc
05
01
f4
ea
ff
f2
ee
f4
ef
ed
f5
f0
f6
fd
f6
00
f8
f4
ec
ec
ec
f2
fc
0e
0b
01
ff
09
00
0b
f7
f7
f6
f1
e8
ea
fb
fb
f9
07
06
0b
03
fd
f4
f0
ef
f5
ec
e9
01
0d
0a
00
0a
fe
fa
fe
f9
03
f5
ec
e8
ec
05
02
02
15
0e
0b
07
08
01
ef
f3
f8
fd
f2
10
08
00
09
f9
05
02
03
03
01
fe
fe
ed
f0
ff
fd
07
06
02
fd
fa
fa
f8
0c
0d
0f
03
06
04
14
09
04
0a
03
00
0a
ff
fa
01
f6
f5
f3
fe
fe
fd
f6
03
0b
0a
08
18
18
20
11
05
11
07
0c
fe
08
f9
07
02
fb
0c
0b
fe
01
f6
de
e3
ec
fb
f6
03
09
09
00
08
10
ff
0c
09
1a
0d
06
fa
02
ff
0b
01
fe
fe
fd
fe
ff
f6
00
f2
f4
fd
f9
f4
ea
02
f3
ed
f2
01
08
02
08
00
04
fe
0b
03
05
00
fc
fb
07
fd
04
ff
ff
ff
08
01
05
00
07
09
07
01
05
00
fb
06
fb
0a
07
08
0b
fe
fe
f4
03
01
f7
f4
fc
fd
f7
fd
f9
fe
f6
03
f4
02
00
fe
fd
02
ff
03
f5
ff
f2
fe
fc
f2
f1
f5
fe
fc
f3
fc
fc
ff
f3
fa
f5
f6
fc
fd
f3
f6
f9
02
f9
fb
f5
fc
f2
00
f5
ff
00
f7
00
f3
fb
ff
fc
f7
fc
fc
06
fb
04
03
fa
01
02
08
04
05
fa
01
f9
06
fc
f9
f3
f9
f6
fb
01
fc
fa
f6
f2
f3
f5
fc
ff
08
fd
09
07
0e
07
06
10
0b
0a
0b
f8
02
00
07
f3
f1
f8
f4
00
02
ff
02
03
fd
08
02
06
04
10
0b
0f
12
10
05
08
0b
fa
fe
f9
f1
ec
fb
fc
02
01
f2
03
f1
03
ff
f8
fc
f9
02
fb
f4
03
09
11
13
02
01
00
0e
fb
13
09
f9
e4
e6
f8
00
f9
ff
fe
fb
fb
03
f8
f6
f2
fb
00
01
02
03
06
fe
fa
09
08
09
07
03
fa
e9
db
f5
ee
f7
ff
f3
f5
00
ff
ee
08
eb
fc
ed
03
02
05
04
0c
fd
02
0f
02
02
f4
f0
ed
f7
e7
de
f1
f2
f7
f5
f1
fc
f1
f0
fe
ec
00
f4
f9
fa
02
02
f3
0a
05
fd
03
05
fe
fd
ee
fe
f2
eb
f2
ee
03
f3
fd
fd
f4
f8
fd
f6
ff
fb
0b
05
0b
00
f4
01
fc
02
f6
fb
fe
fd
02
ff
f8
fa
f0
f3
02
f4
f4
f6
f1
fd
07
04
11
0c
fe
03
fc
fb
fc
f1
fb
f0
f4
f6
06
05
f6
fb
fa
05
e6
eb
fa
f8
fd
f8
f6
f7
02
08
01
0b
00
05
02
fa
fc
00
03
fa
ff
02
0a
01
0b
05
fe
0a
f9
00
02
fb
ff
f8
f9
f3
02
09
09
00
fb
00
f4
03
f3
01
14
0a
05
05
f8
09
f9
04
06
15
00
f8
f2
fa
f2
f5
f8
f6
04
fb
0a
fd
ff
fa
f2
f8
fd
19
1a
1a
0f
0f
00
0d
ff
05
05
12
fc
f0
fa
02
fb
f5
ef
f4
f9
f8
0f
0f
fc
05
04
0a
fc
1c
17
0d
12
0d
08
00
08
07
fb
f7
e6
ff
f3
f2
02
00
f1
f3
f7
fa
0a
0b
0d
03
fa
09
06
1c
0e
07
13
0a
f9
02
01
fb
fe
e8
e9
08
fd
f5
01
fd
02
00
ff
fd
01
0c
07
00
fd
0c
01
00
fe
fa
fa
ff
fc
01
f9
f8
fd
f5
02
00
03
f2
fe
f7
f4
fc
f2
f3
fe
07
0a
f4
fc
fd
fe
fd
f1
f7
ff
f7
f5
06
ff
fd
f9
00
f7
fe
ff
ff
fc
ff
f2
fe
f5
fd
09
0f
fa
fc
fa
f5
f8
f6
f5
ef
01
04
f7
06
08
fd
ff
08
f6
f4
f0
fc
fd
fe
fb
f3
f1
09
08
05
02
ff
02
fe
f2
f9
f2
fc
03
fe
0e
08
fa
13
1a
0f
f3
fc
fa
f3
fa
f5
f3
fb
06
fc
04
06
ef
fa
04
f6
ec
f7
06
04
03
03
12
10
1b
0a
17
0f
07
01
ff
fb
fe
f6
f4
ff
04
f3
07
0a
08
09
ff
f9
f9
05
05
09
00
0b
14
0d
16
00
12
0e
ff
f9
f3
ff
02
f4
fa
05
fe
f7
fe
07
02
fc
05
02
00
0c
00
02
fc
f9
0a
0a
19
10
04
08
fb
f4
fa
f4
f5
f6
f2
01
f9
f0
e3
f9
02
f1
f5
fa
f0
f8
f6
f7
03
0a
1a
10
0f
08
0c
02
fc
01
01
fc
f7
f5
03
f4
f8
f3
eb
00
fd
f9
fe
f8
f8
f7
eb
05
06
08
0c
09
0b
06
06
fb
f7
f5
00
f6
fe
f9
f2
f2
f9
00
f9
ff
05
05
0a
06
0c
0e
0a
04
11
0c
13
0c
0e
06
fc
fd
fb
01
f5
00
f6
fd
fa
f7
f7
f9
fd
05
fd
02
08
13
05
04
1b
0b
0c
16
02
f6
00
fa
f3
fa
03
01
01
01
f2
fe
fc
03
f9
fc
01
f9
f6
fc
fb
fa
fc
fe
fd
01
fb
ef
fa
fa
00
fe
00
ff
f8
f3
fc
00
0a
fe
fe
00
08
08
01
06
05
05
fb
03
05
08
0b
fc
02
05
00
03
0a
00
fd
fb
0b
08
fd
01
fb
fe
fe
0a
fc
03
0b
ff
08
ff
f9
fb
01
fd
04
07
04
08
fd
fe
08
f9
fc
06
fc
04
fb
03
fe
0c
03
06
07
05
0b
07
f7
04
05
fa
f2
f2
f2
f3
f2
f4
ff
02
f7
f5
fd
fc
fc
03
03
05
0b
02
03
04
0a
02
fb
f9
ff
f5
fb
01
03
ee
ea
f0
e6
f5
f0
f8
08
f5
f4
f8
05
04
00
0a
05
0c
04
03
fb
ff
fc
fb
f1
ea
e3
fa
fe
f6
f1
fb
e2
ed
00
f4
fa
fb
f5
07
0f
0f
0a
08
0a
0c
fc
fd
07
fb
ee
eb
e2
e9
fd
07
15
0e
07
fe
f0
f7
f7
ea
ee
f4
f9
fd
09
fc
06
09
02
06
0c
03
f7
ff
f1
e7
e3
e1
f7
06
0c
04
07
fd
f5
f3
f9
f5
f7
ff
0e
07
0f
0c
0e
0c
06
fe
04
05
f8
f7
ef
e3
e0
ed
f7
06
07
07
00
f5
fa
ff
02
f8
fd
fd
01
10
02
07
0c
09
04
07
fc
ff
eb
f5
fb
e0
e4
f7
01
13
ff
fb
04
fd
08
0f
0f
fb
07
f9
fc
fe
0d
19
fa
01
00
02
07
f8
f2
ed
fb
ed
e8
f9
0b
08
12
06
fc
06
fe
13
22
15
07
fe
fc
fe
14
09
04
05
fb
04
02
02
f5
f9
00
04
f3
f7
07
17
1d
fd
f3
f6
f9
0e
18
1b
10
03
ff
fa
10
15
0c
00
09
01
03
f2
ec
e3
01
02
f7
04
0e
16
1b
ff
df
e3
e3
ff
13
14
05
fb
00
fe
05
0d
0a
0b
01
fb
08
f6
e7
f0
fe
08
f8
00
11
1a
1b
07
e1
e9
e1
f4
0b
14
09
f5
f9
f7
f9
ff
fd
09
fd
f9
02
f3
f6
f6
fd
0e
0a
09
07
15
16
04
ee
e6
f7
04
0b
0d
ff
ed
f7
fa
ff
07
fd
02
00
ff
fd
02
fd
ff
02
12
0a
0e
09
00
05
00
f1
e7
01
0b
09
10
06
f4
ee
fe
0e
03
06
0b
fa
06
02
06
08
06
07
01
0c
10
09
0d
07
f0
e0
eb
f9
0d
12
fd
f2
f5
f4
ff
0c
02
fd
fd
08
01
f9
03
0a
13
fb
fa
03
03
05
0d
13
ec
e0
ee
10
21
1e
fd
08
ee
f1
fa
01
00
03
0a
fb
ff
fc
f5
04
10
08
fe
02
03
08
03
f3
e0
e6
0b
1f
16
19
04
f4
f4
03
ff
f3
03
01
05
ff
07
ff
fd
08
0f
07
f7
04
fb
eb
f0
e7
e8
fc
0a
21
06
08
fd
08
f4
f9
f1
02
f9
00
0b
fb
03
fe
07
0c
0c
08
fe
f0
f4
f0
df
dd
ed
07
0a
03
0c
0b
0a
04
e8
ec
fa
f4
02
0a
fc
04
0a
fc
00
f7
fc
07
ed
04
ec
f1
ee
f2
fe
fd
f3
08
05
fe
fa
ef
eb
f6
f2
00
02
00
0b
05
07
ff
f8
ff
f3
ec
f1
f1
f4
eb
ea
ee
f8
f3
fb
fb
fd
ff
00
ed
ec
fc
00
01
04
08
ff
01
0b
05
fc
f4
ec
ea
fb
fd
f7
00
fa
0d
f4
fe
f2
fd
06
f8
ed
eb
fa
01
03
08
08
fb
fd
fb
05
0a
fe
ff
f3
fd
f5
09
01
0c
0d
08
02
0a
03
0a
fb
f9
f5
ef
03
04
02
01
05
03
04
06
fc
fc
f9
f6
ff
f1
01
04
06
06
fd
f5
fe
05
f6
fe
f6
03
fb
01
fb
00
0a
fe
07
03
06
04
03
05
ff
fa
fe
ec
ed
dd
ef
ee
03
eb
ef
f5
fc
fb
02
03
ff
ff
fc
02
0f
fb
01
04
0a
04
08
05
0a
fe
0a
06
fd
f8
02
ff
ff
0a
f6
ff
0e
07
fa
fe
fc
f8
06
02
05
ff
04
03
03
0a
05
00
07
0b
05
05
0a
05
05
00
00
ff
08
00
06
fc
06
06
fb
0b
06
01
03
08
03
08
03
fa
ff
fa
fe
fa
01
fa
05
f9
02
06
08
09
05
01
04
02
fc
02
0a
07
01
0b
03
fb
fe
08
ff
03
ff
fd
05
02
fa
07
0a
06
02
02
05
08
fd
fe
fd
06
ff
06
0b
fb
00
05
03
f8
05
07
0a
0a
09
09
03
07
00
02
0b
09
ff
0b
0a
06
fc
ff
11
15
0e
18
19
11
06
00
fb
f8
fa
03
03
03
09
05
02
04
08
fe
02
ff
f3
f3
e5
f0
f9
ea
fb
0c
11
15
0e
10
12
0d
0b
00
fc
04
f8
08
fe
04
04
07
04
f5
f6
ed
e9
f2
ea
eb
ef
f1
02
0a
12
1e
16
ff
10
f3
0a
fa
fe
08
01
fc
00
00
04
02
fa
ee
ec
f2
fe
f2
f8
e8
f1
ed
08
06
1a
1a
0d
13
11
03
fe
fc
05
08
ff
fd
ff
01
01
00
f8
e6
ef
ec
f5
fa
fc
f6
03
0e
19
17
0f
12
1a
18
10
02
02
0c
0e
09
08
08
08
fa
fa
f5
ed
e5
ed
fb
f1
f3
02
15
10
18
21
18
11
0b
11
0f
08
ff
f4
03
09
fa
fd
fa
06
fb
03
f9
ea
ec
f6
f3
ef
f1
05
09
11
12
09
06
fb
ea
eb
f8
f5
e6
f1
f0
06
fc
fb
fb
09
05
ff
f5
f0
ef
f0
f2
f5
04
0f
02
03
03
fc
ee
d4
d4
e5
e0
e8
ee
ea
02
0a
f9
fc
04
f9
08
fe
ed
f2
f3
fc
f6
ef
0a
0a
07
fd
f9
fa
df
d5
e5
ea
ec
ea
ec
f0
03
fa
fa
fd
0a
fd
f7
05
02
fb
f8
f9
f2
f8
07
fe
f9
fa
f8
f1
f0
e0
f7
ec
f6
f4
ff
f9
f9
fe
fa
02
f9
09
fd
06
f9
f6
f5
f9
03
f8
f7
0b
02
fb
fd
f5
f3
f2
f2
f4
f9
06
03
14
f7
00
ff
06
00
06
05
fb
0d
f6
f2
01
f9
fc
06
f8
03
ff
fc
00
ef
f3
f3
ff
00
05
f9
03
ff
f3
00
fb
fd
06
02
0a
02
04
fd
05
03
f9
fc
fa
00
06
04
03
01
f8
f6
f6
12
07
06
00
03
02
ff
0a
09
fa
f9
00
f3
0c
0b
04
fe
fd
0b
fe
12
00
f8
f5
f8
f6
03
ff
15
09
fe
f3
f5
02
fc
02
0a
00
fb
fb
f6
04
fe
fe
f9
f1
fd
04
ff
ff
fc
f2
ed
f5
f1
02
0a
fd
fe
f9
00
03
fd
00
07
03
ff
f8
fa
04
01
fe
00
f1
f8
f4
f4
fb
07
f9
ef
fc
fa
fa
11
f9
fb
ec
05
03
05
0a
05
08
fc
01
00
07
06
10
05
03
ff
ef
fa
00
0b
fe
f2
01
f7
00
0a
05
fb
f5
01
08
07
04
05
f9
01
fc
03
ff
0c
08
0a
03
f9
0c
0e
0e
00
f8
fd
f5
02
00
0d
06
f9
fb
05
0e
07
07
05
06
00
fe
11
06
fe
ef
0a
02
ff
06
06
05
ff
f9
fb
04
0b
02
0a
0d
0c
05
08
07
08
01
05
ff
fd
0d
0a
0b
04
f2
05
05
13
13
15
0e
02
02
fb
f6
08
f9
12
0e
05
0a
13
0b
fa
06
fe
08
04
04
0a
0c
fb
e9
f6
f6
0b
00
10
06
09
03
07
05
ff
03
0a
05
f7
0e
08
05
ff
06
01
fe
06
f9
fa
0c
f5
e4
f8
f6
03
f8
14
0c
03
f8
fa
01
03
fe
07
00
02
06
02
fd
fb
03
fd
09
08
06
02
06
f3
f2
ea
ed
f6
f5
fd
fc
fa
f1
f5
02
00
f9
01
08
fd
05
08
fa
06
09
fa
fd
03
09
ff
ff
fd
05
f7
f7
fa
06
0a
01
f9
f6
03
03
fa
fe
0d
0e
0d
05
08
fd
fb
f9
fe
fe
06
fe
03
fe
fd
02
09
00
0a
0d
13
06
06
05
0d
ff
fb
07
fe
fe
04
08
08
fe
04
fb
04
0a
00
00
03
01
0a
fa
02
f9
fe
fa
fd
fa
00
07
f9
02
04
08
00
f8
00
06
08
03
fb
01
ff
00
fa
02
ff
fb
fb
f7
04
f7
fc
fd
fd
04
00
f9
05
05
f6
fa
03
f7
04
fc
fc
fc
fd
f9
ff
fc
f5
ff
02
00
fa
ff
f4
fa
fa
01
f9
01
fe
fd
fe
f6
02
fd
f6
f8
fe
f4
04
fe
02
fe
f9
f7
f8
f5
f4
fc
00
f7
01
04
01
02
ff
09
fb
06
06
f4
fd
fb
fd
fa
f5
00
f8
f7
f5
04
03
fd
f9
00
fc
fd
06
f7
02
0f
11
1a
1a
1d
22
1d
15
18
16
05
09
f8
ee
ef
f5
04
fc
02
fa
f9
03
fc
f7
01
0b
0f
14
17
26
26
27
1d
18
1d
20
17
22
04
0d
f3
ef
f6
f4
f6
f9
f6
fc
fc
f7
01
06
f8
04
02
08
0b
21
11
1d
22
19
0c
0f
15
07
06
05
0b
06
fb
eb
0d
fc
02
f9
03
fe
01
f9
02
fc
09
19
13
24
1f
1f
0f
10
18
0e
0e
0b
0d
10
13
13
fe
01
01
f9
f2
04
05
f7
05
fc
03
03
06
21
0a
16
0d
11
10
1a
0d
10
0d
17
12
0b
02
11
07
f3
f0
04
fa
fc
fc
f8
fd
fd
ff
ee
fd
f9
01
f9
f3
fd
0c
10
06
0c
0a
0e
0f
07
f2
1c
17
0a
fd
06
fa
f5
f9
f8
02
f9
f9
f4
f2
f6
f4
f1
ec
e4
e8
ee
eb
ff
fd
03
05
02
06
21
21
fb
09
ff
04
05
ff
f7
06
01
f2
f5
f4
e4
de
e4
da
d5
da
df
de
f9
fb
f7
00
01
07
24
06
fa
fb
fd
f7
f9
fb
fd
01
01
eb
ee
e9
dd
ca
d8
f0
e7
eb
e9
e8
f2
fd
f6
fb
fe
0e
09
fc
f5
f7
fd
f7
fc
fb
fe
fe
fb
e4
df
d8
d9
d6
f2
f7
f8
f1
f4
f9
ff
ff
00
0c
11
08
ea
ea
f1
fa
f4
fc
01
f9
f9
04
e8
ee
e0
e9
e8
f3
f1
f7
05
09
03
f8
06
f9
07
03
ff
09
ef
e9
fd
03
02
fe
05
f8
04
fd
f1
f5
f7
0c
02
05
04
f9
f1
fe
0b
08
fc
f4
f8
fe
f3
fb
f8
f8
fd
00
fe
f4
f8
fe
fa
03
07
fd
06
0d
05
11
10
f2
fc
07
01
0d
01
f6
01
f6
ec
ff
f3
04
fc
05
f9
f6
04
fd
f8
0a
09
0f
0f
fb
09
0d
0b
ee
f0
fc
fe
07
03
ff
f5
04
03
02
fa
fb
05
05
05
00
04
04
fc
0f
18
08
0c
00
fd
fd
f0
ef
f7
fa
01
09
05
06
f6
ef
f3
fd
e9
f7
ff
0c
08
f6
fc
04
01
0e
0c
17
06
08
05
ef
f9
f5
f7
f3
fe
0e
15
05
ff
01
f6
f0
ea
eb
fd
05
06
01
04
fa
f8
fe
04
0d
06
fe
01
fa
fc
f9
fa
12
11
16
0c
0a
03
0b
fa
f1
f0
f9
f5
f7
f5
f9
fa
fe
06
03
0e
0f
0b
10
04
f6
ff
08
09
13
00
06
15
06
0d
fc
04
ed
f0
01
ff
fb
fc
fe
fb
04
fe
09
00
f9
04
0c
07
ff
03
0d
0c
0c
0b
ff
fe
04
12
10
fe
fd
01
08
02
f9
01
03
f9
fa
08
fd
05
02
01
13
0a
0d
08
03
00
01
fb
fa
fb
02
05
01
0c
00
07
0e
07
fc
06
04
f8
fd
04
05
01
fc
fb
0b
0a
16
07
05
fd
04
f8
fc
fc
0d
01
01
15
07
0a
13
ff
07
fe
fc
04
f5
03
fb
fb
fb
09
ff
0a
07
02
01
07
13
12
02
05
14
13
10
0d
00
04
04
ff
01
f8
01
01
03
02
03
f5
f7
0e
0d
15
14
12
05
0f
02
fe
08
06
0f
fd
0a
03
f5
fa
fe
00
fd
f5
f9
03
fe
01
fc
03
00
ee
03
04
fa
fe
fd
03
06
fc
ff
05
fe
fd
fc
00
04
ff
fe
f9
fd
fa
01
02
03
fc
fa
f6
05
05
fa
01
fe
f9
04
06
02
f9
f8
f5
fb
f4
fb
ff
f8
ff
f5
fd
ff
f4
03
fd
05
f9
07
f9
06
03
f8
f6
01
f7
ff
02
06
04
fb
ff
f9
07
07
f7
06
00
ff
02
07
01
f9
03
f9
00
02
00
06
fc
fd
00
fc
f9
fa
08
03
02
04
fa
fe
fe
f8
06
ff
fb
fb
f7
03
07
ff
f8
01
fc
f7
04
02
fd
ff
03
01
fa
00
fe
05
fe
f7
fe
fa
02
fc
fb
05
f5
05
ff
04
fc
03
06
f6
03
fc
03
fc
fb
f8
fc
ff
07
fc
04
0a
09
06
10
0f
0a
f8
fb
ff
f9
04
f8
06
01
04
fe
ff
07
00
fa
01
04
02
02
0e
15
12
1e
16
12
1d
1a
1a
0b
f8
ed
ea
f9
f8
f1
02
fd
01
01
f6
01
07
fd
fe
03
0e
03
00
05
09
05
01
fa
f4
fe
0d
0a
0c
13
0f
fc
f6
f9
07
03
08
02
00
fe
03
fb
f1
f7
ed
e9
ed
e7
e1
dd
e4
ee
02
0a
1b
13
08
fe
03
f7
ef
f2
f8
00
fd
fc
f9
00
02
ff
f2
f2
ea
e1
ea
e3
e0
e8
f7
ff
08
11
1a
22
0d
ff
f9
09
03
f8
fa
f5
fc
07
fa
f9
f7
f5
f3
f0
ef
f4
ed
f4
fa
fe
09
06
12
20
27
1b
21
18
04
0a
0f
06
ff
fe
04
06
01
05
f7
f5
e5
ec
eb
e7
ea
fc
07
05
08
07
00
09
03
0d
1b
1e
16
16
10
0e
00
fb
f7
f6
fb
fc
00
e7
e0
f1
ec
f3
04
10
10
0a
06
f9
f8
f6
fa
08
04
03
ff
1d
22
11
00
ff
fc
02
f9
04
fb
f7
e7
f1
f5
fe
05
ff
ff
f7
ee
06
02
ff
f7
01
0b
06
13
0e
1b
16
08
0a
f8
03
f5
05
fa
fe
f1
ff
0a
ea
08
fb
ed
ea
05
14
09
f5
00
01
0c
0b
07
10
16
0f
f6
fe
f7
fc
f9
f8
04
09
fe
08
fb
0c
09
fa
f6
04
12
1d
fc
fb
e7
f2
fd
fc
fb
0c
13
fd
02
fe
00
ff
02
fb
00
03
11
0d
0f
07
fc
f6
fd
0d
1d
0a
f7
ec
ef
f8
ed
f1
0b
0e
fe
08
07
05
fe
01
06
f7
f6
04
21
0a
0c
03
01
08
0c
11
0b
f9
eb
f0
f6
ef
eb
f4
f6
00
0a
06
00
02
fa
f9
01
03
06
05
13
0e
00
10
0d
0c
08
0d
fa
e7
ec
04
fe
e9
e1
ef
e3
f6
01
07
f6
fc
f6
04
00
fe
0b
05
10
0e
0b
16
0a
06
0f
f7
dd
db
fa
07
00
e8
ee
ee
e5
f6
ff
00
f7
f9
04
ff
f9
06
0b
fd
03
15
17
17
08
0a
f5
e1
d4
e7
0d
14
09
f5
f2
ed
f4
00
fd
fd
09
05
f8
f7
fa
f5
f7
01
04
08
02
10
09
0a
ef
e0
ee
fa
16
0e
0c
fd
f8
f5
fd
08
fd
01
f3
04
02
f7
f7
04
05
05
0f
04
07
00
04
07
f4
ed
fc
02
1a
09
04
fc
f9
fd
f2
f9
fe
fa
f4
01
04
00
07
fb
06
04
f4
0b
08
08
fd
08
05
07
0f
11
17
00
fc
00
01
f3
ed
f8
fa
f6
00
fa
07
fd
01
06
0e
ff
f5
04
02
ff
0e
0c
16
1b
15
09
00
f1
f5
f9
fd
ee
e0
fe
f1
04
f9
08
01
04
fc
08
00
02
03
04
0a
15
13
1a
15
09
0d
fd
f2
ed
01
02
f1
ef
fa
05
fc
03
05
f9
fb
ff
fb
fa
00
ff
ec
fc
0a
11
10
0f
0f
17
06
fe
f6
f6
fa
00
f6
01
f8
05
00
fe
f7
f8
f7
04
fa
fd
06
f1
00
05
0e
12
08
05
fa
ff
f7
f3
f9
08
fc
0b
09
0d
f5
f8
fc
f8
02
05
fa
f8
02
06
f8
07
02
09
ff
0b
05
0b
14
0d
0e
10
f9
fb
04
00
07
fe
fd
f6
fe
f6
03
fc
f7
f8
fc
f8
05
ff
fc
07
00
05
fa
fd
02
04
01
f9
04
f9
f9
02
07
fd
fb
fe
06
f9
05
f9
04
f6
fd
ff
fb
f7
fa
fa
01
01
f7
ff
f4
fe
f3
03
f8
f2
03
f7
fe
f8
fc
fb
02
02
ff
fd
01
fb
f8
fd
f6
fe
f9
fb
00
f1
02
f5
f3
fa
00
f2
02
fc
02
f5
f8
fb
fa
00
03
fe
f2
ff
fb
02
00
fe
f7
f3
f4
f8
f2
00
fe
f4
f6
fb
f0
02
f4
fd
f7
fd
f4
fd
f5
fc
f9
f7
f4
f4
ff
00
f6
01
fc
f8
fa
fe
ed
fa
03
f7
f7
f2
ff
ef
fb
fc
f5
fb
fd
eb
f9
ff
01
ff
fe
fa
ff
fc
f8
fa
02
00
f6
f8
ee
ec
f9
fd
fe
07
fe
0e
ff
0f
15
0f
fa
09
f9
00
ff
fa
f6
01
f3
f1
03
f8
ff
f0
e2
e3
e0
f3
fc
fe
14
0c
13
0e
02
06
10
01
0c
0d
13
fb
f7
fb
04
f9
f5
f1
00
f1
eb
e8
eb
db
f2
f4
fa
00
18
11
04
0a
0e
0e
0d
19
1c
0f
06
ff
f7
04
04
f8
f4
f5
01
01
ef
ee
ea
ed
ea
03
f7
12
08
0a
07
07
12
0a
02
15
11
06
0f
00
fb
fb
06
f2
f4
f1
f7
f6
fb
e9
ee
fc
ec
03
fb
0a
0c
ff
07
f9
00
fb
02
10
11
00
fd
03
01
0f
01
08
02
f6
f8
fe
ee
f4
f8
03
fd
04
0f
16
07
02
f4
00
ed
f8
f3
fb
fe
f3
fb
01
06
11
0e
f8
f5
ff
01
fc
ee
03
08
11
04
0c
0c
03
04
00
f2
f8
ee
f6
ea
01
03
ff
0b
00
11
13
0a
06
01
fb
f1
fb
f8
05
1d
1b
0a
09
f7
ff
01
07
05
02
fa
f7
ec
f6
07
06
0a
0a
10
1f
14
fa
f2
00
fd
fa
f7
08
09
0c
0c
ff
04
fb
fd
f5
fa
fd
f9
ff
0a
f7
02
02
05
04
0d
0b
06
fa
f6
ff
00
00
fa
00
12
04
0c
00
09
00
fe
05
fe
0c
0b
03
04
f6
03
03
fc
05
fe
fe
fe
04
f8
f1
f9
fb
fe
fe
fb
02
fa
fd
f1
0b
fe
fb
0d
08
05
0f
f8
f6
f3
f5
f0
fb
f2
fc
06
07
f7
fb
01
01
f8
fc
ee
0d
06
f6
05
00
0a
fc
06
00
f5
08
f9
fe
fd
ed
e8
ec
f1
01
05
f7
f3
01
fa
f7
06
01
fe
05
f3
f9
02
06
f9
fd
fe
02
f8
00
fb
fd
e7
ee
f0
fc
03
f8
ff
ff
f9
f9
f1
ee
f5
01
05
06
f8
fb
fe
04
fa
f8
05
ff
07
f6
f6
ec
e1
f4
f5
fb
fc
09
09
03
fd
fc
ff
f6
ef
03
05
1d
12
04
0b
02
fa
fe
f3
00
f4
f8
f9
eb
f8
02
04
10
12
16
06
ff
f8
f5
fc
f9
f0
f4
f8
09
0c
0b
0a
fe
01
fe
01
fc
f0
f5
f3
f6
f9
03
0a
17
14
05
04
03
fc
fe
fd
fd
f5
00
06
07
07
10
05
06
08
fd
fc
00
fe
ff
f8
03
04
0c
0b
0f
12
10
04
f8
fc
f2
f9
f9
fe
0f
0c
10
07
05
11
04
01
fd
08
ff
01
fd
0a
02
fb
08
10
09
1e
04
06
f3
f4
f1
fd
f8
04
09
06
0d
0b
06
14
fd
00
f8
fb
f9
f5
f8
01
02
f8
05
fd
02
08
10
fd
01
fc
00
fd
f3
f8
02
08
fe
05
0a
02
ff
01
fb
05
f9
fc
09
fd
fa
01
17
11
0f
11
0c
fe
fb
f7
fa
f9
fe
fa
ea
e0
e1
ef
f2
f1
f6
03
0f
fe
f8
01
07
03
1d
0f
0b
09
ff
0b
ff
f8
f5
f9
f6
f4
00
fa
ee
f1
fa
ef
ed
e6
fb
fc
03
fc
02
0e
08
1f
07
01
07
ff
04
00
00
f7
f5
01
fd
f9
f1
fc
f3
fe
01
f2
fb
fc
08
05
0c
fe
05
04
ff
0b
02
fb
02
f7
02
f8
fc
fd
f3
f6
fc
f7
01
fd
ff
f3
f6
00
f3
f4
f6
fb
fd
fd
f1
f3
02
f6
fb
ff
f8
fd
f7
fb
00
f5
fc
f8
fa
fe
ff
08
fd
fc
07
fa
f8
fa
f9
fc
08
08
02
fa
fc
07
fe
02
01
06
f9
fd
07
08
04
f9
09
08
fc
06
f9
fc
fd
ff
ff
04
fb
f6
f5
f6
fb
fe
07
04
05
fb
01
ff
f7
02
06
fe
fc
05
fd
03
ff
07
01
f9
ff
fa
fb
f7
f4
ec
f3
f5
ec
f8
04
fd
06
fe
0a
ff
fd
01
f9
00
06
03
fa
05
fd
02
00
f7
03
fa
eb
f4
e9
ef
df
de
fb
f4
fb
ff
05
09
07
09
0b
fa
fd
03
02
03
fc
01
07
ff
f7
07
0b
04
fa
04
02
01
09
fa
f1
f5
02
f4
f7
0d
0a
17
18
11
0a
fb
f7
00
04
05
05
02
f7
09
0a
fd
02
22
2e
11
01
dd
d8
c6
de
fa
08
05
10
25
2a
19
06
06
f8
01
fc
09
06
f7
ff
07
10
08
10
1a
1c
0e
f4
db
d1
b4
cd
f5
11
1d
11
0d
0b
15
08
f9
02
fd
fa
fe
fb
03
f0
08
06
fe
14
20
21
10
f6
e5
cf
d0
f0
14
22
21
17
0b
0f
0b
07
f8
06
02
f8
07
00
fa
fc
0f
02
06
01
23
1d
15
07
da
cc
d9
f4
1a
1e
10
11
04
02
fe
fb
01
02
07
fd
01
04
ff
fc
f9
ec
f0
0b
1a
24
19
08
d1
bf
c4
0a
07
10
fa
01
05
eb
e7
02
03
00
05
04
04
03
f9
ff
00
ef
f1
ff
10
1d
14
0e
d2
a6
d4
f6
06
02
fb
e7
f2
f8
dd
f1
07
03
02
04
fc
fd
f8
04
ff
f3
f6
00
1d
1b
23
19
d1
c9
dd
01
02
03
f1
d9
f0
e9
e1
e7
fe
fc
fd
06
00
01
f9
f4
fa
06
01
f6
06
1c
2a
15
03
de
fa
03
04
0d
fc
ff
03
01
df
f7
f6
f9
08
07
04
fd
f7
f1
01
05
02
f9
08
07
03
09
fc
e9
09
00
08
12
07
13
10
13
fb
f3
f2
fc
fc
07
fb
fd
02
0d
1b
14
02
f2
00
00
fc
fe
04
fd
03
fb
0c
07
10
13
1c
10
ff
08
f2
fc
fb
0a
02
08
11
13
10
06
ff
01
00
f6
f9
f6
01
03
01
fa
f5
06
ff
f2
01
00
06
f9
f9
03
06
f9
04
fd
0e
0e
0b
05
f6
fe
f0
fb
e9
03
f7
06
04
07
ef
f4
04
f2
fc
e5
e4
f4
ef
f6
f8
03
fa
05
0b
1a
02
08
f6
fe
f6
f9
f0
e4
e9
f5
f7
00
fb
ff
fe
f7
ff
ee
f0
09
ff
08
fd
06
05
06
02
15
00
f6
fa
f8
fe
f4
e1
e2
ea
03
f1
ff
01
09
07
f0
fa
e8
f8
08
fa
02
04
05
04
07
0a
06
f3
f4
f1
fa
f8
fb
e3
df
ef
09
ee
fc
fd
00
f6
fb
f1
f1
f8
05
06
fe
fb
f8
fe
03
f8
fa
e5
eb
f7
f6
f8
00
f7
fd
fc
f7
03
04
08
0a
fb
fd
f6
f5
fd
f8
05
09
08
05
fc
00
f9
f4
fb
00
f3
f9
07
00
04
f4
fa
ff
02
00
05
08
07
0c
0f
0c
0d
0a
06
ff
fd
07
08
08
01
fd
f9
06
08
02
09
f2
f8
ed
05
09
0b
05
0c
0c
0a
0d
1e
07
08
fa
02
08
05
08
09
05
fa
04
02
fa
07
07
06
01
02
0a
08
08
15
0f
03
02
00
0e
17
06
ff
f1
f9
fe
07
ff
07
01
fe
fd
07
02
f7
fc
06
f1
02
0e
1d
0d
10
10
15
10
03
f4
f8
fc
00
fc
fb
00
fd
07
ff
05
fb
03
fb
f3
f5
fb
ef
ed
ee
02
0c
fb
1b
12
02
ff
e2
eb
ee
f3
fc
fe
07
fd
f8
01
fc
00
f9
fa
f9
f8
f4
f6
e9
d7
ed
e5
e5
d2
e3
ea
e0
dd
df
ec
f4
01
01
00
08
05
06
06
05
04
00
02
09
08
04
ff
f9
f9
fc
00
fe
00
01
f8
fc
f6
f3
f9
06
f9
ff
04
fe
09
00
05
fc
f8
ff
06
f9
fa
01
fd
01
fd
06
fd
fb
ff
06
04
fd
fa
03
07
fe
08
06
08
f8
01
f9
05
f8
06
ff
05
fb
02
05
fc
06
fd
fc
00
08
f9
fc
f8
fc
f9
06
fe
07
ff
01
08
06
fa
fb
05
f8
fc
08
fc
fa
04
fa
0c
0d
0d
0f
12
0a
09
0f
05
15
0f
0c
ff
02
0a
fc
01
06
fd
fb
f9
fb
09
fc
ff
04
fd
07
00
03
02
12
02
00
1d
16
11
0c
05
0a
11
13
08
04
0a
fe
03
00
f9
03
fb
08
05
f9
03
00
00
f7
08
f6
ff
f2
f8
f7
00
02
03
05
07
0a
08
07
0a
06
06
01
07
05
fa
fa
fd
09
f8
f8
07
01
f4
ec
f8
ea
f2
f4
0c
01
01
01
f9
fd
ff
1d
18
02
03
05
ff
05
02
0b
10
16
12
0d
04
0e
fa
f6
f1
f6
02
00
fa
f2
f4
03
f9
f0
fd
0d
0f
04
0d
f9
fc
06
fd
0a
06
11
08
11
13
14
f7
f7
f0
f6
01
ea
f1
f3
e8
ed
e1
e4
e3
e3
03
0d
0c
fa
fb
f9
fd
fd
0b
0b
04
08
fb
f5
f5
f6
f2
ee
df
e3
d9
da
e1
e1
ea
ea
e3
ee
fb
00
f8
fd
fb
04
01
f9
fa
f8
f0
f0
08
ef
e7
eb
ef
df
eb
e3
da
e6
ec
ef
f8
fe
fd
ed
f9
07
fb
fe
fe
02
06
f9
ee
e0
eb
f2
f3
dd
da
e6
e5
f0
ed
03
f7
f2
05
f8
f6
f6
f8
f1
07
0d
00
ff
ff
04
0b
07
f0
ed
ea
f8
f1
ec
f4
f4
06
ff
0a
08
04
f5
fc
08
f2
f7
04
f0
ea
fb
f8
07
04
fe
09
ff
ee
ea
e8
f4
04
07
09
1b
20
18
12
08
11
04
ff
fd
fd
08
01
f3
fc
ff
f6
fb
06
05
07
00
f8
00
f5
07
0a
08
16
23
2b
21
0d
0a
1f
0b
0e
07
08
08
0c
05
14
0d
fd
fd
fb
05
0a
03
03
0e
08
10
10
12
12
16
24
03
04
0f
1a
05
0c
1b
1c
10
0e
0f
fe
ff
06
fa
08
fb
02
03
08
0c
11
0b
06
02
14
19
15
03
ff
12
09
16
15
1a
1e
15
0c
16
0a
06
01
fd
02
00
00
04
02
15
1c
10
13
04
07
09
01
f9
00
0b
06
19
12
1f
1a
23
1a
07
09
0e
fb
fb
09
09
fa
0e
08
02
0e
0b
00
06
06
fb
ee
f9
f7
04
0d
06
17
07
15
1f
0f
11
fe
05
fe
05
02
fa
08
10
00
0d
03
07
fc
fa
f5
f3
ff
ff
f9
00
03
06
05
00
0b
02
f4
ff
f8
f9
01
fb
ff
05
06
06
00
02
f6
ef
f4
fc
00
0b
f8
fa
ff
f4
0b
07
01
f4
f4
f2
f9
fe
fb
00
05
06
0a
04
03
09
f2
e7
e2
f0
ec
f3
02
fc
f3
f9
fe
03
00
07
f5
e5
ed
eb
ee
ed
f7
f6
08
01
06
00
fb
00
fa
f1
eb
f3
fd
fb
f9
07
09
f8
f7
f6
fa
f7
f6
e8
ed
ed
f2
f4
f8
fa
05
04
01
ff
fd
06
f7
f5
e8
e9
00
f3
02
12
05
f0
ef
ef
05
ee
ee
f2
e6
eb
f2
f6
ff
f4
03
fd
04
fe
f9
04
05
0a
f2
f4
02
06
08
fe
fc
fb
fd
f6
f6
e4
e2
e3
d6
ee
f5
ec
fb
f8
fe
04
08
f9
01
00
01
ff
0b
08
05
10
0a
13
07
0b
ff
f3
0d
fe
f1
ed
ee
f8
03
fb
ff
0a
fc
ff
09
07
fa
07
fd
fd
07
f7
fa
00
06
11
11
06
03
fe
fd
f0
e9
f5
f1
ff
0f
0a
04
fa
fb
09
f9
fd
fe
fd
fd
ff
fc
f2
f4
f5
fa
f1
ee
ea
ec
ed
f5
e3
f0
f3
f0
fd
00
07
07
fa
03
05
06
03
fe
01
00
fb
07
01
04
04
f6
f7
07
f7
f9
f8
00
fe
f7
07
02
fa
fb
f9
02
03
f9
08
04
fb
f8
fa
06
08
fd
f8
ff
08
fa
04
05
02
f9
00
09
fa
ff
ff
00
08
03
04
fa
09
f8
01
05
01
00
03
07
f8
01
06
04
07
05
fe
ff
fd
f9
04
0c
07
fc
ff
fa
05
f9
fc
04
04
07
00
fc
08
07
fa
02
f8
08
f8
06
fe
06
02
09
fd
fd
03
0e
0f
fc
02
f8
fb
06
08
02
fb
00
f8
04
00
f8
02
02
02
02
00
02
0d
08
00
0c
08
fe
fa
05
11
11
08
07
fa
f1
04
02
08
01
01
0a
02
01
fa
09
06
03
fc
05
f0
ec
f6
f4
f0
e9
e7
f6
f2
14
0c
10
04
fd
01
09
fc
07
f8
f8
03
fe
00
0b
ff
07
03
fb
fa
f4
e7
e4
ef
eb
f1
f3
ee
ef
07
0e
04
0a
fb
f6
f4
03
f9
02
fb
08
0d
02
17
17
00
ff
12
0a
f9
fb
03
00
06
06
f1
00
03
01
01
0f
f8
ff
01
03
08
fb
08
fe
11
05
07
0d
0c
11
15
17
11
09
1e
18
10
0d
0e
fe
0b
11
01
0b
fd
0d
f8
ff
fb
fe
01
03
03
0d
07
fa
0e
12
20
24
25
1a
23
29
20
0a
0c
0c
16
05
f3
11
10
ff
f6
fe
07
fd
07
05
10
09
0d
11
14
1a
24
20
1b
1d
1d
13
1b
13
17
0a
ff
01
eb
18
08
f7
f9
04
10
04
fe
06
05
f8
03
0a
04
0a
09
07
01
e9
e9
e6
03
05
0b
f7
f3
ee
e4
fb
f1
f4
07
05
00
fc
04
ff
f7
e4
f7
ff
e4
ee
e5
e4
d3
b0
bb
c8
ef
fc
08
06
f3
e7
eb
f4
f9
f9
f9
fa
02
0a
06
fb
f5
e1
e4
da
d5
d0
cf
c2
bb
b6
c8
e1
f0
00
02
fd
ef
ff
ea
ec
ec
f1
07
0b
07
05
07
00
f6
e2
c6
d9
ce
cb
bf
c2
de
ee
f4
fd
f8
00
06
05
ea
f5
ea
ec
ea
03
02
00
04
f8
06
0a
f2
ef
cd
d8
ea
e0
f0
f0
f6
05
0a
00
08
ff
07
fb
fe
f2
f8
f6
f7
08
07
01
fd
f9
f9
fc
f0
e8
ee
fc
10
08
02
ff
fa
05
05
00
05
f9
02
fa
fe
f7
09
00
08
0d
05
04
ff
02
05
04
f8
f9
0a
29
2b
16
13
08
fb
08
00
04
f4
fb
f5
f8
01
02
09
fa
0c
0c
0a
fe
ff
07
f9
05
00
0a
0d
1c
19
0d
01
0e
0d
04
02
01
ff
e9
f3
f5
05
03
f7
fc
ff
01
09
04
fc
fc
fa
06
08
04
1c
16
12
0e
ff
ff
07
07
04
fd
f7
fa
fd
05
0c
09
f3
06
04
08
07
fe
0a
09
06
05
05
13
08
0e
06
0e
12
03
fe
05
f8
ec
f5
fb
f9
f8
06
0e
07
02
ec
ff
0d
ff
fc
fc
f9
04
04
11
10
06
04
04
0a
01
ff
ed
ed
f2
03
01
00
ff
02
fc
fb
e1
f4
f7
00
09
03
fb
fe
06
0b
02
08
07
f1
ef
f7
05
f0
f2
01
f8
03
05
01
09
07
f2
f5
f2
01
07
06
09
f9
fb
09
09
04
07
11
03
f4
f5
ef
f2
ef
f6
f5
03
04
0e
0a
01
0d
f4
02
fd
fd
0f
01
08
fe
f8
fd
00
06
09
15
1e
0b
eb
fd
e4
fa
f5
f3
f3
05
05
f6
f4
fa
f4
eb
f4
fd
08
05
01
fc
09
ff
fd
fe
07
0d
07
f8
f0
fc
f6
f2
fc
fa
05
0e
00
01
f2
f6
ef
f6
ff
f9
00
04
fb
ff
05
09
f8
00
07
fa
fb
08
08
0a
0d
03
0e
02
0d
15
12
0a
0c
07
fe
f6
00
ff
fc
f9
06
00
fc
05
02
f9
00
f2
f0
02
fc
00
ff
02
fe
05
0a
14
14
0e
15
06
02
f1
04
04
07
ff
f8
fe
08
08
fa
00
03
fc
fe
07
07
fc
06
01
fa
01
fe
01
ff
fe
fa
07
f4
fd
fa
03
fb
07
01
fa
03
00
fe
0b
0c
0c
fd
04
0c
03
fd
0d
05
01
0d
04
06
0c
0a
fe
fd
0e
0a
0e
fe
08
02
00
fd
0c
fd
08
fd
04
03
ff
05
0d
fd
08
0b
0c
ff
07
06
ff
04
02
05
04
01
01
0d
08
09
fd
09
09
04
07
fe
06
01
01
08
0e
09
11
05
0a
13
13
11
02
07
0f
0f
03
ff
09
0e
07
fd
0d
04
02
ff
ff
09
04
07
07
02
fc
ff
00
f1
f4
f1
f1
03
0e
f3
f8
e9
f7
00
0c
fc
fb
0d
0a
fe
0a
01
05
0a
0d
ff
09
05
05
02
f0
f9
fc
f8
f3
0b
0b
03
08
07
f4
f1
fb
f8
fe
0d
fd
07
00
ff
0a
06
0d
03
07
fe
fb
f4
fb
f4
f2
f4
03
fa
06
fe
0a
00
0a
f8
04
fc
f7
08
06
0c
09
01
0a
ff
f3
f6
f3
02
00
e9
f1
fd
f4
03
0b
08
0a
01
ec
fc
06
05
ff
fa
05
fd
00
fe
08
fd
f9
ed
ef
e6
ef
06
f1
f7
f7
00
05
0d
00
ff
fb
f6
fd
01
0b
0c
fb
f8
fc
01
08
02
01
05
00
fa
f7
fc
ff
f9
f0
f6
ff
ff
10
13
08
fd
e8
ed
f2
fc
01
f7
f3
fe
0a
0a
0b
fe
00
09
00
fb
f6
f7
01
fe
f1
ff
05
08
06
08
19
02
e5
ec
ef
ec
03
00
fe
05
fe
00
07
08
07
07
fb
ff
fb
f4
fe
f6
f5
03
17
06
02
18
20
06
ff
e9
ec
ed
f3
fe
fa
f4
f2
01
ff
0d
05
00
08
fc
fe
f5
05
fb
01
15
0c
1a
09
0c
18
19
01
f5
fa
f2
fa
f5
e4
f0
f3
0a
0a
0b
fe
fe
02
09
08
fc
fc
0b
12
0f
11
09
07
10
11
19
13
0e
ed
f0
ee
f5
f3
ee
fc
f8
fe
04
0e
fe
04
06
fd
f8
f9
04
09
03
0e
05
09
0b
1e
21
17
08
ed
e8
f7
f5
f9
f1
f5
02
ff
fe
0e
0b
00
0a
02
fa
f6
f6
00
f5
ff
fc
11
07
0b
1b
f9
f4
e6
e1
e6
f1
fc
fd
07
ff
ff
0b
ff
07
fe
0a
f2
e4
f3
ee
fa
f4
fd
0b
12
0a
0e
0b
f3
d9
d8
cc
de
ee
03
02
00
fe
0d
01
fd
00
fe
03
f0
e7
ee
ff
f5
f9
0e
0d
07
0d
02
10
dd
cf
cd
e2
d7
e9
fd
f9
fd
03
fd
05
fd
05
fb
02
ed
e6
e7
ea
f9
13
ff
09
02
0c
f9
eb
dc
ce
d4
f4
f9
ef
ef
07
05
0b
00
0c
06
08
03
fd
f0
d9
d9
e7
13
0a
f9
01
06
fc
ef
e4
d4
e2
f4
ff
0e
00
f2
01
0f
05
04
0b
0c
01
04
ef
e7
e2
e5
eb
0e
0d
06
05
02
f1
e9
ed
e0
f1
02
00
0c
fe
f1
fe
ff
03
06
05
09
06
04
fa
e2
e1
f6
f3
fe
11
0b
18
f9
e8
f8
fa
03
09
02
02
03
ee
f2
05
06
0c
0a
fd
0e
0a
06
f1
dc
e6
f1
0e
fd
ff
f8
fe
04
f5
fd
06
01
0e
04
0c
0e
ed
f7
04
0d
0b
ff
01
fd
fe
03
f3
fc
fc
f7
03
00
f7
fa
f1
07
00
15
0a
05
15
04
14
11
00
00
fc
00
03
0b
05
01
0e
fd
fb
f1
01
04
fc
f5
02
ef
03
06
04
0c
1c
19
08
15
11
12
06
03
0c
0f
00
09
fd
02
06
f9
f9
ff
00
00
f3
df
eb
f8
f3
de
f0
07
08
00
0b
08
fc
0c
15
0b
0c
fe
0e
02
07
00
05
0e
0a
0b
01
08
00
f9
eb
e5
e5
e6
fe
f4
f6
0f
01
fa
00
03
0d
fc
05
09
05
02
0d
02
ff
02
0f
08
11
14
02
11
11
02
03
fb
05
05
0d
0b
0c
fd
12
0d
09
05
0c
04
08
02
06
00
06
08
fd
0d
0d
00
08
08
fd
02
09
04
04
01
02
fd
0e
09
03
0e
0c
06
03
fe
0b
fd
fa
f8
05
fc
07
fb
04
07
f9
05
f8
f9
fc
fa
f9
f9
fe
fe
f7
05
fa
fc
fb
05
f8
fe
f6
01
f6
03
02
fc
07
07
00
05
fb
03
fc
f6
04
fc
fd
fd
f7
01
04
03
fc
f9
01
01
07
f6
fa
05
fe
fd
04
06
04
00
fc
ff
02
f8
fe
fe
f4
f9
f6
00
fc
f8
03
02
08
fc
f8
fc
ff
fb
fe
06
02
fa
ff
04
f7
fd
f9
03
f9
f4
00
f8
fa
f4
01
ff
f5
01
04
f7
fb
07
08
01
fc
04
f8
fa
fd
f9
f7
04
f7
08
02
f6
03
f1
f6
f3
f5
f1
ea
fc
01
03
05
0a
06
fe
f7
00
f7
fc
06
ff
04
fa
05
fd
fe
05
fd
f8
05
08
07
ef
f3
d9
d9
e2
f7
04
fc
ff
06
f6
fe
01
fb
fd
03
06
06
05
00
09
0a
0c
0e
05
0d
11
fb
f4
f2
de
df
de
f1
f8
f8
fb
fa
11
fc
ee
ec
f9
fe
ff
f6
00
fa
06
05
11
0b
03
f8
08
fb
fb
fb
f6
e6
dd
e0
f3
f5
f9
0b
11
08
ef
02
fe
05
07
07
05
00
0a
04
0f
07
10
ff
ff
03
fd
01
fd
f1
fb
ef
ec
04
01
1a
0c
1b
0a
02
f6
05
06
01
fa
fe
05
11
10
0c
07
05
fa
fa
02
07
04
13
f7
06
fa
0e
0d
21
22
1c
18
01
fe
f7
02
f9
fb
0d
07
0d
10
0c
0b
00
06
05
ff
0b
25
0a
10
01
01
12
1b
25
1f
19
0c
ff
06
06
03
05
fb
02
0d
07
12
03
0a
fa
00
08
0e
07
12
fe
ff
fd
06
06
0c
14
0f
03
01
fc
08
fd
ff
fb
fa
fd
09
00
fc
e9
03
0a
fd
fc
17
12
04
f6
00
f8
fc
02
fe
fa
f6
f3
e2
f4
0b
09
05
02
fb
02
fd
f3
f6
f9
f5
fb
f5
f2
06
f3
e7
ec
ed
f9
f7
01
ed
ed
ec
ee
ee
fb
04
0a
fd
06
08
f9
fd
f9
fb
ed
f5
f1
ee
fc
fc
f6
e1
f1
f1
f5
08
06
08
f2
fb
05
fc
02
ff
02
f8
03
05
fc
f5
f8
04
06
fe
f1
fa
f8
fd
ed
f4
fb
01
fb
04
02
0d
0e
16
0f
0d
06
05
fa
fa
fd
f6
01
f9
f1
ed
f1
fd
fc
02
ee
f0
06
04
15
0c
00
03
13
20
1f
1c
0d
17
08
0a
fc
fa
f7
f8
05
08
06
fb
ec
f2
e3
e7
eb
f0
fc
f9
fe
07
08
0c
15
17
18
19
05
0f
0d
0d
ff
02
02
04
0a
10
fb
01
f2
f1
e5
e0
f5
f9
fb
fb
05
0c
03
13
0e
04
02
fd
fb
09
08
f9
02
f7
02
fb
05
06
0b
12
fa
fe
05
f8
eb
ed
fa
05
03
07
0e
0a
fd
ec
f6
fc
00
fb
01
ff
01
02
f7
fd
f8
01
0d
0a
08
15
09
f7
ee
f7
ef
f9
08
0a
01
f6
ed
f6
f2
ef
e3
eb
f7
02
01
fb
fe
fd
07
02
05
f7
01
0d
0e
fb
fb
ef
fa
f8
fb
fe
08
f9
f5
fe
ed
db
ea
f3
f8
06
ff
00
07
04
fc
fe
12
06
0a
07
00
03
fd
fb
f2
f7
ec
00
04
fa
fe
00
de
d5
f0
fb
ff
03
02
ff
f6
f9
f7
fd
16
1b
1c
17
fe
03
04
04
ff
f0
fe
02
01
fc
f5
ef
e1
ec
eb
fa
f7
ff
03
04
ff
05
ff
fc
08
19
16
0a
01
07
07
0d
f8
f8
0c
fd
ff
06
f2
fb
fa
f6
f0
fa
04
f9
04
05
f6
01
04
02
04
05
06
09
0a
fa
fd
0c
07
07
fe
fe
04
f6
ff
fb
00
f9
f7
f9
08
fb
01
f9
ff
08
f9
07
f9
ee
f5
f1
f4
f0
f3
f1
f8
f7
ea
f9
ef
f3
ee
0a
fe
f7
fb
fb
f8
f6
00
fd
02
02
f6
f6
fb
01
fe
f7
f7
f6
0c
04
f9
01
f7
04
00
fc
05
ff
05
00
03
05
f7
07
07
f7
05
06
fb
fb
08
04
fe
fc
03
0b
05
00
fe
08
02
01
f9
07
01
ff
0b
04
07
06
05
05
0b
06
08
0a
ff
02
fb
07
08
06
00
01
fa
05
03
05
fe
07
02
00
06
fb
fa
01
09
fb
ff
04
08
0a
ff
01
fc
01
08
07
06
fc
06
0d
02
06
03
f2
f6
fc
fd
f6
ff
f4
02
07
07
04
09
fe
02
00
02
fb
fb
07
04
fd
08
fc
09
0e
0d
19
06
03
f9
ea
ed
fe
eb
f0
f9
03
f9
03
03
0a
fc
00
fd
ff
03
02
fb
03
0d
0f
1b
1e
21
11
1b
0d
04
e9
de
d4
dc
ed
f8
f8
f0
f6
09
fd
0a
04
05
fe
fc
08
05
02
02
09
02
07
0d
15
1b
09
05
02
f2
d8
ce
d7
ef
e5
f7
f5
f5
fa
fe
03
05
fa
02
05
14
ec
f5
06
fa
0f
12
13
18
23
15
0a
05
e7
e0
c4
d0
de
ec
ec
03
fe
fd
02
ff
01
03
09
0b
01
03
ec
f8
f9
09
10
17
1d
18
14
ff
fb
e8
cc
c2
d1
db
df
f0
08
fa
ff
fb
03
00
08
08
01
fd
f0
03
ff
13
06
0d
18
15
00
00
10
0a
f6
c9
d4
db
e3
f0
fb
fb
0a
04
fd
ff
03
f8
0e
0a
04
03
00
06
ef
f9
ef
f3
08
05
1e
1e
07
ec
e0
e0
e3
f4
fa
fd
01
08
fd
00
07
f9
13
11
0f
02
f5
f3
f3
e1
df
f9
00
1c
1b
1c
0e
ff
e6
d8
ed
f6
ff
ff
06
0a
08
fc
fb
0e
15
03
fd
f7
f8
ee
ef
e4
f4
fa
0e
11
26
14
14
08
f6
ef
f0
f9
03
07
03
06
09
f9
07
13
0a
05
fa
fc
f6
fa
e9
e9
f8
0a
0f
09
12
16
1b
0e
fd
e7
f6
f9
00
fe
01
ff
05
02
08
06
03
03
02
0b
02
f8
fd
ff
06
fa
00
0a
03
0a
12
07
02
ff
ed
fe
05
02
09
ff
09
f9
05
fe
f8
0a
04
fe
fd
f8
ec
fe
ff
01
ef
ff
09
02
02
fb
05
f7
ef
f4
01
01
09
08
09
00
05
01
02
08
ff
01
02
f7
ed
f2
f9
f2
fc
01
07
f8
02
05
f3
f9
fc
ff
03
0c
09
0b
fc
07
01
11
13
0c
f2
fe
fc
06
ff
fc
fb
f5
eb
fe
00
ff
fd
fd
05
0a
fb
07
04
0c
01
08
fb
0c
11
12
07
14
f7
f8
f1
f9
06
0c
00
ed
fb
f6
05
06
04
05
05
fb
fb
f5
0f
00
05
fc
ff
fb
0d
11
0c
10
fa
f7
f8
02
17
03
ed
eb
02
03
04
fb
04
ff
11
08
ff
fc
11
02
fa
f9
02
fc
00
0b
03
eb
ee
e9
f4
07
0a
04
01
f7
f6
04
fd
10
17
0b
12
01
08
01
06
01
ff
03
03
08
06
fd
0a
e9
fa
f1
fd
00
0a
fc
fe
08
03
00
02
02
06
1c
11
03
07
06
fe
fd
04
09
00
0b
06
0c
02
e7
f1
fc
f9
03
05
08
03
fe
04
05
fa
f7
0b
06
0a
08
0e
0f
05
07
fb
01
0b
fe
02
10
08
fa
05
02
f4
02
01
ff
07
0c
04
ff
eb
04
f8
0e
0b
12
07
07
0e
f9
01
fa
fe
04
01
02
00
f2
f9
05
f6
fe
04
04
01
09
09
f8
f3
0b
09
13
1b
17
04
0e
07
f9
03
0a
04
fc
07
fe
04
fb
f7
f9
f4
fa
02
f9
f6
03
0b
fc
ff
0a
fe
0f
17
0a
0a
ff
0c
ff
fc
fb
fa
06
02
08
0c
0a
0f
00
fd
12
00
02
08
fe
00
11
18
0f
07
0b
00
f1
fc
fd
fa
09
fc
03
07
fd
01
03
0a
02
0d
04
12
1d
13
14
11
1f
10
1d
26
19
0f
10
04
08
fe
fa
01
00
fa
fe
04
01
08
05
fc
fc
ff
07
fc
03
06
0a
05
0b
03
fe
06
0d
fd
0a
08
04
03
fe
06
ff
05
01
f5
fe
00
00
ff
f4
f8
ff
04
fa
04
f6
fa
f7
fb
04
fd
fb
f9
00
04
01
02
fa
fe
f8
f7
f8
f7
03
00
f7
f5
f4
f7
f5
fc
f8
f7
f7
05
ff
f4
fd
fe
f7
04
03
f3
fd
fd
04
fa
05
fc
ff
f5
f7
01
fa
00
fe
fd
06
f7
02
fe
f9
01
f1
f5
fe
f1
03
08
04
02
00
02
f4
f5
ff
f5
fc
00
02
f6
03
03
06
03
fe
06
0b
0f
0e
0c
0b
08
fe
14
19
0e
03
05
fe
fe
03
f7
fe
fc
f6
fc
f8
f8
fc
f6
03
fd
02
fc
08
03
01
f4
f6
ff
08
09
13
01
f2
f4
ff
fc
ff
f5
f7
f5
fb
f6
fa
01
05
ff
f9
09
fd
f5
fc
f5
f5
ee
fd
03
08
0b
16
11
20
0b
03
f9
f3
ff
fe
fb
fc
f3
f4
fe
05
04
06
0e
09
fb
fb
ec
f0
f6
fb
01
07
12
17
11
14
11
0f
0f
09
0a
fe
04
fc
f5
f7
f7
09
0d
02
fa
fe
04
fa
f9
ef
00
fc
06
00
08
1c
1a
1d
1a
1e
11
07
01
04
f5
f5
f3
01
06
06
11
fe
09
fd
09
01
f6
03
08
05
f3
ff
fd
03
15
13
16
24
16
0d
07
f8
04
f4
fa
f4
ff
09
01
01
f5
ff
f2
f5
fe
f6
06
f9
ea
fb
f9
00
fe
02
0b
1d
18
16
11
f7
fe
03
02
ff
ff
03
f1
ed
f4
f4
f5
02
fa
02
07
fb
02
05
fa
f4
ea
ff
fa
08
11
14
04
fc
03
f9
00
fe
05
00
e9
eb
eb
f5
f1
f8
fc
fe
17
09
05
fd
f1
ea
e6
e5
f9
f5
fd
fe
fe
05
f5
03
00
fa
fd
fc
ef
f4
f9
f2
06
05
fa
06
17
19
fb
ea
f0
e9
e1
d3
ea
df
e4
f7
f9
fc
ff
04
05
f9
00
f9
f1
f3
f4
01
05
f8
fe
06
19
0a
f6
e6
d9
e0
d5
d3
de
ee
f9
fa
03
fe
fe
04
04
fc
00
f1
ff
fa
01
00
00
07
08
0a
09
fe
ec
ef
f1
e5
ee
f0
f0
f9
f9
fa
02
03
03
fc
fb
f4
fb
f8
0a
fe
0b
06
03
13
06
05
00
ee
ee
fc
fb
f7
fc
f1
f7
f0
ef
f8
f3
f6
f6
fa
f8
04
fd
f9
fd
f3
fb
08
0b
22
17
00
f6
eb
f3
05
01
f6
f3
fe
ee
ff
01
09
fd
f4
fd
fb
ff
fb
00
f2
f5
eb
f9
09
0b
17
06
f1
d9
de
f0
f7
fd
04
10
fc
09
ff
fd
eb
f5
ef
f9
02
02
fd
03
f9
fc
ef
00
05
ff
05
e3
d9
cf
e0
ff
07
0c
04
06
0e
06
0c
00
ea
f6
f4
fb
fc
f7
f7
fb
fa
f7
02
f9
00
fc
f3
f0
e1
e0
f2
02
07
01
06
04
09
13
06
00
f6
fb
00
05
fb
04
f9
01
0c
fe
fd
0e
0a
0f
fb
01
07
fe
fb
fb
f8
04
09
09
14
19
fc
fe
f0
f2
f9
f4
ff
00
03
01
fb
f6
ff
ff
f9
01
09
13
10
03
06
01
f1
f8
fc
1a
04
fc
fc
f7
ed
f3
fc
01
f4
fb
03
0c
f9
fb
fe
0c
00
ff
15
21
20
1b
13
0e
f9
00
01
14
f9
f0
02
fc
f7
f9
f4
fa
f5
fe
05
04
06
02
0e
13
15
08
1d
12
17
14
03
09
02
05
0c
f5
00
f3
f6
f6
fe
f6
f7
f6
fd
fb
fe
09
09
00
1b
16
19
20
0f
12
20
17
14
15
0c
03
03
fc
f5
fd
fc
fd
f8
f6
03
f7
01
f7
03
f3
00
ff
12
11
1f
1b
12
13
0a
0a
01
09
0c
06
00
fe
fa
04
09
fd
fb
00
fb
00
f4
05
f5
f9
f3
f6
fc
fd
04
fc
fe
00
00
01
f4
09
0a
f5
f4
ff
f5
fd
ff
ff
04
f3
f7
f6
fb
f9
f8
05
03
f9
04
00
f6
fc
ff
01
fe
f9
f9
04
fb
04
f4
01
00
fd
fb
fa
04
fd
f3
fe
00
f8
04
fd
07
02
02
00
fe
f6
fb
03
06
fa
05
05
f8
fa
02
fa
fd
f8
01
ff
07
01
fb
00
fd
01
fa
03
05
fe
fc
02
00
01
ff
07
07
fc
01
01
0a
fc
fe
fa
00
09
00
03
f8
03
fe
04
02
02
00
08
fb
02
03
fc
07
ff
11
13
0f
08
18
06
14
09
fd
fd
07
05
04
08
ff
fc
07
03
fe
fe
02
fe
00
04
06
ff
01
09
0f
04
0b
11
06
fd
04
05
01
f8
f3
ff
fb
ff
0c
f8
ff
04
00
00
00
03
ff
07
ff
05
02
08
0d
09
07
f9
03
f5
fa
08
ff
0c
05
ff
fb
fa
fb
fd
07
fc
08
fa
fe
fc
00
04
06
fc
fe
02
09
04
03
fa
f9
05
07
fd
02
02
fe
07
fd
06
03
fd
08
f8
fd
f8
00
fc
09
f7
fb
fe
f6
09
fd
fa
f4
ef
ea
ef
ef
fa
e5
f3
f3
f8
03
fc
03
10
fc
f8
fb
fc
fd
f5
08
f6
03
01
00
01
fc
01
f3
f5
ea
fb
e9
f3
ee
ef
ee
06
0a
f4
02
00
01
00
f7
03
ff
fa
05
01
01
0a
01
04
03
05
f1
f8
fb
f4
e8
f6
ea
f4
04
f6
fd
01
f9
fc
fe
07
07
fe
fd
fd
01
08
06
0c
0f
03
02
fc
fc
f7
f4
fb
f6
f8
f9
fa
02
fc
fb
00
f4
f9
fd
f7
f8
fd
00
f8
01
0d
05
00
0c
f9
f9
01
f9
ed
f6
f8
fb
f9
01
fc
fd
fd
f8
fe
fe
eb
ff
ff
f6
05
fb
f6
f9
0b
fe
14
00
04
01
f2
f8
ed
f7
f5
04
f6
ef
ff
fb
03
08
0d
0a
02
f9
fa
f7
f9
fa
fc
fa
03
fb
0b
0c
f9
f1
ef
f4
f1
01
fe
08
f9
f3
f3
f8
0b
0e
10
1c
02
02
06
f8
fd
fb
04
f5
fb
ed
e8
f7
f9
eb
ee
f3
f9
fd
fc
fe
f8
f5
00
07
0e
0d
1b
13
0f
fe
ff
f8
fb
fb
02
ef
f5
f4
f4
eb
f3
f4
f8
10
18
0c
0b
04
f1
f5
fb
ff
0f
17
0a
0c
07
01
05
fe
fe
f7
01
ee
f3
02
ec
ea
f0
00
0f
1b
16
17
00
02
e9
fa
f8
f6
01
fb
06
04
15
0b
fd
03
f9
05
07
fc
f6
f9
fe
f8
0c
06
0b
17
06
16
fe
04
f3
fd
00
fe
f5
fc
04
09
21
11
07
05
08
07
fa
02
f1
ff
f9
09
0a
12
09
14
0e
08
f9
fe
01
00
01
f5
f7
fc
fc
00
19
04
f8
00
fa
f6
fe
03
f6
04
00
02
05
0e
05
0e
04
08
fb
04
05
0b
f5
f8
f3
f4
00
04
13
06
08
f9
04
03
fb
fa
02
01
03
0d
0c
10
0c
0c
0c
08
09
0e
0a
00
f1
ff
f8
fe
fe
ff
0d
fa
00
f9
fa
00
06
f5
f7
08
16
0f
02
0c
05
09
11
04
12
03
03
06
f8
04
03
03
04
06
07
f9
fe
f9
fc
f8
07
0a
fa
01
14
06
0e
0a
0d
11
15
01
fb
05
07
0f
04
05
fd
fd
07
00
09
01
f8
fe
f9
fd
06
02
0b
06
0e
01
07
05
01
0a
f9
fa
fb
ff
f8
05
01
03
fe
0b
03
fd
f8
04
01
f7
f9
02
f9
f4
f8
fa
f9
06
01
ef
f9
08
fd
fa
fe
f7
fe
07
06
01
08
fe
ff
fe
f7
f9
fe
00
04
00
f4
ee
ec
ef
e3
ee
f1
ed
fc
ff
f2
ff
ee
f9
f9
f8
fb
f9
fd
fb
f9
02
fb
05
00
fc
07
fc
fa
02
ef
ec
f3
ea
eb
e5
f2
ed
e7
f7
fd
fa
f3
db
ea
f1
f1
f3
fd
fd
f8
f7
f8
05
02
03
f7
f6
f6
f6
fa
f6
f2
ec
f6
f4
ee
e7
f6
f4
e6
f3
f7
f7
fa
f8
fa
ff
04
07
03
f9
08
fa
07
fc
00
fe
fc
06
08
04
05
06
ff
f7
00
fd
01
f7
f6
fb
05
06
f8
05
08
f9
f7
04
00
05
06
07
06
08
fe
fc
f9
fd
00
01
09
06
07
ff
05
fc
08
05
fe
03
fe
ff
ff
03
09
08
fe
08
00
09
00
03
fe
f9
fd
05
07
fb
fd
02
fe
f8
fa
ff
00
fd
02
fd
fc
06
07
0a
04
06
0a
fd
01
09
05
fe
fc
fa
fb
00
01
fa
f4
f9
ff
fc
0d
01
01
0a
01
06
06
01
03
02
03
04
fb
09
02
fa
01
f9
02
fb
fd
f5
f7
f4
e4
d4
e4
e6
04
13
11
14
11
11
0d
09
ff
03
03
08
ff
08
fc
00
f8
fe
fe
f3
f3
ef
de
d9
d9
eb
eb
f3
fe
10
09
0e
04
0d
17
0d
fe
fb
06
00
ff
fa
0b
fb
02
f4
fe
f7
f1
e1
d4
ce
d8
f3
f8
fc
fd
fb
03
09
0c
09
15
13
03
08
f9
f9
08
07
fa
fd
fd
02
fc
01
f0
f8
e9
e9
f0
f8
03
01
fe
03
fa
0e
ff
0b
09
09
fb
03
01
02
ff
fc
00
05
f6
02
07
fd
f3
fb
e6
e7
fc
10
10
16
14
fc
03
ff
08
03
01
f5
fa
01
03
00
fd
fe
f9
f6
ff
f3
00
00
eb
ed
de
dd
ee
0a
0b
14
12
f4
ec
f8
f8
01
f8
02
08
fe
fd
fc
04
00
fe
06
fc
f3
fe
fa
ee
dd
cb
db
f7
0d
1e
11
11
01
f2
f4
e8
f6
fe
0a
fc
fb
fb
09
ff
02
fc
f8
f9
02
fc
fc
f2
ec
df
e5
06
1c
1a
12
02
f6
eb
ec
f0
f6
0a
15
15
ff
04
03
03
08
fd
fe
04
fd
f1
f8
f9
ec
f0
f3
0f
13
11
f9
f7
f4
f6
ea
f4
04
13
11
fc
fa
08
04
0a
09
09
fd
00
fc
09
fc
f6
fe
f3
f8
13
16
fc
ef
ed
fa
eb
e2
fb
03
04
03
07
01
fa
05
0a
fb
fd
09
08
08
00
09
08
0c
fe
fe
07
ff
ef
f0
f7
ed
ed
eb
ee
f5
fe
f5
f5
fb
fa
06
08
fd
fc
fe
f8
f9
fb
0a
03
01
fc
f9
f4
fb
f3
f2
e3
ed
f7
f9
f9
f7
fd
06
ff
02
07
01
00
fd
f8
f9
fe
f8
fd
06
0a
f7
f7
06
f0
f9
f2
f8
f8
fa
ec
f7
07
f6
08
05
f2
03
01
f9
fe
fd
ff
07
0b
f9
fb
f0
ed
e7
f0
f0
04
f1
fd
f8
e7
f0
f9
f9
01
03
f6
f9
ff
fe
06
fe
fb
ff
f3
05
13
fb
01
f4
f7
fe
f1
e9
f5
ef
ef
ff
f6
00
06
01
05
fb
f7
0b
fd
09
fd
02
07
fb
fc
07
fb
00
03
fd
05
fc
00
f2
fd
f6
03
fd
fb
fc
fa
f2
f1
f6
f4
00
02
07
0b
fc
fa
06
fb
fa
08
00
0b
02
03
07
0b
0e
00
f8
f5
00
fe
f6
ed
f6
eb
e9
f8
08
05
fb
08
0a
04
f9
f4
f9
08
09
f9
09
0c
11
11
0e
04
fc
fa
f9
ea
f3
e9
f3
f4
f7
ec
01
09
08
fe
05
fc
fc
05
f4
fe
fa
07
05
08
15
09
03
02
01
fb
ec
f0
ef
ed
fa
05
f5
fa
01
05
04
ff
07
fe
fa
08
f4
02
f4
fc
08
0a
0b
06
03
0a
0d
fe
f3
e5
ec
ee
01
05
08
00
04
01
09
02
fd
ff
07
f8
04
ff
f6
f1
f5
14
01
03
08
00
01
fd
ec
f1
ee
ec
f5
fc
03
06
fa
fc
00
fb
ff
05
07
05
fd
00
f1
ef
f3
00
fe
fa
08
03
01
06
e9
f5
f3
fc
02
f8
01
fe
08
01
05
01
ff
00
ff
fe
00
ff
02
f4
0b
00
e5
f9
05
03
fe
fe
f4
fb
00
fd
08
fe
fa
08
05
09
07
06
02
08
ff
03
fa
00
04
02
09
03
fa
f9
04
fd
fe
fc
0b
03
f8
06
ff
04
fa
05
fa
f9
02
fe
03
f9
ff
09
07
fe
04
02
04
08
fa
fc
03
04
fc
0a
02
04
f9
ff
ff
07
fd
07
04
03
ff
05
06
00
01
ff
01
fe
ff
f9
fa
fe
03
05
fe
fb
01
07
0a
0a
08
05
00
fc
04
f9
02
fa
02
02
02
04
01
fb
04
fc
fe
f9
09
00
fc
fd
fa
f8
fa
fe
fb
01
07
04
00
08
00
fb
fc
f9
00
f9
08
07
01
fe
fa
08
ff
f8
f7
04
03
04
fd
01
fd
05
02
ff
f8
05
ff
07
01
00
07
02
05
fb
08
ff
fc
08
05
0a
07
fd
f7
ef
f1
f2
fe
f1
e9
ee
ea
f2
ef
fb
f6
fb
ef
fe
f7
03
fd
fc
09
f9
ff
05
05
ff
f8
ff
f5
f9
f0
e0
de
d4
c0
d4
e4
d0
e6
fa
fb
00
02
ff
f2
f9
fb
fa
fe
fd
fc
fc
03
03
07
08
fc
08
08
f5
ec
e2
ed
f3
e9
de
dd
e9
e9
fb
0d
0b
f5
f3
f1
01
01
00
05
00
01
fe
fb
f3
02
15
ff
0a
f7
01
03
fd
fb
fd
fd
f1
ff
0e
11
01
08
f4
fe
fc
ff
09
05
ff
f4
f3
ef
e6
f4
0a
05
fe
0d
02
04
e9
fa
09
f4
f6
ff
f3
fb
fd
fd
f6
ff
06
fd
09
f8
fd
fc
04
fd
f4
0c
05
09
06
f7
e7
ed
ef
f1
fd
fc
f5
eb
ec
01
06
03
f1
fe
f9
fc
fe
08
0b
02
09
04
05
0e
09
00
0d
01
e8
f1
f9
00
04
00
ed
eb
f9
02
f9
ff
f3
f8
14
fb
0a
0b
07
09
0a
f5
fa
05
0a
03
fc
e8
e5
f6
1e
19
07
fa
00
f1
f6
fd
ee
05
05
05
fc
04
09
09
0f
01
03
f2
04
09
0d
0b
fa
e7
e5
02
16
19
14
09
08
05
03
fe
f5
f9
00
fe
fd
0a
02
01
0a
00
ed
ee
06
0e
04
05
f4
e1
fe
25
2a
18
08
07
06
f8
fe
07
f6
f0
09
05
07
05
00
02
0c
11
f1
05
19
09
f6
f8
ef
f8
16
2f
1f
10
16
09
0c
15
09
f9
ea
01
fe
09
09
03
fd
ff
10
07
f0
f8
01
07
17
12
07
0c
18
1d
17
17
10
0c
1b
19
12
fa
fb
f2
f8
02
fc
fd
05
02
04
07
ef
f3
04
09
14
12
09
0d
08
04
16
13
16
0c
fa
0a
13
0d
03
f7
f2
06
09
06
fe
07
f7
fc
f4
e8
f5
fe
07
fc
06
0c
0e
0b
12
18
fd
f2
fb
ec
ff
eb
ee
ef
f9
02
01
06
00
06
f6
fa
ef
e7
e2
dd
f2
ef
f7
f6
05
05
0b
f7
d4
e5
ed
d6
ee
ea
00
fa
07
fe
fd
06
01
fc
f7
fa
da
cd
d2
d9
ce
ea
ef
f3
ee
ee
ee
dd
da
d9
e2
e7
fc
f3
f7
ee
04
08
03
fd
02
01
f9
ed
da
cf
e3
d8
d9
e8
f8
ec
ec
d5
e0
e6
d3
e1
e1
ec
ec
ed
e3
ed
f7
fc
ff
00
fe
08
0a
f4
ea
eb
db
de
e9
f0
fb
e8
df
d1
c7
e5
e2
f7
ed
e5
ed
f2
e8
f2
f8
fa
0a
06
03
ff
04
fb
00
fd
eb
00
07
07
ed
f6
e2
d7
d1
eb
ea
00
f7
ea
00
ed
f6
04
f9
06
fd
03
01
fb
03
02
06
16
07
0b
09
07
f8
e8
e5
d8
df
e4
f0
04
03
fb
fb
e8
f5
03
02
09
06
fa
f9
07
fd
ff
0f
1c
16
10
03
07
00
fa
ef
e5
e5
dc
f8
0c
07
fb
f1
eb
fb
fe
03
07
09
fe
08
09
08
03
14
12
14
06
08
01
f3
eb
dd
e9
d8
de
fa
06
00
03
06
08
0a
ff
08
fc
05
06
ff
fb
03
0f
14
0a
fa
08
07
fa
f0
e6
e1
e3
d8
f3
ee
fd
ff
0a
0a
05
05
ff
fa
fb
0a
00
06
fe
02
07
04
05
09
07
0e
07
04
f8
ff
07
04
0a
0b
08
fe
06
fb
02
01
fa
fb
05
09
00
0a
0a
0a
fb
fd
06
05
05
08
07
ff
08
05
fe
fe
0c
08
0c
ff
04
01
09
01
fc
fe
06
fa
f6
00
03
f7
fc
03
fb
07
fb
fa
fe
f6
f9
03
ff
00
fa
f9
03
fc
fc
02
00
06
06
fb
02
f6
01
04
04
06
fd
04
f5
f9
f9
fc
03
fc
f4
fe
fe
01
fc
f5
fd
f3
f8
f8
fc
02
05
02
07
03
f6
f8
ff
f7
fa
fd
05
00
fe
f4
03
f5
06
0a
0b
f4
eb
e3
e7
f1
f3
fe
f0
f9
f5
f6
f8
04
f8
00
f6
fb
fe
f5
ed
f9
f2
f8
02
00
f5
14
1d
28
1b
11
f0
ee
f5
ec
f7
fc
f3
f9
f8
fd
f9
f6
00
fa
f5
fb
f5
fe
ff
fe
00
f0
01
0f
1c
1d
23
37
24
15
07
f3
f1
ea
f0
f7
00
f5
03
04
fd
f6
fd
eb
fd
05
07
fb
ee
ee
f5
01
06
14
1b
32
2f
2c
1a
11
fd
ed
e4
ff
f6
06
fc
fd
ff
00
f7
f4
01
f3
f2
eb
f7
ef
fa
f3
fb
03
04
22
2e
23
19
10
0f
fb
e1
e0
f0
fa
00
fe
f9
04
fb
f6
0d
f9
e4
f8
f1
f1
fb
ee
ea
f0
f7
1b
2a
29
16
18
1f
05
f7
fc
ec
fd
f9
f7
02
fd
fe
ee
fe
f2
f4
ea
fc
f7
f1
ea
e7
f0
f8
08
1e
33
12
1c
10
12
f8
ed
f4
01
05
04
fb
ff
f1
eb
07
ff
ef
eb
f5
e8
f5
01
eb
eb
e1
e7
16
38
36
24
19
12
ff
ef
f9
fb
06
f8
fc
fa
f7
fc
0b
f4
f0
fa
f2
fe
ff
fc
f8
e5
cb
e8
01
22
23
1f
19
22
ff
eb
ec
fb
04
f9
fd
00
04
08
ff
fe
09
f9
fb
fb
fb
f3
ee
df
bd
cc
e8
1d
2d
21
1e
26
10
fa
fd
ff
f9
fc
00
fc
08
0e
14
02
f8
04
00
01
01
f4
e3
c2
ae
c8
e8
1f
2d
23
1f
1b
0c
f5
f8
ff
00
00
ff
03
1f
04
0c
fa
0a
fd
f7
01
fc
ef
de
c7
cc
e4
fe
1f
2e
22
27
06
fe
0b
06
f7
05
00
f9
07
1f
0d
10
16
15
04
f7
f7
f7
f1
e3
ea
f1
fe
11
23
29
24
0b
ee
fa
03
fc
fe
fc
fb
fc
0a
13
16
12
0b
11
0f
00
02
fb
f2
ea
db
f7
02
16
20
10
11
0e
e6
fd
f1
01
06
ff
f9
04
06
0c
0d
0d
12
08
0b
06
fb
f9
e5
f2
e1
fe
14
15
1d
0b
09
01
eb
e0
f4
f8
01
ff
fd
f6
02
07
ff
13
14
16
13
0c
05
f3
fc
fb
01
12
10
05
09
f9
02
fd
e8
ee
f7
fa
ff
01
ff
05
07
f8
fa
0b
0e
12
18
0d
f8
f3
05
09
04
01
0d
0a
06
fe
05
0c
03
fe
ee
f9
f6
f6
fe
fa
fc
03
fe
0c
19
1b
12
0f
f6
fd
0e
0f
04
07
0c
08
19
f9
0b
17
12
f4
00
fc
00
02
06
07
12
0f
0e
1c
0b
08
01
f9
05
fc
fa
09
07
05
0d
06
16
01
04
04
17
0b
f8
05
07
fb
01
0e
0f
0f
17
1f
11
0b
fc
f9
fe
03
fa
00
f8
06
0c
ff
01
07
fa
15
12
03
f0
f8
02
ff
ff
07
02
02
10
1c
0b
0d
fb
07
fa
ff
f7
f6
fa
00
05
fc
fc
ff
fe
1d
07
ff
fb
03
03
fc
fd
07
03
e0
ef
08
0b
19
0d
01
08
fb
f9
ea
f8
f1
f6
ee
ee
fe
08
0b
00
08
ef
00
fb
ff
03
04
fe
f6
e9
05
0b
04
0c
fc
0e
09
f9
ef
f9
f8
e3
e0
e2
f8
fe
02
03
ff
fb
f7
02
ff
fa
00
f5
f4
02
0c
06
fd
f0
f1
fe
f2
f5
f1
fd
fb
e9
f5
00
04
01
05
00
f5
01
fa
06
03
00
f7
fc
f9
11
12
09
fe
03
06
02
fc
01
04
01
fb
e7
f5
f9
08
03
fe
05
fc
04
07
fe
f7
04
00
04
fd
fb
f8
fc
f9
f8
fb
07
f7
f5
f7
f9
ff
fd
03
ff
04
fe
f8
f8
ff
fe
fb
04
f7
ff
00
fc
01
02
fd
f5
f8
f9
01
f9
f4
04
00
00
f9
fd
fb
f6
f4
f5
00
f8
f4
03
f8
f8
f9
ff
02
ff
fc
f8
fc
02
f3
02
02
fa
04
01
fe
01
03
02
f8
03
fd
f5
f9
fb
f4
02
f9
03
04
f5
f5
fc
04
f6
f3
f8
04
08
fd
fe
02
f7
f6
f3
ed
fb
f3
fa
00
f4
fe
00
f6
f6
f9
fe
fe
f8
00
00
f6
fb
f6
fe
fe
ff
07
07
0d
0f
fc
eb
ec
f5
e7
f4
f1
ed
f8
f5
f4
fd
fb
04
fe
f5
01
fb
fc
fb
fb
0c
06
1a
1f
25
18
08
09
01
f5
01
02
e6
ed
f8
01
f3
05
ff
00
04
f6
fa
fa
f7
f5
fa
f4
0a
07
05
19
1a
0f
05
08
05
0f
05
0b
00
0d
00
07
fa
f8
0a
ff
f9
f5
fc
ff
ff
fd
f6
f6
fb
00
0e
04
00
0a
0c
0e
09
09
0e
12
08
00
ff
0b
0b
05
06
ff
01
f6
f7
fc
fd
00
07
f9
ff
0a
09
02
0e
05
0b
15
17
0b
04
17
06
ef
fe
04
09
02
03
f7
f4
01
01
fc
f7
0b
fd
fd
fd
01
f7
05
0b
07
06
09
04
09
13
0a
0d
05
02
09
11
10
01
f9
f5
ff
04
00
02
04
f4
fb
f2
08
f9
f9
00
f5
0a
fe
fa
03
12
0a
04
01
0a
12
27
0f
10
03
fb
fb
03
f9
f8
fe
f4
f7
fc
04
02
03
01
0f
0d
fe
f2
fc
05
06
09
01
fe
0c
12
11
09
fd
f8
fd
f7
02
f6
fd
f8
07
fb
f8
07
06
0c
04
0a
fd
eb
ec
fb
02
03
fd
06
f6
02
f6
fc
02
fb
04
04
fb
ff
02
f5
01
fe
fa
06
ff
08
00
f6
f9
ef
ec
fb
02
0c
f9
ff
e5
ea
ee
fa
fd
00
02
03
04
f9
fb
f8
f7
f9
ff
01
f0
f6
f3
02
fa
eb
f0
f2
06
07
f4
fc
f3
f5
f5
f7
f8
01
f3
04
01
f9
f7
f0
f5
f7
fd
fc
f3
fb
f0
0b
f8
f8
eb
ef
eb
e2
f0
f4
eb
fb
f6
fb
f7
03
02
02
00
fa
f6
f6
09
fa
03
f6
fa
fb
08
fe
04
f5
ed
e2
e1
ed
f6
07
f1
fc
08
f9
06
00
f9
f5
02
f5
fd
ed
fc
f8
ff
02
fe
05
0e
10
f5
ed
e8
df
e0
f3
06
05
09
0a
04
0b
f8
fd
02
fb
f4
f7
fe
f5
fd
fc
f1
00
05
fa
11
0b
f9
e7
f2
e6
e0
ee
fc
12
07
00
04
ff
fe
fa
04
ff
00
08
ff
01
03
f9
f1
f4
fd
f7
04
f6
ee
ed
fb
f7
f3
00
00
07
07
ff
09
00
fa
f6
fd
fd
f5
00
0e
0c
06
fb
f4
e4
fa
eb
fa
f7
ea
f4
05
05
03
05
08
0b
05
12
00
f9
f6
f7
05
04
01
06
0e
06
0c
0a
08
f9
f2
f1
ee
02
f7
10
15
18
16
0d
14
12
0f
15
fe
ff
fd
f3
fb
f4
06
10
0f
f0
fd
09
fe
03
f3
06
f3
07
1b
1d
0c
11
10
14
14
07
16
19
04
03
f9
fc
00
fc
07
0f
04
f6
fd
07
09
06
09
0c
15
0e
19
0f
11
0f
16
05
09
07
1b
14
06
f8
f4
f4
05
02
05
00
0e
03
0f
0f
27
24
1f
23
1e
1f
1c
1f
19
17
17
0b
06
ff
1c
15
05
fc
02
fc
f7
f6
fb
f8
f7
fe
05
15
22
31
1e
1b
2f
31
1f
16
1a
1e
36
19
0b
fc
0c
fd
fc
fc
04
00
00
ff
f7
02
fe
f3
0c
0c
14
0d
13
0d
15
0f
09
05
0d
17
10
15
f9
01
f5
fb
f9
f8
fb
f7
00
03
fb
fb
05
05
03
f5
ff
ee
07
13
0a
01
ea
fa
f5
00
f5
f6
f8
00
f4
ff
03
f6
f6
fb
00
01
f5
fe
f9
fc
fe
fd
f3
fb
f5
f6
01
02
f5
00
00
f5
04
f7
f6
02
fc
04
04
f5
01
02
03
00
0a
04
f9
fa
0a
08
09
07
08
05
00
01
06
0a
0a
fc
05
08
fe
08
07
01
ff
fc
f9
09
03
04
02
03
fe
03
fd
06
07
fb
fc
05
fa
09
0b
fa
fd
fa
fb
fc
f8
06
02
fb
04
f9
00
02
ff
08
05
07
fe
fc
04
04
fd
06
f7
f5
fc
ff
f8
0c
ff
ff
02
0c
fb
07
fb
01
00
fa
fe
07
09
f9
0a
04
08
07
0a
fd
05
f6
f9
05
0a
f3
fc
03
fe
f5
fc
f2
f7
ff
f6
04
0a
fa
fa
09
fe
06
0b
fe
fd
f7
f7
09
03
0b
05
1e
17
12
16
1a
fd
04
0a
f5
fc
05
0e
04
0f
08
0a
09
04
04
fe
04
06
fc
08
00
fd
05
0e
19
12
15
02
02
0d
16
17
04
08
05
02
02
11
15
00
fa
04
08
07
f1
02
12
11
10
12
00
0b
10
0c
08
fc
0a
0d
0c
fd
01
01
fd
fe
01
14
18
07
00
05
04
00
fa
f9
12
fd
f9
03
05
0d
0f
fd
f7
03
06
10
0d
f4
05
03
fd
05
f3
fb
16
ff
fe
f9
fe
01
fa
03
09
ff
f8
01
0e
0d
06
ff
f4
ff
07
04
02
03
fd
f0
f9
01
f6
08
09
02
07
fa
02
09
00
f3
f4
0b
03
17
18
02
04
f7
f8
f2
f6
ea
e5
f3
ef
fe
f6
03
03
07
1b
0d
fb
fb
fd
05
07
fa
fa
03
06
24
10
08
06
0d
f1
ef
ee
e6
ed
01
f8
07
01
fa
f6
0b
17
0c
08
fa
04
f4
01
e6
e9
f4
00
06
12
0e
06
15
10
12
0d
05
16
12
08
05
06
e3
f6
fd
05
0c
09
06
05
01
ea
ea
ed
f1
f8
10
10
24
17
19
24
1b
0b
07
06
0b
ff
0c
00
ee
f3
ea
fb
0e
fe
09
fd
fc
f4
eb
ee
df
ff
0e
18
20
25
26
27
1b
0c
0a
fe
06
02
f7
ff
f5
f0
f2
fc
01
07
fd
fc
08
f1
e1
d9
e3
eb
ef
fd
0a
11
1f
22
19
0b
09
00
f8
f3
fb
f7
fe
04
03
fe
f7
09
ff
05
fa
f4
e8
c0
c8
c2
cf
d8
f1
0d
12
20
07
05
05
01
05
f7
01
0b
01
fc
fc
f9
09
05
f9
fe
08
f8
e3
c4
ba
c3
bd
bb
c5
d6
e9
ea
f2
05
f9
01
0b
00
fc
f5
fe
00
0d
ff
f9
06
fd
fe
00
08
f4
df
d0
c3
aa
ae
ab
a7
aa
c2
e0
f3
00
02
05
fd
f4
00
fd
0a
05
ed
fd
fe
0a
08
03
0d
0d
01
f7
e2
c5
c6
c9
c9
ba
c9
e9
f1
0a
08
f6
0a
02
fa
f4
f9
05
03
06
fc
fc
f7
09
13
1b
1a
0b
fa
fa
f7
f8
f1
e8
e9
e1
f0
00
05
08
0e
fc
fa
f9
04
04
ff
03
01
07
03
05
06
22
1c
2a
14
18
16
1e
14
09
ff
f5
f2
fc
0d
0c
11
fd
f9
08
05
04
fd
fe
0b
04
08
04
02
27
30
32
24
29
25
1e
0f
0a
09
f7
07
03
fc
05
04
01
fd
f1
f9
fe
f7
fa
09
fd
ff
03
05
14
13
12
11
1b
11
16
17
f9
f7
f9
ff
01
06
00
fe
06
f0
ef
04
f4
f5
04
fe
fd
01
00
0d
09
15
04
01
0c
f7
0e
03
06
12
05
05
08
f3
f9
ff
00
f5
fb
ff
01
02
fc
fd
02
04
ff
03
04
03
03
1a
11
0f
0d
fe
f9
fc
ee
e9
ff
f8
00
f8
ef
fc
f6
08
fb
04
fa
01
09
08
fb
fe
06
fd
08
11
09
12
15
0e
17
16
07
01
0d
06
03
f7
fa
06
fc
0a
00
0a
06
f9
07
02
0b
03
07
fe
ff
10
fc
0b
10
12
0f
02
14
10
04
13
04
fc
0d
08
0a
03
00
08
fd
f9
ff
04
02
fd
09
fa
09
00
fc
06
f6
04
07
00
06
0f
f9
08
04
05
04
f9
02
03
0a
01
fe
09
0b
00
0b
0b
0a
0e
06
00
03
0b
08
05
10
00
07
07
05
0e
01
09
06
04
09
0a
07
08
0e
04
08
07
02
01
09
0c
05
04
0e
01
0c
0c
12
10
07
0f
0b
12
0b
0d
11
10
05
06
0b
11
08
03
00
05
0f
04
0d
0b
02
0c
0e
01
fb
0c
fe
fa
0d
17
0f
0e
09
0c
08
0f
0d
14
05
0e
11
06
07
0e
01
10
07
0f
06
13
04
f4
f0
f7
e9
f1
03
01
fc
fd
09
0b
0a
0e
04
15
0f
00
09
0c
0e
07
0d
10
11
01
00
f3
f5
df
eb
f7
ee
05
0a
fd
00
f9
f7
fc
f8
01
0d
0f
02
08
07
0c
11
0b
0a
10
06
0b
f7
f4
e9
e6
ef
f1
fa
09
08
13
07
04
00
f9
fa
fa
0a
10
10
ff
0e
10
08
04
0e
06
ff
08
fc
ea
f6
e7
df
e8
00
10
18
0f
f1
e9
ea
f0
f2
ef
0b
11
1e
0f
06
0f
03
0c
03
02
00
fe
ff
f8
ef
ea
d9
f4
ff
12
26
03
f4
f8
fa
e4
fa
05
04
11
0c
ff
10
06
08
00
0f
06
08
fc
f3
f0
ed
df
de
ef
ff
10
1a
03
f3
e7
f4
e8
fa
0d
ff
ef
f8
06
0c
02
0b
03
06
fc
08
ef
f1
ed
f2
e0
dd
fb
07
18
11
f7
e9
e5
eb
f2
f3
fb
e0
ea
f8
07
01
0c
06
08
08
fd
04
ff
e3
ea
ef
ea
e5
f6
fc
1b
0d
03
fa
ff
f9
fa
fd
f9
f1
e9
f5
ff
0a
04
0a
0e
fc
00
ef
f7
f2
e9
e5
f2
fa
08
21
1f
0a
fb
fa
fb
f7
fe
ee
fa
fc
ee
ec
ee
fc
02
0b
04
09
f7
ec
f0
f2
f1
f0
fa
12
23
26
29
11
02
fd
fb
fd
fd
ff
01
01
fc
f1
ed
f6
0b
07
09
0f
fe
ef
f0
ee
f4
fb
0a
19
1f
22
19
06
f4
00
f8
03
0e
07
03
fb
ef
ed
e4
f4
03
0f
07
ff
07
f1
eb
ee
ec
06
17
11
15
15
0b
f1
f1
04
f4
fd
05
0e
0f
02
ef
de
ea
fa
0a
10
0c
00
fc
f7
e7
e5
ff
07
08
12
0b
0c
ff
ff
f6
0a
06
fc
14
0c
0a
f9
f5
ee
f7
fb
ff
0a
0a
ff
f7
02
ed
df
fc
09
06
10
10
09
f9
fc
fd
0f
02
16
12
06
f5
02
f5
00
eb
fa
06
10
09
ff
03
fd
03
ef
02
02
08
1c
17
0c
07
01
06
0a
0f
19
0e
07
f9
f4
fa
fd
f9
fe
ff
01
0d
fe
06
0a
00
fa
f6
05
09
0a
01
11
ff
02
06
0b
07
0d
fd
f6
fc
f0
f6
f1
02
05
00
07
0e
09
07
04
f7
fd
09
00
ff
07
0d
10
07
0d
14
08
f6
06
f3
ed
f1
ed
fa
f8
00
0b
0a
01
09
08
08
f8
f8
fd
f9
fa
03
fd
05
ff
fe
07
06
0e
fc
fb
f5
f3
f1
f2
f9
fe
06
00
08
05
06
02
08
f8
f5
fd
f5
f8
f9
f1
f1
03
06
07
13
fd
f6
f9
f6
f0
ef
f8
fb
0e
09
10
08
0e
08
0d
05
f8
ff
f3
f1
ef
ff
fa
05
fe
0c
0d
07
fb
fe
02
10
01
fb
06
ff
01
0b
11
11
07
04
0c
0f
06
01
04
f9
0b
0b
11
10
02
fe
11
07
fc
02
0b
18
0e
01
00
fb
04
0a
07
0c
08
09
0a
01
12
07
03
04
03
0b
08
04
f3
f1
f3
03
0a
03
0a
18
07
fc
00
09
08
08
0d
0a
01
0b
0e
0a
07
0c
07
06
fe
01
fa
ff
f5
ed
eb
ff
ef
f1
04
02
03
07
09
0a
09
01
0a
01
0c
0a
0c
0e
09
04
01
0b
f2
f5
fa
fe
f3
fc
f9
fc
11
06
02
fa
09
ff
10
0f
0f
06
06
11
0b
10
0e
0c
05
08
04
0d
08
03
02
0c
ff
0a
0c
05
09
06
02
01
01
0d
0d
02
01
02
06
11
02
f8
f8
f5
ff
00
f9
fa
f5
ff
fe
fb
fb
f9
06
fe
fb
01
03
01
f6
ff
05
06
04
f5
f5
fb
02
f7
fc
f8
f8
02
fb
fd
fd
f9
04
fd
02
fb
03
f5
01
04
f6
03
06
f5
fc
03
06
fe
f5
fd
f6
03
f6
f7
fd
ff
f8
02
fa
01
ff
f7
f7
08
07
03
fc
fb
fe
f9
06
05
f7
fc
03
fe
f9
01
06
fd
06
03
ff
01
fb
02
00
03
10
06
0f
1c
1d
10
ff
fd
04
09
04
02
f6
f3
ff
f6
f7
f8
f9
f9
01
01
04
f4
f0
fc
ed
01
00
0e
18
09
08
0f
08
0a
21
0f
0a
12
08
02
ff
f9
f6
f8
03
f5
03
fb
ef
f2
f0
fa
fa
08
17
1a
0c
12
00
02
0a
0a
1d
0b
0c
0e
0d
f6
ff
f9
fb
fe
fe
f7
03
f8
fa
00
fd
07
04
0b
0f
19
15
14
02
fa
fa
fc
0e
0d
ff
fe
f3
00
fb
00
fb
f6
02
ff
00
f4
ee
05
03
fc
0d
08
10
26
12
0e
02
f8
ec
f4
f8
0a
01
fb
f0
f2
08
03
05
fb
f6
fd
f9
f1
f2
f5
01
f8
04
0c
02
11
11
01
f7
ff
f2
f7
05
04
08
f7
e1
e4
02
fe
fd
04
f7
fb
05
f9
eb
00
09
10
05
10
1d
26
09
e9
e9
f7
05
f8
fb
e8
ed
e8
cc
d4
ee
fb
f4
fb
fc
ff
f3
02
f0
08
10
03
04
0d
13
12
f8
e0
dc
ee
fd
04
01
ef
fe
f3
e2
d2
ec
f5
f8
02
fe
fe
f0
f5
f5
00
14
06
0c
11
0f
f4
e3
c2
d2
f1
0d
19
10
01
08
04
06
00
ed
ef
ff
02
05
04
f2
f7
00
0c
25
05
f9
0a
fd
e2
d0
c4
d9
ed
03
fe
0f
19
12
13
18
1f
f6
f8
f4
f9
03
fe
01
04
0d
08
12
0c
f8
fb
04
e0
d8
d6
e4
f2
fe
fd
01
1d
0d
1b
13
2e
0b
f4
fc
fc
f4
f8
01
05
1d
0a
0e
14
00
07
fb
e1
dc
ed
ef
fb
fc
07
08
0c
24
20
18
22
18
fa
f6
fe
fe
00
fd
fc
10
0d
0d
1e
0c
0d
ff
e8
e8
e8
f3
f1
fa
ef
01
09
0d
1a
0b
0f
0c
fe
03
03
fb
f6
00
fa
09
0b
0f
12
1c
13
0e
00
0c
fa
ff
ec
dc
f4
0f
07
1b
03
0d
01
0c
fb
f7
f7
ff
ff
fe
fa
ec
09
06
13
17
19
28
19
20
02
ed
de
e4
00
10
15
0b
06
13
00
f4
f9
f2
01
ff
f7
00
05
f8
f5
fd
16
16
1a
1e
2c
21
f7
ef
d7
e8
0e
18
21
1b
0c
08
fb
f4
f2
03
fd
04
f5
01
02
fb
ec
ed
02
01
0a
18
15
0b
dd
d3
e6
ff
17
2b
17
10
10
ff
f1
04
f1
01
f8
ff
f7
04
04
02
ff
ed
e0
f6
01
f7
fa
f4
de
f0
ff
26
27
20
13
05
f5
00
fd
fe
fd
f9
fc
fb
f5
f7
fc
fc
07
f0
e7
ea
f5
f8
f5
f1
ea
06
0d
21
0b
09
0b
07
02
02
fd
0b
09
fe
fa
03
04
f3
00
f9
f9
ef
ef
e4
dc
f0
f4
02
15
10
11
17
1a
17
03
10
fc
07
00
01
fd
fb
04
f8
f6
02
f8
fb
fb
fc
f5
ec
e1
f3
0c
17
17
1d
1c
08
15
05
f9
0a
0a
03
0b
0b
08
04
f8
02
ff
01
03
ff
0c
06
0a
f6
05
0e
06
07
14
0e
13
0a
0e
0a
fe
14
11
0d
06
f6
f7
f7
04
04
fa
fd
05
f9
04
ff
07
08
11
fe
04
f4
00
ef
e8
e7
f4
f8
06
1d
1b
0c
0d
04
05
f9
f9
ff
fd
ff
00
fc
01
03
00
fa
0e
fb
01
0f
f8
f8
eb
f8
fe
02
f5
03
fd
03
f9
fe
06
f7
ff
01
fa
fb
00
f5
fb
f7
02
03
04
f7
f9
f7
fc
f3
fa
00
f5
f2
f9
ff
01
03
fc
fa
00
fe
fb
ff
03
fc
08
fe
00
fe
fd
00
07
04
fe
02
0a
03
08
05
f9
fb
02
0a
00
02
f9
06
02
04
02
06
00
f9
fe
07
07
01
00
ff
f9
f9
fc
f8
01
08
fa
fe
fb
fe
fc
fd
fb
fa
04
fe
0a
00
02
09
02
07
03
00
fe
05
ff
fe
05
f8
fa
fb
00
ee
02
fa
01
fa
04
06
fd
fe
02
07
fc
08
fd
00
fc
fd
fb
fd
06
fa
09
fb
fc
fe
00
f8
f5
f2
f6
f2
f3
fe
f5
03
fa
fb
03
02
fa
fd
01
00
09
03
07
03
06
fd
07
f1
ed
04
01
02
fb
02
04
12
03
05
06
f5
f3
f8
f8
06
02
00
ff
02
f9
fc
02
09
09
0d
08
f0
f2
fd
ff
0e
0d
0c
08
04
09
fa
02
f8
fd
f6
ee
0b
0c
05
fb
00
fc
fb
02
00
02
06
fe
09
03
04
0a
12
0d
02
06
10
05
eb
00
fe
ff
f5
fc
fd
07
07
05
03
0b
0a
f6
09
f9
fb
f9
01
ff
0d
06
ff
01
02
0b
06
07
f4
fb
02
ef
f6
f1
fb
f6
09
05
08
07
08
03
02
ed
f5
00
09
0a
04
f7
06
04
f5
fd
02
01
fb
fc
09
0d
04
f3
ff
12
fd
02
ff
08
0b
0e
fa
e7
07
0a
10
03
03
ff
fc
f2
01
f9
04
06
f8
06
11
18
0b
09
fb
06
fe
f8
09
fa
01
13
04
fc
fa
fd
04
fd
ef
f1
f0
ec
fc
f7
f1
f7
06
07
21
0e
1f
1e
fc
fd
fc
09
fd
09
fa
09
fc
fd
00
00
02
fe
f8
e8
f3
f6
fd
03
02
03
0a
0c
18
14
08
0f
fc
03
fd
09
00
07
fb
f4
f9
04
06
fd
f0
04
04
fe
00
0f
0a
06
04
08
0d
0a
18
0d
01
03
f4
ff
03
f9
0a
fc
fd
fd
fd
02
f8
05
fe
03
0d
09
0f
16
1c
18
0c
0c
04
03
ff
04
eb
f2
ef
f4
02
fc
ff
02
fc
f5
e4
ec
e8
ec
01
09
0f
1b
24
1f
24
20
0e
04
fd
ed
eb
f4
f1
f2
f9
f2
01
fc
02
05
ff
04
ec
e3
d0
e2
e7
ff
00
12
26
23
23
20
08
01
ed
e1
ee
f5
ff
f3
fa
f9
03
01
09
07
05
05
ec
de
db
de
d8
ef
fe
01
21
19
08
09
ff
ff
00
ec
ef
00
02
f0
fa
ea
f7
fa
08
03
0c
f5
f8
d5
d7
e0
db
d5
cf
e4
fc
09
fc
f7
f5
ff
f3
ec
ef
f8
00
fd
ed
f5
fe
03
06
0a
fe
fe
f7
ee
fa
e8
da
d8
d8
e2
d9
f5
fb
f4
ff
fc
ef
f9
f9
f5
fd
f3
e6
f5
01
ff
07
00
02
ff
0e
0b
fe
f0
e1
e2
e9
cf
d9
d7
ee
f4
fc
08
0a
09
fb
f9
e9
fd
f6
fe
02
0a
04
00
ff
06
1e
0d
06
ff
fd
fe
f6
e5
e4
ef
f1
ff
02
fe
06
07
ff
05
fe
f6
f1
f8
ff
fa
fc
02
06
02
1c
0f
14
13
07
01
ff
fc
f6
f5
01
0a
fb
01
fe
f8
f7
f4
e6
ec
f1
05
fe
f9
08
fc
03
fe
17
11
17
0f
09
fc
0a
0b
f3
01
07
05
fe
01
04
07
f9
e9
e1
f2
fc
00
01
08
0a
03
06
0c
0c
18
05
10
07
02
06
05
fc
01
10
00
0a
fc
f7
f9
fb
e4
f1
f2
fa
f7
ff
fe
00
05
04
07
14
0e
13
15
0c
08
08
08
fc
04
f7
03
05
eb
f0
f9
fd
f0
f7
f5
f4
07
f9
06
02
07
f9
f9
05
0c
08
0e
11
0f
0a
0b
11
09
05
01
02
fc
fd
01
f7
f5
ff
04
09
fd
07
0a
07
01
05
05
03
08
0e
00
05
09
0d
11
0b
03
0e
01
12
13
0d
fd
fc
fe
f8
fe
05
0a
fa
02
fa
07
06
fa
fb
09
05
03
05
fd
04
02
fe
05
04
01
04
01
05
04
06
fe
04
fb
06
08
06
ff
02
f9
f7
f3
f3
f1
f4
fa
fb
fb
f4
fa
f7
f3
f3
fe
fb
01
fe
fc
f0
fa
fb
01
f3
fd
fc
fa
f8
fd
fd
f8
f1
f5
f1
02
02
f8
f4
f4
f1
fb
f1
fb
f1
f2
f2
ff
f8
fa
fe
fd
fb
fd
ff
f5
fb
00
fe
f2
fb
f8
02
fd
f6
f1
f0
f5
f3
01
fb
f9
fd
f7
f6
f7
f2
ff
f2
02
f2
f2
fb
f7
01
f4
fa
ff
fc
fc
ff
fa
fe
f4
f3
f3
fe
09
11
16
0f
08
f9
fc
05
f4
ee
f4
f0
f8
ff
f9
f7
fd
fb
f5
00
f6
f7
fb
08
0b
05
06
04
ff
ed
fc
ff
0d
05
09
f4
fb
fe
fe
fa
00
02
00
fb
ff
f8
fe
fe
fb
07
00
0c
10
ff
ec
eb
f6
fa
e9
f0
eb
ed
f8
02
f8
fe
00
f8
f9
f9
f9
f1
f7
f2
fb
0a
fb
fe
ff
ff
f4
f9
f6
fd
f5
fc
f4
ff
02
09
04
03
0f
0f
07
f7
fc
00
fa
f5
fd
fa
fb
fc
e9
07
f6
e8
06
05
09
ff
eb
f8
f7
f9
04
0d
00
ff
f4
f3
03
f8
fc
f2
fe
ff
fe
f5
f4
f5
f6
05
f8
01
0e
04
ff
09
04
05
fb
f8
04
02
02
05
fb
07
02
06
f8
02
ff
01
f6
fb
07
fe
f7
0d
05
fe
10
0b
1b
1d
1f
11
fe
fc
04
10
09
01
08
0e
0a
1b
fe
f5
f2
f4
fc
06
05
08
ff
05
f7
06
0c
20
39
36
28
ec
d6
ee
fe
04
08
02
04
02
09
0f
06
03
fd
f7
03
14
0a
07
05
0b
fd
07
19
2a
43
3a
f9
cf
c6
e1
08
0f
fa
fe
ed
fa
16
1f
0e
fb
f4
00
ff
08
08
01
15
14
22
28
32
34
30
0e
cf
c3
cd
ed
fc
05
ee
ee
e3
f7
05
16
f9
ff
fc
fc
01
03
07
f8
17
20
26
17
26
26
0b
e0
d0
db
df
f0
ea
ed
e5
f7
e9
ef
f9
13
f7
fc
fb
f6
f6
02
03
ef
10
17
09
18
08
08
e5
b2
b7
de
fd
ea
e6
e3
e4
e2
ed
eb
17
1e
fa
ff
f1
fb
02
fd
fd
f1
03
08
ff
03
03
ef
c2
9b
bc
ea
fe
e6
e1
e2
e7
e8
eb
f6
23
1e
f3
f5
f0
f3
fe
fc
fc
eb
ee
ed
fd
f6
f0
ec
ae
a7
d5
f7
03
ef
e7
e8
ec
e9
fd
0d
10
03
f6
fd
00
fe
f8
03
ff
f0
ed
eb
ea
e5
d0
d9
be
c6
e1
ef
fc
e9
e8
f4
f9
ff
09
01
13
fc
f9
fd
f5
fc
f7
fa
f7
f5
eb
e6
de
d2
c4
ce
db
ca
e1
e7
e8
f3
f4
fc
fe
0e
23
0c
0b
f5
fa
ff
fe
f9
02
ff
fe
f5
fe
e0
ec
f0
d4
de
e7
e9
e0
e5
e0
f5
05
0b
04
1c
14
0b
f3
ee
f9
f5
fb
02
f3
f0
ec
fc
f0
f8
f2
f1
f1
f7
06
02
f9
e8
eb
f5
13
11
21
00
03
03
f0
ef
f8
fe
fd
02
f8
fc
ed
fa
ee
fc
05
f9
04
14
0d
0a
03
05
f7
0e
07
1e
14
08
0b
0e
03
f4
f4
f7
f4
f8
f9
01
f0
fa
01
f9
05
09
0f
0b
08
ff
0a
09
11
13
11
1d
1c
1b
19
10
00
f2
00
00
fa
f5
f1
01
f1
f3
f8
0b
06
0f
13
17
16
ff
05
05
11
0d
17
11
11
0d
0e
f0
f0
ef
00
f3
f6
ff
fe
fb
ff
fe
00
0f
07
22
23
10
0f
03
06
0e
0b
06
12
15
13
ee
fe
f0
f1
f6
f4
fb
f8
fb
f4
f4
00
fe
f6
f7
05
1a
17
09
11
13
17
13
08
09
0f
15
1f
ff
07
06
02
fd
fa
f3
f8
f3
fd
fd
fe
f9
ea
ed
00
f7
ea
e9
fa
f7
02
ee
0e
03
ec
f8
11
02
f8
05
f1
f6
f2
f0
f6
ff
f9
f8
f4
f0
fb
ff
01
fa
02
fe
f5
fb
fb
02
f6
05
f7
f9
fe
fd
01
fa
f8
01
f1
fe
f9
fb
fd
f7
ff
fd
05
f6
ff
f8
f8
ff
fd
f7
05
01
fe
01
f7
00
fd
03
03
f9
05
03
fe
f5
f7
06
fd
05
03
03
fe
f6
fb
fc
fd
07
fe
07
f7
06
05
fd
fb
06
fb
fd
f9
02
07
fe
04
04
00
07
f6
03
f6
05
f7
00
01
fb
09
05
fe
00
fe
fb
f6
fd
f3
02
fc
04
01
ff
fa
05
f7
00
ff
fb
f8
00
fc
fe
fb
03
fa
ff
fe
05
0c
f2
fc
06
06
ff
f1
ed
f5
f5
04
01
ff
fb
03
04
07
03
06
03
ff
04
fc
f9
f9
ff
16
10
05
ff
03
03
08
0e
12
02
fd
01
fc
01
fc
f9
f7
07
f8
fb
f7
04
f5
fd
e9
f4
f3
0c
f7
f7
02
05
06
10
0d
00
05
07
0c
0b
13
0b
02
05
fd
06
fb
00
f6
05
fa
00
ed
ed
ff
fb
f7
00
fe
05
0a
f7
02
eb
f5
ec
f8
ef
04
19
0f
fb
02
03
fc
fc
04
04
fb
00
f0
f3
f8
f4
fe
09
04
09
fc
f3
f8
e7
fa
f1
00
ef
03
0b
15
08
0c
00
f7
03
f8
f5
00
fa
f8
ef
f3
fd
fe
07
03
10
08
07
f4
f4
f8
fe
00
02
fe
06
0d
01
07
06
f6
f6
f9
04
fa
f7
ee
eb
f4
ea
f0
02
fc
10
06
00
f1
01
03
0a
03
06
08
f9
15
ff
f3
02
fd
00
fa
fe
f8
f2
f2
02
fe
f4
fb
f5
09
12
07
00
ea
f6
0d
06
ff
0a
0f
09
05
0b
ef
fd
fb
00
06
f7
f9
f7
02
fc
07
f8
fa
f9
04
08
03
f6
f2
ee
01
f5
0a
fb
0b
09
0d
04
fc
f5
06
f7
05
fa
f8
f2
fa
fc
02
f9
04
f1
fe
07
08
e7
e6
f6
fd
f1
03
09
11
10
05
20
08
f7
fd
00
f6
06
ff
eb
05
0c
f2
fd
08
02
0b
09
01
ed
e6
f0
fb
03
06
05
01
1e
1c
1d
02
06
01
05
f5
04
f5
f7
05
03
08
02
ff
14
14
0b
02
ef
e6
ea
f9
04
f8
fc
fc
13
0d
1a
13
0c
ff
fc
fe
fe
fb
06
0b
02
02
0e
0e
10
14
0f
01
02
fa
ff
03
fc
fb
ff
02
08
17
20
0e
fd
02
fe
fd
f8
09
0b
01
07
12
0b
1b
12
15
16
ff
0d
11
06
03
01
03
fe
0e
0c
0d
11
10
0f
fd
05
fc
fc
07
09
fe
02
03
0d
17
1f
17
16
fc
0a
fa
ff
fd
fc
fd
08
07
05
10
09
14
09
04
fa
00
ff
ff
12
10
08
13
07
12
17
02
11
fc
f9
05
fa
f1
f9
f1
03
fd
0b
11
15
0b
fd
ff
fc
04
fa
fd
04
08
0b
09
0b
0d
11
06
02
fe
fc
08
f1
f6
f6
fc
00
0d
11
fd
01
06
09
fb
fe
f8
fd
00
11
09
0f
19
1a
0b
13
21
1b
03
00
00
f2
f4
f6
fb
04
04
01
01
fb
f9
f8
fe
05
f9
04
00
10
01
0b
0a
12
0f
07
17
0f
fd
01
f6
ee
fa
f6
06
02
f5
08
05
ec
02
fb
04
03
00
00
01
0b
00
12
13
12
0b
12
09
08
09
fd
ff
f6
f4
f4
fa
eb
ec
f7
f4
f2
f4
00
f8
fc
00
f7
f6
fe
f0
f8
0c
11
07
09
0a
08
0d
07
0c
11
fa
f9
fb
ec
f3
f3
ef
f0
03
fc
f6
02
ff
f8
f7
ef
ec
f2
f1
fc
06
ed
02
fa
05
01
ff
00
f3
fb
e6
ea
f5
f9
f9
06
ff
f6
02
fc
02
fa
05
f9
ee
ee
ed
e1
e9
e9
e7
db
ea
f0
03
fd
e9
ea
e8
de
ef
f3
f4
fe
00
04
ff
04
f8
fc
04
01
05
fc
f9
f4
ec
ec
f1
e6
eb
e4
f1
e5
f0
e2
ea
f6
fe
fa
fc
fc
f8
01
fe
06
f8
02
01
07
f6
f6
01
03
04
f4
fc
f3
fd
f8
fc
ff
f6
01
ff
fc
02
03
f8
00
fc
04
03
fa
01
05
f9
06
06
03
fd
f8
ff
fa
f5
fb
fe
fb
fc
fc
fd
f7
f9
04
03
f6
05
ff
fe
ff
f9
fd
07
04
03
03
06
07
04
fd
04
05
ff
fc
f8
01
fb
fb
fc
02
ff
f5
05
00
f7
00
ff
fc
01
f7
f5
fe
02
00
fa
fe
01
fa
f9
02
03
ff
f5
f8
fa
f8
02
f9
fd
fd
ff
f9
f5
02
03
fe
fb
ff
fb
07
f7
fe
f3
f9
f3
fc
f4
f0
f7
eb
dd
d9
e8
e5
e1
e4
f4
f4
02
04
00
01
07
00
01
ff
fc
03
00
f3
fd
04
fc
eb
f3
e9
df
e0
e7
e9
ec
e6
f5
05
eb
f9
f7
f6
fc
05
02
f6
04
fa
fc
02
00
00
f0
ee
fd
11
0a
00
f8
f6
fd
ee
df
f6
f3
fc
fd
ff
06
09
fd
01
15
ff
f6
fc
ff
07
08
02
03
0e
0f
0d
24
10
08
05
fe
04
08
06
13
0e
23
0a
1b
fc
f6
02
0d
00
07
03
f7
08
06
00
fe
15
0d
17
14
12
0c
0f
08
06
0b
14
03
1d
14
11
1c
09
05
fc
01
05
fa
03
fd
f8
03
04
0f
18
0a
0e
04
10
19
0f
13
1c
07
13
fe
10
14
0e
0d
11
15
07
08
fb
fe
f8
ff
02
09
08
1f
19
09
0c
06
1c
1d
27
26
27
09
0a
0a
02
01
02
fd
f9
06
fe
01
04
04
f9
f6
ff
f9
08
23
19
09
08
19
24
1f
22
2f
27
13
06
f8
0c
f6
f4
fb
fd
f6
0b
08
0d
05
05
04
fe
f8
00
0b
12
0f
08
0d
0c
12
1a
12
ff
02
f4
fb
01
f9
fa
ec
f4
f4
07
09
08
f6
06
07
04
fe
07
00
00
f9
f4
ef
f3
f0
e2
de
dc
e9
f0
05
fe
08
f1
f5
f3
f6
fb
03
00
f7
fc
fe
f8
fd
f0
f3
ef
ec
ea
e7
f3
e3
d8
e3
e7
e9
fd
fc
05
06
fb
f8
ef
f0
fe
ff
0d
fa
03
fc
fb
fb
e6
db
e5
e2
e0
e6
ee
ea
e3
ee
f4
f7
ee
fe
07
08
01
f8
fc
00
fc
06
04
fb
06
05
fa
f1
e8
dc
f0
ee
e7
e6
f8
ec
f4
fa
ff
00
ec
f4
00
fc
09
fe
e9
fb
ff
ff
0c
f7
02
fe
04
f5
e9
df
f4
fc
f9
f7
fe
ff
04
fd
fe
01
08
08
fa
f6
00
13
02
05
06
08
01
08
fb
00
02
00
f4
ef
f4
02
04
04
fc
01
f9
f9
fe
10
01
04
ef
eb
fd
06
00
fb
03
07
05
fa
f7
02
fe
f7
f8
01
07
15
07
fd
fc
03
02
06
0f
05
03
0d
fe
e7
fa
f6
0a
0a
09
fc
02
fe
05
f9
06
f0
f9
f9
0e
0b
0f
06
08
0c
0b
12
11
07
08
11
07
ff
04
02
fa
0b
07
02
ff
fa
00
06
f9
07
02
08
13
13
14
10
fe
ff
ff
01
ff
08
f9
fe
ee
ee
f7
ef
f3
11
0f
06
fd
fb
f5
00
0a
fd
ff
11
03
0f
0c
0f
00
fb
f6
fe
04
f9
f7
fb
f8
ed
e8
eb
f8
18
12
06
04
00
f6
ff
f9
ff
fe
04
0d
0d
15
0c
08
f7
02
04
f6
f2
f5
ee
f6
ec
f0
f1
10
12
0e
fd
00
fc
fc
f6
f5
fd
fc
09
0e
1b
16
05
06
ff
07
fd
02
ef
fb
fd
fe
03
f9
00
18
13
15
ff
f5
f5
f6
f7
f4
00
f6
fc
f9
fe
fe
f1
f9
00
06
02
05
08
06
05
13
21
06
08
ff
0a
fd
fe
fe
f9
f5
01
f7
f7
06
fc
04
06
00
f6
0a
11
0a
11
18
19
1e
12
1e
17
10
07
00
01
07
f9
02
01
fb
02
fd
01
fb
ef
f6
09
03
07
06
15
10
1b
1d
11
0d
02
0d
16
02
04
ff
f5
f8
f9
00
f7
f7
01
f7
06
05
07
03
08
fe
02
f9
06
04
01
fd
08
06
05
05
00
fc
00
06
fb
00
fd
f7
03
00
0b
05
00
fa
fa
fd
06
fd
07
05
fb
07
02
06
04
fc
02
06
03
0a
05
f9
fc
fd
08
02
fa
06
fc
06
fc
0b
fb
00
0a
06
06
06
08
0f
03
07
06
11
0f
0c
fe
0b
07
0a
06
fb
04
08
09
00
fd
02
ff
06
03
fb
02
0e
0c
0b
0c
0e
11
06
0e
07
06
fd
fb
0d
0d
ff
0d
03
fc
08
00
fb
f9
ff
01
05
fd
0c
04
03
06
13
14
11
13
0c
06
02
06
f3
fb
ff
01
03
0a
0a
01
04
03
fd
08
09
05
00
fd
0e
01
01
06
04
ff
f8
fe
05
fa
08
01
fd
00
08
f1
fc
f8
ee
f8
01
0a
0a
08
0b
03
0c
04
05
07
08
fb
fa
fd
f3
f3
fa
06
0c
ff
07
05
fc
fa
ef
ee
f8
01
01
fd
07
07
04
0d
fe
05
07
04
01
fe
03
04
fe
f7
f1
f3
ff
f7
f9
e9
dd
fb
ff
f5
f2
f2
08
0a
04
fc
fd
fd
00
0d
0d
fe
f8
0d
0b
01
05
0c
0a
fb
06
0b
f5
fb
f6
f5
f2
f5
f1
05
fe
06
09
02
02
05
07
ff
f6
06
03
0f
0b
05
02
fc
08
07
17
0f
03
f8
f6
fd
f4
f7
e9
f0
f7
05
0b
03
07
05
0e
0c
f1
fd
ff
07
06
f2
fe
fe
f5
0c
17
0c
03
fa
fa
fa
f4
ec
f1
f0
fe
09
0b
0a
07
fd
fc
f6
ee
f1
fc
f6
f9
f8
ea
f0
fa
05
10
0d
01
f1
00
07
fd
f1
f2
ef
01
fc
fc
02
05
fc
f4
f0
f1
e9
ee
f0
f9
fd
fb
ee
f1
f1
fe
06
fc
00
f8
06
00
f2
ec
f7
f2
0a
02
ff
04
ff
ed
ec
e3
f0
f6
f6
f1
0c
04
fa
ee
e9
04
fc
fc
f4
fd
f5
f7
ef
0b
f6
f7
05
fd
0a
fc
f8
f8
f1
f3
e6
eb
00
0f
06
ff
03
e1
e3
f9
fe
fb
f4
f0
f6
07
03
0c
06
02
00
07
07
02
fa
e7
fb
f2
02
f7
03
0b
1e
02
f3
e9
e9
fb
fa
f9
fa
fa
fc
00
05
13
02
03
07
ff
07
07
02
e6
f6
e8
02
07
0d
14
08
00
f6
ea
f5
fb
fc
fc
00
fe
0a
04
04
12
0d
07
06
fc
05
06
02
fb
fc
f8
ff
0e
10
12
0a
f7
f7
f5
08
10
07
05
09
fd
11
0b
02
05
10
0c
05
0a
0a
08
fb
f8
fa
f8
00
11
12
08
fe
01
f8
03
fe
05
02
12
11
13
12
11
02
12
13
03
07
0b
ff
00
00
03
01
f3
08
05
08
fa
fc
f9
08
02
ff
fd
02
13
05
03
0b
0f
07
02
16
03
04
02
0b
04
01
05
f9
03
fb
f3
04
06
07
0b
11
16
10
03
0b
07
fb
08
04
0c
f8
00
0d
00
0b
03
01
03
0c
01
00
f1
02
ff
ff
0b
11
1d
09
13
fd
f0
f7
00
ff
f8
03
ff
01
fb
f5
06
00
06
0c
0d
13
0c
f3
f4
ec
f9
04
06
06
0e
14
ff
f6
f2
f5
f5
f1
01
fd
ff
08
f4
01
0b
fa
01
04
0a
fd
fa
f9
fb
ff
05
02
ff
0b
0c
00
fd
00
fe
ef
f0
02
f7
f8
fb
f2
f1
f7
02
ff
fd
fa
05
06
ff
fb
f4
07
03
0e
fb
fd
01
01
0d
02
fb
f7
f6
fa
fe
00
ef
ee
f5
fe
f9
05
01
01
fe
08
fb
fe
00
f9
f8
01
ea
ed
f8
f7
04
07
fb
06
02
e7
e5
f5
f2
f5
07
ff
09
09
09
06
03
03
00
05
fc
fb
fb
01
fa
04
f6
f8
01
0f
ff
ef
e9
ea
ec
f0
03
04
0b
06
02
02
fd
01
ff
ff
09
02
f8
fe
02
ff
00
fb
f3
00
fe
07
06
ff
f5
03
05
03
05
06
fb
fb
08
01
01
05
fe
fc
fc
06
09
fa
fc
04
09
05
f9
ff
07
fb
fc
fe
0b
09
fe
08
04
ff
08
fa
07
fb
f4
f8
05
fe
06
f7
f9
f9
04
fd
00
f8
02
f7
03
fc
fe
fc
f9
ff
02
fd
05
fa
f5
06
fb
f5
f8
fa
01
06
02
02
01
fb
f5
fb
03
f4
fa
fd
02
fa
05
04
f3
fb
f4
03
fd
f4
06
06
06
f5
f6
04
fa
f6
03
06
f7
f5
fc
f9
ef
fa
f9
f6
ec
e8
eb
f3
f5
fb
fd
fb
fa
f7
03
f6
03
02
ff
ff
fb
02
02
02
f8
fe
f4
eb
e8
ed
e9
e9
f9
fc
f1
ef
ea
e9
e9
f9
f2
f8
02
06
04
f9
fa
f6
fb
f7
f5
f2
00
f9
ec
e8
e0
f3
ff
03
06
fe
f1
f4
f0
ed
f4
ef
f4
fd
00
f8
f5
04
fd
03
f9
02
02
fd
fe
f1
14
0f
08
14
1d
1c
07
f7
f1
fd
fd
f7
ef
fa
f3
f5
fb
fe
f9
f5
f5
fe
05
04
fa
f8
fb
05
0e
15
16
1b
14
1e
07
03
10
19
09
08
f9
08
07
01
f7
fb
f8
fd
05
fa
fc
01
f1
f1
06
05
05
11
02
0f
0e
08
01
0a
08
10
15
11
03
04
05
05
06
02
f4
f6
01
06
04
09
fd
fe
06
0e
17
15
0a
11
fd
fe
ff
09
12
00
12
09
07
06
ff
01
fe
fa
f7
f7
01
f9
fc
00
01
11
1a
01
ff
01
02
04
07
00
09
04
04
06
17
0c
11
08
0a
09
06
f4
f9
f7
fa
f5
fd
06
fd
17
1b
05
fb
09
00
00
f7
f9
02
03
02
09
0f
0c
0a
03
11
07
fc
f5
fa
fb
fb
fb
fc
05
00
03
1d
0d
15
06
07
06
15
0c
00
f7
fd
0d
07
08
0e
08
03
fe
fb
f3
fc
fc
00
02
06
0b
0a
0d
0b
0e
14
08
f6
04
ff
fc
f3
f7
ff
00
ff
02
02
06
03
05
fa
01
f9
f9
fa
ff
f9
0a
0c
06
08
05
06
03
fd
06
00
eb
f5
02
0a
04
0e
00
0b
11
0a
f4
00
fb
07
f9
f7
fb
f7
ff
03
06
fa
09
f0
ef
02
05
fe
f6
f4
fd
ff
10
1a
13
12
05
f9
f3
f6
fe
fe
f7
04
f9
00
03
02
fb
07
08
00
fa
f2
f7
f2
ef
ee
03
ff
15
11
10
06
03
06
fb
f9
fa
01
f5
fe
00
01
03
09
f2
01
14
15
02
f3
e9
f4
fb
f4
0c
0d
1d
0e
fb
08
ff
fb
f5
f1
f0
ff
fe
06
ff
02
fd
fa
00
06
12
0f
01
ef
fb
f2
01
06
12
0a
0a
f7
f4
f3
fd
fe
f1
0c
ff
fb
f9
00
fb
f5
f1
f7
fb
0f
0e
09
fe
ec
f8
f2
f5
fd
f7
fb
0a
03
f9
f5
fc
fc
fa
00
f1
06
f8
fa
f5
04
ed
fc
f6
f1
fa
f2
f0
f6
f7
04
fd
ee
ed
ec
03
00
05
fd
f7
04
ef
f6
fa
ff
ff
04
f5
03
fb
f5
fe
ed
f1
ef
f7
fc
f2
fc
f0
f0
f1
e9
f0
e7
fa
ea
f9
f8
fd
fc
fb
f9
00
f8
fa
03
f9
fe
07
f3
ee
fa
04
fb
f8
ed
e9
e9
f3
f5
ed
dd
f3
e0
df
ea
fd
fa
f7
f4
01
04
fe
fa
f3
f4
f5
fe
0a
05
fa
01
f7
0b
fd
fc
ec
f8
ed
ea
dc
e6
e9
fd
fb
03
ff
03
f7
f7
f6
01
02
f3
fb
07
11
ff
03
f9
02
0a
03
ff
f8
07
ef
f4
f3
ec
f6
00
f9
fc
f6
fa
f6
fd
f5
f5
f4
01
10
0e
fb
00
f2
01
0a
01
04
03
fe
fd
f0
fa
04
f9
f7
fa
f9
fc
f8
f6
04
fa
f4
fd
03
06
07
02
fa
fa
f5
0b
06
f5
00
01
06
01
02
fa
02
00
02
f9
fd
fc
01
f7
06
01
f6
03
f9
fa
fa
ff
05
0e
10
0c
fa
0c
0e
17
03
00
03
0d
05
08
03
fd
02
fa
fc
fe
f5
f8
f9
04
fb
fb
fc
f6
f6
04
fa
fa
f9
fe
f8
fd
01
07
04
fe
fa
f9
fd
08
f8
fc
fc
f7
02
f8
f7
f6
05
f4
f8
fc
f6
fc
fd
fc
05
fc
fe
04
f4
fa
01
fb
02
f7
fc
fc
f7
f7
01
f4
fc
02
05
f6
f6
00
05
02
f9
f4
00
fd
f4
f7
f9
fe
f6
03
ff
03
05
f6
fc
f6
f6
f5
01
01
f9
f6
fa
f6
fb
f4
fe
06
fe
fe
07
08
02
05
fe
00
03
03
fa
f7
f9
ff
f3
f6
f6
fa
fe
06
06
00
f9
f8
fe
fc
fb
f6
08
07
02
18
18
20
17
15
1c
17
15
fb
f2
01
05
f9
fa
f6
f8
fe
ff
f6
f7
05
fc
03
fa
04
18
20
22
30
28
2a
2f
22
1c
17
1a
09
f6
ff
ee
ee
f8
08
07
fb
f9
f5
f9
04
ff
00
02
14
0b
15
16
17
0e
23
1d
16
09
0c
15
f9
fe
01
f7
e7
e8
f6
02
ff
02
05
00
f4
08
0a
ff
05
03
0e
1d
0f
0d
05
15
ff
06
04
fb
fb
ed
f6
ed
ec
eb
ff
f8
f6
ff
ff
fe
04
03
08
fc
0f
0c
11
16
05
fe
06
f8
f4
f8
fa
f3
f2
f0
e0
ed
f6
e9
fc
08
f5
fa
f6
03
02
03
12
fd
0d
0c
0a
10
05
f5
02
fa
fe
f5
03
04
13
0d
e9
ea
f2
f3
fa
02
fe
f7
06
00
fa
fb
f9
15
07
00
03
fb
fd
eb
fd
08
0c
06
06
0e
10
13
fa
f1
fc
ef
f1
01
fd
f4
fe
fb
00
ff
00
0f
fa
fd
f1
f1
fb
fb
14
11
13
0c
0c
1a
13
18
06
ed
eb
f4
e0
f7
04
fe
f7
f6
f1
f3
f6
e9
eb
e3
ed
ef
f9
18
18
0d
13
16
17
1d
15
00
eb
e3
d7
e7
ed
03
01
f9
f7
00
f5
ed
f3
e8
c9
d8
e3
ef
f4
0d
23
1a
15
0c
0d
0c
f9
f7
db
d2
da
f0
00
07
05
f9
05
f5
fa
fa
e2
e7
df
d5
df
e3
e0
06
11
1b
1d
14
0e
01
f0
dc
da
d7
db
f1
ff
07
fa
f7
ff
fd
00
fe
f2
e4
dc
e1
de
e0
d4
e4
ec
0c
09
0c
06
ff
ec
ec
e9
e9
e6
ed
f3
0a
00
f5
05
f5
fa
f4
f1
e3
ec
e7
f6
f1
de
e7
de
fd
10
fc
ef
e6
e2
01
fb
ff
02
05
01
09
01
06
01
05
fd
f8
f7
ea
fe
0e
0a
03
f0
e0
e0
e1
f9
ed
e9
f1
02
ff
ff
05
0d
16
15
0f
02
f7
03
f8
06
00
fa
f4
0d
0a
0c
11
f3
e9
e7
eb
e8
e3
fb
ff
01
10
0e
03
01
11
07
0f
f8
00
04
ff
f8
ff
f8
0d
24
0f
19
13
fd
ff
f0
f2
f8
f2
04
0e
13
19
0f
02
11
1b
02
fb
00
fd
f7
fc
fc
09
08
09
12
1a
07
08
06
f7
f4
ff
f1
03
09
0c
0c
0b
0e
0e
09
06
ec
fc
fa
fb
02
fb
01
00
0b
08
10
10
0f
ff
07
01
f7
f8
f1
f8
05
00
02
fe
1e
06
08
0b
fe
fe
fb
05
fc
ff
03
06
0d
f7
07
07
fe
07
09
f5
ee
ea
f6
f2
0a
00
f8
0a
0e
02
03
06
f6
f4
01
04
fb
fc
fd
fa
fb
04
14
10
f6
fb
0a
07
fa
fc
f2
f8
fb
04
06
0e
1c
04
01
f9
ff
02
04
02
f8
fa
03
0a
01
fc
01
ff
0a
01
01
fe
fa
04
f2
05
03
0a
1f
0d
0f
14
04
09
08
fd
fe
03
fb
03
04
08
06
fd
00
0c
04
0a
03
fc
05
05
03
fc
0f
f8
06
0b
07
02
fc
00
04
07
f9
00
fd
ff
01
01
f4
f6
fb
fc
07
04
05
f0
ff
05
08
fe
fb
fa
fe
fc
fd
f8
f0
fa
02
f4
05
03
05
fe
f8
06
f7
ff
f4
ff
f1
04
01
ee
f3
f0
eb
ef
fa
00
ff
fc
f6
f9
f5
01
04
fb
f9
fa
fb
05
fc
02
05
fd
01
fa
ff
f7
f1
02
f3
f5
f7
01
fd
f7
05
fd
f9
03
f5
ff
f5
fa
f8
02
fb
fb
06
04
0a
fa
ff
05
06
01
07
fe
02
fa
fb
fe
fd
f9
01
fc
06
00
f9
f8
fc
07
00
fa
00
ff
05
05
f8
fb
07
f9
02
ff
fb
fe
fe
fb
fd
07
00
f9
fd
f8
fc
fc
f7
ff
09
fe
03
07
05
08
00
ff
07
00
06
00
fb
04
f2
00
f1
e8
e7
f0
fc
00
07
fb
05
fa
ff
04
09
06
03
00
06
07
f8
06
fc
01
04
05
fe
ee
f4
e8
ed
e5
e7
f3
f4
ea
f1
02
fb
fa
00
fb
00
f9
08
fe
fb
04
00
07
07
0a
0b
02
f9
f3
ed
f1
01
f5
ee
f8
f9
f8
04
13
f9
f9
01
ff
03
02
fe
07
ff
09
04
02
05
07
0d
0f
fd
03
f5
06
0c
03
f9
fd
09
06
fb
0a
04
06
fc
f7
f8
ff
fb
fc
01
fa
fb
01
01
0f
18
0d
0f
0b
03
05
13
0b
f7
fb
fb
ef
ea
f4
fd
f8
08
10
fc
fe
fc
03
03
03
f9
fc
0a
16
15
12
10
ff
ff
0d
08
05
f0
f2
e4
f5
ef
fa
f9
fb
fd
0a
0c
f8
03
fb
00
08
0c
05
05
10
0d
10
02
08
0c
08
0e
fd
04
ff
f2
f8
ff
f6
fc
fe
0f
ff
12
17
fd
fd
02
09
05
0d
00
06
12
09
13
0d
03
03
08
07
0d
fc
09
08
0a
08
07
10
1c
0d
09
05
fe
f8
07
f9
fa
0d
0e
04
04
01
fa
02
fa
fc
11
0b
f8
01
f9
fa
0a
09
16
0c
0e
15
03
03
02
fa
fe
01
00
07
05
04
0f
fb
f6
06
03
0a
19
fb
f4
fb
e9
fd
f1
05
0e
fa
0a
02
11
01
0c
05
07
fa
f7
f3
03
0a
0f
fd
fc
f9
0e
19
1e
16
00
f5
f9
04
00
0b
1e
20
05
19
13
09
fb
03
00
07
fc
fe
ef
01
04
f0
04
0c
0f
17
21
1a
0a
0a
09
0b
15
18
24
26
1d
0d
11
01
fa
08
01
fc
f8
f9
f6
f5
e4
e1
02
f9
01
0f
1f
1c
22
12
17
13
13
10
15
11
fe
0d
f7
04
fe
05
03
01
08
02
f8
df
df
e2
ee
e9
f8
0b
1c
29
20
21
11
fd
fc
fc
f3
04
04
f6
f5
f6
fb
03
05
fa
0a
0c
f6
de
e7
e5
d7
e3
e7
ed
10
20
1f
0a
f7
ee
f5
e9
f4
f1
f5
03
05
f6
01
fc
fd
fc
05
f9
ff
dd
ee
f3
e4
d1
d7
dd
ff
0d
06
f8
ec
e5
db
df
e2
01
ff
05
06
fc
07
01
fa
ff
04
fb
02
fc
fa
e9
e3
e7
df
f2
ee
f2
e7
e8
ed
e5
e4
e8
ee
05
00
08
fa
00
fe
fc
fb
05
01
0a
05
f9
f8
f6
f1
f5
fe
f1
e6
f0
e5
eb
f2
fb
08
fe
fe
02
fb
00
fb
fc
04
04
f9
fe
05
00
0a
f7
04
04
02
05
03
fd
fc
f6
f9
04
f7
02
07
f4
02
07
07
07
ed
02
05
01
fb
06
01
04
02
05
11
14
05
ff
09
0f
0e
f8
f7
fb
f2
06
ff
f0
fd
fc
05
ff
f9
f3
00
ff
ff
f9
02
02
fe
0d
07
13
08
fd
0c
0b
03
00
05
fb
fa
01
fa
fe
06
f9
00
06
04
fb
05
ff
f8
07
fe
0a
00
f8
ff
0b
08
02
09
15
fe
02
03
f5
01
fd
ff
fb
01
09
f7
fc
fc
03
ff
fa
fc
04
07
0c
fe
fa
0e
05
08
0f
0f
16
fb
0c
0a
fc
f6
f0
f8
06
f9
fe
08
fe
00
04
fe
fd
09
06
08
fb
fd
0b
0b
00
0c
07
11
04
f6
06
0c
f4
f9
f6
f3
f3
07
fe
02
fb
f8
fe
f9
00
fe
0a
04
07
01
08
0a
f5
fc
f8
f5
f3
f4
e9
e5
f5
f9
e8
ed
ed
f7
fc
f9
01
01
fd
08
06
05
05
f9
07
06
07
08
ff
00
06
02
fa
fa
f7
f8
06
f9
fe
fc
00
f9
05
03
04
07
fb
f8
00
f9
fa
07
05
fc
02
fb
05
05
fa
05
04
0a
01
0b
04
00
fe
00
fe
ff
0a
00
fb
06
fe
00
f9
01
07
0a
08
07
00
09
07
fe
fe
07
03
09
fd
07
fd
fe
01
04
08
0a
ff
02
fd
f9
03
00
fe
08
fb
ff
fc
01
fb
ff
05
0a
05
0e
11
0a
08
0a
05
03
13
14
0d
0d
ff
06
0e
01
fc
02
07
03
00
fe
05
04
fd
00
01
fd
0b
03
05
07
fe
08
03
08
08
16
0a
0f
06
07
06
0a
06
04
04
08
fa
09
fd
ff
ff
ff
00
fc
f7
fa
05
fd
01
fa
04
14
09
f9
fc
00
f9
f0
01
fa
fb
fd
02
fd
fe
03
09
fb
00
01
02
f6
f7
fb
f5
fe
fc
0d
05
04
0b
ff
01
ed
f8
ef
f0
fb
f8
fd
01
05
07
02
02
fe
03
09
fe
04
fc
f0
00
fd
f8
fc
05
03
08
f2
fc
fa
ef
e6
e9
f5
f4
f7
06
02
fc
05
fc
f9
f4
f4
05
f7
0c
07
00
fa
f3
fa
fa
f7
0b
01
f3
f1
f8
fa
f7
ef
f4
ff
f9
05
09
05
08
04
f9
fb
00
18
0d
07
0f
05
f4
f0
f1
f6
ef
ff
f7
f8
fc
ef
e5
f0
fb
00
05
fd
fd
0d
03
0d
fd
01
fd
0c
10
16
00
fb
f2
e1
eb
f0
fb
f2
fb
fa
fd
e9
f0
f9
fe
05
04
07
03
08
02
0a
f5
fc
02
0e
10
0b
06
f2
f0
f2
f0
f2
fd
f6
fc
ff
05
f7
03
f2
ed
06
fc
fd
fc
0b
02
0c
ee
ed
03
13
20
0e
19
06
fc
ef
01
01
0b
08
0b
06
06
12
ff
f5
ef
f6
fa
04
04
ff
15
02
f5
f2
0e
11
17
08
1a
f9
f1
f3
0a
fe
08
0e
02
09
0d
08
00
06
f0
ff
06
08
08
09
0a
0d
08
f4
04
fc
03
0d
09
fa
fb
f8
02
fb
fd
01
09
0e
16
0b
10
fb
ef
f5
fc
09
04
09
03
f2
01
f2
fd
05
0b
01
09
fd
f1
f8
f8
f6
fe
08
14
0f
19
15
06
fe
f6
ff
0a
02
07
00
fd
f8
fb
fe
fd
03
fe
00
0b
03
f9
fb
fa
f2
09
0f
0e
0b
0e
0f
f4
f4
01
fc
fa
04
fd
ff
fe
03
fd
f9
f9
09
f9
fa
03
02
f8
f6
01
00
1a
09
fe
08
08
f0
ee
f9
00
00
fb
0a
fa
03
f6
ff
fd
fa
f8
fa
fb
fe
0f
fc
f4
f3
fc
0f
1a
03
01
09
f2
ff
eb
f9
fb
fc
05
00
0b
f9
f7
ff
fa
f5
f7
fb
f6
08
16
09
f7
ff
06
0b
13
04
fc
f6
ec
f7
e6
e8
05
00
06
06
01
07
f4
f4
f4
f0
ef
ed
03
11
10
12
f1
f7
fe
fb
04
00
04
fa
f3
ea
e6
f6
fa
fd
fa
fc
03
07
01
f9
f7
f0
e8
e8
fb
0e
0d
05
f7
fc
f7
fe
fb
f5
fc
e1
e6
ef
f2
f5
06
04
ff
07
00
03
03
f7
f7
ee
e4
ea
eb
01
02
0f
07
ff
03
fe
06
01
ed
de
e2
fd
e6
f5
f7
06
ff
04
fe
06
02
fe
ff
f4
f2
ee
f2
ed
f0
0a
0e
1a
10
18
00
ee
f5
ea
ed
f6
ed
01
ff
f9
ff
00
08
02
03
f7
fa
08
fa
ed
e0
d6
e6
f9
08
19
10
0b
f2
e5
ef
ec
f6
f6
fa
fd
07
01
03
0a
ff
07
00
fa
04
09
ee
e9
df
da
ee
f3
f8
05
10
07
f2
e2
f0
ef
ec
f5
fa
f8
ff
fd
ff
fa
09
02
05
0c
0a
01
fd
f4
ee
e8
f2
f0
fa
0f
0d
08
f9
fd
07
f5
ff
fa
fe
f9
04
fe
03
fd
03
f9
f9
fd
00
fe
0b
00
0c
fc
07
09
08
0f
04
0c
12
16
18
0b
05
03
fc
fe
06
09
01
05
07
fa
08
09
08
04
fd
08
fd
06
07
06
0c
05
00
0b
fe
03
0d
00
fc
08
ff
fd
09
fb
fb
07
04
fe
0b
ff
07
06
fd
0b
01
05
04
fc
fc
fd
02
0d
ff
0c
00
08
03
02
08
08
fe
08
09
0d
07
01
02
0a
04
08
06
fc
06
06
0b
09
02
ff
f9
00
09
fe
fc
ff
fe
fd
fd
00
01
07
0b
0d
09
05
fc
05
fe
ff
05
02
07
06
fb
fe
f8
02
fe
f7
f3
fd
06
fe
02
11
07
fe
05
fd
03
06
00
fd
08
04
02
02
0c
15
0c
f8
f1
e5
e0
ee
f6
d6
dd
e3
08
03
12
1b
09
04
07
06
06
05
fd
01
05
09
0c
14
18
13
0a
05
e9
e6
e1
e8
e0
e6
ec
05
1a
24
24
1b
14
03
fa
0a
fe
ff
02
fc
fc
08
18
0d
13
15
02
fa
e3
dd
cd
f5
f3
ed
0a
29
2a
15
0f
07
19
1e
09
0c
fe
09
08
fa
fc
0e
20
22
2b
25
fe
cd
cf
d1
e4
08
14
0e
12
14
15
18
08
e7
11
0f
18
0b
0c
0d
07
05
fe
1f
2d
22
15
10
de
b9
b8
d2
f5
01
08
0c
16
1b
09
15
07
ec
f1
05
0c
06
05
07
0b
11
09
1e
1d
0c
f3
e7
cb
c4
cd
de
f9
f2
19
0f
1e
0a
10
06
ff
e2
e3
e9
04
04
0c
09
0c
0a
0a
12
1a
0b
fe
d4
d7
d2
dc
df
f8
fd
18
1f
1f
11
fd
f5
06
e8
e5
f0
03
05
06
fe
ff
0a
fe
1b
1f
07
f9
e1
dd
eb
e3
ef
f3
fd
0d
13
1c
0f
fe
e4
ec
d5
de
f7
09
09
0b
ff
06
ff
0d
0a
26
17
05
f5
e0
e0
e3
f9
fa
f9
f8
10
11
0c
e7
dd
e2
c7
f4
05
0b
09
08
07
01
fa
0c
08
24
1d
0d
fc
e7
d4
d8
ea
f8
e8
dd
09
09
f9
ea
e6
ea
e1
04
05
07
0c
fc
ff
ff
ff
07
08
13
14
05
02
ed
d6
eb
ec
e3
e1
e8
04
05
f2
f1
f6
ec
ec
03
ee
fa
01
06
fc
02
01
0a
0e
1c
0e
07
04
f9
fc
f8
f8
06
f8
f1
14
03
f4
0d
08
0d
fe
fd
f6
0f
fd
fd
0a
0c
fe
0f
20
1e
14
0b
0e
07
fc
ec
f1
fc
fe
fb
23
0d
02
05
0d
18
04
f8
05
1b
08
07
0d
02
0a
05
12
1d
13
1d
0d
15
0d
02
03
f9
ef
02
1b
06
08
15
1b
1d
0d
fd
0e
0e
02
09
01
fc
0c
07
0b
17
11
0d
03
06
fc
f2
f4
f5
0a
0e
10
0d
18
0e
0c
0d
17
0e
00
01
04
0d
01
0a
01
08
14
10
06
02
f8
fe
fb
01
0a
14
0f
fb
01
f5
fd
07
0d
09
f3
05
f5
03
09
0c
00
0a
03
0e
06
09
18
0e
f1
fa
04
13
0a
0c
06
0d
fe
f3
00
fb
11
06
ef
f1
ec
06
fc
03
0d
fb
0d
14
0b
08
11
16
06
ff
fd
fd
05
01
03
0b
01
fe
1b
01
10
1e
fd
fe
fc
0b
0d
07
fe
01
fd
08
09
ff
f4
0a
02
fb
02
08
04
04
0f
05
fe
fc
0b
05
0f
20
11
ff
06
08
05
fe
04
0d
08
09
ff
f6
e5
f6
fa
01
06
14
0e
fe
11
04
fa
f2
00
17
28
24
16
fd
fd
05
fd
0d
0c
09
00
fd
10
01
ef
f6
fe
04
15
08
13
03
0f
01
ea
e8
0f
21
31
22
f4
f9
f0
fd
00
0c
0c
02
03
0b
fa
f2
f6
f2
01
fa
dc
f8
f1
05
fc
e4
d8
e8
16
16
17
06
e5
f0
f6
04
09
0d
05
01
fc
07
03
ff
02
02
07
f7
e3
e3
f8
fb
ea
ee
e1
f9
0a
ee
e0
ee
f2
f0
09
0d
02
06
09
ff
fe
0c
07
00
ff
0a
fc
02
f9
fb
f4
f6
01
01
05
f9
f8
eb
ef
fc
f8
05
fb
06
04
04
06
fb
04
0c
0d
0a
00
03
fc
02
09
08
05
06
fc
04
01
0b
f9
ff
01
06
f9
09
09
fd
08
0a
0c
0b
fb
07
08
02
05
02
05
00
0a
07
0c
04
fe
04
ff
05
fc
07
00
04
02
0b
0a
fa
01
00
01
05
fd
fc
07
00
fe
01
0a
06
00
fc
03
03
0c
0a
fb
08
06
0c
07
0a
00
fe
fc
0c
04
fc
ff
08
0b
ff
06
06
06
0a
00
01
fd
0f
09
fc
02
0a
08
04
04
0e
02
07
01
05
06
fc
00
05
07
fd
00
01
fb
ff
00
03
13
04
01
06
fb
06
0d
07
07
07
10
04
06
07
0f
fc
fc
fe
fe
fa
02
04
fb
05
08
07
f8
fc
05
02
00
06
08
04
05
0a
04
f9
fe
f6
fa
fb
f8
f9
03
02
0a
08
0a
fe
03
fd
07
0b
08
0d
0a
01
f5
fa
02
fd
09
fe
fd
fa
f0
01
f8
e4
e7
fb
f8
ff
08
06
fc
fb
0c
0d
00
fd
00
03
01
08
06
0d
fe
fc
f9
09
04
0e
02
fa
01
fd
f0
f8
fe
f4
fa
02
07
fd
08
04
05
fa
f1
fe
f9
03
04
04
fc
03
fb
0f
0b
ff
09
fe
02
f8
fa
f4
f4
ed
05
03
09
0b
03
11
00
fc
06
04
12
08
0e
0c
10
04
f7
fd
06
05
14
06
fe
06
ef
e1
eb
f9
fe
01
fb
00
02
03
07
fa
0e
0f
02
01
01
06
07
ff
05
f3
11
0e
08
01
0b
12
f9
e7
e3
fe
07
fe
fb
09
01
0d
03
02
00
ff
02
f9
00
10
fe
01
fc
f0
fa
06
f6
f5
04
01
08
ea
df
ef
f9
08
0c
0c
0b
07
15
00
00
01
fd
03
0b
03
06
08
01
00
00
fd
fe
07
12
0d
0f
e6
ed
eb
06
0c
0b
0b
ff
04
11
06
f1
f4
fd
01
fe
0c
f3
01
0d
0b
ff
ff
09
f4
fa
0b
fd
ff
f3
f6
f9
0c
04
09
0c
0d
04
01
f5
f8
07
07
0f
ff
f5
f8
08
08
11
01
08
fa
02
0d
ff
fc
ea
ee
f5
04
fd
07
0b
01
f3
f1
e6
e8
fc
16
0e
09
03
0a
fe
0c
01
0a
00
05
fa
06
fb
f4
eb
f2
fc
fd
06
07
0b
04
f3
ec
df
e4
fd
01
13
11
fe
05
08
06
f9
11
11
ff
fd
ee
fb
fc
e4
fa
f7
02
0b
fe
03
fd
fa
e4
eb
e9
02
0f
12
10
02
f5
ef
fb
09
09
0e
07
fd
ed
ee
f4
f3
ec
f9
fe
fd
0a
fe
f3
ea
e5
df
e8
fc
03
fd
0f
0d
ff
fa
f2
10
10
07
07
05
f6
fa
f4
e6
ec
01
fb
01
08
00
f4
ee
e9
de
e0
f2
08
0a
07
06
fd
f4
eb
0b
08
0c
0a
0a
f9
f0
dc
dd
f6
06
00
03
05
05
04
ef
00
ea
f0
f6
fc
fc
fe
0c
f8
f6
f0
05
14
0a
0c
fe
f8
ed
d4
eb
f1
09
01
0a
00
06
01
01
f4
f7
f7
ec
e6
f2
ea
e8
e2
f4
01
0f
08
01
05
fb
fa
e6
e2
ee
f6
fd
fd
08
09
fc
ff
f1
07
fd
fe
e9
e2
e8
ec
f3
f5
fb
05
0b
0d
00
fd
fb
ef
f2
e7
e8
f9
0a
08
04
fe
fc
f6
ff
fe
05
fc
e8
ee
e7
eb
f7
00
0a
1f
16
0b
f6
f9
fa
ee
f3
f4
f1
05
0b
01
0a
04
00
fe
07
09
0c
ff
00
ed
ec
ff
fa
03
0d
08
fe
fc
08
ed
fc
f4
fe
f3
f8
00
fd
03
0c
01
fb
06
0d
14
01
00
fe
ff
02
ff
01
09
0d
13
0b
f0
e4
f9
03
01
fd
ff
f9
04
02
06
0c
01
02
01
07
05
01
06
16
1b
20
0e
0d
0b
08
fe
14
01
02
14
02
ff
fb
00
07
05
08
08
06
0b
fe
fb
08
ff
03
06
0f
15
13
19
18
1a
22
15
19
1f
1f
0e
0f
0b
03
05
fd
00
0b
06
0b
06
0a
ff
02
05
0a
0a
05
05
05
01
0d
0c
04
0c
08
ff
0b
05
0b
0b
09
03
04
04
01
01
03
07
05
03
f8
03
07
06
04
f7
fd
ff
03
06
04
00
fc
f7
04
01
01
ff
ff
fd
f6
f8
fb
04
05
f9
f8
f6
05
fa
03
04
ff
04
07
fb
f8
03
02
fa
f9
02
05
00
f6
f9
01
04
08
01
fb
f7
fb
f9
03
05
ff
fb
f8
f8
04
02
06
07
fe
00
ff
f3
f5
f6
f6
f9
fd
01
05
04
f7
f6
fe
fd
f9
02
fb
01
fe
f9
fd
fe
0d
0d
0a
03
0e
07
0b
04
04
f7
f6
00
fb
f5
f5
f6
03
f9
f7
02
fd
f6
fb
01
ff
fd
f7
01
0c
08
ff
09
fd
e7
e6
f1
ea
fe
05
ef
ea
ef
f1
f3
04
f9
06
05
05
fe
07
f9
04
04
0e
00
f9
03
09
01
f0
eb
e5
e8
f4
fc
00
f1
fc
ea
ec
f3
02
fe
f7
ff
05
07
fc
01
0f
fe
03
02
f9
02
fd
02
f1
05
07
0e
fe
ff
f8
f3
fc
f6
e7
ee
fc
00
06
fd
01
fe
08
02
05
0b
0c
03
10
03
09
07
1a
14
23
1d
0f
0b
0a
f6
01
e9
fb
fd
fe
fc
07
03
f8
f6
08
09
05
05
09
08
02
05
1c
24
2e
33
21
18
18
0c
08
f9
0c
fc
10
08
02
fc
f9
fd
07
04
fc
04
10
0f
0a
04
0e
16
16
22
20
19
16
17
19
19
04
fe
03
06
16
1a
05
02
08
07
ff
f9
05
0c
00
0e
0e
0f
03
0f
04
00
f5
02
13
0b
12
10
0d
fd
fa
f8
0f
18
13
ff
f8
07
06
02
fe
06
06
fc
ff
f9
f6
fc
f2
fa
f5
fd
ff
ff
06
08
08
02
fd
f2
04
fd
08
07
fc
ff
02
03
09
04
f5
ee
f3
ef
ef
fe
fc
f9
f8
01
05
fe
01
01
05
f9
05
f3
f9
ed
f1
f3
fe
fb
05
00
fe
fa
ea
e2
e8
f9
f8
fe
ea
f8
f5
fc
04
f2
f3
04
12
01
00
f9
f6
ed
f1
fb
02
05
f8
f8
04
fa
f9
ec
f0
f1
f5
f0
f4
f2
02
03
fc
01
f8
f3
fc
ff
fd
ff
f0
02
04
01
05
fd
f6
fe
fc
f6
f8
fa
f7
fb
01
fb
fd
f9
ff
00
00
fb
f5
00
06
fb
12
0b
02
fd
10
fa
ec
07
02
03
03
03
01
f6
02
fb
f5
f5
01
fe
01
0e
fc
ed
ec
f0
fb
03
fd
04
0e
0c
09
ec
f9
fe
05
01
07
08
06
01
fc
f8
f3
ef
00
02
0b
f9
e8
ec
e7
f6
02
05
08
07
0c
05
fb
f0
05
fd
00
fe
fd
0c
f7
fa
fe
fb
f5
ee
03
07
00
ec
e3
f8
f5
07
f9
14
0e
15
15
07
f0
f0
fd
fe
f7
f9
08
02
f7
06
fe
f4
f2
ee
fc
f7
f8
f8
f0
fd
f9
0e
15
12
17
1b
15
03
f1
00
05
f8
04
ff
03
0e
ff
02
f5
02
f2
f2
f0
f4
ee
fc
00
fb
0c
14
0d
15
1a
0b
0d
fa
f0
04
f7
00
00
00
f7
04
07
f8
fa
fb
ee
e8
ef
fa
fd
09
f7
07
05
05
08
0b
08
01
fa
f0
f4
f7
fa
05
fb
fd
f8
09
09
03
06
00
ee
ec
f1
f9
00
f7
f2
0a
0c
08
fb
ef
ff
ef
09
ff
fd
f7
07
01
f6
01
fd
03
0e
0a
15
12
fc
04
04
0b
fd
04
03
12
08
f6
f5
e5
ea
f4
f8
00
f8
f6
fa
ff
fd
02
ff
07
0e
18
0f
1e
15
0f
0a
08
10
23
1b
19
07
08
f9
ed
f4
fa
0c
0c
02
f8
01
07
00
f8
00
f9
0a
00
11
1c
30
16
1b
25
25
23
15
17
22
16
09
0c
fd
02
f7
00
fc
f6
f7
f8
f7
05
06
07
f8
fc
ff
09
07
0a
1c
13
16
22
13
19
1d
18
15
12
07
01
f7
f6
f8
07
05
fe
00
01
03
f6
f9
f7
fd
06
04
f7
05
02
03
06
00
fd
00
03
09
04
07
07
fa
f8
08
f6
07
fb
04
f4
00
f4
fd
03
01
fc
03
f8
f9
00
fa
f9
f8
fb
01
03
f8
f9
fb
f8
01
02
fc
01
f8
f5
fa
ff
03
f6
fb
ff
f5
fd
f9
03
04
04
f9
fa
f8
f8
f3
f4
fc
fc
fe
fd
f8
00
01
f7
03
fe
fd
03
f5
f9
ff
04
01
03
06
07
fb
03
0a
03
03
06
06
fe
0a
01
fe
f7
f7
f5
fe
fb
ff
00
01
f3
01
ff
fe
f7
fa
f6
f5
04
08
06
04
ff
ff
06
06
f9
04
00
f7
07
fc
03
f6
fb
fd
f9
f8
f8
ff
f9
02
f6
05
01
01
0b
16
0a
fb
f2
03
fd
06
1e
0a
09
09
10
ff
04
06
fb
fe
f4
f6
f7
fc
f3
f9
f5
f4
fe
00
04
09
f9
fa
ef
f8
fd
10
10
0f
0a
0b
0f
14
0d
0c
fb
ff
fe
f3
f3
f7
ef
06
f6
f5
03
fc
02
f6
f3
f5
f4
fd
fc
eb
e7
e7
00
f4
f9
0f
11
14
0c
01
01
02
00
f5
f9
f9
0f
ff
fd
12
fa
fe
f5
ff
eb
f2
f0
f5
e7
e2
ea
ed
fb
ff
f4
03
03
ff
04
f6
fc
fb
01
f5
fe
09
05
fc
f8
f4
05
f6
05
f5
f5
fd
ea
ee
f2
f9
fb
f2
f1
0c
ff
f9
02
f6
f2
fa
ee
f2
fe
01
02
fb
f4
f2
fb
f5
ea
e6
f3
f9
f5
ee
03
fb
f0
e7
f6
01
0c
f4
ed
f6
fe
f3
f5
fb
ff
04
07
08
fc
f1
00
07
e1
e9
f2
ef
f4
ec
f6
fb
ef
ed
f5
ff
f2
f6
fb
fc
fc
ee
f6
f2
05
12
08
08
fa
04
03
fb
d8
d3
d7
e4
f5
f6
04
f5
f1
ed
ea
f9
fb
fd
f8
01
fc
fa
f3
ec
ff
03
10
05
0a
0d
0c
06
f1
d9
df
fa
f5
ea
fe
fe
fa
f5
01
fa
f7
f4
fe
fc
f3
ff
fa
e3
03
0f
0d
08
0e
11
0d
11
05
00
fd
ff
0a
08
00
01
02
05
02
fb
f9
00
03
fd
f5
f9
f1
f8
0e
15
10
09
0c
00
04
fb
06
11
12
15
09
f9
fb
fc
f7
08
00
04
0b
f6
fe
fd
f7
03
08
07
0d
11
08
13
07
fb
fb
00
10
19
08
1a
09
fb
00
f1
00
fd
05
02
12
03
f5
03
fa
f3
08
0c
0b
fe
08
ff
f6
f7
fc
13
15
0e
16
19
00
f7
02
04
09
0b
0e
08
0d
fb
fa
f8
f4
01
02
ff
06
03
f4
00
f2
fa
08
0e
16
11
06
01
01
03
06
07
07
09
09
f4
0d
01
f6
f2
03
02
02
ff
ff
0b
fd
f1
fe
f7
f0
12
0f
0d
f6
fc
f2
fd
fc
f7
05
00
03
01
f8
fe
00
f6
fd
02
f6
05
00
ff
f6
fe
f7
f8
0d
08
11
ff
f9
f8
f8
04
f7
01
12
06
08
04
fb
05
f5
f9
04
01
ff
f5
ff
f1
fb
07
11
09
06
0e
08
03
ff
fa
0c
0c
06
0c
0d
14
13
fb
02
fa
f7
01
00
f3
f3
ff
f3
f1
f6
09
09
07
04
09
08
0a
0b
ff
1a
17
1b
0e
11
19
19
ff
ff
00
fa
ff
f9
f6
06
fc
f2
f8
f6
f8
f9
fd
06
06
fb
fa
fb
04
0d
0f
1b
0e
1f
0b
05
f4
f6
01
fb
00
fb
00
f4
05
f4
df
e4
f0
fa
fc
f1
f9
f0
f7
fb
03
0c
1f
21
29
14
0a
08
f2
fb
00
fa
fb
f9
03
f2
fb
ec
da
e6
e7
eb
ee
f7
f9
fb
0d
fb
05
fb
1b
1b
0d
07
0d
06
fc
f4
03
02
fd
01
ff
f9
fc
ee
eb
e6
ee
e9
ee
fb
f5
04
04
05
f1
06
f7
eb
f3
f2
fe
f8
f4
f3
f7
fb
02
02
f8
fd
f6
fe
fd
f8
ea
e4
e9
f5
fb
ec
e5
ec
f5
f2
f1
df
f7
f3
fb
03
fe
f6
f9
f3
fb
fc
f8
f3
f3
04
f5
fb
00
f9
ff
f2
f7
fd
ef
f6
fe
f1
ed
f9
fa
fb
f4
f2
ff
01
f4
00
f8
03
f9
01
fb
fe
fb
fc
ff
f9
f7
06
02
f8
01
fd
00
08
fb
fc
f8
00
08
01
f8
00
fb
fd
08
02
01
ff
fe
fe
fc
f7
04
01
fa
f9
09
08
fa
01
04
04
fa
00
00
00
fd
fc
fd
08
03
00
01
08
f7
02
08
ff
04
f8
00
09
0c
04
04
08
0c
06
fe
0a
00
f9
04
0a
01
ff
07
08
02
fb
04
08
f7
04
03
fa
fd
04
f9
17
11
18
11
03
0c
0b
07
fa
fb
0a
f3
01
0a
0c
03
fa
f8
03
fb
fb
00
07
f7
f9
0b
ff
05
14
1f
1b
0f
07
09
f6
fb
ef
f9
03
f6
f3
ff
04
0e
05
f9
f7
01
fc
06
05
0b
0a
00
0b
fe
05
0b
0d
00
fc
07
f5
09
f9
f7
f7
f8
f8
f4
fd
02
0a
08
06
fd
00
05
09
01
0c
fc
f4
f2
04
f9
f1
f0
db
e0
f0
fc
ee
e9
e6
d9
e4
e4
fe
fb
ff
03
07
ff
05
06
02
fd
01
f2
02
08
f7
f1
f6
e9
dd
e6
e7
ee
f7
e6
e3
e4
e3
e4
e8
07
09
0c
fe
f7
00
f9
ef
ef
fd
09
03
f2
0d
06
fb
e2
e5
ee
f1
f5
f8
e3
e2
ee
f0
e2
f6
06
0a
02
07
ff
fe
f7
f8
ef
ff
f1
f7
fe
ff
ed
f2
f3
e6
e7
eb
f8
f6
ec
f5
fc
07
01
f7
f9
01
02
fb
f8
01
fe
f3
f5
01
f2
01
fd
01
f7
f2
ea
d4
de
0b
11
00
f8
fc
ff
00
f5
f6
08
f6
06
f8
fe
00
f8
f1
eb
ed
f5
fc
fd
ff
ff
fb
e7
e6
f1
fe
07
fa
f4
fd
f1
00
fd
ff
f7
07
f7
00
f9
ff
ff
ef
da
e8
ed
f6
fd
00
00
09
fc
0b
02
06
1f
01
f0
f5
00
0b
13
f2
12
06
04
07
04
ff
f7
f3
df
ee
f9
fe
06
0b
10
16
23
1b
02
13
07
fa
08
05
07
0e
1b
18
1b
03
05
07
03
fd
03
00
f0
fa
06
0a
0b
08
07
21
22
21
15
15
14
06
0c
06
04
0a
0e
19
16
10
09
01
f8
f6
fc
ff
02
10
1a
17
0a
14
ff
11
15
20
14
15
15
11
13
13
fb
0b
08
0a
0b
0c
0a
04
03
f9
f9
04
00
0a
10
22
19
06
fa
09
08
05
1a
27
16
16
10
0b
06
23
0c
19
0a
1b
02
00
fe
fd
07
07
18
17
1e
12
18
14
00
fd
f1
05
03
09
1c
18
15
fc
13
18
13
08
03
13
0c
fb
04
f8
06
16
17
1a
24
12
10
fd
f2
fe
fe
02
0b
0d
11
12
0e
06
14
0a
0b
15
12
0b
fd
08
08
f6
09
0c
17
16
06
0b
f9
f6
fa
07
f5
04
08
07
18
11
10
04
13
06
ff
0b
03
07
fc
02
fe
00
07
0a
0a
05
f1
fe
fc
fc
fc
ff
02
f7
f7
00
0d
0d
06
f7
0f
06
01
fb
f6
02
02
05
fb
06
f8
0d
0c
f7
ee
01
02
0b
00
fc
f7
00
fc
f8
f7
02
f6
06
08
f9
f3
06
f5
04
02
fc
03
fd
04
0a
fc
fa
f4
fd
f6
00
06
fa
fa
ff
e8
e7
e4
e8
ee
01
fc
f0
f8
fb
fb
00
fe
f7
fd
05
fa
f7
f8
e8
e1
ec
f4
fa
ff
f4
f9
e2
ea
db
e9
d1
d0
e9
ef
03
fc
f1
f3
ff
fb
fb
05
f9
07
fd
02
f1
f2
ec
ef
e4
eb
e1
e5
da
e7
ee
e8
dc
d4
e1
ef
f0
fe
f6
06
f9
01
05
07
fd
fd
ff
f8
f4
f7
ec
ec
e8
e4
f8
e6
d3
dc
f7
ee
db
da
e3
e8
fe
06
0a
f9
08
00
08
fe
ff
f8
fe
06
fc
f4
f2
f0
f3
f2
e5
e6
e5
de
e3
e3
e5
e9
ec
f8
ee
fc
fa
04
04
01
02
ff
f8
08
09
ff
03
f6
f3
ff
fd
fa
f6
00
01
fd
01
f7
ff
fa
f6
03
05
fe
fe
06
ff
01
04
01
0a
f8
fe
fa
fa
fe
05
07
f9
04
0a
f9
07
02
fe
01
02
0a
02
03
fe
03
ff
07
00
04
02
05
03
09
01
09
03
02
ff
04
05
04
06
f9
09
02
fa
01
fc
0a
02
03
08
05
04
0a
09
02
fb
f9
01
fd
fd
f8
02
07
f9
08
fa
f9
fa
04
fa
fd
ff
fd
00
fe
f6
00
05
07
fb
f9
09
f8
08
05
09
fa
02
06
ff
01
fc
fb
fa
07
15
14
05
07
f3
f0
f0
e5
f1
05
19
10
0d
fa
fc
00
00
09
f9
05
02
04
fc
fc
fc
01
19
15
20
22
0a
0b
00
06
ec
f0
f8
0b
17
13
0d
0a
ff
0c
00
05
07
f9
f7
f2
eb
fc
ff
07
1b
23
23
15
f9
06
fb
fb
ef
e2
f3
fb
09
f6
04
0f
09
0a
fa
07
fb
fa
f2
fc
0e
0a
06
1b
1e
01
0c
00
f4
e5
e1
e9
f1
de
ef
dd
e0
fb
0e
0f
10
07
fb
02
02
fd
f7
ff
15
fa
05
1c
16
0b
f4
e5
e1
e5
e8
e1
f4
f7
ec
ee
fc
fc
0f
06
0f
04
fa
07
fe
0d
02
fe
08
fc
06
09
24
11
f8
e6
e7
ef
e9
f6
04
f8
ed
fd
11
04
17
18
1b
0f
fe
00
08
fa
fe
f1
f0
f0
05
12
25
21
08
e2
c5
da
fa
10
0d
f3
00
15
14
17
18
22
1c
07
fd
fc
fa
01
01
00
ea
f7
06
20
2e
2f
15
db
cb
dd
08
02
f6
f2
0c
0e
0f
08
16
1f
09
00
fb
f8
ff
02
f4
f9
f7
02
02
1d
3b
37
20
f3
c6
d8
fe
0b
f9
ee
f6
f8
07
10
09
10
0e
06
fa
fd
04
f9
f9
d8
f0
f8
0f
1a
30
35
35
15
e1
d4
f9
f7
f0
f7
fd
02
0b
06
0b
11
06
02
04
07
02
01
ee
da
fb
01
0f
14
22
27
2b
15
f2
e5
f3
ed
ed
fc
06
10
0d
0a
ff
06
f4
f1
00
01
f8
05
f6
ef
ff
fd
0a
ff
07
0e
1e
00
f7
ee
ed
f5
fa
05
07
01
04
0f
04
fe
fc
fa
01
08
05
fb
fb
00
00
09
05
00
00
04
1e
14
0c
01
f0
ef
ed
f2
e8
ed
f4
fc
04
f0
fc
05
01
ff
0a
fa
03
f6
f4
f4
f3
f7
fd
ff
10
18
0a
0c
04
f4
ea
e4
f1
e4
ef
f5
04
f6
fa
f6
00
ff
05
01
fa
f9
f0
eb
f9
fb
f2
06
15
16
13
0b
06
f8
f4
e9
ed
f5
f7
07
13
fc
f8
fe
f8
04
05
f9
f4
f1
f8
fc
e2
f7
f1
0f
10
2c
28
15
fd
f9
df
f3
f2
02
00
f6
01
04
f9
f7
01
04
08
fb
01
e6
f1
f9
e5
f6
f7
02
10
1e
1f
18
01
ea
e8
f7
04
0d
01
05
fb
f2
ed
fe
00
fc
fe
03
02
e3
e8
f1
f1
f9
04
0c
0d
15
11
0d
08
ea
f0
05
00
06
0c
f5
f1
f7
03
fd
05
fc
02
01
f9
f7
d9
f3
fd
0d
10
fb
11
0a
16
16
16
ff
0c
04
15
13
07
fb
fd
ec
02
fa
fa
09
fc
00
01
07
e8
e7
fd
07
f7
02
f7
fd
04
0d
13
17
0e
06
02
fc
f8
f6
f0
ef
06
07
fc
03
fa
08
03
03
ec
de
ed
f8
f3
f9
ed
f8
06
08
13
26
12
03
01
f0
f2
f3
f9
f9
09
00
fa
03
f9
04
02
08
f3
f0
e1
dd
fa
09
15
0b
0e
16
0a
11
f2
f0
04
fa
ec
fe
ff
f8
03
09
04
fd
00
f9
00
09
f4
f9
f8
e7
ed
fd
08
e8
fe
f9
16
18
14
02
03
f1
f3
fb
fa
ff
06
fb
ff
01
03
06
05
02
fb
f3
f4
f9
eb
e9
f3
fd
f4
e1
ee
e5
f5
f9
ea
f7
f9
05
07
fb
fb
f9
ff
fd
fb
ff
f8
fb
01
06
00
02
07
05
08
08
03
fa
02
00
f8
f7
f8
06
01
06
f9
01
ff
fc
05
fc
07
09
fa
fd
06
06
05
fd
02
07
09
fa
06
05
f8
fb
00
f9
fc
fe
fa
0a
f9
01
0a
02
0a
fb
06
fd
02
fc
03
09
fb
05
00
03
04
06
fa
fd
04
0c
0b
05
0a
fa
05
03
04
06
05
fc
fe
09
fd
f8
fc
0a
05
ff
00
00
05
fd
ff
01
00
fb
fc
07
ff
f7
02
07
03
04
03
fe
fb
09
f8
fc
08
09
06
03
02
01
08
fd
04
fd
f9
ef
f3
f2
fa
fe
0c
f8
fa
f7
f9
01
fe
01
05
07
06
01
09
04
fe
f9
fc
09
f9
fd
fa
ea
f1
f1
f8
07
17
19
07
03
0b
ff
01
09
fa
ed
fb
05
fe
09
fd
fb
ff
01
fd
fa
f3
e5
f9
e9
de
e5
e9
fc
f6
fc
05
07
10
16
11
0b
f1
fa
f6
fe
fc
fd
03
fe
03
0d
08
ff
00
f2
f0
e4
d8
e3
ef
f2
f2
f9
f5
04
00
17
0d
0f
05
f5
ff
f8
f9
05
07
03
07
0a
fc
00
fa
eb
e9
e8
e9
f4
ea
ea
03
f8
06
0d
0a
16
12
0a
04
f5
fc
f4
fa
02
f9
04
09
0e
fc
fc
f8
e6
f4
f5
e8
e9
f3
fa
08
0d
07
08
0d
0c
18
23
18
03
ef
02
fb
0a
06
fa
05
03
f6
e8
fb
00
f8
fd
ec
e7
ec
fc
10
17
11
00
12
15
20
2a
22
ff
07
fe
04
01
03
fd
fa
fa
ef
e4
fc
f3
f5
f7
ef
d9
ea
07
19
0e
06
0c
04
1f
1e
2e
24
08
01
06
08
fe
ff
04
fe
08
fb
f6
09
eb
ef
f8
e9
e2
eb
15
1f
0b
fe
09
0f
16
0e
23
26
10
0e
fc
02
04
03
fd
fa
01
06
fd
fc
f5
08
00
f0
e4
05
18
13
01
06
08
0c
0d
12
18
27
15
00
07
05
01
04
07
05
00
15
04
f8
fe
05
fa
f1
fb
fc
0e
f8
fa
0a
09
fc
f7
fe
0e
14
09
08
fe
07
fe
fc
00
03
03
18
13
fd
f9
fe
01
04
f6
fa
03
f8
fc
fe
f7
f3
f2
02
09
0d
02
03
fc
05
04
fa
ff
00
0c
19
03
03
0a
09
00
fe
03
f7
01
e7
fd
fe
f6
fd
f9
f0
ff
06
ff
f8
05
fe
f9
09
fc
00
12
1b
03
0a
06
0b
00
00
03
f7
f6
ef
00
fd
fe
f8
f0
e9
ea
fb
0f
f7
06
04
08
fe
fc
04
0b
0e
10
04
0d
0f
0b
08
f5
fd
fa
f1
fe
f7
f4
06
f2
ed
eb
fb
12
07
f8
0a
fc
f9
0a
02
fc
07
fa
0c
1d
1f
07
04
f9
fa
f5
ed
fb
02
12
f2
e8
e7
f6
07
0a
fd
fe
04
fe
ff
06
fa
0c
06
0d
0c
15
1d
ff
f5
ee
f3
00
ed
ec
f8
fb
ea
f4
ed
f3
f9
fc
00
04
fd
02
fd
07
fa
05
ff
03
1c
1e
0e
fe
f7
01
f7
f5
fc
ee
f8
f4
e4
e7
e0
ec
f4
fb
05
fc
06
03
fa
f7
fc
fd
fb
12
0d
0f
fd
05
f6
e9
ed
fc
f4
e1
f0
ee
e4
ec
e2
f2
f2
04
f9
01
fb
09
fa
02
0a
01
10
17
01
06
01
06
f5
f8
fe
ff
fb
ef
ea
e3
dd
e2
e6
f9
f3
fa
07
f9
fe
03
04
fe
03
09
06
04
05
01
03
10
0f
10
18
0c
fe
ff
e9
d6
d7
e6
f3
fb
fd
fb
fa
ff
02
ff
09
05
fe
fe
f8
f4
ef
ec
f5
09
09
13
18
01
f9
f3
e5
e3
f8
fe
01
fc
fb
03
fa
fd
02
f9
fd
07
09
fe
ed
ff
fb
07
f9
f6
fd
0b
f7
ef
e2
f1
ef
ee
f9
f7
f6
02
00
fc
fb
fd
02
04
06
08
08
02
f4
fb
fa
fb
01
f6
05
f5
f5
f1
fd
f3
01
f4
f7
f9
01
07
f9
0a
05
0a
08
fd
fe
f9
07
fa
08
03
fd
fb
fd
05
fd
fb
00
00
07
fe
fa
f7
0a
fc
fb
fa
09
fd
05
fe
fd
05
06
06
fb
05
03
fc
04
fc
01
fe
02
09
fd
05
fa
fc
04
fc
fa
fa
06
fd
fa
ff
02
03
02
fa
f9
05
fb
00
fc
ff
08
fd
0a
f8
07
01
06
f8
f8
f6
03
03
05
06
0a
09
04
00
08
0a
fb
01
05
f8
05
fc
06
f9
04
04
05
06
f8
02
f5
03
f8
ff
0a
01
0b
fc
00
fe
04
08
fc
ff
02
08
04
0a
f9
0b
fb
0a
00
fc
f7
f9
fe
01
f4
ff
0a
fb
03
10
08
10
14
05
05
fc
0a
04
06
01
ff
09
fa
09
f8
fc
f1
f2
f8
06
03
f8
f8
f6
f8
03
fd
0b
0f
0d
20
14
1c
13
0a
fb
06
04
09
02
f9
f8
f8
eb
f0
f1
f2
f4
04
08
0a
08
f7
0e
0d
01
0d
14
11
19
1e
1a
0b
02
06
fb
04
fc
fb
f6
fd
f1
ee
f2
df
e3
f8
06
0c
0c
f9
f9
f5
f3
0c
01
ff
04
16
19
12
05
08
03
06
fc
05
03
0a
ea
e9
ed
ec
e4
ff
fd
0c
06
f1
f5
fa
f6
f4
ff
04
08
17
0e
16
11
02
09
fc
fe
02
04
01
f2
ee
ed
e7
e9
01
00
04
02
f7
f0
e9
f9
08
0d
0c
04
0e
1d
11
0f
f9
07
fb
07
f1
f2
f2
f2
f6
e6
e3
ea
fe
11
0c
f0
f1
f5
f8
03
02
09
07
f8
fb
1e
12
0b
ff
fd
00
f9
f5
fd
fd
f3
f9
ee
ec
fc
01
11
11
f6
f4
ea
f5
f7
fa
f5
f7
f2
f9
05
11
03
07
08
05
02
f2
fa
ef
f9
eb
e7
f7
f9
01
06
f4
ea
ea
f3
01
e9
f3
d5
e0
e3
e1
f3
ff
00
06
05
05
f6
f5
fa
f4
f3
fa
f3
f4
09
01
04
10
00
fd
f7
f2
e4
e1
e4
dc
d8
d7
ec
f3
f9
fb
fb
fe
08
04
f4
f9
fa
0a
fc
f3
fe
01
17
12
02
05
f7
03
fe
f9
f8
ed
ef
f0
ef
f1
05
00
02
fa
fc
04
fc
0b
04
0c
fd
07
09
f8
0a
fe
00
fc
fc
fe
fe
04
07
fb
f7
fb
fb
ff
fe
04
fa
fc
05
02
03
0c
ff
ff
0b
fd
f8
f4
09
f3
f9
f5
0b
11
03
04
06
0c
04
08
ff
0a
ff
01
02
05
06
0a
10
0c
08
0b
ff
03
fb
07
fd
fa
ff
07
02
15
0c
19
0e
16
04
fa
fb
0b
02
08
00
03
f9
09
0d
0f
0d
0f
05
fa
05
07
fc
02
02
06
14
11
11
11
13
06
fa
fc
f4
fb
f9
00
08
fb
09
0e
12
13
1d
10
07
fb
fe
0c
0d
09
14
10
18
02
0c
0f
07
f7
ee
fc
f9
f6
00
fd
fa
fc
0a
09
18
1c
0d
00
fe
04
01
0b
02
04
17
0a
0e
fd
08
01
06
fe
fb
fc
05
fd
fb
03
05
0a
05
07
11
13
08
f5
12
12
05
15
0c
04
0d
12
0b
fc
fb
00
04
02
f4
f3
05
03
08
ff
fe
03
07
fe
07
0f
fe
04
03
17
10
16
1a
0f
0a
05
03
fd
ff
0c
0f
0e
f8
fe
01
0a
08
07
03
06
07
fc
0f
f7
f2
fe
01
ff
0d
11
0c
fd
04
f7
05
fe
02
0c
07
f9
04
f8
06
05
08
fa
01
fe
ff
0c
0e
08
fe
02
05
0a
16
0b
03
f7
f5
f0
f6
f9
f6
0c
03
ff
fa
02
04
05
0a
07
03
01
03
05
0a
06
0a
05
0f
19
fd
f9
fa
ff
03
03
f7
fa
fa
f5
fe
fa
fb
04
0a
05
fa
01
03
07
01
01
01
f7
fe
fd
fb
fb
fe
ff
f7
ef
e6
f3
f0
ec
ee
fd
fc
fe
fc
fa
07
fb
fd
07
09
03
05
05
04
0a
ff
ff
f8
ef
f2
ff
f3
f5
e2
f7
f5
fd
f6
f2
f7
04
fb
02
09
fe
fd
fe
05
fb
fb
fb
ff
09
02
ff
01
06
f9
ff
0a
02
f5
fc
01
fe
07
ff
00
06
02
f9
fa
07
04
ff
fb
02
01
00
fd
f9
f7
ff
04
fe
02
01
f5
06
fd
02
f8
fe
f6
05
05
fb
ff
01
f7
01
fa
fa
f8
fd
f8
fd
f6
ff
f9
fd
fb
01
fd
f9
f9
ff
02
06
06
05
01
f8
f8
03
ff
fa
03
02
f6
02
fe
f5
f8
06
fd
04
fb
f9
ff
f4
f7
fe
fa
03
04
1d
17
15
12
01
fb
f9
f8
f8
04
f9
f7
fa
fb
ff
f6
fa
06
f8
00
01
f9
f1
fc
f4
fc
1a
22
1d
1f
23
16
0f
05
03
00
f2
f8
00
01
f8
04
00
05
f8
f6
00
01
ed
04
00
ff
ff
f8
09
05
07
09
fa
ff
f1
ef
03
10
00
00
fc
01
fc
f7
01
06
fa
f8
0c
0b
ff
0a
02
f8
f8
03
01
f9
09
01
fc
01
05
02
06
0f
0a
02
07
f7
06
fb
f8
00
fb
ff
0e
07
0e
09
00
03
fa
05
0c
05
08
0a
0b
11
0a
03
0b
0b
06
05
01
06
fc
fa
06
f1
f3
fa
05
0a
03
01
00
12
07
0a
0e
1f
16
1a
0a
12
0e
0c
0e
00
fb
0a
03
fd
00
ff
fb
f4
f9
f0
ff
f4
02
fd
03
fb
08
0d
21
1d
10
fe
ff
f9
01
01
0e
03
fb
f9
06
09
06
ff
f5
fc
fc
f6
e7
f8
0a
0b
fe
0d
0d
18
25
0a
e4
c6
d1
e0
e1
f7
ee
01
00
0a
07
05
f9
f9
f8
04
03
03
ee
ef
f0
fe
fe
01
02
11
13
eb
c4
bc
d5
d5
da
e0
e7
f0
ea
fb
fb
fe
fb
fa
f6
fa
02
fc
f6
e9
eb
f0
ee
0b
ff
06
0a
dd
ce
d9
eb
e8
e2
d4
dc
f1
f9
f7
ee
fd
f8
f9
f6
f5
04
fa
fc
fa
e4
ec
ff
04
10
0e
02
f0
e7
e7
e9
fa
e0
f9
ed
ff
fd
f5
f9
03
fd
01
04
01
f5
02
03
05
f8
f5
ff
12
07
03
f5
f1
f7
f0
f1
ef
f1
f6
ea
f7
11
06
01
fa
f9
f6
00
04
fd
fb
ff
f5
f7
02
11
13
fc
f8
ea
fc
02
f6
ef
f3
f6
fd
04
0a
18
16
f1
fe
fc
f9
fe
06
f1
fb
f8
e8
eb
fc
05
05
fc
00
f1
f2
fa
fd
f2
f4
e9
fc
fe
04
21
14
f7
01
f5
ff
fb
00
f4
fe
f0
ea
e7
ef
f2
07
0b
f7
fc
09
f7
f9
e9
f6
f2
fc
09
0e
0c
0c
ed
f1
03
03
02
00
08
fa
e6
df
f3
ea
e9
f4
f1
e9
db
eb
f4
eb
f9
f1
f8
fe
fc
0f
17
02
f5
fe
fa
fe
05
fc
fd
01
e9
ef
e5
d9
e0
db
d4
cf
ba
e2
f9
f0
f7
fd
01
10
18
11
01
f9
f0
00
04
fb
01
01
03
03
f1
fb
f2
ed
e9
e8
f0
d8
d0
e9
04
0f
00
08
0b
16
20
22
09
03
f3
f9
f6
f5
fd
f6
0e
01
06
f7
ff
07
09
f8
02
f2
f6
0f
10
0e
0b
0e
15
1d
1e
25
1f
0b
00
fc
fc
f5
fe
f7
fc
05
11
08
03
10
fe
03
0d
1d
14
1a
14
0d
02
12
0e
1d
17
10
0d
fd
01
ff
fd
f9
04
f7
07
03
0a
06
f2
03
01
02
0d
18
0e
12
15
0f
09
10
1b
18
1e
0d
03
f3
fe
f6
03
05
03
05
f9
06
0a
fa
fa
07
06
19
13
14
08
1b
18
16
16
0f
03
0d
09
fa
f8
00
f6
00
01
02
f8
f8
08
03
06
fb
14
13
19
1c
15
16
0f
11
14
06
0e
09
f2
fe
f8
02
02
01
f7
f5
02
fc
ff
fe
04
ff
fe
06
07
0c
14
0b
15
15
16
00
01
f6
eb
f6
04
05
fe
05
06
03
f5
02
01
f6
00
f8
fa
fb
fa
05
fa
fa
02
07
07
02
08
fb
07
02
ff
fe
fe
fb
00
00
07
f9
f5
03
fc
05
f7
f7
06
02
f7
fe
04
fa
fb
05
01
f6
f8
fa
06
03
f7
f5
05
f4
04
fb
f7
f7
f7
01
fd
f5
06
03
fe
04
06
ff
f5
fe
00
fd
f7
f6
f7
03
04
02
fe
f7
04
03
05
04
f5
fa
f8
fb
fd
fb
fd
fd
f8
fe
fd
05
fe
f7
04
fd
f9
04
06
04
fa
03
f6
00
f8
f6
00
f6
fe
02
f6
ff
02
fc
fb
f5
04
f9
fe
fc
fa
00
00
fe
04
fe
04
0b
00
f9
03
08
f2
f7
f7
fb
00
fc
f8
02
fa
02
05
ff
01
fb
f9
05
fd
0b
16
0e
10
0b
06
02
f4
03
f1
ee
f1
ef
f9
f8
04
f7
03
f9
02
fd
f9
fd
f9
06
01
0b
0b
06
09
17
10
f9
f2
f3
ef
eb
f5
f4
f4
fa
f9
f6
f9
fe
03
fa
fb
02
fd
04
f5
f9
f1
01
fe
07
02
fd
0d
19
09
f8
fd
fc
f9
07
01
f8
ef
ed
f2
f1
04
01
04
f7
f7
fd
fc
02
f0
fa
0b
fe
09
18
0b
1c
0a
0e
0b
03
0c
12
fd
f7
f0
f7
f1
ed
02
02
05
f7
04
04
f9
f5
fd
fb
f4
11
11
0b
17
0e
07
04
05
0b
08
fd
00
fd
06
02
f9
f5
01
fe
04
fe
04
f9
ff
04
fa
02
f7
07
0a
0f
fe
eb
fc
fe
fc
01
ff
fb
07
fb
03
05
02
f3
fd
fa
fc
06
f8
fd
fb
01
0d
02
f5
09
03
f3
f0
e8
f0
0d
0b
ff
f4
f7
05
0d
0c
0e
0a
05
fb
ff
f5
03
fb
f8
08
f5
11
0f
fb
07
fb
f2
ee
f1
ef
04
f7
db
e1
fe
00
0b
0b
ff
07
0a
f3
01
f4
f5
f9
fc
f8
ff
0b
12
0c
13
0e
01
f5
01
f9
f2
d7
dd
f2
06
0a
18
0e
12
03
12
f8
f5
00
fd
f6
f8
ff
05
0c
08
ff
06
10
00
f0
df
de
d4
d7
fc
03
09
0b
14
17
17
19
0b
05
ff
f9
03
ff
f9
fc
f9
03
f7
f9
07
0a
02
f9
e3
f1
ef
fe
19
0a
09
14
15
1b
18
13
11
07
00
02
04
f6
fb
03
f7
f4
f7
fc
f5
fc
03
0d
f3
04
05
14
21
13
0f
17
11
14
1b
00
ff
09
04
fd
01
fd
02
fe
f8
fc
0c
02
fb
f6
f8
ff
0b
08
11
10
1b
07
0b
0d
11
01
10
02
f8
08
00
f8
01
fc
fa
01
fe
fc
03
fd
ff
02
fd
fe
04
05
13
13
13
16
09
ff
f8
fd
02
01
f8
07
00
07
f6
fa
00
0a
03
05
f9
fc
06
f6
f5
01
0e
11
12
06
02
05
f9
f2
00
f0
ee
f1
fd
06
f9
04
f8
f6
00
04
02
05
07
fe
f4
f8
00
05
15
1a
0b
00
f7
0b
05
f3
eb
f7
f2
f6
02
0d
fa
fd
fc
02
03
fc
03
00
00
f3
ff
f6
05
13
14
0d
06
06
fc
07
fc
00
e5
f5
fe
02
fa
02
fa
f6
f5
fd
06
03
fd
06
fd
06
fb
f7
08
12
02
05
fb
ff
fd
fe
fa
f0
f3
ed
ee
06
00
f6
01
fc
04
01
06
00
fd
09
01
05
0a
0f
03
05
fb
04
02
fe
f6
fb
fa
f6
ed
f9
04
11
00
f5
f8
fc
05
f9
05
06
ff
f8
03
04
07
03
fe
02
fe
fd
ff
f6
f9
f5
f8
03
fc
0f
12
0f
fd
fe
f8
05
f6
f7
fa
f7
05
f7
fb
fb
08
0b
01
ff
fb
f4
f4
f0
05
0a
12
14
17
10
12
00
02
02
f8
f9
06
05
f9
00
ff
f2
01
fd
07
00
ff
02
07
0a
fb
05
10
fc
13
0e
0e
06
05
00
05
01
fe
fa
f9
f6
04
f4
00
fe
05
00
f5
f9
0e
fa
03
fd
fd
f8
0d
0e
08
fb
00
f7
f9
f2
03
ff
03
f9
f7
f6
06
00
00
04
07
04
0c
fe
01
07
0a
0d
01
f9
02
0b
11
02
03
f9
02
02
f8
fb
02
01
04
f7
f5
04
ff
04
02
fc
fa
f7
04
02
03
03
07
02
f5
01
09
08
f8
00
02
02
03
f7
fb
fa
f6
fd
fa
f6
04
06
00
07
04
03
05
05
f9
fc
ff
fb
f7
f7
fe
fa
00
01
03
00
06
03
04
06
f5
01
01
01
f8
f6
04
f9
04
fb
fd
03
fa
06
01
00
fe
fc
f5
f5
fa
f8
04
01
05
ff
f9
fe
fe
f8
f5
f8
03
fd
fc
f8
05
f6
ff
01
f5
ff
fd
00
07
0b
05
03
06
03
f6
04
f9
fb
f8
fa
f6
f9
fa
06
fa
fa
f9
05
0a
0a
08
fd
fe
fd
04
fd
fb
fc
01
fe
fe
05
fa
fb
f9
fb
fd
04
06
03
07
fa
f5
f8
fd
03
f9
00
0a
16
0f
fc
0c
16
09
0b
1c
03
f5
02
04
0e
0e
07
01
fc
05
fd
ff
f9
ff
e8
f6
f0
e8
f9
13
13
fb
00
08
04
07
05
10
09
0f
12
0b
03
09
03
f9
fd
f7
f5
fd
fc
f3
ea
e9
ec
e4
e9
f7
04
07
09
02
05
ff
fe
04
00
0a
f6
fb
08
03
0a
03
06
fb
02
fe
f3
f8
01
e3
e2
ea
e7
fd
08
03
09
12
03
07
f8
f2
fc
0d
04
05
0c
05
0b
09
fe
ff
07
fa
f8
fd
fd
f7
f7
fe
07
0f
16
04
f8
ff
e7
fa
fd
ff
03
10
0c
fc
0c
10
19
0d
f9
05
04
02
f4
fb
f2
fb
03
0d
0e
0f
16
fa
fe
ef
f5
01
f9
fd
fe
f4
00
06
0e
15
1f
02
02
00
00
ff
ff
fd
f5
f5
f6
02
0b
0b
0c
04
00
0a
00
04
08
06
ff
f9
ff
03
11
2a
1c
04
f8
fb
ff
f5
f7
f6
f6
f2
f1
fd
ff
ff
f5
0d
17
16
0f
12
08
fb
e7
e7
02
f3
f3
10
18
0b
f6
f9
02
f5
f3
fb
e5
fe
04
fd
ff
01
10
08
19
24
01
ef
03
fd
ea
fb
f5
e5
f3
fb
fd
08
f9
f8
f9
fe
fb
fb
e9
f6
02
00
f7
f7
03
0a
16
08
fa
e6
f6
e5
ed
f8
ee
fa
f5
04
fb
05
fa
00
fc
04
fa
ff
ea
f7
09
fc
00
f5
ff
00
