fe00e4f1eaeff7effaf5f7fafd000af7f1fa03131500f3ebf3f6eff6fefaf61b030c06ff01fbfffaf900fbecdcf30b0910f9efeaf0faf0fe0c0aeb0507fbefff000801f2e8f8f6e7deeaff05fbf4edeaf303020c1306feff0cfbf3f910160d04070cf5ecedfefffcfd03f2fb00f8f908fcf203040aeee5e10700f40a0f0808faf70610fb04120d03060b09f3e4fdfbfbfbfef0fefafeede2e9e4f1fcff030cff040509f2fbf3f3fd0df80406fd020f0dfa0c14f9f9fafe040b1e110c061a1201fefcfe0a0df8050305fb04fdeaebe8e4e1ec101a1615060c1206f9fbf0eaf5fafe0101fa03fe0602030605fa00fa04fc040dfefc0106fa0604fdfdfbfa0403fd
09fcfefdf6fa01e62712290e0519170b0c12060d0c02fa010a15080800f4f9fcf912ee031e2e3914090d180d0304091508fffa101c0e0f0901fbfef41010f2fd19312b1809100cf8f7f3fcf9fef9071b1e15110d00f600f70819f1021422221f181106f9f2eef8faeaea0810120a080308f9fffc0506fd0e17151b170d1402f8f3fb02fbe9ebf90d0d02fffffcfff1f202ee02fd02f10300f90d02f3fbf706fadfe4f5050a06f6fdf8ebe8ef05ee0afbecd9ede7e8f8fdf100fe1105e4daed070e05f5eff900f3f007f317f2e4e4dfecedfafdeffa031710f2ecfc0b0ffdf4ebf5fcfff11001f6f7e6d9dafaf2eefaf8fa0d0408f5f009130d07f8f1fcf0eff4
ede7f1eff8f8fcf90203fffffbfeffeef6e8d8d1dac7d7eae2cbdce1d4ccdad1d2f9030eff05fafafd0307edf8e7cdcdbcbec9e3e0d6d7cddcc9c3cfdae4e803eff7fc0602070afeded5dad9cbdfe4e1eaebe0e3e8e5f1f2f2f1ebe5e2f3fbff0403f6e4e3e5f7f3f9efede7efecfd04030e0812091104f3f402fa02fef4f5f4fb010a010bf5f3eef1f0fdfe0413131b0f0c19f3110cf300001a02fa0a0c0218120c0001fef804080616130f05030a111d1409010215f1f60109141a201f100b0502fb0616131e160ff7f2150e1008040d201300061210060b1007090a01fef90816130f0ffef60cfc00f402210a2d14090d0c08070e040e0907f0f9fe0f0c12
fe0607fd05080202f0fef5f4eceef90b0ee709f0dce803f5fc00ff0d12060f090a0cfd08f5f6edfddf02f10307ed08e2def6fd010109050f0a140f03110f000a01f0e5f3de01eefb0f1c12ebe2e1f80107080d08fdf504fa0905f7fcf5e4d6faf7ff0101110c05f9f2e7e9f6fb0a0e050907f3020f0b13070908fe05ede6fc06fe0af71b16030ffe0411040a0b0d121622151e1a0613011315f1fefe0301171e1b101d0eff0e04ff01fcf6102b29201b0f0b0819140efc02040006fa09130e1c1f0d26280ff511181614110d0e0c0206fdfa0602fc0006040505fdfbfd040500050e0001fb02040101fcfe01fbfbfbfe03fa02fcf8f1e7f9f0e4edf8ecd8f0ef
060706fafbfa021311121007fd1311fe05f2f20424162b05080c000207060d02f5f5fe0d1c10fdf4f90f171006f4f2f618ff1f2905f6090c090a0401ff030b0e1107fefcfa0711fcfdd6efef1124130d10150e0d0207fa0402050d171605f7f5fe0efbf8fbe5f5fa0d0a0d1c1e1507fe0c02f9faf50a11120804f6fa02020504fff0fff0ed020a1b23050a090a0102fdf4ff07f7fdfb01f8fb0dfa08f6f4edece40b162d2410161100070902fe0105f8f9f2f60c0b0b06f9fcf7fef5eafcf61423f903fffd0704050001f8fcfc0207080d1810f90af8fcf6e8eef40bf8f6fcff0d050103f9fdf4f80310fe07f6fcf7f203fde9f705fceff4f4eefd0209fffe09
03001319071a150909190b1b1413ff001411151b0a05000104080809060d14271a0f0d1207fc00fa0600f1f4060004eff10904fc03f00c2a1d180310050a060d00fe0106eef9f5f8ede7eff7f5f5fbfefcdffa281a280bfef5fafffe0007fe0a06faf708ececf7fa19f6020106e8050006fff6f7f0f9060f01091d1b1116130a08fbeafe240df4fcfd1a06fa0202f0eef2ff0603030b130e140910fd0502f60f071507f5f60011fd0404f1f1effbf2f503080a0f140f09fc02f31e1506110c05000df6f60b0cf2f7fe06ff0002fc0b1a1c1f0b030003fcffec04fcfd02f205f50302e5ebfbfb06fefbfcff0f101e0c051216fe05fcf2ef021f0612faf4f5f2f5
fd151e19e5f5f1fcfefdfc02f8f9f2f2eaebfcfbf60226190f00160001160510fb00eff9ff0805fff6f8efe9e5e8fe01ff081b250e0d1005f0edffff04ebec02f7ff0809eff1f5f6e8effafbf6fefc161806faffecf40c0703fbfaf9ff04f9fcfdf5e2f1ff02ebfbfffd03ed03f4010501070804e30f1a1b20110c1f0b2107131b07011b190916f9fbf8fffdfeff0409f8ec0a1c252b3b2b2431022f26231d07f7ff0af0fefb00fefb03feffedefe5dfe3e5eeefe1fff7e3e3f1f7f4efeef5fa02fb00fdfa0302fa0000fefa0200fc05070efcf606050305050200050606fbfc01fbfa00ebeceafe0a05ec000b0ef6040bff00090708ebe9010606fdfe02f60e
21111202182d290d1a251f0b0d1d251625201f383520210c16130e0415030c01292811060c0905091b1b24212e2c252e2a312b1d1821100d0efe09060826fd0b06f7fd0f11171d2624212025191f1b0d170ef601ffecfc0d12fdf40ef7eef701080411131616181a0206fafd0204f4e4e2fcfee3e9dff7e2ebf4fc01f8f1e4f9fef8f0ede9fdfd03f200ededd707f301e5df06e2eb00fdf2f5d4e0e8d8cacdede8fe03faf8faf8d9ecfae104f90504e7f1fa02f9f3ddd8d5ebecf3120a0304f9fbfef7ec1df7fcfd1cfce3edef0901030701eee4ff1613170a0a06f700effceb120e03fff7f40efffaff05070504fafa03fe07f6f9fefaeef5f7ff090e0212f8
022a24240703fa01060608192f20130efff60002fe031e10150b0e1a28443921ed1efd050206130b0d0b06efe0e3fbf0fa0c040611160b17293217251e2301fafd06ea0700efd9d5cfd8dce7f5060106151501030106ff251b1f0302faf1eb140bf3f6f1dae1e1f0f4f7feff00f6f5fee8e0e0f4110d06fc00fff3f80cfb04fff5faf0eeeaeffcfcefe8e9efede8eafe1c0c08fb0c1e02071b0016150b1103f2ebe6dbd3d8d4e1dcecf9f70021f8e3fcf62bf909221a271e16200c06f7f2dfdce6e0d6dceef209052102e6ff11f2ff0f191d1b201e1d171604f1f5f7efece8f20302030c2c0b07fbef09ffe90e161907132115151204150b0e0503030a11f90b
ff01ebd8f2e4e6dfd8ece801030d241e2106f30500f0f3f204fffff6f4ebddeff6ebe7e4ecf909fd0c1aff1d0f1a100b0e0610f90100faf0e4f2f7dbfbebe7ec1808fa05091502192f1d20191207faff04f2eeebf9f6e4dfe6d6e0e61600ff06fbf7fb0e320d0d14fa03fdefebe2e7e7f0f5fbf7091003161f02010000fef7f00c1c04f8fbfaf2eceddbebe1eceaeff008fcfa1f0f0200fcff04fdfcfc0a1522261406fe1103090f04fdff0606020205fb0300fe00030600fb040205060404fd00fc0200fcfdfa0203fa01fcfc03fb01fffc0305f2e7e3fc07f1ebeced05ff0908f300fdfdfcf4fa0600fb03fffff2f100f9f909ffeff6f0e6f60b0f1009f4f0
f2fc0407f0e4f509f0eff4f5032119f5efd3f8f8dddefd06080bff02ed04060feff6fd08e6dad8ecfc220c0ff7e109eddfdeedfafbf40704070e17140c02fcf6ddd5eff115050e08faf8f1ecfce5e8f907030e0b0e1a162e18f7fae5dbeeecee04e0fe1ce9fdeffe11f1f3010306100c0e1730290cf0e1d8f1f9f2e8eaf2f7fcfd30f30b10f1e7eaf407030308181b10fce9e1dae9fbfaf0eaf0f5eff400f6110df5f2eff1ff00060d20111402fde8dcebdde605f407f8f0e4071e2bfeecf5f3fafb0509071114020a07fce6e8e9dbead9f1edef11271d28f9fafffdfd0a0a07060e15140afef9d7f4e8def2eff9d5fa0b11191415f9f1f8fb03f9f50504f901
fae3d9dbdee1dfebf00015fef7f0e2dfee0ffa0200fdfafbedf9fefcffe7df0401040c14050a2006edf6eae6fa11fdfd0105fcffefe3e1e2efdfec010e10140f0f0c0202fbf5f7fbf8110104f9fb0503f7f2e2dee5eef2fe0d100b0e0b06fafeff080bfb01df0008fcf0f6ffe3e1ddebf2000f0c1005080d0f050700050e0504fbeceb031308fef0e0ded1e3ff1c290c07fcf90201020807f9fe050300fa1803fd00ffefdfc7dff40b211b0e02f7faf802f501fff403060b1803f30d0004f4e1e2d9ee0413130b1204f5f7fefcfdfefaff06011404f4f5e411ecdeeaece1f80c1311130cf5f4f805fef8fc0305f7020901f61303fbded9f0efdce911140afcfa
0d0f0001020a0d0f0f1c141c221a090b08130c070b091201fb12211a031819150509020a0605fe120c01fdf908151d10121b0600fd18111e150b09100a0dff05f9f600141714130612120d07120afafefd010d1809fc0b08fcf8e9e4f3e5fe0c0b1a1d15fd0102010d0b01fa04fa04030afd02120d05020dfee9e9e6ec091200f4fbf5ebfdfbfd04fcfd03050e0ffcf8fb0407061203f3eef7fbfbfaf5f303f8fd020602fe0003ff04010200020201040904f5fbfe00010602fdfcfafefefb060600fd0300f9f7f8e5f2e3edfed7e9f4f2cfe1f0f3f4f700020405fdfa00fefceef1f9f4edfbfef9e2c1b9cbeddfd4dddee6f5faf606050206f7f8f3e6fd0f03
0efceaf9e7e8edf6f60804fafa1012faeffbfcfdebedd2ed0c0a0c06fd0cebeff0ecfafefb0703f8f70e03f2eceaf5fcf3eacdde070ffc0d0905ece8e2e9060c020909f6f30bfae3e4e4eae7f8e5f0e109010511fe13fee9dce2fe03f9fd05f2fe0bfaf5eaededf0fcf5fd030dfc0d08011503eae1e5e7efeef8f7f4fa0005fbfdfff7f6f90304261bfe0401fc160feefefcf2f0ecf3ebe5e1f800fc0b0c0c0e010f1631150203fef00f0d0401fbf1e0f1f4f2e5e5f80b08121913150f11081e16040cff0e1805f90005f0fafafcf1f0fa111612182412161009030711020bf608040bfe050e07faf70ffb020e10131317240f1c0d0f030a07f312ff020d1e11
04f9fafafa0e021713100b0f2223110a09fafc03feecfcff00fdeffd10040306012110332c1b000c01fe020b04f3fdffff0308020d091830181a0606000d131e1915071704030500f0f1f2f807030a0c151d243319fe0305010a211a140c130e0a0f06fcfcfe0002fb02110f191f152816fb010b10141f1c1d13060e0409fb0409f7f9f6f301041917251f13210bfa0309181a150bfb01050a020109070000f6f2f7ff0efc1216130e10ff061119fb01fa00000a0800030a09040aeff500f7fbfaff04121b0f0602270c02f7faff0b0b0504ff05fe100c04f6eef2fcfbfff001281d0e061707f0fef7f40001100b0bfcf7071401f1f600f4f5f3d8f61b1f14fa
04fb02fefafffefdfdfa00fc02f9f90403fd0105f9fafa04fbf9fefa01fa00fffd06000402fafc0502f803040300fe03fa0201fcfbfd02fdfaff010305fa030300fa04fdfcfcfeff040001010507fffbfafa04030500fcfe0002fd06fe060604fe05ff040000fefe06fe030204fcfb040004fefafb0101fd00fe03fbffff03050505040506ff0304fc0401fdfe0000fd04ff06fe05fdfdff060101fe01fffefd05fd06fa020203fe03fc05fc0606fafe04fa0001fff9effc0206230d0b1017120a10070705000801fa01fefc00ff030002000516291d2b2d1614120103fbf2ffebe6e2ecfafafa050302041e130e0d122a212f3629161a1c00f705030201e5f0
ffff04fc0301fd030203fc000601ff05fdf9fbf800fb03fdfbfbfcfd04fafbfc01fbfcfefefd0405ff050303000001ff0003050301fc04fdff040005fefb00060603fc00fffa0604fffb00fcfaf9fefafd03fcfbfdfa03fa0305fefbfdff0406fa02070404fbfd06f9fdfa04fffcfcf800fdfff805fffc06fb020603fafe010403fefcfc0305f9fefafdfb000002fafd000100fd060201faff05fdf805fd05ff03ff0002010300fd05fffe0001fd04fc03030402fdfc01fd01fcfafdfdfbfcfe03040201050006fefc05fdfc05040602fa05000102fe010200faf90200fafd0101fe0203fa0103fbfaffff01fb01f901fffafbf90004fdfc02fe03010001fbf8
fafe01fa00fe02fb01f9fdfafe06fdfafb02fb0205030401fc0403040203f901fe020405fafdfffeff0503fcfffc00fd030503fdfaf9fcfafe02fafffffe0103fbfdfc0303fd030400fafa0003fdfefcfafafefcff02fe04fbfffefdfcfdfdf9fafefc06fbfc05f904fb00fff9fdf9fdfbfb020104fafffcfa00ff04fafcfefcfffffeff0203ff0200fafef901f8f904fa0605fdfe02fa06fd020304fd0204fbfafbfc03f9030203fc020001fefdfc0101fbfcfcfa02fa0200fcfcfffcfcfe03fefc0002fafefe00fe04fe0502f8020006060300fffa00fafafefe04f9fafdfdfc05fefbfb0105fdf8f9fffe01ff02fe04fc05fef9f9f901ff0300fffb020305
f9fb0bfb03121713150a10160a05fe02e3f1fa001c16070f0f12190a08fa0002fd0a0108f9f2f7f8fae9ff0cfeee0005fcfaf20c25200ff80104f2f4f702fefbfdfe03fa0f101403ebe501fd0104fe000d1f160b050603f4031408050201ff080e0b02f6f00a00ff0204fefcff0f2213251bebe9f5060308fa06090206070307000600fc0103fafc00fe0300fbfcfd01fef30b0103fafe0406fd02fefe02fd01ff020000ff05fafd00fa01fefcfcfc0404fbfffe06010105fc020204fbfa06fffd0602fc05fb0403fefa0400050303000405fa02fa00fa03fc0505fc06fefffc000105020402fefcfdfcfdfb05fefbfffcfb02ff0000fdfe00fefcfb04ff01f8
f904090b1b0b11110d04fd010b0d110c0c0e160b041d09f8f2dcf0f4101115130a0606161c03f8ed0816141117111f0d0b1715e307f2ea071b101304fc070b131af903f813080d121005201115210f140af7e4050f0f0d0df805fe0afe0b0e10071015131212190a0721f91613e5f7f9f90304090804f8f7f8fc00fcfc05090308050106f0fc0b1313020600fe020b10040501f6f802fbfa04fe0f0906180c0100011f0506070f16fc0109fa040f020004fb0a020c061411100c06f9091309f30cfe0106ff0406040c0c0a070f06050a0f0a080600f6f5ef070bf7001af809ff03fa04030aff0d0a0c080a1216020a0a0aff01fdf905f3fe1509140efeebfaf5
fddef80b06fc0a070af8f6ff0402f8fcfaf5fe030dfcfd04e8e80505ffee040802fa0706fbf9ff00050105090909040c0707f901e6e2f5f800e4e2fcfafd0903f9f2fefc02050307020a070a05f903ebd4e0fff2edecf1fdf5f600fbfaecf7fb010104fbfaf9f6f8f2eceee1d9f3f804e7eae3f8f2f2fb060701fdf7fe00fdf9f4fefc01f8f6f6eceb020bfce00feff5f5f2fd120b050104020409fff90703fd00fcebebe80af711d3f4f10cfa05010907070f0c100103f70703080cfffdfce3eaf7f0fadcdeede1f8f9f806070f150c0304fa02040f171f0909f5f6f1f5fa05ece7f2dbfe150604101519060408fdfd111012111911f7fc07e5fef8fadaebe5
09ed03fdeb002013f8fc02ff03fe0e0d0909151b1001fdeffb03fbf4ed05fc00fafd11ddd9fbf6ec000505151209090eedeae7e3f3f4e01dfe0d0601040202fcdde3e6e7f6fcff020c090d03eeedf8eaf30303f1f9f204faff010100f6efedd7dfddecf1ee0af6f0fefbf4fcfaf9fa0106fffffdfb05ff0400fffc03fd05fc00040afdfffb00fb050404030202fdfcfb04fdfbfb0a1b1e1e2030251a132c140d132f120e0c0c0703fefcfefa00020a161a232c120c1716081320200f081535291e0201f908fefe05fffc00eff0e9090f0b0b060d090ffb01201e0b0d07060f0d16f8fafe05f4f0ef06fcff1803f4f00404f3fc03080cfc0c090b1b01f30afb00
251e1b0600deed0b0e13f1dbdddde6efff02070a18131d201d101314241513f6ffedfb20e708fbe2dadcf5020cfff9fdfbf0000d090e0a0216171100f8efeff8f33e1d0ff2daf1ef00fcedf8efe3e0f9fa07fef90a0906f7e7e1eefdf519090bfcf7f8f9000002fdfbe8e9ff06fdfdfcfef1f20df6f5f2fbe81f1c1ef908060900050d0e06ecfef4f3f3faf5f1eff3e1fd02e90114353217080410070503080a14fdfcedebeaf0f8f3f0f9edf60eeee702260e000a0f0f0400f5f9050bfdefe4deedfcfde8e6fbd4de00e2fcfe2016090901f80c0fff050804f2dae1eaf8f5eae9f0f9f2e803effbf4fe140402140d1813010b0500fdf6f8f7f6e8d7e2ff05f7
f2fd01f4e0e7f0fb000bfcfffefa14221910241f1a1c0e0401fdf5eaf8fd00f8fd090102f3f0050dfae82514251921211912181107f8f9f4fafafcf6fc03080defeafd100b1f1c150e14131d1818211d0aedeffdfdf9f5f7f1feff0cfe08fffe0e26191d1b0d060e0d110706fafa13f2f5f0f9eeeb0202170decf00c1a0c031bfef7eb0309f3e4f5fb0b11050e0d0bff041113140e02faf41e0ef3f8f2ede7f5eae7ebfc0b120d0c0b0c0e0409191310150df0fd192f06f1eee7e8e2dfeaf9061314100dfa0b090c12140a060f0bf7fc1d1f05f8e3ded3c8e1f200160d1212080c0e1e1f19141510110def050f1df3e8d8dedcd6e7ff1010151211161a141d20
231f1417130713120d12f1ff021500fdfdf4f7e6d7dedbeafb081220150d1a150d161e16fe01f8e7fe1502fe01fe030006f0edededfc0f2617122322181008fc0704000106fafffc02fffd000609fafbfaee1b22120f04ecfc000403fb070100fb03fafdfafffe0106fcfa04ff000401081700fb0104fa0405fcfefd00fb0006ff04fafde5e0e0f404ece3f90bfa000812ec0c04fc02f8fafe0304fb040301f1fde6e8ebe0e7fc01ffe0e30500dbdfff02e1e61207fa0404030209081d09f8f3e6fbfd030afdfcf6dcd9e8f0e2cfd7e905080001ff0912070e121315161107f802030905fdf902fae7d4e2faee00fafe050e100813273123151207040905fcfa
141007fd0400e9e8f7f9f4fcf3f8e3dff004f61605f3e2d6dae4f4242610fff703e7bbcef2f6ebe8e3e7d5e0e7f0f5090ad9f4e8e4fc0c312817fff5facfb8c7e6e3e4ebdee5dae5daf3100a09dadfddecf800211f140a0cfae4c5cfe6ecf4f6eef5eff3f3090a0404d0d9dcff02f313211a1b1c0ff3e1edf20cf806f1e6e5ec02f92407f6e0d3d4fd0e0717282827251712e9f5fff4fb0deee2e3e0f9f826e9ead7d0d4f4090f11262b313a271f100df6fafafbf2f8e6ea02041705efe0d9c9def80d090f32323528240a01fc010d02050bfd0308f0f9fbe7d9d6d2f5f9f6f3fc090e1d1b1c13fcfa0113120513fe0bf8210605e5ebd7c3c7ced1f4f8000615
11fcfdf4f5fcfd07f605fffc020512100b121cfc02080e0d01070d240bf3fff802ff00060304100f061b070003fdfe071415010a0d18071c0df6f9f702f3fa00fa090d18180f09080e02fdfcfaf514fc171c260d13faf1f2f3fafcf6fe00100c040f120b0afde8f8e4f410031b20290efdfdefebf4f80303fd0203fa0108070e01f8f9f0f1e90e1e1b262a03e3e6e0d9eaedfc060a03fc00fe0800ffe9fcfafaf7ee07fa0e0d0d0ae6ebded3e5fe0701f8f5f4f5fa01080100090ffdf1fdfb080a1803fbe3dad3d8f809071005fbf2eff8faf605050e08fdeef801f10b1bfde3d5e3e5f605130a11160bfceff6fff4fe0917f2edf305fbf007fce5ccccdced06
020200eff512191013140c09faf0dad5dbeef2f100eeeafcf302fe04fd030104edeef1f2f507f7f3eaedeeedcfe8f8faf4f6e5e7f3ff000401fa00fcfaeefaf6eaeef0fef210fbf9faf3f5fdf6fdfff6fafffe06fafd0300fbfefc03060304fb0a1104fbfc02fa010406fdfa05ff0606ff0206fd0906110a08191613141c181022301815100f0207fa02030500fe0602f91117291c271a2f191f1a1a2c4d463a3201f7f21304fe02fb0a02f801fd1a1afdfcfdf2f1fc0a1606f3101c03ff0b04100ffd020209131a101009f6f6eaf5e8e7e9f402f3fdf3fcfc011614ea0902fbfaf3fa0c0816f9eaf2e7eeebeef20100070100f90b0a04e9d9f605fbfeeef711
fefd01fcef220d11fd1010060e0e08fbece1103a2813fff0f9f3ecf00ffb040cfe2905060d13fcf6011204ebd5e2032a1f0e00ebf9fffd0414041f140932161c0f101302091107e1d3e30724280c04fcf6f601fe061c0b0c0a2c2726150517060d0fffe9cbddff1c24150cfbf3f7fdf6091e150d0d2121191a070310fe09ffe1dfe6fd231c15140305030ef3121b0416f71b0d07121008fbfd06f0d6d7edff1019171206081022fd04100601f60f0b0c0a0cfdf4fdf1d9c3d4e7fa10080f0e0e040e2affe908fe00edf80705051b110903f7f4e5e8ecf90a101d170f08180bf8f6eafbfaecfd0915100d0b040a08fcf9fcfb0f0f06f60c01111204f8ecf8f6fa
0e160b0cfbfbfbfafe0b11162012070b07f5f2f1f6ecf6f708fd040f110a0003f7fdfdfbff08f9060102f7fcf5fbf9fcefedf90506fb0a190802f706fd00ff020417001600f5ebeef80200f7faf9f40600ff030d08ff0b170c02ecfc040bfe1807f5f0fafb03f7f4ecebf80d0d0708fcfcfa1123f8fbf7e7f31c0214040107f4fa08f4f8f7f2f20a0b07fefbfffd001cf701f5fe0f15f91502ff07f902f3f6f8f3f6fe020304fc02fbf6eb0106f6f4031022ec09fff5eeee0302fafaf8f2fefb0811110905f5fb00fa0ef9071116f90cf6f6fc060a0001fefbfbfd04030e070600ef04f7ed03010c08110bf4fbfc050ffe080af9eef3011a211102f9f2effbf7
f6fcfa15140a100b1e18020405ff01e6ebe6e3071b181b22150315fef7e8eff7f601edf30bf50400030106040101e7e0ede2f4f2141ef4f5eff2eef8f4fe06fe0600fd00040104fc00fffe00040504fc04ee060504fb0204fafbfffa0500030505fd01001b030309f1f90806ede100f2e9f7f3efeceb11170604fefb03ff04e5f2f3f0e7eddff002fdd2e4ffe9e0d6d3c8efece3fffe02fa000203090f1709e5e7f80a2a2412140d0605e4e3e3f0e4fa07eafafa00060601f20bf5f2fb0303090b1f201f1c0905f9f3f4f1dffdfc0506fe1f01011105fff904ff0900010316161f22140406091108f5f9fd010829fd0b1e0c06040e00f4f6fbeffef90a05040c
12140b01f900010306fc1425181c0f121e0402eceff1eefd06050505121b1713020902f4ebf7132f21150c0a131b11f3f700f6ff05f908fe0f171f0d0002f6ebf400fe1a13f6070b0b3622dcf407fcefe9eff80409180d07ecf1f2f6f80c051b0a0104080d1f0cebee10f6f0f1ebeae5f3f902fce8eaefe401f8130d170e0fec0719e7e1f9fceffdfff7f2f7fbfef4fbf80006ff080914100cfc1602041c001a03f0ef060608fd050206fb0809070e07071a19100a0c0ffe0007f2030608040607040c160d120e0602fa060d1d1c2103181c01fff90f0d04ec020efc130d0616190509080a150c1a0e070912290f09fcfd00ededf1e5fb161920161a1405070f
0b0d0a050c140f0804fefcff0c01f4eef1f5fe0c0c03e1f6f805030bf70d13171d1402fb0106100d0a0efef707ebfb0101f5040403ff02070a00101e1a1407fef8f8070b0c15120c13ff0c0809fee6f9fa03150a05011510160d0deee4e8f702fc0d160d2911120bebfec7f10605171516ff04ff0d0c03e7d2d0e2f30703061418011700f7f3d607fe070d1c1a0cfdfc021016dbc1d5e0f2fef8030c100e1a03f808f4fa0a1015181802fd0d182410e1d1cae3eaeb03f70405270b10f2f5faf5fef10f070d000f13141907f0dbe6f0f5ebfefb021326120fee08f6e7ece5010c070c09050c14fff6ece90404fa03080d16190b111b16e9caf7eaf1fe030b08fe
f5f20606f409faf6fb11211803100b0d00fdfbf6fd05fc0601fa02fbfe01f9040002181701fdfeef0800fff8fd0300fffa03060500fd0406fb02fefb01feff060b18ff0004fe04fc00fa0002fcfafdff03fd010002fffdfe0d0c2101f3f617f4fd09060d171e1e1402060603fc0107f808f5ddf30c01f2f2e8dbfd070cfef617130901eaf10201fdfb02f9f70003fd041309faf3ee04212d0f142d321d1601fef90dfd06fc15fae8e4e2e5f0f4ecf8fd040e131005fafaf2fa05fd050f0b03fafe14f0e1d0bdd8031206030c0bfffaf601f7ece3eee6eff90a1202fafe04f5dccfe6fd0f1710100e0c05f2ecfcf0eceaf4eceeeaf200090bf9ebf1e4daf8fe05
ef01f6e1f117211d0afcfadfd3d7d8cfdde3d3e2e9dbc7d5f1eafaf8ebfdfadc002d1c1106080df2cfc3c3c7d0d7cde9ebeedbd305fbf9fdfaef03dc181c0b16101b13f1ddc4cdd6cbd3e5f2f5dfd9f003fbfa040608f2dd000cff181a1c1218fc00ebeceafbf502eee0dff705ecfe010b01ebd5e300090d1727262a2d26201216110d0e000bfc0613fc11fafafb08ebf40f140f162928363b34352426270f1515220a0816fe12fefb1220e7f209fb060b1e242a25272f2c2a181d262310fb10120dfefefe10e4eeea03f6f9021c1e1f271e24282a1f29282d16070708f902040202f0fbf2f90a1203040f1b152e242617262118020e0ef7f9effffe05fffb05
172800f7f9fdff01f7e9f0f705fc0e09120514fd000507fd01ff10000f10140609060a0ef1deed00fc0809090c00070bfd09fcfefbfdfdf6fdf708f5140211f4f0f9f8fa01fc0a150ae9e6e4fb05f700f2f5fafbfbf909081bfa15e5e0eceadde2ea0b0d00f0fbf9f3ebf2f8eef7fb0b0e0007000d0bf4f3ea01faede3f6040b04030801f0f8fbf1f9fe07150e080f010a0fefe6effcf2e7f5f6f1ff11f9f8e9eff9fb030e0d0d1d0bfe0a01160bf0dce3f4f901fdf7eef1091317fff5ff0c15220e020a1108ff00f6fcf3e2cdef0a0b07faebedef0411040418100a08f7f1e901e6f3ecf70bf3dcdff60f1810f6e8ece6f0f4fffd0cf8fae8dbcad8f1e4fbf5
1e1204190d1004fc06fafc030a192715242209fa01042220190d0e0e0c090304fbfc0405ff040501fdfb060205020401fff7040c01020603060206fe000505fc00040004fc0304fcf8f8fef300f5f5fffdfefffd0301ff02020001ff06fe00080efcf8f5f2f7f1faf0f4f8edf7080f07ede8e5f20d06ff000407f806f8fffe0403f8ebf2f7fefdfb121a1a140c110606f207fffc0002191d020e18160f1a140e13171011090b10090f170d1a16fdfb04fae20f202b1e0b0d0e121b070d120e0d2b271108221101011114050308f20d25160ff506100c0b0e0b11110c1a160e0f0c04faf7112408f2061d0f08110904020c070b1a0d110b0f0804fdf40002f4f9
0b2b2d2619fed8d1d6edfffeebf6182503eaf202edf4f6f5e5c7cbf40b2c332610ead5dddaf2fffaf3001a1ff3ee120cfbfff0f7e1d6e8f61918261709f5c9e2e7f0fdfafc0c2f1c000a1f1e0b05fcfdededf70711131e15fcf8e8ddf2fcff0a091e141b1620140f0504fbf3f2f1f50a1719170501ecffe6e7eafffa0f111b330d04f8eff1e5e3e5e6fc00100f0c040504ec06ffdefdf8061a15151d0d07f2f7eee4e9e1eeff070b19221b1afce2e0eefafbfc0412fc100c0c110c00feeffa01000c0712101b1d03f4e1e2010206fdfcfd0af203170f01f4ebf2eeeef7110e0c18150607050dff09120c010300fcf6fa0b290fff05fc0bfe05171910150bfe0f
0505020af9030afafce7e9f3f30006faf7dbe40a04020c141109f7eef30206070803070df9fef3ecfcf9f2ffe8d7f2fefef4060b0c02fff2f0000f14060707faf1f9f5ddeaeaff03d1dbea070a0afe000802fbf5f6fbfc06110b0a03faf5f7dde9fefc04e1e104f30004f4fafefdfdf3edf5f51117160f16fff4f2e4fe02fef7ebec00f00b0a03f5fcfe09ffedecf40f182121170ff9efe9f609fe05f0dced0a030c020103120b05f9e9eb04111d2d1e1406f9eef0ef0010ecd7effb120401feff0300080cf2ec000716271c1a0beee4e8f5f201e0e4ef1318f901f9e9fefc07fde5f0fd0f1e29252604dad3dfeaf4ffef01f81b12fcfbf2f2f0f700f2e6daf2
111103fe1915110b0508feeefd04070505fdfb0403ff0101fd0202fc0603fcfb00030208fcfe020302fc0603fefafe0103ff020102e5e6e7fb00ebfffde6e80709edfdefedf0f8000404fefe01fbfbea02f2f0f3f30909fff9fb021e0dfc0607f9f7e801080503fe00f8fa2033280ffd0407f0f207f707fc0c181a0e0a08fb090901ff04fff5eae60c00ea02f805fc0306010903070d0cf4edf413020bfafa06fa1501f810f2f5f60309091a19160d05f701f9f3e4ec0a12220205fb001d070210edf8f8060c0b15190b03fff6fbeef6e5daee0d0af4fffcfe0c03000a07fa02050efffa0d05fefbfffd0801f7e4f30300fd030307e3090503050003140df8f8
07f3eaf30808010706fdfd040510fc0001fbfef9e0eafef6f71724230c06f8ec00fffc04fbf2fefa0d08030406f7e3e1ebe0faf91022070b100f13030cfc0c01fdfdff0406f6fbfefbf3dec9e7e8eefd0d0ffe0b1d19180bff01f4050e0b050bfcfcfa0601ded1d3d4e9ecfe050e1e191113080d0601f2010701030a0405f1f1f0e5ece5df01ff020420071210100f1e0c030c080702f5fcfffaf5e2f0f0f7e8ea0902fd020b0c081608060210150b1c09fdf6f3f9fdfbe7e7f0f9eaf009f6fb000106101215fffe0d1f100a03eaf0e7ddf4ffeeedf0f8020a0f0500fb03fafe0d1203112e2d31331e0b0cf1f903f5f3fc060201030c060302fd020303071110
01f40a0e19080b0f0a030507060303f3ecec02fcf005f802fe0af90509deeefff1f4fe1001f1f0f9000104fae5eaecedf2f3f00017f7f3f8fadfd6e0e7fbfffefdf2eff6010d0a030401edf6f2edf3e817e0fa05edf3faf3f3f601f0faece3f7f611130e0b04fffaebeae1dffdfffbf4f0ebead8dfd9ebe7e2f9f2fff2110d0a08fe0c00fffde7e1eef6e50bfbfddacdcbdde2efe3eef2f8f503fcfd000a0404fe08f3f5fadbec02fff6dbb4c2c8cde4f4ebf2ebf5070d0e03ff120507080c0515d4e1180514f3bebfbdd4d6e9f7ede6ff0b0e05090607010907100a00d6f4ed0d1b25fee6c0d2e7ff0bfb060b110603fbff00fd0407140fe6daf4eef515271f
fbfe06030201ffff03fd0606fffb01fa0601feff0200fe01fcfc00fe0601fefefc00fcfa05e5e4ebe3e9e5010406f4fdfee6f0fc00f705fffe00fd05fa01f8f106f6f700eafe17100b04ff0109f9ebd9ece8ec09fa04fa04fffe01221824101c18141f16170a1b13fd021207f907e2ed0d13fafe030cf11411090917161f10100f07080c060f1e1bfcf9e8eb0615fc01fd1f0614211a0c1f0f0d0d1b140604110a070b0b01040a11050903fffa0e090827111721141a1708090e09080402090802fb0b1d01ebfc07040c0f1821292526151c190508090bff0b02120d09041018fce5000915061914222316151b12111312fa0803fc0306070007f9fdff0afb02
f9f716150506fa0104fe020b0806fcfe04fafef8eff807faf7f501f9fcfe130d0506f9fb0a03ff0501f6fc06f4fefefbeffd01f8f4ff0304fafb001110fa00fe060806fbf9faf0f6f8f6fdfcf80300fc00040601fff9021406f700030305fef6faf6f0f6eff4fafe0404fef502fe0cfbfe05fa0a0bff050203f4fcf7fcf2feeeeff6141109f8eff307060b01fc04fa0305fd04fbfffef8fef90101f9070f100afafae9f2f90d0c0b241d0d110805fc03fefcf8fd0c110f0c0714131303f6fcfbfd0b0e1525151006fd00fb0601feffff050f140f17191a111613010e3811071f1c1202fe0401fdfb04fdfb01fffa0105020efefa01090e111110100f130cff04
080efc01fa080107030103fe03fe00020d0807f9ee020d01faf804faff0ffdff0504fc0805fcfa00fcf70706fd070df5f301fc03fff4edeefffdf7f80700fbf4f7fbfafafefe0c0902110700f7f7f7ff04fcfc010c06f9eefef3f3eff103fc00030b1002030e0af2f8f4f8fe01fcfa000c0e07f5f4f7fcf4f8fd0104fa12100304120afa03f801010501f5fe00ff04f7020705f1f203ff050a121b0c09fc00f900fffef4f4eeedf303fffafb02050d02fbfcfdff0c14200900f70907fc07faf1e6edf4f705f2fbf504090c0a070301fa110b020c06f5fcff0702fef6eaeef2fefef6fefefd06130bfefe05ff00040b1003f7fbfc0701fcf6f3effafefbf7fcff
070c04fafcfefd020502fffd01020500fefd000505fb06fc01fffaff080706f90005fa02fb000504030601fd00fe0502fbfef2edf3efeaf5fafefef5fdfbfa030203fbfefa0205fdfefcfafef7fce8e9e8f9f7f8eef5faf5fafe00f900fc05fffefdfafffffffffc05040100fd0009fef4f6fafcfff7fcf7f6fdfa0602fd03fffdfafaf403070003fb0704f3f4f1f2fdfffff8f3f8f701fcff03030103000bf6fc01f6fbf9f802f803f3ff01fcfbf6f8fe05fd0304fefc0602fb06fa151ef8fcfbf8f9f602f9f8f1faf3f4f80702ff03fffb050402fdfd051814030d00090805fdf3fd01fffafcf8030d02fcf9fc01ff0400f40619191306fe0c0dfdf502fd00
03fdfc03fef1ececf1e8fafd050705f3030bec00162d2505f7f3fdf9faf7f5fbf6f7f9f3f0f0f0fbfc040205fc03ffee13092a08e6f6f8e5f1ece9f8fdfefbf8fcf9041c0d090606e600ebfe0c153806f2e9e7eff5f0f6f5fc00f9faf8020f0902f3ef00dffdfafe162a411ffcfa0c0703fe0403f403fc080d0c05f6fdf2e20501fcfefc1e2c34360b020a0c080a0b06fd04f80b09150a091107f9ede1e6fc04000910242c1f2400070cfd0e091915151f0b1d0711110c1bf7f2fcfbfcfe09140c091608f2190a02fc0efe151c261f1a0c08ffede903fe00060403fa0504070b0704f7faeef8060b0e0a0809010b0200fc0205fe0101fefbfcfafd03fdfefcfa
fefbfbf5fbf6f2fcfb091918070cfdfe0923170e09f3f9f603f80feef3eff0f7f9f6fa0900071a15110bfe01051809091601e902122d43f7faf6fceef605091b1a111620170cf5fbfe1010001cf8f9f9171a2506eeeef0f3fe000b1d1b141813130a01010416110216f2ef070d3212fbf30201f5f8010b170c09060f180d08020f0e04fbfbdcef040d1a06060a0505091100f60703fe07051d120d050b0708ee01ecfcf6ec03081508f802fb08f2fbf3e1dbe8f50f120dfe070708fc00eff9f6e82c2b2015f2f60012f7fbede9ddd0e90408120c06151304f4e3ebf4e709011f0bf7fe070a01f8f6fbe9d8f1fdfefd060713070404f3fcfde817260d01010609
0403fefce9ebeafafff1e7f00904fa0d11eb05060707f802060301060104fff3feec04f5dae5eff3f0f701180dfdfe251816ff0906fd03010006ff10180b0104060e0f16201719030602f9f904fbfcf8060cfefa00fa051220200b1f21250e1b1511050807fbebe7dbd2deeaf5fd0100fde9030f272d301d1b14000bff0200f3edf2ebe4cfceda0716fcfffefde5fb1a16201905060a060202fefb04ff02faebe8e6dc0b0905fffa01ec000a2020140a080b070404fdfbffff010c0300fcf506040605fdeffe05fe14040207f5fef5ff05f9000202fb02fffdfd12fa0711fdfc070c14021203fbf7f503fcfef905091010fff0fbf90c130afdfcf5fc0af11006
fbfaeffb11280dfdfdf5f6fcfbf7eef6f4eefbf7fa020c0b190bfcf3fa02e7f91209050a0804f2f7fcf8f4effef5edfcfa120a09fee6f7d5def3ed011312211e0cf4ebf809f5fcecfffff104f9f4f8fff2e9f4e5daed00fb0f2234301a0c060d160600fdee02f0faf0f6010aece7f8eeea00fe04141e25363319151214161409fdfcf002fb131b05fdecf202fbf6f9040102fb1a32240aee01fd0409010403f8f70009f40108f6fe03e8fa01fd02fdfe0218110d070912141f20291d120a09080a040003fc04fafa0006000205080f0c0c0703fa0910060e0f0b0b0a04fdfc07010202fafdfe0104fc0104fffc02fb020506050afbff040602000101fa060500
d6f6f6edfcf0faf0fae0f503ff01f1f0f1fbfe0f23281616f9cfc9dadcf1fae90604fc05f7e80bf7f5ebecece8ebff0d1f251c0ee3d9d9eef60308f4140908f9f3f803eff8f7eeececf3fd0a132a1501f4e2fb050f1216070b0dfb07fce8faf1f903010007f801090b1e10f5f6f50510152928fcfb01020bf4dbf4f20018121714fcf70a16080004020007010e0b15efe8ebfd09e3dbf8fdf914110bf8f1f3120efb0f0f08000c1410ff05f6eee7f703fb08f5f2fefefce8eed9ea0d09f6fd0d0d16120d05060205def3ee01efe8e6f6fbfaeef4edeae6eff2ebe7f9fd0f0a0a0bffecfdebedf803e60801f4fbf805fef3f2f8f0ece8eee4fdf501100804ebea
ebf0f4fefb07fefffeff0202fbfa0201faeeefded4e5e2d4c0c1cbced5c9d2edeee7f0f3ff02fb0302f9fcf30a0d03fdf60806f90008f9ecececd2c8d9ebdff1fdfbfafe00eae5e3051a0815130df405fd01fcff01ece8ccc4cfe9ecf0ff02fffa0402ea081d10070e0b140f0104fcf6e6e9faf3d1dadceae7fb01fcfe0a06f9010307f60e081206000808fef9f3f9f1dad8e4eaecf507fb03fcf7f4010304fffc0a1d01100e151a0cff00f3d6dcdae9f7fb03ff02fcfbfef4f2fdfd000b110b190e1b362b07e1dbd9dad9d9f2fa01fdf8f5f51902f8f804000d0204101f25231900e5d9deece4e6f7efe505eddf0217f5fcf5f5f607f8011220261d01e2d5db
0a120a08fd08020a03f4fb1603fa16eef5f0dee0e7fe0007090a00070b100c13ff051004fe0efb1c21ff1b07fcfeefe5e9f103f9ff0f0d140f1010060e0d0e0203120e1623ff11fb0207feeffaf3fbf50707f8060a0106090302f9fa0a0a0b090f1f03fd01fff2e1d0e6e9f4f7faf607060612190d0e0a0f0902fbfa15160efc03f701f6eae7e6fafef9f4fb04fb080a170efa0906fffef7f60e04fd04060801f6f1f0dfdef3ef04fbf60202000607f7f3fa01f6fefcfdfe03020305f6fceff0e3ebfa06fa06ede5eaf9f9f1f7fbf9fd05fcfcfdfaff030504fe060100fefc030d1003fffbfb04fb0402fb02fe06fa06fa03fc0000f3ef0200fdffeae8dceef7
02f9fc01090d1a0af2f4f1faf4f805101203110612150b0bfe05f5f7f5f4010d0b0e0ff6ebef01f1f9f906170a172201130b0402f7f8eff8f4fc0b15140e07edeae7e8f4f4f8f70e040b19f40b191000f3e8edecfafe0e0e08160cf2e9e3f1f2f2efde000a0e10f9070910fae4e2e8ebf9030f06091501e9f4eff4f9e3ddd7f2000e01031c1412f0d8dde5f70d150b0b0c0cf8e5e9f0f2f4e0d2daee0e050e050b0704e4e800f9111c1d0aff0309f4ebf9eeebeae4f3e6032516fe130d0c03d7ea070c1b110c12100306ffeaf2edeaf3f50afe011a0701090c14f9cef9100b080b0607070f0605fdf600050a130604090906170400fae3ccef12060a12100bfe
fbff01151920141010271d03162f251e1d03f2e9fcfdfbfafc000bf7eae8f1ff02ff050bfe0a08130208101e140a1606f50cfb00fd0a170b05f803fdf5f409fc0807010107fff3f5060d121e0d0b04fd00f2020a00f80207090b0e0804050bfe04f9fcff08010909071203fb00ebfffcf90807100c0f00fc00fff9f7fdfe010b1208150f0b181104f9eafcf9090202fc0301fdfff5fbf3f4f50602030b0d0a05221d0900f912fe0a130207fefcfcf6fdf6fff9eff3fffc081010000c17f6f4fb0e1c210a1802f7fbfcfd0507040e05fbf000fdfd09020c0b0cf411fc1a17130c1204f8f5010307ff05080dfdf8faf8faf8fc10fe170f151613181a1402f7f5ef
0201e6dfe601f0edf2fc0a1a161801f3e3cfcbdbd9d2e8eef8edde010905edede2f4e1e1ed1111080a01efead9cdc8d6e6e4f4f9f7f5f202f9f1e6f1efd7dedffd0df3f5f9ebe8eeebdecfd9f3fc01fd0732fefafbdfd6e7e3dbedff110a0ffcf0fc05f7fdf0e7f9fa0208f70219fefefbf9e5f7fef5061b20090e02f2f4eae1e5e8f4f508040b020a1b05fafeff03061a3736271705282113fff8fb02fef9fe0304fe1101160600ff0306000b1b1c242624fae6010203080e0bfffe08fffe0afffc06fe060500fe0605fefefd02fc01fdfd0d0c01000001fb0502020500020301fdfcff0200040710171e1b09231604051b0e181709ff0bfafd0401fd0206fa
fdfc0c01f9d2d8f1f5edfb07ffeef00b050e1114291e02fed6c6ebfbf80e02fbf8e8e3e1f2f30e0a0bf4f313ff161717242000edd6d6effffb140100f9dde2e5f0f1fd150c03fd110d151d1f1a150aefd9dae90206030303f7d0c4d0e5ee030d08070711162526281517faf1d8e1e7ebedecf613f2c6c5d3efeb00fdf1fc04181a242a241c0df4e7e4dbe2e7eafffb02edcab6c8dee3eadde4ecf4001213151308fee1efe9e2eddfe200f7f300dbd2e6e5e5d2c7d7cfe2f91a1b1d03fdfadee7ebd2e8e7ddf3fbf904e8d5e0edece4dcdad9d5f71b191afefef4e5efe5e6f0f1e8f7f6f7ece9e3ddecfbf1e0e2e3f9fa0c1711f9e5e1d5e6e5e9ecf1fdf6e604
190c0c1d0cfb050506fdff0e12f8f9fcf9080cf8f61200f601fd102006f91711f405fffa0311190618161d06071a1804fef6ebe9ee0dfa01f6f30e11fb0204fcfd1808020b0a0e08fd070bffefedeefcf7eaf5e7e1e5f0e8f0f6fefa020dfe090d00040df900fffe00f7f5eedde9e4eadde1f1e7f6fc1111fcf7f20e00f9f9fce4f9e5f3fb09050df5f6e8d4d5def0e1faf8040d090505fdfdefecf2f3f9e1eef4110a170dedd9d1d7efe6e9f4f902fb19060808fcecf0f502f9d8dff20d192a13f2fae3dee2dbe906eaea0d1109fee9fcdbeef2f2f3d9d6f2152217fc020be5c9cde0e500ec0ff4e1e8edf2fde8fb0100eadbea021e22060e1405f4d2cbe3f5
f0faebeaeaebe1e6e30deb00f405ffddf00406030908faf9fdf6f2f40800e7e4e7ebf1efee12ec02f1f6f0e1d9eeefe8d9e3efecfa0401f301f0f2dbdde0e9f9f5f104faf102f9eef4ead5dcdfe5f4f2fefeebe0e3dee0d5e2e4f4f4fe050306fe080ff1e3e9e4dfe5dcf2f4fdf3efe4d7e2efebebfbf70914fcfbfdfffc09edf3e4e8daebe5e1f3e4ea0dfff8edf6fcfcf8031411fa04fc01fb0201fceff503faf10d17120d11080403fafa0402fdfa05fafc03060602fb040400ff0102fe02fdfd0103fffe04fafbfd040304fefbff0504fa0502fbfbfc050604090e18fe0b0e0d07ff0a02fe05fdfffd00fb050307fcf4f506fa0506060512f20a0a080d0b
e8dde5f71118100a02071807ebe9f3f3fde1ee11f3f3fb01fdf8f7f1ede8f60b0d120cfe04021803f1e1fdfb0c18f60e05140603f6fefbff02000c06060afef7fe090d0401160807fd13080c111a06fd06f6ebfcff0a0d11070d05030b06021308160205202f0b0e21190d050ffdeff5fd15100a150909000f13fa02061809051a3331412d16131403fbeef50f2412131809fb0c1c03fbf60521211b062e1b2f1a100e090c1a090f101b151512fe060300efeff2ef0d0614fa172a3c1a0e0c151c201f17140f1106f503f6f4f1e1d7d4f3ff11151408082a1e0b16161c2b292008060304ecf1f5efede6e0d6f6fc0d20f7f40df911121f190d191d0f09f501f8
16fbfcfefafb0105fefbfcf4f5dceae80d060505fef7f8100c030101f6eef0f20d061616110d0507f4e4f8eaf2f50202fcf50b0b0e02dedce9eaf8ff08040e0c070d090d07070cfcf3e1faff03071e0102efe9eaf4fdf6f0f8f600fef30d1d1c1e211302f7edf906fd11190ff3e6f3fcfffaf2e8f1edede5e5f80d101e2110f8f1fffb050bfc22090302f4f7f1eaf2e5e7e2f4dee3fa010e0b0c0ee9d3f70d0001f50a0d130ef2fb00f1efedf1e5ece7e1fa111e1309f7f4d2f91f02f5fcfc01fffbeffff7f2fcf5eff1dfd6f602231f1914f7f6dde9fb1f16fe0102f5fbf4fef3f0f5fcf1e8d5ec061a2314061209fff0dd000307f6e5f4ecf7f7f5eceaf2f6
0e1e161e23221021241b190d15100b0ffffaf3e7ce04ebfe08271c231f2812160d130f070e0c120914231606ef000de0e8daff05fe1237261b201bfe0504fa0c2214120d0f0a02fdf906fbf4f2e2f20000fa001cfa0011273a1e22293a333808e90f09f3fcf6e611140ffb0200fbfd0921100e2e3b3b516e5e4d430f260ffc1116171b14110f0104010003060f0804001f2a59574f684e3d381c21120f0c0c0c02fc0005fafd05fc04fcfefdfafe0303fffc1210fd0103fa02050103fb02fdff00fcfb03ed0f190b132f312b2734212c2d2121170e14e7ecfb0102fa03050d110d2e383e20080b15102b251d1210191818f6f6f51603fd0504fc001b0e222f32
fe14111d0afc0b0d070e051509f2e7f0f2f7f9fbe8dadbd2eae90309f0d8ef161305ff140b07000e07f8edeae7fcf8fff7ecd6f4daf1020cfcebdce9edf8f7180e0813070cfaf2f7eff8f7f4fffde9f7f5eae8fa19fdcabdd1d2ddfc0b281b1c0cf9f1e7f3f9f601fd06feebebeded0616faceaaa7acaab8d9081711f1dbeddef0f802fe060103ead9f9fb0f1b0dd9b2a092879081a2b7c5b3b6e4f8070516180d0008feefe60004161dd9d4c6b6a8a48c9e979ab0caf10a221508170b0bf6fdd4d406000818e4d2ebe0e5f1e6e0e1ecff020a151e0c06130108e9cccbd803ff092505f7e60111211f1e18201c311b201c131b1310fdead4c6eddffc15333126
02fd030606fde9dfe4f70c0af7ff00010d0109190e171b15171b10f3fbf80406fb150dfef6fa0f1409f1f9051108ff0c191108000111191f10dffd02061107fd02ff0b0f12020410090c061712160a1408081b2409c8f0fc0112192112162017100d0d202417151d1415021e1b13282f06d0d70607fb2e2c1814140d150f1e21211600fdfef0f7f3ebff191f1a08dc00eeeb202b0f07130f0a0a0e192712d9d3d6cdd2e2dbe7ec14160bdf03e4e71712fc001208fe050c0a1c0ecbc9ccc7d6e6ded6de1413eaed04e9e90c19fc06fdfd0a07f9f91115d9ddfaecddeae2dcd1e31ee2f606f8172b21000f02040f030701130ae8e1f9faecebdbcfccd109e0fc03
180e110f17f7ee05fed309f5f0dde4dddde8ebf3f4f1f9ff04181d300a18202fef1ffbfbfedf06f60bf5e8ece4e8ebe5dbedfeff0007fafb011f2914dff9fffefdff0dfd040500ecf8ff00e8e001f6f4fff108f007262df4f3f6fcfaff05ff080c1e211503fdf6f4181e041d2e2c211e110302feee0a03ff02fe03060c11121b1e0e00fdfbf3fe020e170a0c0509ff030302fafc00fbfa00fc0304fefcfefafa0502060503fc06fd0204fbfa00010204fbfd040404ecebe8e6effc05f9fff4f4edebf7fe01fefc040106fcfdfbfb03fd1b160b1e1d1a14f40a1a0e0917222308091507fb04fe0602020611030118fb0915fb060610090f1d090d1e11131f0202
000e090a100ffb001108fff0ffebedf72225222320211521240a06fb0a1215121102fffd0c2201f004ebdc021619251415170f13130dff05121b04140c0afb05eb2b0aea1ad9dfec07291f13160d0e140f040c1a1f08fc1811fdf5eeea210d0cf4c6d0c9ec181f171108020c060216270ffcfb0a140efaecf31d0917e9c8eee6ea08fc050300fafef40d1102fdebfafb070a11f4fa030e0ff8dedefef3f3fcf5f3f6f7ed0404fcfbfaf7f3fbfb000c0c09072411f1edf2eceeedf5ebedebe7e5fdfff2f9f9010903fd090a0105171de3ed0a11fcdee3f4efe3e8fdf0f6f402f901ff0fff0315f1fd1219ff05f0e7eee1ddddf4e0deecfffef1f6f5fa0605131b
fcf9f2fc08060905f9ecefe7f60afb00fce3f3f2e5e9f4ede7e2e7e4f106ff0a0a0502edf6e6d1d7d7ebfa0302e0f000d4d6dcd5d9e2e0f3f4edfffbfd0802f2d7d3d5d9def1fe0003e0e102e2d3dacdd9e8e0f6f300ff01f1eee6e9dee0efe8dff700fffd13e4f3dddaddd7dfefebfe0612fbedddd9d8dcf7f1f9eee4ffeffe1713f5dfe4e6e8e7fa000916171af6e1dbd8dce90600f902ed0611fd26261ff3f0f804fa0e1c251e281bf7d8d3e6f4f1fbeef50dfe05f71ef6022df4f40b1c0e1531211f261efae5f105f8fffefc02f6ec19f2fff8f7f6f1fc0e221f2a241d222215e9f0fc00fd0b18170d05f30ef60c04eeebec0818202328252414270d08f5
060e08131c1210fdfff6e5e2fafce9fcef1afa01f90e00eddaf3e6f1f1fef713121e170ffd04f80006f5f301f91a0dff01f9ffff08fff4e7e4f3f6eaf8fff7e9edf3e6f2f1f701e2e51304060306ff03f4f3eef3e4ffff03f9f80404f0ecf6f3f9f7f7f6000401050104fb04fcf5ecf0ebf60d201a0c06f4f1f2fdfb02fbfafb050604030506fa01fafdfd0003fafcfa090ef8f9fcfa04fd02fbfbfeffff05fefd02fefc1522291a233136150e2523fd02260e07fd0c090ffdff060401ff050f131c080504fefe050e180af5ed1431200e01ebf80bfe02fcfafc0ce5e7e2f5f5ecf8f8f8f9ffe9fc130306fff6f1f0e8fe06ff04020e2208fe081b0704f30af8
cceffffdf305110d14151307fdecf2ff06fe021109e501f90700ead6e5020816261b160b0c1702f7efecf70c0103070d07e0f416e6ebe5e3eaf410242f121a0d0e0dfff4f4ebf2fc030f0706faf2edf1f701eecce4ff1327281c1d100600f2eaeaedfb0b0803fdfef2e503ea09f2d4c0fc0b011220221e10fff2edeeecf0f9030308faf201edfaf9f600f5e1f6010f1b20191b1606f1ece1e7fefd070605f7f40f06e0fa05fdf7e0e308110a1e1b141105f5eee6ef06fc02f7020204f6fff514fcf9f8ebf5fcfa01120c0b0e0d03fb01f8070707e9f6fcfde7eff603050007d4f0e502f7f5081419120f09030004feeef0f2dbe4f0ee15fcf5fb16e2eaf3fef9
02f50f1a1b190f0c03100a030a0113110f09030908f8fbf30d1e040305fd15fd04020a0efa0bff04070909fe0afaf603f91415080e111801fc0a09eaf5fcf904fe0807090004fef3f8f3f2030009041325170106040307f8f5f1f9060b0b080bfdfdfef0f1f3fef50508061e26f718020311faf1f9f1f3f2fa020201fdf502f1e5f900f9fafe100c1cebf20a0506f3fef0e9f4f4f2f7f5fbf7eafcf204070603eef6fc02130710f60805e6f8fee9e6eae5e7fbf5e7f2081309080603f5e4f51b0a0b15fd0712fcf6f6f3e7dfd7e6f305fb050a0c0f0705fdf3eff81e101a15f60a22fddae000eeece0ee04110713160afde7f4fbf5ebfa100dfa0f010614fbc9
e100fffcee01fcf900f4ece4d4e9ede3eaefe3e8e4edfefbf9fcf602ef06ff06fa1514e8dd06f0d4cfc1bbd6d4c8daf4e7fa02dee3f5ee07eb06fefb0202fc00f6ecf2f3f8ff080105fdf1e2ebe2f713f8e8fee9e3fafd06fcfa060205fd04fff6f8fefd010debeeeefaf702f9fe02fbfafefb02fb02fefa02fcfb04fb020200fffc04fcfc01fbfffdfdfffffbfcfefc040000fdf20103010efbe9fd0e05eb0801eefe071104ebec0603fc060404f2191b0c1809f1f7fb06ff0ffc0604130b0f182225260afd010200f902f0fef6071115ff0501fb0705f9f0fe00080b110deff01100fbfbf5120f1418191314150509feff0202fc0600fcfaf5f8110df506fd
e3e4f5d8ee1c0d000b26ebded7dad7e9dcd5e1e9dde2cdcfe9ff0805fcf404e5e7141108123616e3e5e3dadddce4dce4eedfe8eef7fd0f1417fb0b0ce906180910322f1c0700110305faf8040b141911100b0f05110f1d140407f71203312a3d1b132b282b332818313033180c0c060807101214ff060f0c0c132929292b231d2232271e1b1c15121003020a060404160408190914090510311d292810110dfefd02ff0702eff5ff0c04071f14101aea050bf3ef08192205ff08f3f4e3eef501fdfe020b0a06161e16151103fe12f8f3f1f8fcfbf8f6f1ecf0f9041606fa00131720281503fb01fdedfbf9f7edf1f2f6e3e9e6f901030b0e07ea030f040808f4
010b0d08061d0908e8ef00fffb10fadddcd9ef00f808090f1c1e141200020c0dff0a0cf7e3000a0a030a12fcfae9f800ff0f1710132016121011120701f9fdfff30ffd0cfdfd04fff6fef7f100fe00fe0f0d0d1e14100a0efcfff2f5fd0804031f1dfbf9f8eeeff6eff9f1fd061019150e0b0bfef3f6def6fa1617fb241704f0f804fce8e3fbfffb0d120e150c0202e2fbf8def4e50af318231228f6f60700efe5f8fe0c12160e050afae7cbdff2dee9e6fd04051d0df4d204ff00e6eae3fe020406fafcede4e2d6cfded7dff406fe0317ffd6ccef01f6eee3e7ebf0f2f2efe0e1ecebddd7dfd8e6030d01040e00e2c1dff3e3dfeae2e4f0edecd6cadafdf4fc
fb000002f802f9fcfa020205fd03ff040102fcfbfafd03fdf9fdf8f9fd03fc0302fdfdff050301060102fc00fa040501fcff02f9faf8050401fefc0303fcfd050305fefe060002fb050001fefa0101fbfafdfdfcfc01fa04f9fd03fafa030104fb06010303fc00fa02fcfcfffd06fefefffafffbfe04030001fffb0403fe0406000002fa1906fc0200002300f5022ffe071b05f8fe07151603fc00fa00fc09ef070b01152906ecf3f9ff130affe2eaf9e7e0d7dbf5ff06feff03f5f9e70b0f0a090912f300fff102fde6e7f1f0f5ea0916ef02060513021ee7f0030b121910f902ffff0a0c0809f5ececf5f6ea0b00fd001e01ede5e8ef010bfc0a0a100e1412
0503f900000404fefe0504faf8fc030702fdfefe04ff01fefbfbfa04fdfb01fdfefe01ff02fdfe04020200fe0301030504fefefc0200fc01fafafbfcf804f8fc04fe04fdfef802fe05fffafcfffb01fd05fd0202f9ff01000403f8f9ff0002fcfdfffb05fa020401fdfc0002fd0005f9fafcfc04fbf804fb00fafffafcff01ff010502fa050102fc000106fefbfffefefef8fffb0400f9f9fe00fa0105010202fc0207fc0006fd0502ff02f804ff04fd04fdfdfa03ffff00fbfd00050607000002fefafefafffe0303fafefdf80304fcfe0004fc06fd03fb0503000603f8f9fdfbfdfdf9fefd00fd02fffa02f900fafd000400fefd040403fbff0402010303fd
000305020402020003fefefef9020104fef900fcfefbfbfe03fbfcfdfffc06f9f9fafb01fffe0302fcf8010301fbfef9fc0302fb0103fe020506fefe05fdfffaf800fa03fdfffcfafe04fb040205040400050002000602f90200fefcfb03f8fd0104040300fc05fa02fcfb01fa01010103fcfb050301030201fafdf9fe0103fb02030102fbfffeff00fbfbfbf9fefaff03fa03fafe040000fe010203fa050801fffe00fa0506050205fdfe01fffbf801f8fb01fefe01fd0002fcfe010605fafffb040202f90303fefdfefffa0204ff0101fd0601f903feff04fdfa03feffff04f804f8f8fcfefb03fd030200fa02f9fafefdfcfb05fafe04fefc0201fc01fdff
03fafefefeff02fa060100fb00f901fc05fa02fafafdfb05fafcff02fc05fd01fffafa02fbfbfdff0402fefb03040003020505fafc000501fbfa0404040105050005fc05fcfa05fafe0101050605fffb04040306fcfd0303020000fdfafbfafb0101fcfbfdfb010100fa02fd050406fc06fe02fa01ff02ff000503fffa010306020504fb0505fffefb010003fdfdfa0300fdfbfefb0402060700fd020506fa0403fc0604fffb03fafb0401fafe030205fe020402fb010301fffc02fdfdfe0600fc05000502fffefafd0304060605fe02fcfaff01ff00f9f8fcfd0402fa0405feff01fc0305fafefefbfe02fe00f8fcfbfbfcfdf803fdfa02ff000105fc05fdfd
03030301030602fb00fbfffef8fb03fffe04000401fe05fc0301fd00fa01fa0203fd01f90000f9fd03ff0204f9fa02fcfffb04fcf90203fb06fc0602030304fc0403fbfef8fa0104fb01fffaf802fc0002fe0306020306fafbfc02fd00030505fc06fb03fd0203faff04fc060005fcff0105020303fe0002fdfe03fcff04fffafb01fe03f9fefdfaf901fbfa05fd0101fc01f9fc01fb0000fcfafdf9fdf901fdfc07fcfbff04fd02fafc03fffdfdf902ff010404fafb00f8fafb03ff010602fbfeff0205fe0502fb0305fc0303fffdfbfefa0104f9fdfcfd04ff0302fbfdfc040601fe00fefbfcfe0306fd00fdfdf900020405fffefbfcfcfdfc0102fe05fcff
fffefd01fcfb030302fc03ff00fd03f8fb01fefe0405fe02fcfcfe02fd03fefefffdfd05fafd0506fffdf9fdfa00fdfcfa0504030500fcfbfcfbfffd01fb040603fa02fdfcfa0302fefff9f90001fefdff0103fdf9ff04fefc0005000305fe05fb02fefdfafffdf9030303fb00fffd04f9fefc05fe02010603fafc00fcfd0001fa00fd03fdf803fdfbfe05fdf80101fb00fe040006fbfb03fc01fefe02fffdf9fe04fafcff05fafe00fa020301ff0501060505f905fffdfc01fafefdfbfdfafefdfefc0004fd01fe020002fc02fcfff9fcfcf9fcfe03fefc03fafefc04f90302fd0005fbfcfafefb04fdfdfa01fefef90100fdfcfe0502fcfcfbfd02fe0103ff
0c0618010a1d04110513030505fb0c231d1a1b1e232b282b3e251e1938383b281a0b0c00fb0bfe02040100fa100d0c14221e191c1ffe02030c150f0f11120bfe02fdfb03fd02fe00fe0405fa0403fa02030b0406fefc030604ff01fffafd04010305ff05fcfafefe0401ff01fbff03fa000600fdffff0200fd0403fffffffafbfc00fd02fcfb040604fafbfa0504fffdff02fd01ff0506fa02fe00fb0200fe01fefcfcfbfffefbfffefe0203fd04fafefc02fdfe0102fc02fc060502020500fefd000405fe05fe02fffd05fafd060206ffff0303fd05fa0402fc0504fa00fbfcfff805fa060301fb0502fffdfbfffdfcfd060405fb02fefdfafd000103000001
1a352602e1d5d8ddd9c6d9e900f8f1fc1ce11d0b0b0909fcefe7e002162cf8d9ccd9e8eaeddbdde9efdc10021912fc01f00807ffefebfcfa0dffecd9e3ecfef7f1e2e7ebda050d01100feceaf104f9f0e7e3f3f3f3f2f0ece8e7eff6f0e2f6f8090612000608dcd6f6f0e6f8f4ec02ed040a1102ffffeedf0405f9f5edde0b010b06f4fcfaf3f3f7eced05f80e1001fffe09f5f715fbfdfdeb03200513f7070f0c05eaeef5e3f20b1200f8f9fcfb07061812140bf9ed0ffd11faf30a110a05ecf0ebff190d100103f40a13211a263018fc2c01050cf4dfe005eff4ecffe3eff7f60d0a070811131302241600e611fc05faeaef0d0307f8e3f8f1f91111021214
f6ee030a060c0406f9040b04180f0107100c06070913f8eefafd0608eaf9020e07f5f8fcfe0b191b2216f7080601e5ff0d2026070d070602edf8090904f4f5f9ff0a251717120c1800f9ea061b3742272401f90eff02fe01fcf901ff02131618160c1e1a0bfd00f3e31c2e2e1f15090d1014fcff0916100e1c212a1f20251e1b1305f5fc08221d140cfe05fb1620080713232e332c2c342a2218131320fafafa120c0d1404ff04011013fa001232353c3e1518080206f7f315e9f50f102d1610070e08010b03f3041529303e29fbf7f2dfe6e4eb0ee6ea0f0d2d302e04020f0a09f5f60b20272b2202e9d9d1cacddcdb000de8fe2d213f1afd0712ffeeeae706
0a17130f0c2517081922f721282c23211b0701f8f1fbfa05fefbfa010710040f1809010400fd191e14070217090e05030402010301fa00fb05040500fb04fd0002010a07fc04fafdfc0204fcfb04fefc04fd0004fbf7f4f6f7f5f0fbfae4def2fa04f1ecf0effaf9fb010105fffefbeddedfd3daeae0c7c2bdc5d6cfdcf7f5ebeed3d7e7fa0000fd0608ffe1e1ecdbf9e0bdcdd4e0d4e0e8eff7f3e3dde0d8e91aed05fb020706ddc6dfe8f0eedeebfef0fbeefd01f1ffefe3ebdedbd90201050304e9bcd3f3f0f2efdcee070701060b010907f703fb030ed81000ff03f8ecd1deedfcfbf7ebfc0407ff000908f809ff0c081a13ff0e01090413f6d9eaf4fb02
f6e1f80c01fefe01f9fafd07efd2dd050f1007ff08071216fa04fd0efcdb0024131912f6f20208fceedceff2010bfd0708081307fc0b060ff3180c131d151003f5fe01f5f4f500f9fdf802080b040e110c081111070ff8011e080307fef7f2ebf1fd010dfe15141c12170c28180a12ed0efbee08150f14060401f4edf9f2fd0a0c10131013040b1718110c041afd06152a05151105eaf5f1edf4ff170c09121a03110a1809f201fb0a091008140204fafeeef7faebf00203fdf50a230cf8fd0ee8eb03fc140c08fef4eae4dbedf402eee0e3e6efef1414110310301be4eafffd05060005f5e8e4eef8f5effff2f6e9e3fe0c0cfc0e272518fbef0502fe060701
eef502f6eb08f803f0e7f5f6eceaf3fb11141f2b2d1cf6e0dec9c6d2edfaf702ef15f3fef3e1e3eff7070ffe05242a343f14e3cfc8d3d0e2f3fe0cf9effd0408f1eee7f1050f180e1222363c24e3bfbcd2ebe9ed06fefd050d141d12fdf3eaf1041815160e20312b00bba8acbff2f6f20bf8f7060c181c070afbf3f5060712161d261800d4c2b7c1cf01f3ec0bf7fa060d0f0f1304f8e7f40701120b181308e5ced0d8e7f10dfae40ff4fb010719120e1004fafa1006010608ffede4f4fcf102010a03e5081006f50e0e12180c010904080a0303f8e3dbe9fcfe04fff8fe0be3141105ec0be40a07ef080504fdf80705f3d4df0402020302f6e90af607f90b07
150b01faea0202fbfa05fb0104141e1218130bf7ff0a0c00040e0b1007060200ff05fe0501ff0005fb01fa02fefffbfaf5f00006ff0405ff0600fd01020303fcfffefbff0404040a0cfb0c01ecf523fffc130b0e0714181afc030304fc01030403f0ecfff4f7e8e2f1f2feedebe2e9f9fbf3dfe1f50203fc0607fcf3e9eae0e5e9f8fd11191a09060600e6eafe0aeb0a16ed000400001020fa0e050403fbf9121421252116f3fbe9e805ede3ed0b050504f8fffb031c06f70af2f6010c13111209f808fcf804ecf7ddf2fffe05f106fe000408f600ecdefe010a05fbfef4fef8ede2e0e5e6fdf1fbfff6f902fefdf4ef01f5f6fb0d1614080a0efbf1cfcfd5c2
13210bf600131f0bf826081405fb02ebd3dddfdcdbe7e8efe8c7d0021d140dfafdfe0a13f3060d05030309ffe5e7e7dad3e5eaedf3d8d909220807fe00050717f5041500f404fffee8fb05f9f402040700f7ee0c1709070a03000602f10e0ef902100607e2f7060a040815130103fe0d0e130d0904fa04f90218fd04fb092407ecfafcf7fa0d0d04f5f4f8fcff0106fdfdf80505f824f9fe0405f30a01060ef803121a08fdebff02040c09f7f4e9f0f1040000050000fc11151b211813160e120801fd07fbfdf3e9f5f3f2121a01fffffbffef0d0a0e1a07170cf3ee02f901fefefb06000c05021a00fc0205fc040501181c111217110a010b190f141f0a060c
0d04e2e2e6e903f7e6fd07060d0dfbfe04edfffbe9e8fe0a0500070803fedbdffefd080400160f0f15120806edf3f7e9e8f207110416201afff0d6e10210120b0810110f060cee06dbf709ffedfd060f1326200a02e7d1e5030e0910051911f6fdffeb05e9ecf9fcfc0410121a121204f0dad8f3fd030b110c1410fbf8efeb07f6eff0f70a0c140b0b1718feefdfe3f202090100111706080603f90ff0e2dfff130f061213140f11fff1e3e5ee030407050e171c11310511e9d9e3020703151809070e1200f3e5eafd0109fb0208211ff5250afbfce7dae9050f0111131c0c17feefd6ea0c1414100a0c131102211611fcece4deeeeee8f1f809131801e1d302
0b011d27ffec0b130e0a02090a0c0603060605fd04fa0304040504fa010601050e0e0900fe030105fafa0306050604fafb01ff04131e241c061e2a0f061b241918292700fa0201fe030304ff02fafded031a292e31141a2a2521140e13091b1d190b0205fffdfffe05fe052c2e493f200f212022171c1b1408f5120aff04fd001003fbfdfef5ea040c0b0608fd082316100910fdfdf1f4f6f90d09040c0afcfcfd0e0f160bf1fcfa07ff0d111c1dff01eeeae3e5daf2f1f402effb05ff15041a07f4fb0006fe0617150e03f6f4f4dde5d8d6e1e7e6e6f50305e7152305fafc05ff07000a0b02fbf1e8ede8e7e7eb00f4f3ecfeff08f023feefe8eefb01f00406
12ff0807041009f4ddccb1c6c9d1cfe2e7f6f1f1ff01faf6f8f4fada091102070905fdf4eddfd9eeeff7effdf9f40601050bfe00f802f8cdeb0700fafcf5ececf30300060e0e050a07fffd1303faff010e1107ecd5f8edf6fef1edf6fc0e0f03090505170c0806180aff0d05100505ffecf2eff601f9f20704090405050811090309fd0b06051604121507fd04fefb0afefbfe02f8ef0203100afd0402f7fb01fa00ffff170b0cf7f0f2e7ee0100fa01eef7fc141b170a0e09271cf8edf3fc04fe0c0613fdfd05fbf3f9030d031a191c291824261d1a1bed08f2fa030105110d13081806ef02020b07190d1f2524281810110205060b0601fa03fd020c04010b
040c02f8f7eff6fcedf807060a07100c050b03f2faf60bfef5fbebf608f60df3e9f8f5ff0304070700fb070b0003080402070f091e040cf318ff0aecec0400030400040001f0f5ff0808fbfdfd1b15131f18fe00141e291d0c091908050506ff0600fbfb04090d04192a331c1e0403fe181821390bf40b040a04f502060c0606101814171d2b27150ef3fe001422232210f9f2fef8f5f502071027292925281d1612f7eceef1f9000b12262b13fc00f8f9ebf7fffd19322c1c16fcfad8d8c9c3f9f3f8f109011820fd03fffff8f3fc0d020c0e02f4d5c9b9b0a9bccff1f0faf7edd50d191509fffb07020804ede8d0b5b7afaebbb6c8e3e5fef3fbfcf3f41104
fdff06fd01fcfcfefffdfd01fd0002fcfcfffbfafcfdfffefdfa06040204fe01fa06fc06fd0703fcf5f5fef500f3defefafefff901f9fe03fe050002fafdfd0002f8f6eef4eee8f0ed010ceff004fcfff9f3fafa0005040302ff0000f10103050205170e0807faf7061506fa09fff502f207faff04020713fa110c00f10004ff0b100001010a0907fdfcf00712fb01fd00f2fff8051c1105ff06f5f7031202fdf9fcf8fb01f102172617fa03fbeef7f7fafffd000e04020b050d02040804f9faf5e7f001181dfdf7fc1303fefff9fbff06070703070b070807faf8f8ffeeecfb1219fef9f60200fcf4e5fb01eff3f6ff0c0004fe000002fb01fe00fb0704e6ff
0708f2f50008fc0011e9f6f0f8fffe11151f1f1e1d1510101312100ff904f4edf5121504f9e7070af90400fbfa151b221e13000c0c090f07f5f5f1e0030cfc070dfaf90301fffbfc060d150a030c180c110d0cf5e7edf0e70e12fd05f2fff5f3fd03fcf6f202f8fdfa07faf4f5fe01fbebe6f4f10514f603f0f5e8f3ebfbf3f2edfbe4e2e8e6e1def2faf9e7deebf1e903d701fef8fce9f6f10c0df8ebffffe2e4d8d5dbe5e4dfc7d0d0dced12f0090305fcfdf7dff4fcfbf200ffe7e5c3bde6ece9cfccc1d3e50afae80305fc04f4e8d4dddcd8f0daf0ecdfcbcbcac3cedce9f2edf5ed09f0ff02fb000505f6f2ece1e1e2e0dbedf3e4ebececf0e9f0edfaff
eee4e9e3e3f1ff0c080d14feed0fe9d7f40906fd000d08120307f4f6ff02fc01f0f203fcf811040aed01f8f403090101ff12170b0af9fe0c0710171008000bf8f7030303fbece90203030313031113fffceff61417120c110808120ef602fd09f210fa030e02070a09141804fce6f80f0b0bff08070b0b210aef05fbffe4fe1007fcf81818120bf9f8ef060504fa000b1304040f0df40af3eefef8fceff101ff09100cfefbf7f7fdfcf401101501fa0afbfc09fb07fdecedf6f4f6070d13fff707f200f5f6ff06140b08f8fdfa03fb06ec00f2e4e9f9ed050b130a0508fbf900070808160a0df0e7ec06fc0d06f103f2e1faef0614080e1315060602030c1315
fc05fafafd0004ff03ff02fbfb00020404fd0400f10e100a181b0a0c1a13000a1313050c1609fbf403fc06fa00fe0c1b131d281f1210121e13291f1817171c0f1c232b160303040004fffff8050b130efafef301fdf8f7f5131210fa05082e2218110006fffffdfe13100d07eeec01fcf906fbf9000404031d15322c1b0b010605f60b1803f5f7f5ebe5ebfbf8fef0f9fefdeffb130c09f70cee00fffc111209f9f5e9f2eaf0fb02f7fdecfdf6f6eef0e5efe4ed03f2fb00ff020d0ae9f2edeff4fefb03f8ededfbe1dbdeecd8d8f0fdfeecfcf501fd21f7e3e7f0fefe00150df40707f3e5e2e8dcd1e5f90a09f61001ecfffededbef07090b020b0b0502f7f5
fcf9fbfbfc0000fdfafd01fcfc03ff030501fbfb060003fb0102fdfdf9030002fbfdf901fa01fdfffafafa06fffcfbfcfefc0606fbf9fff804fb0204f9000102ff04fefe01010602fdfc01fe03050602f90103fe0103fd0201fd04010202fcfbfcfdfb00fffcff03fb03fc06fe0004fafdfc0001fafdfefaff01ff0405fc0001ff0505fefbfefdfb06f9fb00fe00f901fbf9fa0003050105fc00fffefffcff00030101010405ff04fc0502fefa00ff0303fe0604fafa02f905fa01fe00fbfbfb0403fc03050501f904fb05fd01fd01fc04fefbfa01fcfffa010206fdfa03fe06010503fa03050400fd0003fb0502fcfafc02ff00fc01ff010506fcfbfffefeff
fbff0201fffb04fdff02fbfefffffffc03fff8f9fb04fe0502fc0202fe0502fcfaf8fd02feff0402fc0300fe00ff00fffafe0402fffcfffffe050000f80400f9f801ff03fd0303fefd06060503010103fc0103fe0600040004f8fafb01fb0002fd01fafd0401fffffefbfafe05fefe05fafefcfdfefaf902fa04fd03fafefefeff01fa05fffbfb0506fd0105030402fff8fa02f801fbfefdfffcfdfffdfcfc010004040305ff040202fd0204fd03f9fa03fbfd0404ff0501fefb04fbfefd02fafe01fdff01fdfd02f90303fdfd0303fefe05fb0001fb04fa05faff000306fb01fb0405f9f8fd030302f8060504fa00f9fe02f905020404030400fc06fbfa0504
02030600ff04fffdfc0603fc0200fa03fbfa04fc02fdfbfefa0502fafdfcfd06fcfffb0605fb020503fc06fafe04fb06fc020300fd060106fa01fd0200fbfa05fb06fef9f903f9fe04fc05fefdfd01020405fe03fe0006020606fffa0400fcfc030300fcfdfdfc040300fdfd05020202fe0003ff03fe05fdfffdfc04fefd03fef8f8fc00030400fa010000ff01040604fffb03fa04fdf90002fefefffd05f90003030400fcfb000503ff01f90005fffdfdfc0403fa01fcf9f9f9fefff9000303ff0505050002010003030203faf8f90502f9fef90000fbfdfbfdfffc02fdfd05faff050105fafcfffdfdfd02faf9fb02fefa02fafefcfcfffaffff04feff00fd
e2ffe9f00a07f909fefa06fa0a1417161e2421fad0d0eaebf70e000503faed22eeefe8f20c07121416191b1c190a02eccfd0dfe7f408f5ff0b08d803e8e8edddfa01121a090f100b0000eed8cacbd7ec0a06ec1312fae603e0e3e1dbdbf805070e0704f3fce8e0cececbdfd7f1f1f2f5080903ffea05f9e2f305030100030c05f1ede4d0c4cbd5e6eafee703061a060306f810eff0faded6def2e3c7c5c0c9decedff3eaf501f40a0d130505fe06ecf9ece1dfe2e5e4d7d3dff2f002030afcf7fdfafe0e13fa01fffefafbfe0401f8fefd020bfe080009060afdfefaf9010001fafa0201fcfd030405fc000204fffc050204fffcfbfafcfb0302fc00fe01fe05
f3e3eafde50a041bf403fb0404010407e9e2e0e9e60f0b05020b0d0f0903fdf4f6020100f9f1ff04fc0111fee2d7eafd021516080d01000efd1415fff613ff05faec03fbfe1011ffeaeceb051019180a06fb001513fe0103f61401f901e408ff050d170903ebf609151a15f7f4f5f7060806eef2fe12fcfcfce6f1fb1026210b03effd130d11fef7fbf203020afee3f80a0300101af9e41429221e12fcf40a0d1d1201fb1101f3f5f9faebf6032809021b11e61e20161604e7010217191c0b060b00ece8e7dcdff4fd211cf90aeaf10a06040ff8f2ecfc0d2324110afbe2d9e1e5ebf607ec0805f3f0f7021af5f60af5fafa010b21292908e6d8e1ecf605fafd
200e2415160de4e3010200fcfd000506f5150c0a0c13182c24220910fa031618130a0e221203010304fd05f5f6f9f803f8e7ebf7f91407f8f3e7f309fbe1f0fa0ffbfffefc0307fb05fef0f3f0d0c8d4f505021113fd0403fcf307e7dff0050003180e0705fbe9efe7dbdbe10e1718240d0f15120c050ff3dbe7fdffff03090b0af7fffbf5e0d1e1020e1509060a14070b110cf803e8060a06161c1907fcf5f8ecd6d6e3f4f6f9fbfd050503fdfaeeeaf3ebfa0f090b101307ffedece2dae4f8f9f1f70a00fffcfefdfaf0e6e3fc19fc0f11170801f300efe6d7e8e7e0f00206fff50300f1f2ebede7081c0910160cf9f9f2f805e6dfeedbd8ee07fd06f90b0d
2128222625190b110bf3fb050d180beaf3060ffa011d0d080d1201060a1822231a191d19ff0f0b0b2c1b1c02eb081400f51103fe07fdfefe0311131b1f2924160f21270f150913fbf4010df4fefffe02fdfe0206fd081b191919201b1f25120715f80306ea032223f9f3000b011714090210152e291b280e242702f920170501fc2017ffffef0116fb050606080a0d262233302a101308fdf70e05ff04ff0f0bfcfb0d08f605e6ebedfdf70a0a131008f2fefcfef2fbfefd01010204fa0001f4ecf0030deaece8e7f3fffef9f701fffd020306fd01fbfd000104fdfd0502fe01060d030106ff06010201ff0203fb06fbfefcfefbfcfa0006fb191a1a234b2220
09fd0800f8e5e7f2f9ee03f9fd070417121e05fd1b1a1e0bff07100c060806f4f3e8faf0eafffefa03f902fb040b11021d190c19f7f902fbff00f5edf3e9f2e7eafef0e6e8ede5f1fd04231007100ffbeae7edf5030707edfafbf3ecf0fae4dcdfd7cde6fe19150dfb0606f1dadbecf7f40708feeff2f7f3f4e5dbdbd0c8ccd1f20905fde3f40003dddfe6f904110cffebddebf9e5d9cecfdaced9e2ff0a050ae1fb11f1dbf5eb0003040aefe2ecf0f8eed6cec8dae6f2f30911010deafc02d6f80d060103ff0e05f5020502f0ede7e0ddf50bfb1517010df2fdede10d17090c0715160510181c1bfd0400fcf6fd05fc0b11080c1215fcf819210e140d150913
00f6e8fa0e1a0a1530111a160014141f07ecdfe2f5fcfd04fa00fcf9f7f3eaddf80e112a1713131c131819111d15031b07ee02fe02f7021f02fbf5dff7fa0c060b170f010b08090e132514201b0f060306ed081303f8eff0fb0601090002fefc180e0b021715061e0b1603fbf9f40a030d03e8f3fbff05fc04fe0207090c00fe0effedfc0825faf7001d130e0e06f4eefcfefe00080c150b0f0e050a06fffc001026fff2000104f800f2f6faf7fe0103130e1908160708150c0516041d0f08020a1902f701eff503fb03080712131303040e0912020e15161d0600f7111a130ef901fb04ff02000a00f0eff70702fa02050c19111805090a211032ffe9f80b04
fee30e030d0d11010e0d0b0505e9f4edfbfcf0dad7e2daf8f9fdf1fc0ce7fee80105080e0b12180cfbf3eff0f8e3ddd2e0dfd7eaf3f3ee0109fb0ef1eaf5020c17151d1b1d0c0a00f5dfe1eafb00e2f6f9e400fd1108fbf1f3f9f00704061a1412160c00f3f1f8f10708f2fbe6e802fbfefbf6090c00f7e3def5ff1d19140bfefcfdf7f3eff5f9e907ed05fa04030c11fe1913f9d9e9e3f3f101060afffd03fcf2fdff0511f702fafefb0000fceaeee8ddf00b1bfbf9040209faf7fcf0f5fcfc010503fdfefbfcfefcfc02040106ff050a0b00fcfa04fcfcfbfb00ff06fdff060202010101f503fc050f190f1a0617151215080c081412160300010004fe03fb
ec08f3ff26361df3ff05090403020a0e0308fd1827281719140d01fbfef3eb041c261f07fc0d0d071703050e020c111b231e231e1000070607e7f6f71133260100161f11120b07faff0a16091e1b191b0c11120ef4e7f1f3201308fd1a2d1e11140602f301f8f1f105111b180a0a0b07faf6fe01e7e5ed231f18161a13edf7efe2e0f5f2f50215040d1c09030705f8fcf306f409110203fefae1dddbdff0f70303000e010c070afa070700f8f7e8e1f512ff00f8fcf4e7dce8080d09fe03fbecfb00fdef0c06ff02e5e8ec0107f809080cf6fbf0f70a1a01f70afbf0eaefdaeb1203f8fa01f90402fdfe0bff1600090a0503fffaf9fdf9ece4dfdffa050dfd0d
172322290f03fefa00fd03e5e5ddf90b01edd0edf3faf3ed02fafbfbfc0dfaebe80f0502fffd070607fbf705fcefd9e2ebf4f7fcfef9fb02f2f1e1e6e4f7fffd01dff702fd08ff050100f6e6f1fb01000509151204fde5f402f6030306e2fc05f60401fef8f5eef4f8f909090d13130d101ffdff130cfcfc01f8eaebfa06fef405f9f4f6fdfefcf6fd071710141b101117190ef9f201f3ff070b0c00fc03eef10b02f4e9f00b0f0b17080b08070d14ff1412f3fa1a170afe04fff6fc130ef1e4e617191b110afe01eff304011610fd070f15fdf6fffbf9fd0d11f7f1fe1f22162013f2fbf4fcf704382708f3fd0afbf5faeefd0e140afd0b192122140e0903f5
021009f7fdece5e3f0021bfcfa16051209f2f8fff9fef8f301fa00020706faf6f3efeae5ef0c0a0100feeaede1e8ee00fb01050507110a00f8faf7f101f2f3eb120004fcf70305f8edeefe0108fe060d141917060402f8fbfce6e6fe1e0c04fb04f7f700f8e200180e1c0e0112ff051706041018faf4ff121114fe020603fce8fcfaeaff1509ff0103e8fdfce4cbe2eefcf9fcfa0603fe05fd050304fafaf1ededdee0df0d0cedf4e9eaf7fcfdfc0303fa0605fd020400fafafb0403fb03030500f4fbfffbfaff05ffff0502fdfd0104fbfffbfbf0f1edff1b0efa04fd0a030f16190b0a0bfae9eeff00fd02fbfef21404f4fffefafdf1f8f9080b0e0bfcfd0d
05091700e9dcdae6ec03132303071bf7fdfae0d2dee0f904f80704fe0d1a1b16fae8d6dfeeff0f13ee0f0909f7f1f2dccdccf3efeafe0405111d161205f5e6dbdcea000805191207fdf3e2bebec4e0e1eb090c0a130f0b06fcece8e1d6ddf8090e0b190b0211fbd0d0d0d8e9f20f08091c0f06f9e6f4e5e7e1e60114221309180f26200e0af8e4ff080e0aff090a06f5edf2eee0e0ec032233160611f4272b2720180c1a150a0e040b0a0c0ef9f9f5f3f6f1e30b26090c09ff26412a282808080c140d0d0c110a05fdfc01f800ffe6ff0a04180c151a25281b14ff090310040513110e05fcf7f8fafdecedea0c120101f51606091d07ef0101fa03ff080af6fd
2401f206080b2330262b43361f141c0f0801fbfb06f3f3f7eedfc5e8f1e3fe06fff6fcffff1108fb0112110e271505fb0006ecf1e0ced5e3e0dff8fb0803fdf2fef8e4e7eef906041518ff02fb03eae6e1cecfe0eafc0e0f070102fafef6dddef800fdfef3f20d02f9eee0e3d3c6cbeaf707130b09fdfdfffcf7eefcfd04fbf8eceafe071702ede0dfdbdaf007151d0f0609f8eff3fd0409000b0901f7f20100f70509f1e0d6e5ff171d101806fdf8f6f4f504100f0d0c050d04100ef117fae4cfd0ef0c150a1414150dfeed03f1ff0f140e0c0206070c07df05e1e5d7d1f4101007100a0d0105f3e4dcf1f2030c0b1806f31705f0eacdd1c1d1ed1206130806
0bfef5fbfcf7fbf9f5fbff0002fb090204e9f604e406f5fd0f141a1b0bfd040306fffdf3f6fbf2010208ff0101ece80df9f5fc011a0312271d0f190f0706fbfef1f4f6020d0e0d111bff0609f2e9fd030002ed09272a1a000300f90007131a1616121817211a1918eeeefa02fb03fb0010271d0e04151907151f130f0f050b17160608eff2fc0306fa010102fa0c18181b19feeaef0109100d0d0810ff0008090501010205fa0606faff0503060305fefaf0fe08fa0003000506fa0300fbfb02fd04020004fcfa04f1f50b01020810040e060801f805060e06fafd02fe0209fb0001ff080d17232411fe212d2c121104040af5e3f300fb060305fa05030ff908
ef0a12eb0706f9f4fdf80e12081021241d111313110d03fbfcf50500f9e7f8f8031203f2020c10160a110e0c1f1d1f2217161affebe10301fcebed0d1b18170b1104040b03f8040f202e2b1f1a111003f3e4f9f9e0e9fb2a241112080afdf3f1e6dff1ff152029221f0e0903f6edf405ed0f011b120802fdfefbe9e6dedfcceafe20271f14111200e4e1e9fbebeaf50c0ff8f40003eeececebd1bbd7ed0010100c140b05f8eff6f8e800fe0303fb050903f6f308fef1dcdff0f100090a140b020004f1ff0f131b04f1f50000f3f4f80a0102fde9edeaff060c1211190a0bf5ee0c14faf7fb0c07f6f9eef1f80d07fdeff7f90c0dffff0c0be4fdf80211030b0c
0a0403ff04f7f5e9230a03241816f301fafe080825190b01f7f9010dfefe0405fb0802122e1b261d1c1bf9f9eef6f9f0fc04060beeedf1090bf6fafdff0a07071d0617050704f6fbfdfd010df9fcfffff2ebe6eeffedfefdfde3f1fd1d190e0006ff020419140e0cf9f7090703e8e3dcdff7fefbfcfafbfd0b091004fdfefa0324130509f5fafcf8f4eeeecfd8f2f8fcf8f5f4030b06fe04fdf9fb030d130aff02fafbfaf4f1efd3e1d8ecf9ebe0f9ffeeebf600fef8f205010711130102f9f7f605e8cee9f4fdfbf8e7f9fbfbfaf3fcf2f4fd0e02030a1c1508fc0307fee9cfed08f902ebec0dfd0200efeeecfa0d0a0305222b1c110009fe00f5e1f8f3f8f9
f2d5e9dde50afdfb0f201c1c11081c2c20251d0af906fffbfffbfdf5e3e0ebefed1b040611110819220a13231b1d25140105f4f8f5f4fbf2f0edf10df0e8fa05fd0ce811222a1ef9131a0c0b07ff08ebe9f107f5f601ee0c0dedfb03fb020410211c26262530333028140d13102021171504020aff1600fdfb0504060a111020180e1a1f1cf20c120b12050e0c090404fffcfa0105fdfafa02010401fbfbfefc0013010506fd03fd06040101fdfcfe06fe000101e5e4e1eb0cfce9fb07faf80d0ce9ff01fafef8f900fbfc06ff03fe0a05e4fe00f1fff4effd0b0e1a0a06080e170f071f0400fffdfff800f009071110171f0307040910fb0613fe061014fe04
fff3edf7f3fcfcfb1aeeed12112514fa000c070300fcf3fe041914fd0400ebef090dfb052af8f4101c1e090a0a000e110c0dfaf307070b1111fcfe00090600092f1502090a201f0af1fd0301ff0105fe04080c0e1a0102090c07ff01160f03010e3c240505f101f801faebf1ee0f0e0e0f0504f80b0f04f4e60202fff7220df0eae9efe2eaebd2dde1e6f0fa0a0ffe03f808ecebe5f8fefff40805f0e3dccdd4d8d7cfd0c7e3f1fd0b0801fd0505e2dae9faf2fa0a07fdfae1d4cfd4e7dee6dee7e903ff0b0107ff0905dcd6de0802001efd1106efedf0e7f103f6fef700f4fff906fb07f0dfd8d2d607fa051d05331a0cfa02051816120c0c02ff03f7f4fbfe
f6f4ff020afffdf2e8f507f2ecff04fc03ebfde90b01f7ff04eff702f9fbfafcf5fbf9fcecfb0c0df701ff0300f5f6ed0bfc0000010006fefe01f702f80007000003011413f9fa0b030b14fd080712080d0d1600000508050c0510010601fcfb0cf60705ff0d160d07050f04030b07fc0c020a1a1a1510080607fafafc11fafc0e1c20110401fa0104070e08fd061d13111409ff0504f805f315faf817f7241e01fb010a0cff07fbff1212130207fef3fa01040b0606f4f919182d170b0c0c10080bfdf8091813130bfdf4f3e6fbfb051bf7f4fd242d3610fefc0500f3f6fa090c26231508f6f9ebe3f9fa0119f1f6fe1f072509fbfa07f7ef00f20509282404
e0e8f3fa00f4d90100fdf8fbfef7f0edfe1cfe05e7e5e4e8f0fcfcecfaf4e9efe7cdd7ebf8d2c0dff1f6e9ef0b13fb04fcf1eaeef9feecf9030cfed5cdc2b9daecdbd7d4eeefe8f6fc1401050302f1f6eaeae7e7e9f608efe2d9dde6f5f2faf8fd0102f9f600ff06fbfcfc00f2f5ebe7f0efe9e7effff1edf5fa0200faffff030205fafc02fd05fbfb03fe02fc020106fbfd00f9fefbfbff03fafdfc000201fafc0101fb03040500f3f2fcfefcf8ff0207f6fff901fdfa0006fcfc03fa060200020908f9eaebe0e1e2e0e6e7f1eae9e8f9f1f6fcf704ff06ff09fdfff507efeae70004000100f0fff6eddad2ccd4e2eafffeff02fc0007fef0f0e6f2fa08e7ff
fafc0804f90b11130e0a05110a0f201a1f06f90204fe0a04f2fb13f6f4f704f3e9fc080c171105fc040c131a2a02d50407fafe131b121f1508f901f4ee00011328130c02ff050b1b1603d1ee0402f8041ffc1923120c0200000b17242b1302060e0a011509fae0e7fff8e9f50b0b312a1108fffd090311252a170b1405faff06f0f2f4f3e3f0fff611fcff11040ceeeff5111814250d0d03f8f1fc0bf70001f6e00006fcf1f60a13fcfdf6edf0010f050afffef4f3f8050bfb000f07fefce8edf30deffb07fcf4fcf4f6fe05f5060f01f8fe12faf0fcf4f81310e605eafadcf9fe0a07ebedf6fcf6f60d05fa1101020503f8f7f8070ff504e9d6dfe8f70dffe5
fd1b16090af8fcfdfaf2ff00ff05fe0300130f201c1a16fdf5ecfe0100f614fefeeff0f1ede9f8f7fcf7f0fbf9120b080b060c0c0debfe0e01e11cffedeff9dcdaf3edfef9edebf3f7f5f4e1e1e70503f200fb08161116e8e8ffefd9dcf0f800eaf4f5e5dfd6dfcccce2e7f1ebfe1305230717d7d6e0e2d0d8d3e1e9e1e9f1e4e3d3c9cddad3dde5f7faf10c181dfbdde9e0e9e3e1d6dee1e7fa0f00f6dfe1e0dbdbf3dfe20103f2dfeaf5f2fae8fcf7eae9f1fb0a19181d0f0f1304f8f803e2e2fe0503e4d8dee505f304f6f0f6081519131f252326272a0c0202f3f1eefc0be9f0e4ef18060df8e707221f180700171e252b24160f040709f40004f2d70207
0a11000000feddd1d5f9fb0c0a16181712141b120608190e050204f6f20e03fefbebf6fdfefcf3f5fcfe1d1e111913fafefcf7fcfaecf5e30701fe0302fa0609fff60104fd040305080d0c06f6f2f6ebf2fa020110fdfe0102fc0102fbf1edf5eff5fe080f13000102fdf7fd00fbfcf8fb060406ff060605fb00fe04ffff03040208fbf9ff0201fefc00040002ff06fbfffa01fbfcfefa07140f01011407fa040e13060a070bf4f401fbfafb02fb05110e07141404fd00171b130a01fd110701142a302202050403fff802020efb05f9f7f8ededecf6f2e1f8eefc04f9f528171010fc04fb0304f829140c0706fbf8eef5f7f5f9060c15191a0f1307ecf70402
fcf907f0fffd02fb0e1a1805fe0d0dfcfc08fbf0fc03030502f601fef3f9f3f40507080902fc0806f60b0308fafffef8f3f9050afbf4f7eef9edebf40e1301fefbece3e0edfdfe060502fdf1fbfaf2eef1ebe8f607ebedfa10091efc0ee5d7dcf80f06080f161af9f1efededf7ebfa06fbf8eff811110b0601fdf4e1030201180b100efdebf3f2f6f601080a02f7f80b200f02fdf9ebe1d8fe09020f14161201f2f90612060a10010a050a262303030c00d8dee9070d0b0a171703f1ecfa0109fe0afdfb0815162313f2090300ece6e1ff1810060c03fff1ebfbfdf3faf1f1f9ff1306fc16eb0c04f1efebe1f60e140a141402fc0006fef0f4f8fb040d08fafa
151b1c1c1814fdf4fe160406fdfbfafa030609060d0806ff0104fef9110d181616281e071f1b0e01011ef8030a10fd060b0703fefbf5f4fd0409080e1d13011436260402ff13f60a050a081006fdfbf7f7fff8fffc090f161dfffd1c1d080a04061c1004091802fcfcf900fbf6f4f3edf30d20110c01021301f50b050c05091a0d03fdefeafbecfcf6ede6edf80f221a0cf50612041913f51c1616100efbfbeef2f2fafef3f2f0fc0b1f201510f80615fe2206fb1229130e0bf30a0203f8030300f9f700121c1b191901ff06fd1906fc14220e0b060505ff00fef7f5f1f3040911090b0b060004f8f51d03050d201702fc0b0805020804eaf4f7030e1100080e
080d080d1119151603090e24170c00fc06f5f81c16fe0939232b1f1a1b1c1712111515280d17160b1f1a000205fc020422211c1412141718f9f3fd10151afe131710031e180bfb0200fc06000e16211c2016261424f4121b090a1117100a0703fafb03fb0203ff0602fdfcfe000104fa03fc0a06fe05fc05fe06fbfd00fc0306fbfd06fbfcf2f9f0f5f8f6f8f2f6f4f1f3ebedecf2f104fa03fd02fcfd0601edefeae0d3dddaddded9dfedf1ee00f7eddaf8f805fcfc02050408fbe9fbe9e4dcd8dbdffcfaeef2f1f2f7eaf5ebf4e2f4eefb0600ff040ef4eae6ece8ef04faf9f2f2fd04fa00f9f1eaf6e6e3f6fcfafa0505fde0f1f6fef3fe11080000060f13
0c07080e04fadadaf60f110b051d25200d2303fa12130d111b1c0a130c1b1c1a0a14fb051e2b2228210f1f1b1a20161210e7eb0b19141423172416091119242139302418180a0c2a26281d14eee6f105190b16160f14060c15223326271f1d0a0b1112200c18110e0de6e5fb05010603fe0202020e1d1a1506fdfafe0d07162e12fd260df0dbc5e7f6f0f6f4eff4f10000fcf0f7e8eeeaf3fcfeff0bfff92213e7d7d0dededbdff0f5fbe9eaeaf0e0e2e8eff1f100f2f5fd0cf21601f1dfc7d8cfecfaf2ebfeeae0e0e9e9e6eff1f6f9f5f8fe110afa0900f7f8d4dae1f2f8f1f503f9f4f4ebfaf9fa06080e060d06160c23fc02f00ee2d6e9fbfd0c09191309
c2dfced5e3fe090c0e070affeef8faecdad5d9e5edef08fffc18f4d6c9ced9e3f90f06140afe050c0401fef4efddddd8e6e601010bf3f4dfe0dbddee01fd0d0efe11100d0e131502fef8f8eaf2dd18fdf7edfef1dce3ef0106011402f8fe13130f131610060604fc02021f01f4f809dbe90507000c0b08fbf0f9fdf604110c1d0a030f050808081013dff8fc05160d0d0d05fae6ecf4f9f1faf3fb040501150d04ed0501f1d0de0e0f1f1a0f10fce5d9e9ecebdbe7e6f401060a150bf2fd160df5cff41a171927260afdeee4f9f3e6e6e6edefecfe101bfeef01f7fef0dfef23251326130c01f4f601eed8e0e2fb0002fd1021020d2b03fdeef20522170c1810
fb0e06fd10161407ff0d00f9fd03e3dde3d7c8cde9f003fdeae3050006fbfdeee9f4e9f3eef2ede2f2fef9eff4dfe2f5effe04fbf0f0fafafa06fcfbf8fafbeeeafbe7e2e902ffff00fbfbfef2fdf8faff060506fc03fa0300fd06fc04fc060100f9fb05fefeff0503fffcfcfd0304fafb04fc0020181510090d2f130727270a082c0d0d08171616ff00060206fd1200ff1d09172f110c1a1e1a260b111a181b0ef5e8e2f5fefbfd020005f9e3fa070b19f50310fd150f2106f60013171d0a1509fd010503fcf6edd2e0e6f7f4ec03fcfefa0afcf5f1ecf4f9fa1f190d06fe02ff03eed9cfd7d2d0dae6faf3f502ff00fafbf8e0e2e8f3f4050802fafd12f0bc
e7f3fefbdbefe4101cff0609fdfbfe0107f504040a0509030504ffe9edf6f3f6ee12010f01fd00fcf2f9020505f9fe060206130901fef6e3dfe7f6f9f8edf80d05fffbfcf5f803f6fbf0e60b0c121403f6efeaebe6faf5f2e706171100fd0203f1f3f807f6f5f804090e12fef0faeddcf207f9f216243416fbf20a01f1f80102faf9040a08001405f2fbebf2fd04ec07f815040f0b00f8f1f60002050b030b09090508fee7dfe8e9e1f9f3fafd0802fe0b03f9f4f6f2080e0a140f130a0a0d03e3dee3e1e0f4f700fd03150af0eff6fc01010d090d110f0f1c0b05ede6d4dee6f1d602ff04102631200b03050908190d0b0b02fff6edddcee4e1ff0102eafc05
ecfae300f0e900fe08f1f7f2f0efefeff1ef0b0908fcf7eef1e2f4eef1f800feeffe01f9fde5f4dde5ecf4f5fe060b0b06edefecefe7e6f8f5e9faeffd051501e7e7dfe4e5e3f5fd09100f09f7eae7f3f6fff500edf100f405faeefae8ece1e7e7e4f8070c0c0e0b01f8fa0a0e09ffffecf0efe7f701f4f9deeddae4f5eaf804000e13100cfaf60f190a0e05f9f1e8dbe80100fbe9dededee3e5def4f404150903f9fb190f0d000ff9e8eae3f3fe03f3f200e2d2e7f2f1e9fc080e0f0401030c120e0c04f8e9ecedfaf20aefedd4e8d9e9f2f7fd0305110700fd070a0c0a090d03f4f1ecefeafdf8f8e8dee30e0bfa030a01070810fd05fe0b120d0a08fcfcf6
201007110a10221621f501fafaffff0e281b221e15060a0b0503fd0b1a11081310070319190a0306fffd0006fc041a1e1e1d1c190cf81e160a060f0b050701ff0201fa05fcfe0206ff0005fbfffe0402f9fc06fdfa0200020100060405fcfffffdfe0402fce7ecfb10fbedf708f3e9fefeebf4ff0102fbfa0505fe03fdfafc0b0af0fcf9e9010cf7f50aff0d0a0506090e20191a06fc0200fef8fbed0bfcff06fd060708050304f509220b090b0a0bf4fd0200fa03f5efe91403f001fc04fc180c061715130f0e0706f5fffa03f7fffa020008061204f3f7fa05080f0b0f15050304f900f9eee5f7fff20002fd1405030af1e8e8faf2030d080e070afcede0e4
122411070d10eef606f1f70aecefeb040deaf4eaf50a03f0f60001070d1202f500fbe8f6f1f8fa09f7e7fbf4ed0f100d0716fcfcf4010914fe000000fcfbe3ecfa040e03f3fdfaf0ecfb0cfffb100508f8fa020f03f7f9edf2f9edfc0a07130febe3fff1fb0714f6f013191d08000b150109fff1eff9fb0efbfe1117f5edf7180b111b210b01040d100e090eff0bfbe6ededf5fae7f10d1ffff71105fd1508240d040404060e0103f3faf5ecedf1fbfbe3f3001bffec0b01101df1fb05f6f50a1103f70001f2fcf70105f6eee5ebfe221f2901fc11fdf2e9f7f0e9f7ff09020402fcf90110130714000b24240cfd010106100621fcf20e29241e040502110b1a
edf8f5080824282f2a29291e1b04eff708f90404fcf6d6e0ddd9e9f4ef0304071b2d30363c384020190b1a0218fd130305e5d4dfe3deeceffe120f11272b242522230f10101915030d02ee03fdd2d5c5d2e7edf30a16261a1606f1e8e7ebe9040c1505f91e0b15f518cfc4d1ebfbfd0f26291b00f7d9ccc3bed1cdebfffe09fd201312fd03e2e412031b0f27272312f6e2dededfdad8d9dcf2ef0e090e1d0ffaf7f4e806010a2134250e04f0e2e7ff0df8f5e6ededfd1715fa190bfeffefe6fa001a1d1c0a02fdeaf4f8081307010c01040d04fcf7ef150111dfddf5090c08f9ff03f0e7f80f1c17010d01020c0b0603f3e1fc0e18efe0e6f7fcf3eff0f4fdfd
0b0b091109f30c3632201e14f704fdf3e2ece8ef03fcfdfe040003ffe9f4e3e8ebe7fb02120ef6e3e3edf9f9e2e3f80203fefffbfafcff02fb0000fb04fc01ff0808fdf3ff0104fa03fa04fe040100fbfc05fd00fbfc05f2fbfbd8e1e004d8ded8deddbecce2f2eb01fffc03fefeed07fb06201eee0600fe0a0bf9f9fbf8eed9dcfc0f1b0dfa0600010005f1eff50102f505f0e6d8d9eae1eefa0104ff05080afb160001fb170005ede6eeece41211f3e4e2e1deeaf20008140e0f2616fa0402fd15eaf3ebe3e1e4ef1a02f2f4f200000e0a0b0b00ff140e2d1e0300fe1eeed6e6daddebfe0801f9020e1b151412151000f1edf414091403fc0de6d1e1d3dce3
2a00eecddae5f2f4f8e8f40221380cd1c4d8f4f6fef6f60306fa22fe260fe8cad5dee5f0fd0413141e07dbc9dfebf702130e000d101816061511fecdece4e6f4fe071a1e12f2dde9f6ff0a141d10162d132415fdf8f4d7c5e4f2effa18191e0f0ef3f306050c170621171a311e2215fe00efd3e4e9f7f909170f1a11fff3f3f2ef08fdfc1915252b2e0a280701f4f7d9f0f1fe0813171a12fceee5dde8ebf0f7080e13141dfd1601010004f0e8f002f60719151c07fdf2efdad1dcee050602f60d2602ff0d06dedbe1f5ef07190a111507fcf9f2eef5f4f8f4fe0302101e07fa05eceb0709f0eee9e6ee01241f160a01f6fefff9f4eefcf0000dfd0301000410
3b24010a1017ee0601fa03f7f700060209fef8fdfbfb11142600ea083201f4fe161b1112080702edf3060a0b0c00fcecfc0729080ef1f80e28f9f50313201f271a11fcf5fe140501f8f7080812212a1402e3e800233d1bf5e517132e250906f80c05fa03ee0e0f222b272d1303e2dc030d2f16feff1afc27170002f6100bfffafc131e302e252a0a03f8e3f8fb2c1c000723f50e140c10eefc03faf5031a2a352dfbffefe6efdaebe91a1efc0d2117f6f408190a0af6f8f7031a25320bf2f4e1c8d0cbe7eb0912000a284019edf1181304f4f1010c23250ff3dae5d2b5bbd0d4eb0904ff23163825f1f00705fae8e2f50d322c06d1d9d1d2dcd0e1f6ee06fdfb
fbfaf8fa0004fafefa060402ff010303f9f4ded8f1faf1f4f1f5faf9fcfefb02fb01fffcfcfcfbfc06fc00fa0102000103fc01f9fcfd02fa030300030504fc050201020101e9e20104ecec251ef2f0f7f9030c01eaed0504fa04020605fe07eff2e0d1d2dfddefe0dfdcdadef001f3f4e9d2d9e5f4fffcfa0105ff121cf2e2f3ebe4f0efe5ebeffb030806fdf6f8f6fb02fc020600090af9f5f5fe0f06f3fcfef1fc070305ff0dfd0015f8f80a160504fafcead9f105fa03f708040504080f0dff050af6121507fdeb2105fe03f2dcfbfc03f8f904f500030502fcf600f9f2070e0e1f0f06201005faeee5f00101e7fef8f7fdfcfcfafaf8f6f4f20d150ef905
dce9f81109fe0608221a110ef8f1ffdaed0c030f231e1a241af9dfcfdefd041305fdf90f0d100e10f2dbe0e4fd151018181f211311f7e0ecf7030d050afff2f91506180af7f2deedff1a0c1b1313130107fcedf3f6f807f8feeff3f318140e09040dd20022191119100d0cf4def2f6fcfc0d06fa05fdf6f9170c1f031107d92828221c160b0200eeece8fefd0c0b0d0f14191f0f160d170102ebe4242b15fffafcfffaf4f7e5ebf5ebf404f9091d211a1d180003f5e5e1f60903080516ebe0edeaeaf50003e0d7dfe1f6000c1c110b0603f6f6f3e3e5ec0703fcf2dbd8d9df06f3fce7e4ebede9faf813fa040301f9edf6f8fff1f5d4d0d3dce7dde7e9e6f4f2
04171303f5e7e6eaf705fe0301e51e05120612dcc8d1d1d4cff0eeee08161708ebd9e0d5e5f8f7fc0cfa180f172111d5cfced5d0d0f1fcfc0e15250aebdfe1e8e5e2eafbfb0a1112fd1104e8dad5e1eaef000707101a1700fceeeaeceff9f80df7f61605f3fadfe9d3d8f907070e1512181e1f0ffcebf0f5f8fa071ae6fc12030005e5e4f2fd1106070e130b1117140df9f4fe0a05010401f5121804fed9f1e1eaf4110c0b0f0d070b0e0209fbf60708070b0d11241c1902fdff03ebe2ef0d07ff0c09090d1000f7fbfcff0e0b0a0c031a1b140a25fe1ad3e6f2f1eff70b11181a1f0af4eee7e90f0bf200f81c0c0e0e2404f9c9dffc040210181a1a210bfcdc
1b292d2013fa0a305322150e131808fdfafc05fb06020603fc05fbfd02fffd00fcf20911000106fbfe0402fc02fd05ff01fdfb0206000406030b1315f9f81b01f90d04fdf3011214fbff020106fc09fcfb0df8f301060704fdf60cf4ff01fa05f8f9dfd5fbfbff03fc04f9060cffe1ddd8cdc9dde8f2ec04faff0911f8f1121f18fefe01051105ede4f2d9ddc8aeb8c9e9fc0100050710060f1736281c1702fa03200b00e9f6e4d3b9bcc3e3f70305110e0f0f05161b180cf31e0104ff18f5eee5fcfbddd9c1d4ed020aff050612201522132315fcf81607ff25f6dfcff5f5dfcfd3e1fe00090403fa00fc0b1317130603e82c0a1713eedfd2e3dcd1d5dfe9f1
e7e1effff5f503e6d9e40a0a0e131a13150df90f13fadff3f4e6e2d7e1e7e7ecf3060d0af8071d171c18191f2517f80b0301f9f71510d4d9d9f7eae7fb080610ff041c1b180e1213160405fb1008f1060f00e3efdde8eeecfa01f9ff0d0e0918161f100e1c190d200dfcfb080b05f103eaf40afbf601fe131c150c061418080f11191e1c0b10ff010305f61ff0f7f6100c0b0d0e0c0af9f102060b05110c06170a1205fd03f4e60515ff050407fbff0504dfd9eb09100a09f5f3f220290801fafafffaf3f8f6f4ecdeecebd8daee0e0909f6fb261e1713110314fd05fcfbf3fa041006092b2b0efbfe0010fc3108f704170e0308fa0a06fb06000006160b060d
eccff9100f2a39372f07e5d9d7d5eef9deddd0d8dff2f1f00e2005ffdfe6f70a1f35392f21f1e7d8ddef151f0e09e8e0e7e7ded810290fffd1d2e32837342a190ae6e8eaef0e2b2f20210d0500e8d5c11b200905e6b71b37212209f8f3f4eef103161f1a191a170e06f1d6cdfe1a0e05e0bd1f381a0a03eae701050e0f0f07050d1004040cfeebe9f2fa1011e7c0072508f1f9f1e40201040e090c12010b00031207f30406fefd12f1d6f804fbf0f3f9fcf1f1f1edfd070b03f8f6fe1214f8040bf0e8fd07e1dbf505fa0604ffeadbd2cfe8f50504f9f5f4f712f9fc06f5e10010f7dffefeedeffafdedebd1c7cdecedf8faff02fc0efc1f1de7ef00f6e4dcd6
05fa0105fc02fc05fa04fe06fc05fa04feffffff0604fdfbfc01fefdfa0601fd06ff0001e4e0e6e5e5d8c6cee8faef0003dbf9121016030003040300fd0503eef704fa100f161e1c030c242c2e27090ff711170b1202ff01fcfbee27241d141f340e080e0d0a3b3e273b322314121af6e40300fd01f6df051714010310111c1a21202b221a2d261d1d231408260f0306012008190e06fe1d1b1f2b24201510f6f102ff0c121f1a0b1f110102050ffafa15211b37372e291a0affe9ebdfe5ef01080a1f131e050c0502eefcf4061f2d373122060205ecd5d1d4dae3e60b07f41f1d0a0cfffdcb0301192b32404324ffe8e8dcd5c8cccbe1dcedf7ec030c1608fc
0d11230e00170cff08fbf70b1b17fbff0910171a1e33261f16131413111510080e040b000d0e0209312317221818111a242121201816101b120b03fff80218e8f713fefd1a2c1d1b13131004fb031111121a10120efdf90a171e1101f7131615030c130604fa09040807fc0a1517090bfd0411100a030d00f5ff0d171c2313ffefeeef000409090906fb0805f507140307150500e6022417100d0608ff05fbfefaf7f302f7eef8eef61703ecf010fe06fe0617ebe309fff40afbe9e4e2e0f507fefc15fe0411ff070a1104050305060cfbdad8d6de050dfef2f7f70a0a0c12100a0f08fafa0404fa01fd02040908fd00f602111af3effbfb030a0405fefffc00
0eff1230251e0c14100f0ffa1d2310f2e7ebf4f700ff0403ff0b151d0804101625120d0af0e9f4fe192028f6eaf204fdfe0709fe030b1f19160918150202e1d3e4eaf3fd141d15fbf7f613fefffbfe05fb06251e0e0007ead8dcb8bde3d8f7031b200003f1f304fbf8f7f5f8fd051c0ef5e3c8b69fa69ec3d7ddf3000d17f0ead9e7f3eef805faf2fa07f7dcc8c0afa2b0a891b0d30fff000d18f7f6d3e2ede0e4eef7f8f2f7d9bcbdc7cabac7d9cec6e1180bea151d07e4dbdfe6e5dfe4eaeeddcb9dabb9d3e6ff01ee01f1ef060b0a09240ee1f2efece3e8e3f3f2e3d0bbc3eaf8041018051610fb10f8100a260906f1fef3f6f1f50a0708080afc04191113
0307fb00ff03060603030604fd040002fd03fefb08f0e8f104ef0c2a2e2325181e27142420261b1a04040205fa0010ff09e7f2eb0ffaeaef01fa0ef5e6eafb1615dee0e1f604fafdfe0003f6000802fa08060c041916090dfff708130effe80919e6fe060005141de5f0fc0509080c0310120afef7f30d000109ff04f611fbfbfe241007fcf2fa0007fbf909070803020b040ffe1422170ff00605fbff091b09feff010801f208070708090707071201100e261b0208ec0403142a1209fc06050e090803141c121413120d07090a1e180e150805fc0d26ff00f8fcff050400fe0c090e0f08091b2d23201d111a16fe030b180bf3f7f3f40506eefd0510161d10
05f7f7fbfcff07fffbfc04fffd0007030e07e8f400040e0405020803fcfaf5fff904140afb020afe0508141c13faeafb04fc0a0d040e07f804fdff0005fa0b04fbfe090f03060f18faffec0510f503f50a0802ff06ff04120d08090806fc09060305f2fff3e1fb060b0913ff02030c0e100e160f161719180d05080b09fde3fef1e7fc0618110706ff05fd0bfb06140d0c1a1a110608170f0a0308f9d4f1fe0501fcef06140afde2edeafcfe060d09ff1401fef9f9f5fdefe4f1fbfdfd050d0df70a0dffe9f8f1eef812f80a08031a05f5ff03e5e7f9fc000601fbfef6f6f2e2e6f1ebf0d800f2fcfaf7fbf7ecf7fafafdfc000205030604fa000301fa040105
01010100f7fafc0307fd010dfef9fffb05faf103fdfef7eaff04060101fb0b0002fa020c0805080b0d08151105feedf7f51bebfe0c1b36f300f6040103fd0d18130a090c180e18180901eee40202f500121c22eaee01f7fe14091016130c0b08130a0d1701fdf5ef0b08effd001a28e8e8040bfd11080f150b030e081108020b050809eff2e2f5f60bfe09030d1e12110a07061309f8090e0c041103fdfc0ae7f5ea00efe0e9f226090a0c030bf30603f3ee08140f0a030809fc02f9f8f4f5f2e609eff2f8f800fcfbeaf7f7eef6fb1806041204090304f5f8e6f7ea02f0e2ee09fdfafc0000eff0f1fb04090501fafd06020f04fef3f8f5e502f7f302f60d0a
0105fcfff0edeae900f8e7f1fad9e5f1e5d2ece8f5e9f7f5030005fdff05f10400e3d0bbc3e2e3d1d5d9d4f0ecdee7efec020a1bfefbfa05fe0002d5e0d6d1e5e0f4f2f40004f8e4ff06ebf2f903e0dee7fbfb0006f20ef6fa0200060a0cf90d0008040511fbff070801dbdcecf10002fde1f8e0011016131c15080a070a13100a0b0b1811f6e9fcffff030200e3effa040f13050e09fc060209100b15100a081818fcfc0407fcf9fefbe0e71418fe0504f70d0106050b060a060f0d0503f70a051802fbec03dde7030d0c060401fb070b04fcfbf702fb0509fffe010911ea04fc0ae9e7020f060104fe05080109fdf3f602030707f8fe0603eae5fd05ecf601
05fb150e00f9e7f3fd1a1f222822181508ffecede6e9f1fb0c01f4ef05fb0e0cfbe6ebe80209161b2a33221106e9e5efdeecf6f306f4f504100315fdfee5e7d5f0f7111022311f1000f5eef2fafff6f8fe0700080ff902fbeaece0d6d9f2fe0819181918140a09fdf9f3f7f0f7000601e81e03fdf908e1cfddf2e4f91306172f331c140afdf7f9f7e6ebe8f1fb19040102e8e40601f5e0eaff0c182a1c06fbefeef0e2f4f3fcfae81514fc03030503fa0e0d040f0704fe0e10fefbfdfe03edf6f8f5f11d1c01fd0505fbfdfc070f0a11100106091e0bff0b170a03010b030508fe050303020601fafcff02fb0505fffa090c130101fa0001fbfa02fd0502fb06
fceff1f3ec071813f80af90cf8faeff9f6f8f0fcf7fdf9fffe0a080706f9f8ffe2e412fffaf3dbecf2fdeeedf3f8f2fff6fbf8f8ff00100809fc0e03da101102fdeef1f6fb0e0502fffff6040a0706f5f302fffffaf207fae40813ff0610f906fd0d15020cfe04091013fff0f500fefbf20202f50c1407f4fdfeff0910181a0306040c0a0504ecd9f2fb01f9fa040113171506141f00ef182f1c1604ff0300f3f800e8e3fe050e050901081e160e09101e0af310222b1515fbfaf5f1000e04fa0f0c090f14f0f20b0613131419f9e1f425271d160bfcee03070e04020601fefefafcf608f8060e0717fff8fe12231d1c1c07060c0afff8f0f1fcf2f5fc0600f4
102e1f1f1f13080a01fafd0200fa00fc061715252d232118162515fd0a262e261bf9f5e40106ff0301f6fdf6f3faf9fbf8f8f703fd020609fdfb09130af801f203fffb050003ecebe5eaefece9e7fcfc0af9fd02f901f2faf7021609f90afffe0402f8f2e5efd2cedde5fef60203120e02f50809120c02f0d5f80501fd0cf7e4e3dce5e4edf5f5fbf9110d07000818131a252cfff0f20e0807130602ebeee8eefe01f9efff020f0bfa0cff0416170d00fae7ff0d08040d0703fcfa0102fdf6f5fd050306f403f70209fefaeae3eb1a0607030d0a0c03f1f7fdfb01f9f7f900f0ee03110001fcf8eddef40c090b17020605f6f1fffcf9faf1f700fee8fb070a02
f2f8050a0c151707071204fc041b071600ecf9fbfa08140f070100f4f0f90c0a0a0906fb081713080b12f303fce2dae2ed040901f4faf2eef2f7010803090408030e080f1204f501fce9fff4fcf6fefc0408ff00fe0003f90308031214150610fbf4010309ef07eff9faecfff9000206fc0408fefb0709ff0f190f0eec00f80106ff0f0d0501eeeeeaf3f9fc041003fa0403fef9faf9f6ece5fa000004ff0b140211180f0005f2f8081203050711150100fcfae9f7f6fe0404ff0105f6e8e9e0e2ecfc0f0010fffc0501f9f1f2f1f100fa0303fffdfb01fc01fefc03fefbfdff040efffe04fc05fb030001fa02fafc0202fffb0110111612170d21261c2a1e02
1521291f1d1201ebe3f40611110a1105f60de9fc052314040713281a211a2a1e14fee8e7f202141c231205eff702e606072914f9041d130c1b112308eededcebfe151a20211009e70c0ef5f6041716fa060afcfe060008fbd8d6d8ee0214171618140ce8f111f0f310fe0b09020bfbf1f60502dbcac7dcfa0b130a160b07fbeceb13080508d9ec09f41107fe08090dd9bac7f20b0b00fe0301fce6def7030907f0d3effc080e1808141000d8b8d8f30601fa000306f2f8e5fd070b0ff4d0e9ea01171c1a1c1813dcc1ddf9f8fc0205fcfdf106f0f40d0206f6e4dfeb0b080f201a08fce1daebfef8f6040d01f7f203f8f500090df5ecf4e700f70a0d0c04fcf4
f9f9fdd5e4e4fe0303e8f8fcecfc02f7f1ede70f010303fa030afedbe6e0decbc2e0051808fee2e2f7ff0c00f9faedff05f60401fd000e01ece6ecd8e1f9030400f6eff7fdff11130902f1f6ea04fffd06e4f5f3f2fd080107fbfaf9fc00f504000208161a0af7eddee8fb0500effa05f90f0803fff9faf2fbeefd030b070111040404f70411faf9000af1fd0c06fdfc01fa01fffcf70500070bfafef7fd0110191206fefb0eebfaf7f60b0206fefd0103fdfdfe0607f7fa0f0909130f100906102800fb000a01f8030f1909100802eaf6ef020918040316fbf7f7fe181d1a110d0e0fff111f1b1f120905e6deeb001413040815fdfd00ef0927290a00152612
ff150d14120c040f0b06110d090f0f09150a1013060307f208230d02f513131c0b06020d06040306ff0500fa02090b0dfd041206071b04fefb04091208060603f8f6f7fdecebf3f302fe0a00050101e50cce0504e1f8111b110d1902010a01f908f6ebf5fee8e3ed0602eefc23effffdfc1311f8fe0b15141010000a0e01ddfc0804f3040aff0a14f3f106fc05fe01f1eaedf0f7081314fcebc6c9e0dadfe6e4eae7f5e7f3f20201fd0604fbf0f1ede3dedde4ead9ebe2e5e8f7eaeeedf0f0f802fe01fafb03fffcfefe0602fffb03fd03f8f9fb03fb0006fc0505fe05fffc0602fdfdfd17141d0508191b0af00314f6ee00fbf1edf9100b05050102fbfd0509
13fa03feeefbe602fc07101318120efefaf0f1f2e5e5dee6f2fbff0606f9060df10ddc0a0a0611130c0a06f608fcf0fdfbede8e2eb00fc0f0a030904f4f2de061106070c010808040202fe01fcf8eff0fefaf609021a120af2f9e6dad6e1010c010d0d0804060601fafcf60001fa04fc04180aeae30ef1b3bdd5dfed010afd030a06000007110a13ff0708fd0517160efb0a08cfbfc5d3d5f0fb01fd0eff07060b0f120a0c1005050214061103181aedd5e5efe9f5f2f6fe02fe0e070d0b0e0a0b100c08fa0a0a100bfa1509fa0e0603f90502f7f90c0311110b0f0a0b0f0000fb0c1a0e050a1820160d0a110d10ff020d0b04070e0d0a0c0f030cf1f7190ce6
01f3ebdcf6fb0405fff8f61e1f2921121c2021261d0e201e251f160c170c1a2212fc0003fef3e303fd1108fdfdfc0d12ff08050406090204101a2924280afefd021604140ef6f3f9f4f1f0feeff6ebf00107faf7f6080f1c22f704fa001302130cfaf7f4faf0fcf7f5fefc0503fbfaf6f7eae5fbeefcf6f200ed0b0d0d0402faf3f1f7f2f303050b0804fff8faf300fae3f3ebf407e90cfd02fff7f7f1f2f9f7f7020500fafd0900ecfa0b060a0be706f0e8f405f7f3fffafbf6fff9020e050300fc010cf8000a121f2312f8f811ebf9fdf306010403100f0d0bfdf4fbf90309040c0a141808040fe60109fb01000e0e0919180807eff1eaf2ebf5fcfb100808
01fbf0e2ddf2e6111001fbfa06fcf9e7e4efecedf8050501fcfdf8f1f706f9eafa00f4211ffd03061106edf2fbf8f1fbf9f2f1edf8eaf1f0fdfff4f505161d29101cfbff0cf1e6e1eeede5edf4f5f1eefcf70a020b0a0c161a221408fc1205fcfffdfafcfae8dfe7e7f4fc04080a0b090d121f16160d07fefe15fffdff040c0b05fafdf8f9f6122a362525222120170a0307fdf80005fbff0103010404feff0000f7fbfd0c0d03fbf7ff0102030204f9010304fd0205fffafc00050506ffff060b1200ff05ff0201fd040605fa01fefe06fdfb010e0f150bff051503f60116ff071b0dfff3030a0a0201010206040bf2fb09051322120a1f1a0726160c090501
0b160f0713120e0f0b020a19071a0f000f0b0afcf5f1f3fffff5040d0b0f0703fefe020a0200030f15f8fefb102911faebe7f7fbfd0a060b0d0f0efdf0effb0509f8ed071ef1f3f5182711fee4e705fc050d0c0f0d1c1bf6e8eeed0702f6f50607ecf2180b0304f1dff6fb0210140f161a17f4eaf2fcfef9f9f3fa00fbfbf7f1faebead3d9eafb0c181205090afceef903f8fcf5eef7fbfa00fdecf2fef6dccedde5ebf304fe0405fefaf1fc06fffffbf4fdf3f11bdffff6fef1d2d5dfece9fc0606000301fb02fa0b1504f7ede7e5f70ae5eff9f7e5d5cfd6e4f1f702f7f8f40005fffa0107f8e9e1dbe401f8fdfde4fff9e4e6daeafbf6fafffb01fb0b0705
f7f5f30af4fb0501f7010b1909050f00ee0e0402fe0d190c151c2208f4f4f2f1e8f0f0f2eefeeefe020c0f1dfbfbfb01fdf6fc12080f100afefeece9ecf5f1f4f4f0e9f2fc020cfd130f00fff9e2f806fd0a170dfefbf9eceaede8e5e6f0eeeaeefb070415210e0804e3ff11070a1d120510fff5f2f5f2f3f1f5f1efeceaf9001312fe060e1a08180d1215060b05ff03f4f5fcf9f0f0f8f1f9f1fd0c12f1f1001b211708181912020704ff0200020909fffafafbfeef061310f9ed001e0922fc09110cf9fa00fef407140c12100dfffdfcf9fe1422fe0d0414141ef8fb05feedeeeff7f50d1d1e1c0b1e0e0af5f30508140a05fb101c1701ff07fee7f3f7fb08
0101000100f8f9fef8f9fffafc03f8fd0301fefcfd0102fcfefa0103fdfefc04000101f901fa04f802fffefafbfbfaff050503fdffff0001fb02fafdfd04fd03fcff01f8fcfbfc05010001000605ff0103ff0606fe01f9f9fffd02fafef904fafcfffc0303fffdfdfefefdfdfefcfbfc05fd0301fefcf9fafafd02fc0005fefafa0005fefa0002030400ff0602fbfc02fffffefc000604fbfffe00fa040204fd030604fdfa03ff0301fcfc04ff00fc000304fffdfa03ff04000602fbfd000503fafa06fcfa130f0f1b1609051a2f070f12051312110ee5e0fd06ff01fdfcf6171615281b020c0e15040e1116121a0d100c0007130b03fafa010b0bf1eeee040e
ff0300f9fb030103fffb03fcfbfa00fcf80204fb0301fbf8fcfa0302fdff01f900fcff0002fafff8fa000105f9f9fe0101fbf8faf8050401040603fb0201f904fa0104020000f9f9fefc04f904fbfdfefb05010505fefe0201fffafa03fcfe01fa02f90103fbfdf903fb000400fcfb06fafdfafa00f8fffeff02f9fcff01fef90401fef9fff8f90004fc00fc050002fbf9fb02fafafd03f8030400fbfc0402ff04fffa02fefb050005fbfe010400f800000201030301f9fcfd03fc0302fffefcfffc05fbfcfa0304fafb020102fefaf8010102f9ff0203fc0303fd02fc02ff0500fafdfe02fef9fdf8fe04fdfcfffd05fe00fb04f9fc05fffefe04fd01f9fafa
03fefbfdfcfd000302fef9020400fcfdfcf901fbfbf8fcfd05f904fc0302fb05fd01ff0403faf8fcf9040300ffff00fb020103fafafafafafb030406fefbfcfd04fdfefcf8fbfcf8f800fdfcfffffd00fdfc05fafd06020204fd0601fc0401000300fbfcfcff0204fbfbfd0504fdfeff0401ff0004fc03fcfa0204f8f9fd04fafcfbfaf9fbfcf8ff0102020105ff05fa00fc0303fdfdfbff020204000103fdfcf8fbfdfcfd02f9ff06fdfcfdfcfb01fdfbfb0101fefb03fe00fcf8f9fafa00ff0102fdfc04fc01fe010402fffdf803fd03040100faff03fafefb0402fefbfffa04fefbfc010000fe0304f8f9fd02fffd01fafcfafafbfc040000fffc00ff02fe
192923f9f20a0101ebe70a1116171919190b04dfcfd5dafa05161d171c1d1ee70802fdfbe7ebe9fe061d2a2a2cfaf0e5dde7f30f0a1000060cf916051106fcfe03efe0cfed0e11130bebf0f2daddd6cae3e7d8e0faeae300f9fd060203fff9fce1f6f7eaebe3e4f6f4e1e3dbdcdee2e8eaf2fff9f702fa04fbfafb05f8fbf2f4f2f3f3eef0faf2ebeaf4f0eaf5f3f6f8fafe00fdfe06fdfe030604faffff06fb0204fef900040300040304050101fbfbfffc06fe0203fd01030102fc01fafffafffa050303030305fb01fb00ff0003fb0103fb020002fafc07f9fffafefa02fa0202fe010301fbfb04fb05fbfbfa05fe0105fc0501fdf9fdfbfb030201fb05fa
fbfef7fd090d08100f2d070cf7e2dde7fa09020e08f6101207fdf5f2f5fe01000818241b06120d03f0f1dee8f012100cf2fc101610ebe2eaff04fd0a1123121103fe0bfafafae2e9e2f9fffaec081420fde0e7fd141003101b0e0b0110010f16fcf6e7c9d2f2e6e0ec0f1818efc8e00918201f0f1707141301fa111308eeede1cdedf0f1051b2603debdd6fd0f1818180c050c16f6121307f7f2f8eae5f50c071026230bdecae8fd040a141f141718130c110f06f0fe05eff8ff0e1a22341dffe1d8e3f0040e18112623260f1f24fafaf806f1f10f12152b302818f1dbcbcbe0f0010e13211b19010414effefd0e05011b0d1b2b2b1d03e7cec5d8eaf4051716
f9f606f5fefb0c04fef5e5e2f1f902ff0110ebd8ecf1100d160c0704faf3f5ecf2090a061205ece3e9f2fbfbfe0df9ff0505130c23170af7fdfef5fbf7fb06120c04150bede9fdfcfef8f307041119060410100106fbf2f6f6fd150c01fd0300f0fcff030dfbdde3ee0507030315080509f5eee4f2fc0004e6dccfcbe3fbfc030bfbedfaeaec06f90000020605ffe6e2e8f5f2ede8eaeff4f2f9f90300f1eef6e8f105efee01081004f2eaeffcfcf4ebe3f4ef08fa0afdededece9f1eaf804f7f1ff0f0f0cfdf4f3eff5f4f7f601020afa1200fff0e2e0e6f0f40902f8f2070f0e0d00fdedf202f9fe0702070713050ff9f5d4d7050df9f703ff0a0a1402fff9
090a1303000c08feff020d0e0b08f6ff00ed0503131515160b161707101514131108f003050b0e0d09f0fd1619ec00fb011912181e18233218311c0d110f0c0b1017051e0815132314e703040301f6f515110b10111005f0ecdfdff904000110101003210f11fcfc03faffff07182119261e1d110aea1917080804110f13060afafe0200fefb06fefd04040105fcfafff4ef000205fbfafb010403fc04fb00ff03fe03ff140c180af4f609f6f0e613ffff01fcfaf3fe050603fbfbfa04fd03efedf8e0cfe0dfe3d7dccad6e7eadfe0ecefebe8e4fafdfdfa01f700f004fffbede507fff8f9010dfbfbf4f2fae1e5ddf211eb00fd0102e9cfebf1020d09fff9fa
100007fdf9fffbe9fd030b0c0d0e0cfafb0612faf7160908efeefa010f0af8ff0700f1f5080d0c0a100a11f8090d120d1b0bfaecfd12061e22fcfdfffb0500fa0f161107040c01f6080d130d220308040b2c19392605f8fbee0203fc091a16030f060c0c0701001921131609fa1613321e1100060000f8f5f61211fd030e110c0000f6160a12020cf7162f21110607100c0009fff1040a06070104080007ecff06fc151018140e170f0e070e0c131013fe03030a06030bfc04fcfeee07020c1b03f709110c05f9ff04140b0811fffff6f90603010c0201f5f0f12304070b20100706070f13070502080904fdfef8fd0b0a000ef9e9f311fe162d2006ebfa0110
05fffdf2fef3dee0e8eef6020a0506fafd04fcfcfef80117201603000811fbe7e9f7e6ebfff2ff1211140d10120803fafbfce6fb00f704fa0315fcd9ddececfafaf6fafb071711100e070c000d09f5f7f4ea03fcf8ecfcede1f0fa02fafd01eeff070c080d090e0b05030bfefef21104e4e2defbf3f8070c0afb04f4f9fbf800fc0a0a0ffe070efd0a071af8e4eee3f30503020306f60207faf7faf7080a0908070c0bfff405061708e7e50e140603160df804f6f1f4f30102fd02fe0904060a0af30efff5ceef0f120d060e0c02fae9f8f3fc04010903fffe030304f60613ffead1040f1e1310130504f6eef9fcf80d030506fc0d0614fad9fc100fe8ddeb0d
060efafbef0b0f1415090301f7fee4ece4e7f101ecf9f1fcfefff0f8ec11fb04fffb1d15080907faf1edd8cebac5dfe9e4ee00eff6fbe7030019040302fd080afeecece3d4f7ebeff3f1f50c09070efdfb0803fe06fcfafd04fdfcfaeaebfbf8f7fc0a160b01fff2fefb01fd05fcf8fcfafdfefb01fb05fa0201fa03fffd06fdfc07010106fffffafafafe04fd000102fb0004fef1fafeede5f91000f71811fe05120f130a0aff0a05fbfc0602fffef3fd08f80e201916190b082627291604fdfcf1e8e1f60606fffbf6f416141906001afe0917170e2626262d16101106030008f70201fbeae2f9f2f0e1f4f1efec06121814160c06fc04fb0b19171f0805fe
dae6e3ed0aeff5ef13231301061d08f9f2030b02fd01f5dee4d4e0e9edf60912021604161f100d0a131202e900051301090bfcf1e6e8f8000a122527fd1703ee191b15110e12e9f0011504101a1b1a0e101011141d293218fc00f7fa151cfefffdfae5f00412060a0a1b15161c282313172a25090af6080afb1e1408f7ece0eb020502fe0206151316200f0d0d1215fd16f1fa070d15f9f0f8f1ebe7f4f3f3fc0511210c0c0e0607050afb0dfbf110e1faf0eee6eaf6f8edebf1ed05131d1b130003fe06f0f2eb0602fef202f6f710edf9f105fbf3fcfb0e06131309080809f6f4e7def202e8edfbebef0b0d070e1b0d0cf9f3f1faf5030507f5e7e9eafcff0d
fcf8fa00fbfafdf0e5f60103fee2031e1e08090ef3040603050ff5f4f5f5020a05090100f8f5040a02e7011e1ffc0a060204fb0204fdf3f1f2fd04110e09e7e6f9eeff08fe0e0f1e1bfff300f3f9fc0302000807070c0f1b1cfde2dce9f4f4fe0b2a0cfc0e01e9f7f6f9010405010d0001190c1419f2e1dbe3f311fc1c0b03fb03fff3f0f0ff03f3f7ff060217190f09fd03dfe3edfef9052c1710fbeceef8fdfaf8faf501070d100f1607f5efe3d9f208fefffc2115f1f0fce8fdfdf2f2fe02fa08020710fdf7e7e0dcd1f90500f60a18fee4f1e9ecf303f500080af70605fbf5e6e0e6e1e5d4defbfa00fa173dfdf7fa070dfdf8010cfdf8f7f6e8e8dacfdd
07120b05020805110f050f09f800fe0000f1ec0e200e0cfc140b0400fef9130d0704201d1c1b0902fc0d030505fb01fe1d24252222271f151a130c121d110b2017160a08f60b00fefcfafb050c091723252005f41bfd080f09141409160b0c00fefe000505fbfa0304030506feff0205f8f0000200fcfbfdfafffefafe000203fd050304fe1b1c0f1b271331252c12160b00080005f8e5e70503fbfb0205fa09141d282f131912211f3b212217191e1209f6edf20602fb06000706efe5e3ff17100f19161c18faf4d9d1cae2e0e4dccff00703fbfc0813100f09080f1c0cf8030d0800fbfcf1e3ece2e2d8dde3feff03fde4f8191d230e080b06140e0e0e0603
feeefa030e1f1a03faf70c110707f5f0dbe3f118e9ea090f1f151706faff02070e1d12fcf2f80d02100703fcdaf2ecf6f7101a1b14090a0901fef8000c140b03f5fe09050c0905f1d6e9e3ffedf9f70609f9fdfe09fef1f4000dfe00fc0702070705f0dde1dbf7f7ef0a03f7f3f6fff2fcf8fcfefb06fdf8020c01fd01fdddd7f4dfeef81510f5fbe8f300f504f7fc02fcf80efc06fff2f1ede6d2d1e2d9e5e317f803f2f3fe06f6f502fa061104f9fdfefcebefe4d1b7d8dee3da0617fa0ffcfeeef70502000a020305fffafcf7eee5e8d8c9e0f2f8ec051c170705fbf90a111003080202fd0306fdf9eaf0f5f2f0fafc250502190df0f40900fd0506fc090a
09f5fc10fb090305030e0d0a0c0f0f0f0b07171312f8000602e0fb06ff100b120b101404131d180a070b161417190508fd0801060ffd1807201f0e09090d09090e0b0c0200070d050a1003faebede7fbfaf1140b2110feff0a07fd0506fffefefb090bfe0b06fef3d9e0dd07ffe705fff5edf2f9fbf902fb04091005f8030702fd00fdeefbdffdfff6ebe8f3f3f1f4f6f2f9f8f7f80b0f080f120607f6fcf9edfde7f8faf2e411f7f5f1e7e3f1fef104fd0d121015100f0afcfefae9e90af0f8ffda0de7ebf5f4f3f7f9f7050818171508020b05fcfcf0e8ebfff1ebf3f400f3effc02f6f2f6fd120d161902fd0805020403f0eaf5eedef2fbedf208080e08fe
03f5f4d8dae7e0edfdf1050c00fcf6fbedfcf7f00004fde1fa1005fe01ff0505ede6d8e5eff2051a0ef4090002fd02f5ecfb04f7fffbfc020102fdfaf4f5f2e6e6ebeeedfe0cf3e9ebf2f6f6f0f601fefd03fffdfc000005fbff0604fd02fa0501130404060506fcfa0104fbfffcfc03fc0203ff04e9ebe50900ee011611f30e0bf003fbf9faebea06fa01fffafef9170beafe100820201c15280f1b180e0c11170e142008fffbfa02f4fd02fff000151e181e0d100a0601fb020b0dfb06ebe2e00901fb0403f7040c00fb140906fe0408f5fafafafe06fde6ebe2efed06fbfc05f7f3151515050b00060002fef90501f1f2fb02f0fa0d0804fb0203f9e406fc
01160d0819123013fae2e2dee3f506111313f9020407f300f5dbdce80413120d16ee08ebdfe3e0d3ed0517111b1001000705f2f3edf3e5e20510061208feeed9e7eadee4f80a19212013050301f5e7ebf5f0f1f4fe0e0a10fcf2dbd8e7e6e5e6f8100f191e0f0606f8f8fe02fcfafd0b03060e0dfff3d4bed8e7dff30b1208080803fbfb0107050707ff020801ff10e5f3f9cdc5d4d7f20e0c0f0b07fb030606050908fff908001023081506fce6dbdcdcdef3fd051414060008fffd00030606050d050a14f70cfefbdad7e1ebeaedf10103f70308010a11fc0102020f1a2c0706020303f6ecdccbcde9e7f104fded0305fc0900fc02f7fb081b21f5051502fa
08fa080606170b0c05e306fffd0103fd0b0ffbfbf6fcf7faf5fff700fef70203141dfd0d0f0f0b0d0d0707040607fd00f606fe0701fffbfd0700e80012f2fb060e212207110302fa07fd0504fc0a0b03f9eb04fa03fcfc080afa0d0216281a1c150a08fb070cf9fc050207fcf3e8f6fff9f701f80e1a140b0126161410fdf1f200f6e9f50f170a00e7f5fe02fdfcf5fdfd230cff12250016140a05f8faeff910120d09f6e8f9090004f9ebf8fe290b02142b03121a1410fff0ed091a161006ebf400fcfafef9e8fc131707f70f1b281c1b0f01f1edf30d150b12fceaecfb04fff5e6e4fc011409f809223c1e02ecf2e0cdec05150b0d00f2fc05faf5ebdbd7ed
eaeee3ddedfff2e7e10f03fafb04fd05f6ecede7d8fc0b0f06eff5ece5edf2f1effefaf9fbfbfbffff00fb00f3f6f6ecfcfdf40b0007f1eaf5f900f6f7f7f8fc02020106030202fd00fb01050101fdfb070e00fe0201fb04fafcfd02fd02fb0301ff00ff09fafdff1712130303fa170000130301fc06080afbfe04fc04030cfefbf5ee09191603f20012150f0207111c200dffe8f804fa050100fef3f3f6effaf104f1d9ddfa050807fb0d1c0d0d2018fdf40201051517ffff0110070602f9e4ecf904fb060602fd04091511ef02fafbff06fff3ecf809000d10fef8f3f6060509fe03fa03fef9efea07fb0106ea00fce5010212140efef0f3fdfaf1ff03fefd
17f9e0ebeffbf4f4eff706020a100efd14f9ecd8bcd5ea13263d4b2a0ae9d1f60a0c020e0e0e0f011105f508260ffee0d2e0ed082b3b3217f0d2dcf9120f171d0d1e0c08140b0c0613140be7e4f1f7141c2717fcebd7f715192416100602181116090105fd01ffe8f3fc02001d1a02e5e3f20c140c0f080efc0c12220e0008e601fef406fb0911191710fdf9f1f70d08f7fe0602f702021926f713030e0814f301f815030111180e07f7fdfaecfafdf6f6eaf2ff24e803fdf20217030509120c16110101faf2f6f6f0e1e8e5e6f3fafbf0250602fa0fe2e7f70afe0e12050305eee5f8fcfffff1f5fdf6fcf1f01b030404fdfcfe1310fde9ecf3fcf3f2dadddb
060b050a03f7f1f1fa160d10fffcf8f31910060b050bf7040d05fdfe02f9fc03f8f3fe05eef3f90311feee0e2a0a07050b10fbfcfdfbeef3f6fcfc0afc030cf6f3fa0903ff01f30921040d00100501fc01f7eef2eeeae6eff7080bfdf903fdf6ecebf1fe111917111715100803f5f1dfe4cfdaedf7161e14f7f6f9f5e4d9f1fcfe1f09011013010602ffefe2e8e4f80f1426250cedeeeaf2ebcced00ff1809060f0402f4fef6ead1e3ec192a292c14f9fce4f4efece0f4060c12fff309211405f2e3ded4ee11292b1b1e1302f0ebeef9f4d8e11518fe06f00720fdf3e2d3d3e70826392c1c11fcf8f3e9f9f9edd9e8fc110d040d20f8eadfbfc0dcf41f3b4f3c
1a1e1c06f91209f0fc05ee0d21110b1c1204090d090cfd0400fdfc000e1119171a191202eee4121e17090e11090a09000200fe01ffff020301fb01fdffff0103faf005000000040104ff01fa0203fb0302fafefcfd161f15292423202b32160c0a0a0b130c07f7f9fafdfb0500fd03041d17140e13180bfde8ffe3ecf71d2e24201b1e1c12030605fe0703e5dcdae7f6ebf403f2e301ebf5edf4f7020e141007f80a01fe060c1c060106140d190afcebeeebece0ecf7f1040e0e1309e503fdfdfa05040a050e1b0f101501faf7ecfcfc02fc000d170ef0ddf3ffff01fbfc0205071513130603fafdfaf2ecf4fd020d110f1412ed1d16120400eafffa02050302
e220383305e9efef05030304eef6f9fefaf2fc0cfe0e01fef7e4f2f3e70e0b3005dce9f9f805fffdfbf2f7fff7f3fe05060709f704f6f3f6f1071d0debe3f7fffcf9fc00fef70002fbf2fc0202f700f4f8fde5f5030e2314f4e902f6f2f6f5fdf9fcfdff00f4f9fcf4f3fe05f401eb1413182717fcfcfbe5e9ebeffa040200fcfa000106f0fd1210eaf3e8f8150e321d1209f40200efff020f1409f7fc01030102faf508eafd0cff1c1a2a19140e0b26100b19110307ff09121a03f2f8e8dc1c0cfefcfb151419201d120c0f03110f120811fc0f1c2821142105fa10f8ee01050502fd18281419100801f0f90812111f2f1f212a212c241d09f1fdfafdfef6fd
0b08f5fdfafafff018110e0bf707040f16070402051116111307202d3817effde9ece8f7120809fdfb11040b06ff0317211e070c171325152904eefbefd5edf904f5f2f7fdf906040afd08171f1d1b12232f0f0515f1ebed05eaf3e801f5fe010f0305fef5f10215201a10151713120716fff8fcf8f239060eff02010b08fb0600000a1f230bfbf9fe0d12050cfc08f7fbfb26fe00fb06060804fe0b060711200dfffb0205070c0bf6ef030bf4eafdfdfb0c0700f8fb060a0b09151206fffa00091107f9f6dcfd0b02ebf3081a09f801160b0807fe041216fc02080b070207fdf0e4f800e4e3022511f7f8f40bf909fdf5fb0d03f80505fdfe0900f1ede2edf0
ebfa00060af005fb06fa0302f8f0f0eaeaf00003e505f8e6f3edfdecedeef6fd040506fffc03fafffffc0206fb050301fff6fbfe00fa05fe05fbfd0403fb03fffe000503ecf1e8f2fff7def401f3e600ffe5fc06050df9fb000003040001fbf704edf800e4f60800f900f706f8f4f2faff00f5230bfe03fe01f8081a2d1306160c090d010afc02f9f703f8ecf6f7e6ebf8090302fae30215371b11190b150c140b09090803fc0803f5edecf913f6fe0200000e0b3c35271b131e0706010c08fc0209f106e2e2f6153017fc05f90e02002b230d0d0b040d100c0b190c1808fbe9ece0d804200a02fdfd01fdf01c21090b030a1a0b1510150f0c06090608faee07
07040708010e09131f1d061c12242a2b211c13150713040c0b0a12060a0d0e080a11050e0d0b08131a27392520190f140d16140e08090a0d0b10110f1220030812091b091c1a1e2c180d030508181518160d0a0e0d071117110b02f50b0e0c05fd03080d0d01f90a0d1217141007080f09100e0f070ff9f3050e1f05fe0913060801010e14130e13130c0c10160d09100c0506faf80c0704f20e10f0e7fbfafa01fafffdf701090b1703090c06fffeef03dbfefbee191812f501fdfcf40000ff09fcf10005f9f8f5fcecf0f926f10200fd0616fefde9fa18fe050901fe0700fff806ef03f9f0000207e5ff0100fd02e9eff0eaf0f6fff8ead2e3dce1d8d4d5e5
fefcfdf1f4fc020afcfe0df7fffc1401e0e4d302e7f70108110502f8fbf9f701fe01fd05f70d12060d091bfae005cceaeefcfd100ffe03050201fbf80a0bf705041a0d0504010010fbf2db0607f6f909100d1907f6eef4fcfbf8fffb0a0303100ff309ffeddaccf7fdfff410091111f5edecf405fdf6edf8fbfb0b13fdf90f07eceee2fc0306080a14190cf3f6e8f6fb00feedefff06091df9f60cfeede4ecf6f3f002050b0f03f2fafa07050b03f9f6fbfb05110a151006e6f5efe1e2ecf5020a1309090b050905090102f90d0b0f191b1b02ecfd22fef001f4fd111014120a101711f600fcf5010113181f23140e0f0c3421221813090f09101b0e19141904
1713f8e60b0e0406010e0c08070d08ff01fcfd0300fb04ffff03fefa04fafd03fff90804fd02fcfefffdfbfb020005ff040602fc0d1520190e20291f142e1b151824151711130501fbfe0206fa06031315313a4a423f414327535d37444541342a0603f00bfd0502fbf6fb130b091a233019162f1918252a2a342f1c241e281d13020104fbede0f81206010d04eefd10120c17080e16050b0f13282b1e0f05060207051115f8f0f3effcfe01070700f80303fcff02010712180d06fb020c06fd08feeffaf2f709050409ff06faf6eff5fe00eafef4f804f6fef6fcf7ecf6f9f9f6f5f6fafef9fcfcf2f9f1010101f9f7ebf5faf2f6e506f4f1f5fb03faf1f9f7
dcc7d9f0f9f2fb021009160b04f6ecf900faf3eef3e1fff1f11216f2dad3e3e9eff6eeff0b0505fd02eff1fa06fafbf2d8cfeff9061204efe3e7e6f1f1ecf5fbf9050a03f3f2faeffaf7f3f6f4f4e0050e1afdfdfcfff0f2faf003f9ff07f2fbecfbfcf903f40706f8ea0afe0c181d261705fb060401fefc08fefcf9f5fef60000020a04f5091404100c06231f160d150d0e0e1407fefaf7f703fcfdfef9020c102901050702111a1510160e1211060d01fefff9091103100cfe1817200f07fffd03f2020b0b1a1c251a06050bfff8000503061d170f111c100dfbfc01fef4001020171c251e232012050f0d0b07fb14150afb16050705fffa0404fc09020814
fff111121c030909090e1518170bffff0bfd0200fe16130a2202e60ff4e6fb0a03fe110b000506ff010d160bf4f2eff2fc14131025060af0e9e2e504100f12070f09f5f4ff090ff6e8edf4fb0403090510001202edd90e14090f13020f07e6f1031b17f9e8e0f0f3fcff03faf7180ef9f5ee0dfd0d0e0d0a01f2f5fb03190cf6e5eb00060101eee6e5270f0df3eaf4f9fef7fcfefdebf60e0813fcfef4ff0a11fb02dfe4feeb0c0efbdedde0fde3f2f6fcf604030f11080f00060e0600fcf0e1f7ddf613ededdfd2dde3edf5f7f2fe040d191016131cfceff1fdf6edf9c9f3fdf50d0fe5d8d3e7f7f8f9fa060b130b160002f1ececf0f3f3fce1f7f3ec1a14ff
05060105fdfa030504fcff0601fd0103fffb0100fa00fdff02fffe04fbfdfdfcfd01fafd05f4f1eadbe3e5f7fbd9eaf1f4deecf2f9f106fd0102fd040300fdf6ebef00f7eeeeec08edcfc3d4f4fae1e4f0eaf0fdf90305fafe020213191b17140c00f6f5f1f50917060b211d1a0ffbf4f80e03000109fbfa0200ff000602fdf7fb03030309111410050afc091a04fe06fa17f9f4eef3f4171d10fe010e0503050c0205faf5f3f70f1c0fff020408f7f3f606071d1b0e10040803fd010800f1f5f0e9ea02edf70a0bfaf2f807fd0d0b0c1018170c10140208040500070c05eff102eefc0f0cf90002150e030c0c21181c161201fd00041102020cf8f80ff0fcfa
d8d5e4efe6fe090cfe2642370c09180b0e1105fd001d251906eddce0e7e3e8e6e1f0090819262e2f1002100b0e1104000311221b12faeadff4f0eeedfef8eafafc16f5012508050a04000001ff07131f1001e5c8ded8ebf903f6dafff51a13171004fc0d04fcf1effb090b1dfdeadad7def30a0f0905e703f902fcfcf1e8edfdf2e5f9f7fa0c0e08f1d8dadeed060efc01050602eb09180204eaf6eee6efefe9f1f4f4eeddb5c5d1d4ebdef1000f010004ff0ae1effdf2f3e9ece8deede7e605e1c3ced4eceae0efec0c00fbfd06ecefe3e0e5f40500f8fef6f204f4e2e2e9f3fbf703e9ecfc06fb04fbfc04f9fe03f3e7f1ddde061ef1f9f1f8f7fafd05fe01
07f7f7f7fde7edd6b5051b13f8290901e5cbc9e3e6eeeffe081819180b02f4f4fef5f2f8dcf6fd0ae0000106eae6d2f9e1f0f7051715110c08faf3ddfa02081007e7fc03ede2d4e5d3ccd2ece4f2030d1512201101ecded1d4f6191310e4f003eddafaf2e9e6effae6f50710191d1e0efe01f2f6eff5fdfb08f60506fadc0dfcd9e2f2f9f2e1fe0b1d2c2217110d06f1d9d2ebe6f003020ef7fa0904e1e1e2e7dfd8fc1021201a2817040af0dac5d8f70208030f141d12131a02f4f0dce8000c1d1f211f0dffecd9d4d1e903191efc041b252e4132180df6f7f5f50919131a110aeeeaddd7d4e5fb050ef409011848491a151f0d08faf6f8071d1719fef1d9de
fdfb0d030205fefdfd03fefe010405fdfa0103fc0407010c0d04060f090e161216270f07090eff0bfd03000105fc0afe040dfdff03fe0d08fcf5062208f5fcfc04f6f91500fcfa04fc03fb000404fcede4dbd9d5e7fcf7fb05f1fceaeed8edfc1efffa02fcfcf5fd12fae7e3d9bfbbdbf30819110508ff0507fa10e6dcfb06fd0107f3f1fbeae4dfbbc1d0f1f10a16170f0b0a0904091009ede2040501ff0b08f9e4d8c3c9d8e8e5f0090d1a1709fc0006fef8f6f0ddf30405e80507e8d4cac7d4e6f2e6ecff05120d05faf904fce7ddd2edf50e0e0afcffead3c4c3ebe8fdf7f5fb040f0609f802eeebecc6aced0b01ff0b0dfbd5c5c7d4e6eef2f802090214
e3eee1cff81728201209fde9d5cbd9f3d2eefdf6f3e90212ffee0affeaf5eae601261c1c1402f4e9cddacfcceff7f410fcfe080c06fc020af2f5eef411221d191e13f8dacac3c3c6e9efebfcf0f0f10902fbf9f7f3eeecf6121f1c1a15fad6cdbebad8d4eb01f4faf5ede5ebfbf6f5f2f4f6f0fd182019160dfee5c7bbb4d1e4f300fdfc05e8ebdc0400f8f1f008000a1e1a280efff6e6c4c0d0dbf002f306fefbe5e8fa01fdfaf2fb0914101b211801e6d7e5e7ebeff3091c04ff0600fdf6011f22060e1f06221e181e1ffef6e5e7fe0605011c1610fc01fa00ff03131e1725231a2022270f1d210e0309080d0c0603fcfd00fe00fbfb04fefdfbfa05010506
