0000063c000001250000104bfffffdbfffffeeba00000833000020d00000013d00000b61000008b2fffffa06fffff7b30000018600001f77fffff29a00001653
fffffeb200001161fffffede000015ba000004fc00000d53fffffe64fffffebb000029d0ffffe051000016300000067c000006ec00000cf7fffffc5000000982
ffffefba00000957ffffefce00000d69fffff4d7fffffd36fffff67a00000dafffffface00002bf8000010f9fffffcda00000f82ffffe215fffffab8000018b5
00000e4b00002dd6000010660000001cfffff437000000b000000d1ffffffe58fffffacbffffeebe00000edb000003d4000008a90000123c0000183efffffd13
0000164600000abeffffffdc00001cb6000008950000154f0000237fffffdf95000014aa000009bdfffffc440000068300000501fffff665fffffde3fffffe2d
fffffec400000dc10000356400001806000006b2fffff239000013340000024b000010c200000611fffff8dd0000185c00001fa2fffffd2200001ddf00000a93
fffff845ffffffd1ffffec2200001bf0fffffcf100001f3900002222fffff570ffffe36100000117fffffc4bfffff67a0000090e000002cf0000151800001552
000000d4000009730000041000000ec3ffffe9af00000bd4fffff69900000d78fffffec9ffffeffc00000bac00000939fffffcd0ffffec74000009e7fffff787
