9f
e3
21
29
2d
2b
bc
30
86
86
75
bd
dd
65
d6
53
09
27
28
95
d8
3b
3f
8b
f0
ff
bf
08
58
54
4c
7a
c7
3c
c0
d4
93
aa
e7
ae
7f
0e
9b
95
a2
d0
c9
fe
80
8b
5a
9d
7a
de
ef
8d
23
fe
20
27
ef
c4
d6
1d
fd
54
78
d0
74
bb
eb
1a
38
6f
d1
89
43
b3
f9
9b
01
f2
00
9f
d7
d2
12
0c
db
e9
96
db
28
a4
f0
2c
07
f6
d8
3c
42
2a
12
c2
2b
c2
6d
be
b4
ec
12
25
d7
69
29
41
c7
51
f2
0e
0e
4a
23
46
a6
8b
15
97
