c8
f2
36
1a
39
34
16
58
c9
5a
ce
ec
72
e0
72
f0
e0
06
07
59
d7
f2
e5
23
e2
ce
3e
f6
52
5b
64
5d
17
33
0c
44
23
1a
6c
f6
76
32
5b
73
2d
43
48
d0
23
ec
4d
38
03
61
e0
d9
c7
6e
e0
39
54
d8
d3
06
12
4b
0d
2f
6c
02
6d
73
d1
76
fb
6c
e4
ee
56
0d
00
d5
fc
3d
fe
f7
ed
15
4f
26
50
0c
14
22
72
56
4d
de
ee
ef
05
2f
56
d6
27
61
2e
6e
cd
66
d0
28
35
55
ca
24
4c
d4
d4
6f
cb
c8
ee
c5
bc
ad
1a
e3
e0
ea
27
5e
e0
6a
3a
e6
e6
df
3e
eb
6c
45
0e
31
f0
fe
3d
d3
1a
e4
27
b5
ed
0a
a9
32
11
3b
e3
d8
fc
eb
5c
51
71
c7
d5
45
52
52
51
2c
3c
2b
4a
59
da
02
1c
42
09
f5
ae
e6
d5
b7
da
d2
3b
fa
44
dc
54
56
15
c8
5b
69
da
0d
f7
e1
61
0f
bd
43
2e
f8
aa
f6
04
b4
1f
b4
d9
48
ce
c3
f6
e7
15
cd
5a
0c
29
cb
de
09
38
da
65
3a
d3
2d
07
f0
c9
fc
e6
a5
32
b7
45
3c
ff
e1
c0
12
73
d8
ec
d1
f8
34
24
f1
d2
3b
a7
13
3f
1e
ed
32
af
29
16
ff
e0
b0
de
0c
37
bf
69
61
4f
46
00
11
f1
2d
ce
c6
e7
32
34
03
c0
db
fa
da
a7
de
a4
cd
35
fc
eb
f8
b6
ca
c9
e5
4b
1d
de
69
ed
64
35
17
c4
19
cc
f8
a6
41
c1
18
da
d6
27
b5
fc
a9
39
11
bf
18
12
6e
e7
00
60
73
e3
34
6e
62
cb
f8
38
e6
b2
be
26
41
0b
ea
31
d1
36
ff
47
d1
f0
f2
00
eb
71
e7
fa
29
d7
41
d1
2f
37
51
9f
ff
d5
4a
04
c4
cb
44
02
2d
d8
32
be
c0
e6
30
42
30
33
31
48
31
16
d8
2b
ce
49
35
45
96
d0
0e
14
36
39
13
c4
a8
da
14
a6
3b
43
d0
44
13
0a
0d
50
06
76
4d
f3
67
59
c3
48
fc
27
b5
9d
db
e9
35
12
d8
ff
10
cd
28
2a
ee
9a
10
69
45
5a
55
59
56
e7
ee
ef
c4
e2
17
2a
0b
2e
c2
24
fd
0c
b5
2d
02
2a
c7
47
28
a6
4d
29
74
3d
03
de
d3
1f
70
67
5f
d3
fd
f1
37
f5
9a
d5
9e
25
37
44
de
46
e9
13
18
3c
dc
c5
d9
c7
67
db
0f
15
54
05
0c
2d
1a
a2
df
1f
a0
40
48
39
2f
23
28
ce
0c
ba
38
24
3a
cd
12
cb
6c
da
46
51
0a
3e
5b
27
3c
34
e1
1a
00
d6
01
36
a2
c8
db
14
04
f6
af
32
5b
0d
f3
39
35
47
4e
3b
46
5e
6c
bf
28
02
16
41
bb
a1
9a
b4
26
2e
2f
cb
09
cf
32
c5
01
40
56
d6
6f
cd
ea
3e
30
1d
e9
eb
4c
a8
f9
d9
f1
ea
43
14
25
1c
33
f1
08
69
35
c6
41
0c
35
ea
19
c7
1b
ed
32
d5
d8
6b
d4
a9
1a
c9
09
cb
e5
aa
c3
18
e9
10
56
50
05
f1
41
ef
e9
f8
f6
52
59
eb
19
3d
e7
fc
06
fb
4c
a6
35
27
ff
bd
dc
ba
fb
2c
e7
c7
e6
21
5a
33
67
2d
01
0d
ee
21
ff
e1
0a
dc
5d
0c
47
10
b1
35
c9
e7
43
d7
6c
57
02
37
5f
23
4a
04
cd
51
eb
39
ed
e5
d7
f1
31
cf
38
13
e7
d7
53
6b
05
46
0e
df
c9
eb
6e
18
2c
30
6c
60
cb
3b
27
73
cb
36
73
44
e3
e3
c4
1e
0e
58
ef
23
4a
43
2d
2c
fb
68
c5
d6
71
65
e8
63
d9
d0
ec
49
e8
2a
6d
f2
61
1c
c9
18
cb
02
c5
e4
57
ff
0e
6f
df
32
40
e1
14
24
4f
c8
e7
10
66
21
0e
d8
3a
4f
2a
60
2d
f0
71
f1
06
1d
0b
ff
fa
08
d3
68
d6
69
54
e9
d8
70
6a
26
3f
d4
55
13
e8
13
55
d5
15
f5
29
df
08
eb
d7
d7
38
f3
44
0c
f1
49
d1
ce
65
5b
26
c9
df
c8
e1
1b
fe
1a
db
c3
4d
57
de
6e
04
dc
21
dc
36
f4
1c
e8
48
2d
e5
1a
42
5e
0d
eb
eb
0b
64
d7
0f
e3
26
6e
69
d3
d8
37
ef
d9
dc
40
3c
5e
65
6b
e7
c4
19
3b
ce
18
f3
57
4a
c5
e6
16
60
f3
6e
48
65
0b
13
04
3c
f9
ca
f3
ad
0d
f1
41
c7
2f
13
df
4c
e4
19
d2
33
e4
43
df
27
f3
0d
6d
1c
e3
ec
f7
c0
08
a7
47
e2
cf
a8
dc
47
20
77
01
56
ee
07
35
cc
df
da
4a
68
e6
56
e4
cf
e3
3f
2f
cc
29
14
a3
08
c5
28
28
bb
c7
4c
24
ce
6d
c5
d4
cb
db
52
dc
10
ec
e1
59
c4
41
0f
da
f1
f6
cb
c3
4a
d5
0b
ec
d6
b3
bf
9d
0b
1f
d5
06
fa
6d
35
e1
71
24
13
0f
45
c6
37
f6
3e
30
2e
cc
00
f9
30
d4
25
3c
9b
fc
3f
4f
14
fb
50
32
04
d0
03
70
2d
fc
cd
23
c1
d4
a9
f6
b3
a4
b8
c1
48
aa
a9
d2
0b
f1
64
32
d9
f4
0e
45
2f
34
2a
6c
d0
06
3c
bb
ff
18
c7
b1
d9
a4
f3
3c
1f
1e
b7
1b
41
48
58
fb
01
e4
67
39
3d
ce
56
4c
2d
4a
e8
4a
11
2d
26
e9
d9
22
02
01
ab
44
ea
38
2f
b2
46
1d
fe
61
69
1c
2f
63
28
19
fc
2a
c8
ee
3d
ba
2a
9f
35
2b
aa
d6
a3
b2
47
fc
a2
15
d4
ff
07
d4
3f
17
0d
16
43
19
17
b0
13
1f
cd
ff
07
38
3f
ea
c4
a5
2f
c0
d9
c0
0a
e3
bf
e3
e0
55
ef
1a
d4
e0
64
d4
c6
aa
ba
b0
e2
f1
cc
95
ce
d9
a9
b9
a3
f9
20
ab
a5
1c
40
42
1a
15
69
e2
3b
e7
69
6c
29
e2
b4
41
1e
b3
16
bd
48
9a
97
cc
23
9c
d1
bb
37
f0
2d
33
26
59
ca
2a
ce
2e
39
ea
60
e9
e6
f4
4c
bf
d8
39
14
c4
f8
3c
14
ed
17
1e
e3
4c
60
28
ca
e6
68
2a
2c
1d
71
35
c7
e8
c3
e9
3a
c0
b2
c7
d4
34
46
0a
9f
4c
a6
48
4a
35
41
54
4e
59
09
67
ff
05
f5
16
e8
de
3d
cb
d7
ee
25
2a
f8
a3
c9
15
09
ab
f8
46
f3
ef
dd
5a
ca
2c
e4
f0
52
ed
16
6c
17
a8
9e
fb
33
43
41
08
d2
f1
11
0d
99
28
ce
10
cc
08
e1
e9
0c
da
fb
dc
16
c2
e4
3a
f3
0e
2f
f8
0b
27
36
c3
cb
ea
e1
44
f6
b4
32
27
ff
d6
73
e9
40
1c
3e
1a
e0
40
f0
d1
db
47
2c
a6
ec
27
a4
a6
a0
fe
dd
fa
9c
1d
f3
41
22
d5
3f
2f
6c
66
f7
64
f8
d2
6e
6e
3f
e1
2e
22
d9
e7
ac
14
26
43
d2
1b
e3
c6
c6
68
64
12
55
41
23
cf
d8
d1
34
0f
06
cd
59
1f
3d
1f
a6
b9
ea
23
a9
30
aa
dc
07
c8
fd
f6
44
27
4f
dc
e5
6f
2d
c8
ef
df
2a
01
ea
0d
e4
f6
24
46
1b
47
5e
f3
06
5c
3a
63
c6
05
53
c3
69
5d
21
52
62
de
4a
32
f1
70
24
0a
ee
4a
fd
3b
5a
c6
f4
16
48
f2
25
d7
13
23
40
00
47
e5
ff
3f
59
d6
fc
48
05
48
04
ef
cd
1b
09
f5
db
29
f2
0b
5b
12
72
12
70
c9
d1
ed
56
56
f0
c6
cb
fc
73
27
c8
c6
cb
ed
14
6f
18
18
05
40
d1
69
5c
de
07
3d
70
de
d4
70
d4
c5
d9
42
e7
5a
d2
da
56
25
33
68
e0
ff
37
4b
d4
35
07
c6
4d
15
54
e4
19
f7
6b
df
5f
ef
c7
47
ef
36
69
05
e9
3d
c3
67
c6
2b
13
26
4c
d0
2e
35
3b
e0
e7
30
65
ec
37
d9
69
69
2a
4a
67
0d
4c
49
f9
db
02
0b
53
de
72
22
f8
d0
e8
51
69
f5
48
fc
40
03
36
f0
64
f4
55
de
6c
6a
21
58
6b
5b
e9
df
db
63
52
f7
1f
e3
bc
b9
34
b0
eb
57
fe
34
3f
28
4a
31
f4
f3
72
fc
2f
4f
d1
ea
cd
27
13
69
20
dc
ad
ca
e0
1f
3e
34
1f
0f
dc
d9
38
12
d1
07
d2
36
44
1e
32
0a
6e
09
2e
41
42
12
d3
0e
34
16
d2
45
35
e0
ef
19
15
e2
5a
34
cf
23
03
cc
0e
62
eb
cc
4d
09
5d
03
09
42
d4
47
b8
39
f6
ae
4c
aa
a3
dd
f0
bc
42
0e
70
40
c3
42
4d
3c
35
30
f6
70
5e
c6
27
e8
f5
02
b0
1b
da
dd
34
df
14
bf
ff
2a
b4
48
fd
0a
6c
13
f9
e8
c2
4d
05
14
31
d8
24
ea
d4
ec
1f
0a
c5
ec
0c
4c
f0
be
cf
2f
a9
c9
d5
6f
c5
45
40
cc
06
cd
1c
70
0e
1f
f0
03
49
f2
ea
c8
e9
a4
b9
32
a4
35
d9
fc
bc
43
66
6b
32
c0
dc
17
cb
e4
f5
55
15
f3
db
27
e6
a4
38
34
02
01
12
31
ed
43
47
d9
31
cc
e3
dc
f0
e2
21
28
5b
ee
0d
3d
07
3a
24
35
ad
32
db
a3
d3
b6
18
a0
b5
2d
ec
3e
f1
39
20
14
3a
f8
30
c3
56
de
fe
d9
33
e7
ac
d3
e3
0e
1e
ab
18
ec
05
45
f5
c6
ce
ec
ff
e0
05
4e
fe
4b
68
0c
64
6e
30
f6
4c
0f
33
47
af
15
22
34
f6
e3
fc
37
11
32
05
c1
1a
2a
1f
c9
02
34
fa
52
f9
02
47
d8
c3
3a
bc
c0
d2
09
4a
a0
de
d7
e7
ad
08
fe
f3
0c
0d
3c
21
5b
d0
48
d1
d8
5d
57
ce
fb
d2
f7
3e
c9
2c
c7
01
05
48
e1
45
e1
a1
c4
c7
25
d6
34
18
33
c5
f5
d3
c9
41
27
cc
e5
55
a0
46
da
27
0d
03
de
3d
9d
c3
bd
cb
30
e1
46
2b
05
c3
dd
60
f4
26
1b
6f
51
29
1f
f6
c6
de
f0
2e
17
d5
b2
f2
42
f8
1a
ed
3a
c0
02
36
33
0c
52
ff
5e
07
0e
3f
de
2b
d1
41
f5
de
2c
2e
f7
cc
1d
26
d1
1f
c4
9f
01
e0
bd
c2
32
d8
3c
fe
14
fd
33
23
34
4b
1d
47
ce
37
3d
ac
af
f4
20
a5
0c
45
28
1a
4c
46
bd
d6
c2
f5
e8
41
cc
55
e2
34
de
3c
2f
1d
c7
3d
c2
3c
3f
d4
10
f4
03
dc
30
d6
39
33
a6
cb
bb
5b
cb
49
d5
c1
ec
5b
41
27
d7
31
15
26
fb
4c
36
fc
ae
b6
f7
b9
13
9a
97
4b
4a
40
28
27
5d
f3
03
40
13
36
2c
c8
e8
f3
2b
09
f8
ac
ad
2e
be
da
2f
e7
21
c7
3b
e2
6d
58
c5
ca
cd
1b
63
2d
41
70
67
cd
2e
41
0c
1f
af
f1
a5
4d
4d
e8
49
a1
d0
2c
36
e2
ee
ee
1c
0e
49
6b
11
31
d3
69
54
63
5e
44
2c
f7
41
f9
4a
43
c3
e0
d0
43
e5
2f
f0
ea
cd
2f
fe
53
2f
c4
09
01
37
1a
50
1b
cc
0d
05
57
18
ef
cf
2c
41
cc
12
24
e5
1e
48
08
00
05
03
cf
e3
ea
15
65
6c
04
e9
e7
08
09
e1
10
f6
14
40
c7
09
f4
db
17
17
f4
f5
17
0a
c5
07
4b
1e
67
0c
6c
2d
fd
01
d3
66
cc
50
c3
68
5c
d5
2e
2f
5e
f7
2d
c0
07
00
e0
3d
0c
f1
6d
fa
f8
59
f6
39
4c
56
fe
f1
f1
59
39
3a
f2
ee
c3
ce
03
cf
fd
1c
04
d1
21
e1
4c
26
c5
33
e2
fb
1f
34
43
1f
5d
5c
55
cc
5d
6c
f7
03
f7
65
fe
fc
16
63
19
55
53
1d
04
33
f9
5a
12
ef
c7
3c
5d
df
c8
2d
30
5c
e6
f2
ef
de
1c
f3
6e
68
10
e1
45
ea
2d
1c
ea
e9
d9
63
33
dd
4f
e0
37
0c
f8
68
18
2a
e4
6e
69
fe
d5
65
3b
06
34
60
5c
36
01
d8
e3
53
62
55
45
20
15
d6
da
51
28
0f
13
5a
cc
14
5d
d0
4a
0d
18
2f
be
2d
e3
4e
f1
73
e0
0a
63
4a
67
61
df
f7
4b
f2
06
c3
02
2e
18
f0
37
23
cb
b4
34
ef
2a
ca
a5
bb
fe
2d
2d
16
17
62
6b
46
d6
12
11
c5
34
3d
73
1b
0b
12
ce
ec
ce
f2
34
dd
3d
fd
df
3d
a7
24
3a
da
c9
ed
f1
d3
06
ea
55
20
32
ed
d5
dd
bd
c8
3d
d6
bc
16
c6
1f
b8
a5
2f
41
e5
ef
f8
19
40
c7
ef
63
5a
dc
6c
29
1b
70
25
69
eb
30
c4
14
b2
02
14
bc
40
f0
9a
ab
ad
1e
e0
51
61
d3
2f
31
f8
44
15
0b
d5
2a
26
f6
25
ec
ef
09
c1
fd
00
ea
19
d0
30
1a
c7
f1
01
12
1b
0f
1f
73
1f
31
31
53
14
f3
36
be
af
e4
17
4f
f0
e8
39
d0
a2
9d
9e
42
44
ac
51
24
04
4c
58
d2
22
1d
74
0f
66
cf
46
ef
ba
31
f0
c2
d9
db
fa
3d
1e
3c
f7
3c
c7
4d
5f
c9
d9
df
45
f5
0b
18
04
53
f1
69
01
07
dd
eb
b7
ba
1d
ea
ab
3d
3b
1b
3c
e0
00
39
ca
d9
25
1e
6c
11
20
55
20
de
21
1e
cb
42
c0
e9
e9
fb
41
b1
14
23
c5
2e
d4
bf
a3
14
ba
e3
26
64
74
3e
64
24
f2
c4
57
5d
ea
06
2a
3b
fd
c5
9b
e1
dc
b3
2a
03
d7
21
b5
f0
28
eb
34
0d
37
d7
71
55
5a
26
e7
35
f1
4d
1a
1c
e8
b7
3c
b1
00
18
da
18
f1
0f
44
b7
ff
d1
22
c2
15
f0
e8
d9
5c
72
61
04
de
da
e1
f1
44
c3
ef
0a
09
43
a0
3b
a9
c9
d3
e4
d5
3c
3f
5c
5d
29
32
26
ce
fc
eb
66
26
26
52
14
49
b2
0c
2d
f4
eb
34
1b
e2
37
b8
2a
4d
2a
d7
5a
63
0c
c9
cd
05
ff
21
53
14
06
2e
a8
17
08
46
a7
ce
d0
f8
30
ae
29
ab
e9
33
68
62
31
2b
2d
32
28
c8
68
45
1f
00
f1
d7
0c
db
a1
e7
eb
e0
2b
cc
2e
2c
49
45
03
bb
43
e2
17
f3
05
39
c7
d8
d5
c7
05
d7
c1
09
e0
bb
aa
d1
e9
a6
e2
ea
37
c6
49
fb
b6
b3
36
e2
fc
e0
f0
44
cf
d9
f6
3c
f8
e4
03
41
aa
b3
1e
e4
20
f2
c9
f5
22
b4
1b
1b
25
10
e5
39
2a
f9
19
e4
3a
1f
54
44
42
51
a8
3a
31
af
ef
1d
a2
3e
ae
04
be
df
13
59
2d
ba
ef
fe
01
c6
eb
6d
32
f8
c8
6d
d4
44
4f
15
05
06
16
3e
0d
9f
37
da
43
16
e8
3f
0d
e1
24
73
40
4c
64
e2
e0
3c
5f
fe
51
3a
ea
19
f8
d0
28
eb
e7
e0
04
55
05
db
58
d5
b6
58
4d
71
c9
28
53
d7
0e
ce
6a
d8
29
46
02
f7
5b
0b
74
db
f4
2f
72
53
ef
f7
58
59
d2
01
5f
d6
d8
3b
d8
05
0c
20
56
d3
26
44
f8
cb
d1
42
18
5f
63
c4
f2
f3
1a
1c
4c
5e
22
c6
4f
3b
d4
2d
da
30
53
ef
68
10
09
6c
e7
f8
06
c2
3a
41
2a
39
6c
1c
44
5f
15
e1
ee
27
1f
34
ee
28
e4
09
33
f5
24
e9
6e
42
1b
27
4a
48
4b
d6
4c
e3
ea
55
e4
3c
ca
15
f8
25
cd
f4
49
5a
5b
ef
1f
e7
50
57
0e
67
c6
14
d0
32
3a
3a
55
15
5d
fc
5f
4b
56
49
e6
60
d3
20
f8
cb
ca
46
40
e4
52
4f
41
f2
e5
17
09
05
d1
c5
3b
f2
30
17
33
d1
5e
31
3d
dd
32
68
1b
41
e2
66
17
61
4b
36
3c
db
40
0f
39
f4
33
58
0c
1e
c1
cc
d5
00
00
df
f3
68
60
1e
6b
eb
18
6e
29
2a
dc
12
33
cd
55
e4
31
63
16
18
b1
a9
45
da
45
22
5a
6e
14
04
da
60
ed
6f
c5
20
f4
e6
dd
09
2c
d5
f7
25
cf
ee
e4
36
d8
45
e1
19
23
e4
d0
e1
c1
d4
c5
73
d8
4c
2b
db
28
3b
c4
60
2a
56
08
f2
23
29
e7
a6
e8
cd
e2
ab
fb
3a
05
a5
e0
41
ec
3d
09
2e
23
54
f0
da
02
02
59
69
0d
3e
0b
e1
dd
10
36
d8
b7
da
30
9a
49
3e
c5
48
10
61
da
fa
58
c9
18
ed
c9
fd
3c
12
e7
9e
1e
3a
db
d4
d5
17
3f
a6
df
0c
a1
e5
9e
1d
e5
5f
4e
f6
da
e1
53
f6
f5
f8
3f
66
0f
4e
e5
2a
d3
f1
f2
9f
be
a4
e7
46
27
bb
45
be
f6
09
02
45
4f
ce
23
1f
d0
f2
03
e6
2f
2d
b9
fc
43
dd
b7
ee
fa
a7
00
f7
3b
e1
40
c4
6c
f1
04
5c
fd
14
52
18
55
51
4b
6b
10
eb
cc
04
24
04
d4
03
db
33
cc
17
b6
de
1e
2c
38
4b
d9
4b
fd
1e
d4
09
10
f1
68
0c
21
a0
b5
f5
2c
fa
c3
de
1f
25
e1
c6
a6
0b
0b
a0
49
ff
ea
e0
e1
08
e7
65
c2
66
d5
e9
08
09
45
a3
3a
c8
22
35
c6
2f
18
29
f5
4a
b8
33
10
39
54
21
11
33
27
13
f6
22
1a
e5
16
bb
19
40
b8
3e
fb
f0
27
c0
2a
cc
39
a9
3b
de
09
c3
26
5a
29
ca
49
e7
6e
e0
12
68
da
f2
1d
fb
3e
e4
c3
bb
2e
ef
12
4c
c6
e7
38
ee
1f
d1
2e
2d
19
51
f4
71
48
f7
53
28
24
bb
21
fe
e1
d8
b5
d9
a5
b8
00
e5
17
24
f4
bc
3c
29
27
d6
4a
c3
6c
19
ec
67
d4
11
cd
1c
12
01
32
fc
e5
cc
f4
a9
d3
32
b0
9b
0a
04
0d
23
11
2a
e9
70
66
5d
5d
c5
f9
f1
fa
dc
05
4a
ca
42
05
10
d1
c3
18
2c
08
0f
16
10
28
1a
68
d7
65
f6
47
5d
21
4a
cd
da
43
da
c6
2d
ba
40
35
be
0a
1e
f3
fc
49
32
e0
d9
51
3f
39
fa
57
30
36
58
26
30
6e
61
d3
12
d1
e8
fa
0c
4a
e5
44
a8
2c
a8
41
16
ab
b0
d9
5d
6d
0f
cc
c6
41
50
52
39
e7
5b
cb
e5
c8
1d
be
09
15
9f
49
d4
e2
e3
34
02
1a
5a
d0
cb
6f
d9
c9
6e
36
5a
5f
ee
f3
12
e1
21
31
38
db
f5
f1
0c
3a
25
45
d1
e5
f6
5d
d0
50
43
dd
35
fe
5e
2f
18
5d
0f
14
5e
f4
34
c3
29
ac
cb
f3
11
b3
e1
f6
02
d0
fe
e8
f4
0a
2c
4d
d2
34
ff
56
f2
f4
c4
60
25
54
f7
e1
03
fa
e9
d6
d9
22
2f
3f
6f
20
30
51
3d
1c
f5
cd
2a
cf
5a
d0
ee
2c
3b
27
21
1b
e9
e2
f1
31
f4
38
f8
ee
3d
41
2f
38
06
00
60
17
d2
ed
71
ea
4c
2c
e2
20
72
23
3d
4b
d8
11
fe
e6
02
00
fb
1e
e8
5b
4e
e6
26
ea
4d
49
4f
01
e5
1d
37
0b
27
24
67
e9
5f
27
36
72
f0
5f
5d
06
24
e0
1a
1e
5d
22
f6
c7
0e
c6
1d
f0
dd
38
11
5c
e7
2d
ef
2d
ce
36
1c
fe
c7
18
c8
6b
c6
1f
58
56
1d
f1
5a
18
30
12
60
f0
27
44
f6
f7
21
63
f8
0d
63
50
18
c2
5f
00
cd
d0
11
5b
f7
6e
51
3d
4f
eb
26
6d
e1
4f
5d
ec
ec
3d
45
05
cd
f9
cf
53
ed
e6
dd
60
fe
4e
f2
dd
42
08
18
12
0d
32
e1
1a
c7
08
da
4c
21
c6
dc
27
dd
fd
da
ed
df
f0
f6
47
61
d4
39
f5
61
d4
21
0b
5f
26
ec
28
fd
4e
62
cf
0d
0b
11
45
e7
2c
03
32
33
41
bf
ee
f5
f9
e8
e2
b5
4c
1f
06
27
13
2d
f7
f1
6f
37
10
c8
3d
46
24
d7
26
19
05
60
01
5d
d0
4c
af
33
3a
da
e5
fd
cb
a1
b4
38
fa
5e
2b
3a
d8
55
fe
6b
68
fd
65
60
0f
5c
10
38
b9
b4
34
b8
1f
b0
08
0f
3a
3e
00
1e
0f
32
2b
1a
1d
66
cb
4c
ee
3f
21
f8
1b
25
fb
0e
97
3a
0e
39
44
34
35
0d
2d
b5
d5
16
ca
e8
3c
37
4a
f4
58
28
1f
30
4e
0a
26
43
e7
cb
17
44
f3
f1
28
a1
28
fa
ea
a6
01
26
10
2d
57
71
3b
4f
c9
e3
ea
ce
f4
c9
2b
2e
fb
04
be
dc
03
ee
ad
e9
14
ca
c2
4c
23
cd
f1
3b
2e
4a
6f
47
0a
1e
ca
57
ca
da
5d
b1
ac
cc
a5
48
0b
18
36
d0
b6
f7
3c
ed
f2
df
1a
29
d6
5a
dd
df
6c
d6
71
51
ff
11
e0
e5
bc
f5
b3
37
07
47
b7
2b
ec
a0
1e
12
e9
14
3c
30
c7
c7
2c
2f
33
eb
ed
03
21
ca
66
06
ae
30
ce
18
ff
bd
25
e7
f3
d2
c1
05
1f
3a
cc
51
26
15
15
fb
1e
1b
51
f9
e5
39
ee
08
22
d0
bf
1b
a4
2d
f1
b1
d1
41
3f
9a
a5
b9
2b
c4
3e
cf
0b
e2
62
5a
28
dd
65
e9
c1
de
03
16
e6
f7
bd
c7
e3
4d
ae
f8
42
0a
30
06
e8
ba
43
c8
ce
c9
f5
2c
e9
02
1b
b8
35
f3
cb
e5
f2
d4
bb
29
36
b9
a0
00
ca
d3
ce
d2
d1
43
ea
ea
29
15
0c
f6
1f
3f
c9
1a
32
10
35
0f
43
c4
e8
05
c0
09
d4
3f
f2
26
9b
f2
09
38
09
52
01
57
d1
dd
66
05
e9
31
01
2a
c8
ff
d7
dd
3c
ca
bb
d4
c3
c8
38
22
29
48
d8
03
55
3c
24
e1
72
de
cf
04
44
2a
e6
08
f9
1b
c4
fa
a1
9a
1b
33
ec
a7
08
0a
b1
37
24
e3
2b
19
05
2d
6c
16
43
d9
41
0b
eb
01
9d
e4
db
29
31
ba
49
44
f6
15
19
fc
1d
fc
c5
55
d2
14
d4
e3
66
67
2f
d7
d3
1b
dc
a3
4c
12
2d
eb
ae
ee
d9
da
39
e4
ae
1c
f8
01
5c
63
66
df
30
69
1f
cb
35
3a
49
1a
ac
0d
a9
d3
46
a7
fb
be
30
cd
c9
30
0a
33
46
d5
62
fc
3f
17
35
02
60
3f
0c
f5
fe
40
e8
1a
d1
ae
a2
bf
f1
fb
16
16
b8
cf
0d
1c
30
f8
df
00
63
0a
f4
21
6d
e7
e6
74
70
d6
15
43
0b
f1
a0
1c
ef
e6
a7
2b
cc
64
2a
16
da
3b
ea
da
ce
4b
21
d0
57
13
d9
f3
fb
4e
14
1b
47
47
c0
33
ac
47
3b
f4
d8
da
0b
19
5f
06
5d
70
41
e1
e5
10
dd
73
f6
53
08
4c
1b
11
35
28
5c
63
51
67
3c
fc
17
5c
44
54
de
5a
f6
ce
72
fe
57
42
57
60
dd
0f
5a
d2
d3
dc
71
2f
40
6e
25
d8
3e
33
f5
e1
53
c8
08
fe
c9
13
39
c7
d7
4e
26
cd
6d
d9
db
6a
f9
d9
f7
61
5f
f6
10
02
c9
5d
f9
c3
53
f0
51
5c
5f
ef
f9
1b
fb
e3
d0
e3
02
ef
29
ee
57
37
56
f3
0f
3e
36
38
56
01
29
fb
15
6f
15
cc
21
f1
12
54
6a
19
48
38
49
50
fc
3f
f9
02
1b
6c
05
4c
c9
4b
5c
61
4b
e7
fd
d4
28
25
3d
c9
5d
5c
52
2b
6d
cc
5e
be
31
c7
19
61
f7
1a
c4
3b
e2
31
47
6e
cd
c7
c2
4c
d8
38
58
63
06
c0
6f
40
f2
de
69
55
eb
f0
28
18
ea
ce
5e
3a
3c
1c
ec
f4
3e
4b
5f
10
14
16
c1
53
39
39
15
45
e3
6c
0c
16
f2
1e
5c
47
15
e2
42
ae
0b
39
c2
c2
c0
f4
53
20
54
0d
61
01
1d
64
be
16
6c
4d
46
de
00
28
3d
36
f9
47
2d
d8
c2
11
32
3d
e8
1e
4b
3d
dd
15
3b
fb
3e
ca
6a
30
f9
6e
2c
61
0c
c0
3d
27
d3
18
ef
a1
c7
2c
4f
f5
a0
9e
bc
be
37
e4
c8
4e
27
d3
52
1a
ce
47
56
0a
d7
00
dd
16
e1
13
04
ea
df
cc
e1
10
d4
b9
23
aa
00
47
e6
39
01
03
56
63
07
df
2e
e5
24
28
cd
33
2a
d6
d2
3f
c9
49
f9
0a
c1
e2
39
ce
4a
ff
3b
d4
6d
df
0c
08
fc
6e
0a
f5
29
63
ff
c3
48
d1
31
a2
01
b0
e5
08
dc
c5
ea
f2
0a
03
46
c9
4b
45
55
c9
f0
de
13
16
32
57
42
b6
26
43
e8
fc
cc
2b
fc
3b
38
da
a6
e2
e0
f8
de
f2
2f
47
43
da
06
3e
3b
1e
d2
3a
38
a9
05
b6
36
32
14
fa
1c
e4
c0
37
21
16
12
c3
36
31
19
c9
48
4f
2e
1f
48
52
4c
d4
1a
04
08
b1
15
aa
2e
4c
00
a7
4d
e4
c2
a1
03
2c
01
45
1a
2d
53
36
11
6e
c3
37
58
fa
08
bf
ca
fc
a8
b0
08
0c
a7
f0
b7
32
0d
d6
d8
38
ac
d5
bf
29
39
60
c4
06
e7
d6
cc
cd
0c
1c
fc
17
37
09
f2
d1
10
c2
e6
18
ae
e7
bd
d2
3a
31
21
27
25
3d
36
0d
5a
4e
1d
4b
bc
d9
46
37
17
2e
0b
f7
d4
e9
12
ec
c7
c2
fe
c0
bd
df
10
df
ef
46
27
3e
40
d9
dd
0c
22
16
0e
a8
d9
e7
4e
23
44
2a
bc
25
50
f4
0b
11
47
0e
c4
34
f4
e6
04
58
cb
c0
62
0a
29
af
d1
04
d3
dd
41
41
29
2c
bb
d4
e8
43
2d
d7
b9
d3
33
da
1a
2d
fa
d0
e0
c5
1e
61
ae
3e
e2
32
44
16
0f
ac
28
07
0c
4b
48
e1
46
0b
c0
e7
38
1b
d1
48
5b
60
cc
ca
3d
4b
ce
21
49
17
d1
f7
29
bc
cc
19
d3
b3
df
07
45
bd
14
d2
ee
5e
6c
d9
d4
44
ff
23
ea
60
d7
43
c1
dc
ab
e3
2c
9f
a3
be
df
f5
3b
a9
4a
b3
f1
ea
4a
4a
42
c6
e9
e8
eb
07
eb
c8
d5
39
b1
2b
4c
f0
49
c1
9c
d0
32
ae
b5
e6
ba
f5
c1
bc
0e
4c
46
54
1d
14
ea
59
ec
fa
2b
e0
20
e7
b8
ff
e3
38
34
eb
20
22
4a
20
a2
b7
06
c8
45
60
5b
f4
c9
f9
64
25
10
f1
01
f0
2d
f6
e4
0c
4a
dd
48
bc
ee
e5
55
a0
22
e6
d4
e5
12
14
db
1a
3f
48
1c
5a
4a
58
5c
3c
15
f7
ed
1c
d5
4a
02
21
2f
e6
3c
25
25
d8
3d
61
2c
d2
d7
c8
0c
20
01
ec
29
25
e2
f1
fd
41
28
2b
ca
1b
de
65
10
3a
ed
fa
26
50
0a
f2
ee
f3
26
14
ef
0b
e2
c0
fe
52
10
bf
58
49
3a
15
5d
f8
eb
d6
51
d5
69
4e
f5
2e
0f
d5
11
d8
3f
24
1b
45
61
5d
5b
28
30
68
e7
2e
0f
56
2e
e1
0e
4b
68
f6
ec
62
d1
fa
0a
27
17
e2
18
58
5c
e4
21
fa
5a
46
e5
4e
31
3d
4e
5f
40
0d
65
41
73
2d
18
08
d3
5e
5b
17
e2
cd
73
fe
4d
6f
4b
f6
14
53
72
05
e2
d8
5e
39
08
ca
1e
10
cc
d3
69
dc
cf
41
c8
5b
21
01
3d
45
e9
01
f2
ca
67
d4
c3
4c
37
1d
0c
c6
71
ca
31
2f
ee
14
3d
15
d0
d8
55
21
ea
43
d5
15
ef
f0
2f
32
5c
41
d8
52
31
13
68
63
e7
f0
2b
c3
38
e5
4b
62
ce
2f
4c
73
3a
0c
66
3d
33
5a
e3
59
4f
00
ee
19
0a
3d
41
37
a6
ca
36
41
48
96
da
33
12
ca
39
e8
70
fa
0d
66
f4
4e
e7
6c
f0
04
36
c4
53
b6
bd
bc
eb
2b
eb
0e
3f
43
c0
af
e8
2a
19
42
0c
62
ee
50
34
57
0c
1f
3d
5a
2b
5f
04
10
20
e5
df
f0
b1
d4
e0
42
fc
21
16
f7
ba
2b
65
1a
c3
27
6f
73
42
4e
28
6e
14
3b
fc
bc
3f
07
d0
f7
14
b7
3b
f9
0a
26
28
08
b1
b3
64
58
dd
43
6f
1b
55
eb
fd
00
6c
46
39
3a
f6
ce
fe
1a
e1
e0
de
9a
c2
d5
31
ff
3e
49
d1
31
3a
cd
5a
d3
5e
00
f3
0a
f7
df
0c
c2
aa
fb
25
2b
43
07
ea
08
c1
2c
ee
33
be
46
f4
fc
05
d4
39
0d
26
5a
2a
09
cd
43
45
d6
ee
07
12
3c
ed
09
43
fa
04
b1
b4
ef
01
14
49
f1
71
17
e1
cd
e2
5a
16
ff
3b
e7
1b
c9
e9
b9
ba
1b
9d
fd
b3
c6
02
bc
e3
ea
41
e9
2e
63
0b
d7
4f
65
64
ef
62
ef
4c
e7
03
d5
df
28
06
2a
2a
08
3b
e8
cb
45
cf
12
d4
3d
6b
46
ec
6a
21
55
59
75
45
03
eb
5a
35
fa
b9
3c
28
2b
f9
11
0f
e9
a3
d2
27
1e
cd
3b
32
e6
1d
e3
f7
dc
4c
d0
47
35
28
ba
c3
3a
39
1f
0b
e7
0b
32
cc
eb
1d
e1
3e
30
28
42
26
e3
eb
f2
22
d7
ca
31
73
11
de
ce
db
40
9b
bb
0a
3a
aa
f6
30
d2
c9
f4
07
f3
d8
0a
10
2d
4e
04
75
e4
fd
5c
d1
59
52
13
12
f2
bf
e9
f9
fc
bd
a9
aa
3c
40
04
f0
ef
ef
0c
5d
3d
e9
27
fc
c3
47
02
07
cb
f7
ff
17
0e
f3
bb
26
e7
01
2d
f1
0b
c6
f0
18
d2
cb
74
d0
fe
5c
e1
54
dd
e9
21
f6
fe
e9
08
0b
b3
c0
36
e7
2b
13
f5
0c
43
d8
f5
05
fb
31
23
cf
06
d6
34
64
6a
f4
10
f5
1e
b5
df
c2
c3
c7
25
17
44
1f
ec
c9
04
d2
dc
44
06
f9
c3
55
ca
c8
d2
0d
16
08
f7
41
34
36
e6
2b
dc
14
25
b6
dc
97
03
f5
27
1d
aa
de
ea
e7
06
f0
10
4e
14
2e
24
19
56
15
c0
df
11
9c
c1
bb
26
e4
dc
37
32
ed
2f
b0
55
1a
5e
68
02
d3
f5
03
e2
fc
15
e3
f2
41
0f
fa
93
20
35
d0
25
e2
3a
fd
e3
ed
2d
07
28
f8
c4
76
2c
cd
fe
46
eb
0c
36
e6
49
35
19
11
f2
30
2a
9a
a9
bb
b3
03
f1
bb
fc
e9
3a
df
20
6d
d2
fc
15
e8
c8
37
ef
ed
da
fb
10
41
da
27
0a
fe
e6
20
1f
56
e0
f8
e2
53
3c
31
ee
0d
0f
1a
23
12
42
30
f7
6f
eb
16
66
d3
10
26
ed
ea
cb
e8
d2
f6
30
56
da
c9
6b
2d
d0
67
12
d9
fc
16
c9
68
72
64
cd
da
70
1a
d0
48
08
10
2c
cf
59
0c
57
e6
17
07
ef
16
57
6f
71
6a
1e
02
f1
f5
65
55
cf
d6
37
66
f1
02
5d
2c
28
6f
ee
32
28
cf
63
43
03
31
d6
56
41
56
25
5e
6c
f6
3a
54
39
3a
dd
f3
13
29
e8
2c
39
03
04
6b
f9
e7
ff
63
c8
e9
2c
21
37
cf
f7
fe
d8
f7
0e
51
1a
ee
6e
0c
c9
e4
d5
18
d2
ec
fb
d3
4a
2b
16
fb
ea
f1
45
ee
d6
18
1f
4e
26
ee
cc
0b
d8
dc
52
c2
69
e0
f7
28
61
49
53
5e
b6
60
10
27
e7
04
48
c1
52
f5
5b
52
69
4a
69
ca
f3
6f
19
44
41
2c
ee
66
68
d6
ca
f0
11
d7
b4
cc
4d
fb
4c
d8
c2
ed
17
4c
6d
3f
d7
ce
6a
cf
3f
61
10
35
c7
0a
22
b2
b6
d8
2a
13
0e
4d
e9
3f
0f
3b
ce
2c
04
65
28
4a
c8
18
50
e0
31
52
59
d8
3b
09
4d
ea
e0
e3
e4
c9
07
a7
48
a3
ea
2c
d6
03
08
f4
54
65
fe
cf
00
6e
f7
eb
51
d7
45
10
c2
d3
e0
0f
36
ac
20
23
a5
f1
2d
ae
28
cf
06
1c
33
f1
1a
d4
17
60
3b
fb
4f
c2
fd
fb
e6
c6
f5
b0
ae
40
c4
d2
d9
41
4b
04
d5
dd
6e
2a
41
df
fa
d1
0d
c6
39
c9
d2
2d
22
ee
1c
1e
bc
9f
ea
1e
18
3b
ab
ec
0d
07
c5
0d
ca
13
dc
fb
da
0d
c7
42
13
d2
c1
43
e4
b0
e8
38
16
a8
dc
28
ba
48
f4
ac
21
f6
38
d7
5b
f3
0b
2d
29
20
30
ce
2b
27
19
07
ba
d5
10
e9
2c
47
0e
34
9d
aa
3d
ae
40
de
70
f7
61
da
01
45
39
c4
15
cc
f4
42
35
f4
db
58
2a
3e
c2
09
d2
dc
37
db
44
24
e3
ba
36
4a
c9
c5
1c
67
bf
1c
eb
04
2c
bb
9e
20
4d
be
04
e8
c2
ec
c6
e2
39
b4
10
0c
29
f9
e7
02
53
3b
11
e3
0e
64
65
01
c6
a9
b0
3d
de
3a
df
d2
cf
27
1f
25
ba
ef
19
b5
e9
49
63
67
16
c4
ef
26
2b
1d
3d
0a
ea
42
ef
e6
fc
30
ca
14
3a
aa
dd
ce
44
35
e3
a4
a1
f1
ca
c0
f3
f2
38
d6
41
f9
0d
00
39
ef
02
26
b0
50
9d
09
19
da
00
bb
26
ae
3a
53
f7
c3
f8
09
fd
45
2f
fd
26
e8
f0
d2
3a
a1
c5
49
bb
00
09
df
aa
ef
e7
b1
c2
44
6b
51
de
5f
f7
21
20
39
52
c0
ca
23
fc
d3
e8
31
e9
d8
26
da
bd
49
2d
d5
f9
bb
05
f2
c8
23
0d
06
ce
5e
45
d5
ee
51
0c
04
e2
4c
e9
06
d6
a3
13
ef
d3
0a
37
10
2f
ae
34
13
21
02
37
b5
db
4d
51
29
be
39
c6
27
f1
d3
16
2b
26
17
eb
ec
02
f5
e8
23
b3
dc
3b
0f
ee
00
28
c3
4f
62
1f
36
00
cf
df
c1
dd
17
06
49
d5
bf
1f
03
9e
d6
2a
30
3d
16
b6
1e
bd
29
4c
50
18
c7
1b
4c
5f
16
3d
19
3b
08
42
e6
13
33
b9
9e
a6
2a
ca
b8
39
e6
e6
41
aa
1d
40
38
43
25
68
06
66
4f
e0
43
fe
fe
2c
38
ed
13
b9
dd
d0
f3
1c
1e
fc
2a
0b
e5
36
fa
af
42
fc
2b
54
d1
eb
18
01
48
6b
07
d9
4a
15
47
27
d5
f3
04
ff
1f
c7
04
36
eb
f4
df
0a
e7
ec
e9
e2
46
11
f4
01
d2
cc
f9
fc
17
6c
5f
00
fb
f3
e4
34
d8
57
fa
11
f1
cf
22
e4
52
6d
e1
1c
6e
63
3d
c8
60
44
54
65
65
bd
00
42
5d
3d
65
55
da
63
40
6d
51
32
25
4b
fe
33
f0
c7
14
0e
3f
6a
35
18
0e
cb
22
33
f1
c1
5b
36
63
08
28
16
27
57
5c
35
ed
18
03
ed
0d
26
ec
17
5a
68
f2
c1
40
49
4c
6b
f2
61
0b
24
4f
5f
0b
68
ca
2f
05
6f
ec
37
45
33
17
61
2e
39
63
33
00
c5
54
e9
62
4f
39
c8
24
64
e3
f4
3a
62
55
25
d8
3b
5e
5b
e3
fe
39
fe
38
2a
47
44
e7
39
3b
6f
fe
5a
4f
21
34
dc
e2
0d
c5
3a
1a
50
2a
f1
de
ec
43
4d
68
e0
52
17
cc
67
d9
d4
f6
ff
4d
25
1d
d8
2f
5e
6a
5e
56
02
ca
fe
ff
10
da
de
d0
fd
0f
df
f0
35
2a
0e
2f
f5
0d
6d
ec
34
13
d9
36
55
64
22
0a
d3
20
66
71
5a
de
dc
66
62
61
76
4b
06
60
69
35
28
f8
6b
43
0c
05
e1
dd
49
3f
b9
da
dd
b6
ef
5a
4a
dc
5c
4c
c9
63
55
e5
05
e6
fa
65
1f
2f
f5
48
04
61
30
0f
04
c1
13
ac
0a
f0
dc
f0
e4
04
f4
49
74
f1
53
37
2c
d6
d6
15
df
04
55
2f
54
bf
fe
f6
de
33
3b
ce
d8
d4
2e
a6
12
10
d2
e6
1e
cf
68
e3
fc
61
3e
04
d1
f4
71
0c
f5
20
04
21
d7
41
3c
31
d3
10
f2
c0
34
ac
a8
54
3f
04
d1
4b
d8
4e
22
04
59
03
d6
57
c3
f4
9c
df
dc
1c
3e
b6
a6
36
09
11
b1
39
16
0d
0a
6b
0f
3b
28
2f
d9
35
06
39
52
1e
c3
14
fc
11
bf
e7
44
42
d3
24
0b
04
28
da
01
31
cb
6b
38
ef
3d
58
da
06
6b
68
f6
e9
48
a6
1e
dc
f6
37
a2
21
b8
fc
ce
37
d7
b8
f8
cb
36
6b
d9
e5
6b
64
06
ce
ee
4f
3b
54
1e
29
09
c2
a0
46
3d
f7
ef
c9
2a
47
3a
a0
fe
1e
12
e4
47
e1
d7
11
1c
da
ef
66
d1
c8
f9
e8
02
17
e5
d9
ff
42
16
c3
a8
17
e2
3b
5d
03
e9
d3
35
c4
38
11
14
5c
04
0c
47
d4
c8
3c
b6
a0
a4
b1
e1
18
12
b6
14
b4
2f
f7
bd
0f
20
45
12
e9
c9
cb
f6
01
48
cc
34
cc
e1
d8
1e
3c
bd
f8
9f
0b
31
d7
ce
c6
30
4c
c1
32
5b
d2
57
f0
15
f8
24
f8
f3
ec
19
f8
cd
bf
41
ed
cb
d0
f5
ac
be
a1
21
1b
e8
ae
21
ee
29
f3
07
2e
eb
14
2b
72
dd
4d
df
2e
cb
d2
aa
49
db
d0
b4
a6
20
d0
b0
f6
07
04
ca
0e
da
5a
33
ff
53
68
c4
08
41
42
d3
d0
c0
21
40
e2
ed
a2
3c
0b
38
ff
0f
08
bb
b4
5e
59
65
65
52
43
60
c8
46
6d
62
25
21
2f
d7
15
c2
ab
0b
d1
e7
ed
df
46
0c
31
35
b9
45
1d
cc
f5
6f
11
5f
62
1a
55
cd
24
0e
63
21
42
49
ac
c4
e1
9d
ed
d5
05
b5
06
14
b5
dd
13
cc
46
f1
f3
37
fc
12
ca
35
33
56
23
06
e0
31
33
ba
39
01
cb
df
3e
1e
0a
b6
3b
25
40
07
6b
3a
03
52
34
ff
60
00
e8
db
1b
16
be
24
de
ab
24
1d
99
c3
00
a5
fe
02
57
f6
c3
3c
2b
eb
f4
ed
d9
d0
47
01
2f
2b
21
2c
43
28
f9
12
07
12
da
bc
ed
51
f1
62
07
f4
3f
11
d6
d2
4e
3e
14
34
34
50
20
1e
e6
c9
17
bd
46
19
44
3d
b3
fd
bc
2f
32
42
cc
4f
fe
f5
5b
e4
0d
07
eb
f4
db
29
33
66
30
26
e2
4c
c1
d6
ca
f5
05
3c
55
62
d7
2b
29
f3
2e
f3
d9
15
5e
dc
eb
0e
10
1b
26
28
cb
19
03
45
d9
21
e4
07
f4
d2
17
cb
2b
38
d4
0d
59
e0
2c
70
02
03
ef
f1
15
ce
66
53
06
d7
20
3f
13
22
fc
d2
2d
1b
e2
70
5e
d0
ce
00
19
f4
0d
6b
f7
e6
3a
56
ce
21
11
3d
6d
d2
5e
2a
75
da
23
24
d3
34
63
24
71
d7
5b
5e
55
51
f3
67
69
35
6e
c3
53
da
3d
08
df
e6
14
e2
d2
f4
e2
d7
46
cc
d4
0d
1c
4a
19
39
d1
6e
e2
70
2a
d2
6d
1b
0c
01
5c
64
6d
ff
ff
d4
52
70
56
5e
52
35
fe
d6
ef
11
fc
1b
6c
0d
35
f1
d1
d7
e4
ce
22
5d
ea
0d
1c
71
5c
fe
6d
fe
15
5c
04
2b
5a
02
6e
5d
47
5d
24
e6
ee
dc
18
0a
3d
54
1e
69
3f
c5
0f
37
65
36
2e
f9
6c
2d
19
f5
e1
30
0f
71
ff
1b
51
ce
2d
e7
e9
ec
e7
53
ff
66
20
c3
2d
3e
05
2e
06
04
20
40
26
18
ca
0e
48
56
4d
ee
db
15
22
e4
f1
cc
45
55
c5
49
02
ed
1b
57
f9
38
42
bd
a9
15
d1
ad
33
c2
2f
32
1d
bc
32
45
02
07
e6
19
c9
f4
e7
f4
d8
30
09
4c
34
d1
0d
06
e5
a3
ff
c0
b0
36
28
40
c3
03
10
23
5a
56
ee
18
f4
1c
3d
00
55
6e
4a
09
29
02
0c
d5
0d
36
03
13
fc
a5
f8
f8
fe
19
cd
2e
25
51
12
3e
58
64
57
2e
e2
e4
1e
39
31
1f
eb
e0
08
b1
de
c8
4c
16
4d
a1
2b
c5
2b
53
34
ea
1e
27
21
12
2d
dc
e3
ce
00
44
ac
15
de
9f
d2
dc
df
c6
34
f5
ae
14
c6
34
16
f9
35
1f
49
ed
e6
ec
d7
59
c9
41
42
da
2e
b0
d1
fe
ed
d5
c5
b4
34
aa
35
49
40
a7
10
c1
48
1c
31
4f
32
2e
68
03
dd
fd
21
00
d0
fc
1a
bb
e0
de
b9
a6
cd
0e
2c
36
dc
24
23
0e
58
38
30
c4
5e
d0
67
16
3e
19
0a
c3
20
da
df
3a
4b
27
a9
13
06
a6
2c
ce
c1
25
ba
d4
f9
da
64
27
48
1f
25
f4
4e
f7
40
b6
a7
b9
d1
18
2c
26
c3
1a
39
05
f3
b4
0d
e6
f4
ce
56
f2
cd
f7
fb
fb
d3
2b
24
02
bb
f0
d7
39
dd
0e
d3
0a
22
f9
20
f8
39
ab
49
ca
1a
66
d9
29
71
c8
f2
c2
da
45
22
10
e8
1e
b3
46
f7
d5
46
a6
28
40
1b
a4
d9
37
f6
09
41
15
1f
cf
6c
3b
01
3f
25
cf
70
36
fa
3e
18
c3
16
10
b0
d3
d4
f3
ed
11
cd
ce
3b
f4
c7
e1
13
59
de
63
10
03
67
e1
26
cf
70
af
42
c1
09
48
9d
b2
f3
03
b3
a7
23
43
d9
27
0b
2c
36
fb
33
f1
4a
02
e0
3e
2a
e6
f0
25
e5
10
c2
1c
0e
a2
c0
cb
b6
35
1a
1d
27
bc
1b
45
33
12
f1
ec
3c
49
3c
e0
da
13
02
fc
02
47
4e
4b
ed
b9
0f
c6
36
b5
b1
be
35
ce
22
01
07
fc
df
d4
28
ed
14
36
43
c8
e2
ed
ec
3a
3a
b8
a8
b5
01
b4
27
4b
a2
50
b3
fe
24
c8
18
fc
ce
12
3e
03
d9
3a
6d
13
f6
13
46
c5
b0
11
a1
cb
25
0b
1d
41
b2
f5
50
09
10
40
12
6d
30
fd
22
2b
29
f3
3a
fc
c6
26
05
b4
fa
20
d2
b9
f4
cf
e0
b8
c9
20
d8
03
c6
45
fe
39
0f
cd
4b
0f
33
3e
d0
25
dd
58
a5
e5
12
d6
d2
9f
fa
2b
42
a8
0f
4d
29
43
3e
6d
3f
71
6d
e4
d4
01
c5
d3
09
21
d9
6b
38
2f
32
fa
c7
c6
2f
06
10
2d
d8
ef
40
3d
09
e4
12
6c
5a
41
43
68
d3
61
67
ee
67
2f
fb
e3
37
fa
c9
43
28
f9
f0
e3
27
e7
48
06
68
63
0c
6a
c6
48
14
f1
d8
f5
52
08
14
28
c9
21
53
27
d9
2a
28
c8
6b
0e
34
11
dc
c1
46
6b
6a
ef
2c
52
5b
21
03
f7
67
40
c2
c3
df
16
4c
61
e3
f6
d8
20
27
c1
fa
50
cd
1a
2f
28
fb
13
c4
ef
2b
1a
e1
69
47
e4
17
e7
27
01
35
fd
c7
de
ca
13
48
59
3d
5d
54
e4
60
09
6c
64
cc
f1
40
5f
c7
26
ea
56
1f
3f
08
e6
26
f8
1d
51
fa
36
64
27
ce
31
1f
e1
d9
42
cf
50
04
4a
d8
f9
43
37
fe
1f
6e
62
27
3b
64
f5
f1
66
68
ed
df
4a
1e
1b
0a
35
50
27
43
04
37
cb
da
1c
48
45
45
1b
10
65
0e
e9
00
47
eb
4d
e0
00
55
4d
cf
17
f7
38
f1
d6
f6
34
19
47
5b
16
42
1e
1d
ef
6f
06
67
fa
10
5e
28
b9
ec
14
00
ce
4f
0c
5d
3f
56
3f
15
08
d4
e9
2e
cb
26
5b
4b
53
da
5b
23
dd
d4
04
a7
d4
e4
46
24
34
1c
ab
d4
fc
59
48
3d
ef
11
e2
e6
45
f7
6f
f4
6f
c9
c3
60
df
e4
f0
f8
16
45
c0
ab
20
ea
d0
ab
0e
ea
34
69
43
d8
f0
14
35
c8
67
57
1c
e3
24
59
2b
be
1c
45
ce
b3
a5
f7
4c
4d
d8
08
c5
f4
0f
64
f2
11
4c
d4
c5
65
d6
be
40
6f
16
d1
2e
9f
ed
ac
3e
9f
ac
e7
c3
37
07
21
d0
c6
71
31
60
53
29
21
28
d4
ff
d2
f7
16
d0
3d
3f
28
34
a8
a7
42
da
ef
24
4a
49
ab
24
b0
41
d3
4d
40
4b
ee
1b
3d
d3
59
2c
35
57
f0
07
bb
4a
f9
ba
c3
a3
23
ae
a7
1f
2e
45
3c
df
dc
48
13
13
70
d1
10
08
5f
db
d3
45
07
a9
f8
38
42
05
0e
aa
05
c0
2b
14
21
9f
5b
3e
f0
c0
07
39
0c
36
07
01
31
c8
42
ca
11
e5
e9
07
0d
28
33
36
c7
0e
24
f0
c1
47
68
f9
1d
1d
01
f1
15
f3
34
3c
cd
11
3f
c7
b8
4e
c8
45
2a
30
d2
0d
0c
bc
f3
a8
11
47
64
3b
4e
e3
5e
07
3b
c6
2e
33
30
26
22
31
b0
08
c0
bf
ac
ed
0f
09
41
34
3d
2c
fe
cc
c4
c4
10
d0
e8
6b
d7
31
52
c6
30
53
17
f5
0a
b3
d1
1e
2f
3b
38
c6
1d
ac
37
ea
c0
eb
c9
df
f8
4c
e4
de
20
50
64
3c
d9
11
1e
38
d6
27
ce
a6
a6
1d
c8
d4
c7
0a
d6
e8
35
13
ed
6f
22
e2
4a
38
dd
6e
fd
c2
c9
1a
2b
bd
03
57
ec
25
c5
ee
45
af
a8
3c
cf
32
cf
2e
35
2d
4d
25
d6
44
c2
11
48
24
dd
d0
05
3d
11
ab
d0
bb
c1
e4
ee
0a
3e
28
d1
fc
49
1d
6c
f8
f9
64
4e
f9
6c
f3
2b
2a
30
13
29
29
cc
46
2c
d0
3c
b4
0a
c6
37
e8
a7
ce
11
da
45
02
6b
66
ee
d6
cf
1c
15
d2
ca
5c
0d
ef
fb
be
e7
48
9f
2b
06
2d
3f
22
9a
d4
ca
0c
2c
f4
ee
05
62
69
46
dc
36
35
07
b2
eb
c8
ee
1a
1e
d5
1f
32
00
cd
a0
28
d2
f8
ef
0a
29
46
27
15
40
0a
28
d4
31
d5
0e
09
e2
f5
22
22
a5
03
a8
0e
fb
bc
48
16
da
3b
f5
3f
62
41
06
17
ff
ea
c1
59
2d
dd
54
25
32
1c
42
21
e4
3f
3a
17
e2
3c
a4
1a
0e
fb
47
e0
3d
11
6f
4f
15
58
25
d5
18
da
4d
1f
43
03
f5
14
fb
cb
a1
ae
ce
fd
69
42
3e
58
08
62
12
4b
eb
32
d5
58
1b
f8
2c
ce
f1
62
ec
dc
e3
04
14
34
6d
28
37
d7
30
d2
28
1d
d9
62
c7
2a
42
e0
fc
3f
0c
cb
61
e1
53
23
37
eb
c2
52
36
be
4b
37
1f
53
34
fe
07
eb
4a
d5
49
e5
64
1a
c2
39
f3
2a
23
fe
65
e8
2b
70
2a
4b
08
16
e8
e4
39
18
ed
67
fb
d5
64
28
c9
e2
70
07
15
c4
75
6b
ef
4a
c9
33
06
1b
f5
cc
1b
f5
e6
45
21
63
e1
f2
cb
ed
60
5f
0c
29
04
ce
39
0e
e2
50
e0
6a
67
74
2c
fc
c7
e6
2a
1c
65
3b
cf
40
31
10
1c
67
f8
71
6d
31
36
cd
28
ff
62
d4
f5
5f
e0
d4
d8
3b
58
0d
65
76
1f
11
14
23
3d
67
f6
ec
03
13
db
63
d8
5c
2b
00
68
02
1d
f4
17
0c
6f
fb
18
c4
ee
30
16
12
58
d4
cd
2c
d5
dc
d6
6d
d4
68
12
d1
cc
c9
23
d2
1f
f0
0b
c7
23
fe
34
f9
59
41
b6
3f
d2
ba
3e
16
fb
f0
65
e6
06
4c
0f
18
de
c8
cc
25
4d
1c
14
1c
52
19
40
30
11
37
34
e1
3a
35
da
3b
cb
12
bf
12
38
41
36
0b
02
6a
5b
27
19
d6
4f
d0
ff
0e
fa
b9
cc
0a
3c
17
bb
de
be
af
f8
fa
ed
c9
34
e1
60
fd
de
54
49
f0
29
4c
ea
5a
09
ba
44
3a
b5
29
f0
47
cf
e4
06
b9
1d
d1
09
e4
3c
00
46
11
3b
5f
dd
6b
13
16
fb
54
2a
cd
e1
3b
d2
ce
2b
c3
b2
14
2d
f3
2b
bf
09
4a
db
ef
e9
55
2c
4f
00
24
0a
30
70
18
e0
ec
bb
07
f5
48
0b
f9
07
0f
24
e3
a9
d3
11
b3
05
67
f2
e6
02
f7
26
cb
e0
3c
4f
5b
6d
f5
e3
ba
af
3e
46
36
bb
ca
a1
a2
41
3c
2b
cc
f2
15
dd
e2
f3
51
11
58
6f
fe
5c
50
d6
07
2d
2c
38
e5
e8
a0
06
27
28
00
f3
9e
28
4c
2f
f5
59
73
f5
fc
34
6e
ec
39
5f
71
ee
3b
9c
e8
bb
4d
30
b9
a2
24
c3
47
e9
36
b2
e1
dc
5b
50
3a
e9
64
21
46
60
54
2f
6c
d1
2a
02
3f
a3
e7
df
b8
2f
ae
b7
14
ed
bc
fd
08
20
f2
eb
ee
e7
43
60
13
25
c5
4d
2f
1b
46
3f
31
cb
ce
23
dc
0d
25
e7
28
d4
d3
1c
de
e1
53
58
23
35
73
6c
05
23
16
33
4a
e8
d1
d0
a0
d9
3d
f0
f5
a9
cc
df
21
b0
c1
4e
d6
f4
cb
da
6e
cc
da
19
25
2c
18
50
fa
e1
cd
ab
a5
fd
fa
e9
e9
16
2d
38
d5
27
3d
c9
16
5a
dc
ee
64
55
1c
dc
c4
e8
d6
28
2c
ef
55
fe
04
17
31
0b
99
bf
08
ed
30
db
45
e1
d8
cf
42
0e
04
42
f8
3d
73
4c
ec
1f
db
37
fa
d2
a0
a1
cc
d9
23
bc
1c
05
ec
aa
bd
ab
2d
00
1c
d0
eb
53
75
c7
0b
cf
14
f7
cf
5e
f5
00
49
28
bb
34
ea
c2
e9
c1
09
39
0a
ea
1c
06
1d
f2
f2
2e
fb
f1
0e
f3
e4
63
4f
03
2f
b2
bb
38
0e
22
0b
fb
a6
15
c6
1b
12
fb
b3
d4
13
44
3e
dd
d8
20
69
d2
46
53
00
2d
12
fe
34
37
ef
25
13
3b
16
15
ea
2a
3c
0b
05
38
e8
6b
46
16
42
e2
01
ef
f5
dd
3e
52
03
06
da
d7
af
26
26
e4
10
fb
3d
f8
d0
37
08
cd
0f
3c
35
45
29
22
5a
23
58
d8
0f
07
b3
29
ee
99
1b
f1
ea
38
9d
b4
2c
65
62
16
d6
07
f3
59
18
d6
0f
1d
09
48
67
37
6c
4b
e0
fa
15
d5
f0
cd
a8
1e
a8
ef
50
da
da
cd
3c
6c
57
cf
72
c9
3a
de
3f
5a
0d
1a
15
2b
14
3c
eb
60
3f
67
18
01
08
60
32
36
3f
3d
f4
f8
fb
f8
cf
4d
6c
25
58
32
f3
07
15
65
d2
ef
5d
eb
fd
0a
fa
c7
39
21
e2
2a
48
df
53
21
45
3c
fe
d1
c8
ce
46
11
fe
05
e5
c8
d3
3f
6f
6c
ec
11
74
6c
f4
56
f8
fe
28
fe
f0
ea
3a
5b
cc
73
07
3d
74
28
c9
20
ce
fa
16
4e
f7
3f
da
1e
41
6e
3f
32
f3
c3
cf
e6
67
c9
0f
3a
42
05
35
5b
c5
ce
1f
10
f1
21
22
6f
33
d7
62
d2
1f
2b
60
34
fb
6d
63
16
26
4e
cb
09
c8
39
37
19
0e
da
09
64
ef
e2
01
4e
4c
6b
74
fd
52
0a
28
f7
5c
2c
1f
20
0a
37
34
c4
43
12
0a
c5
1d
fd
29
04
0b
dc
0e
21
c2
19
23
02
1d
35
30
2a
38
3e
32
23
e8
70
cd
0d
ed
09
35
d0
72
10
de
20
51
4f
e6
f3
39
68
29
f7
e6
f0
1b
a9
45
00
36
e4
6f
47
6e
f1
4f
27
01
37
d4
e2
de
e8
e7
c8
eb
c8
15
f6
46
b5
1f
b0
ea
22
46
19
16
db
46
67
eb
6e
5d
38
e4
49
12
06
43
21
e3
0b
2e
df
c4
cd
39
be
33
cc
00
27
b9
d2
f3
e5
08
9e
37
1c
da
4d
03
30
37
09
4d
fd
55
ca
04
13
3a
1b
06
19
a8
b8
ad
d1
15
a8
39
d0
ac
e1
ce
db
d4
24
12
16
dc
68
fd
c1
39
4d
0d
73
cd
0b
45
b9
e3
df
d9
35
10
d3
cb
22
23
30
4f
d9
f0
56
f8
18
5d
f7
54
fd
de
d9
d7
62
09
a0
29
ed
ed
fa
22
9f
a1
a5
11
ea
fd
33
db
dd
dd
28
38
16
05
f9
d8
51
6e
5c
fe
f6
db
be
00
2e
3f
12
c6
fb
a2
16
ae
fe
b4
29
ff
6b
f1
22
f5
62
ca
45
6a
60
d4
02
28
e6
05
f8
4a
23
a0
eb
21
eb
e5
29
1e
f1
c1
65
c7
d3
43
66
2c
58
ea
f7
5b
f2
c1
00
f8
09
16
0e
e5
20
b7
af
ca
f9
f9
fd
14
42
0e
30
fc
47
13
12
fb
27
07
57
6c
f0
66
03
d8
02
03
cc
37
ca
3c
1c
16
48
37
1c
ea
e7
45
22
39
1d
39
d4
c8
68
fb
1d
0e
f1
6d
71
c6
c7
f7
2d
ba
f5
3a
2a
3a
44
4a
2f
3b
34
c2
f9
23
d6
f4
52
6f
0f
e1
09
15
21
20
eb
d6
30
ad
f8
f3
0a
f5
ce
39
04
29
1c
d0
ad
bc
f7
3f
44
e8
1c
6c
f4
52
5c
db
12
da
07
ea
f5
3e
49
3f
b3
12
2b
26
f2
c0
ac
2a
ac
4f
51
fa
ef
47
5c
5c
4e
4a
4f
dd
d6
e3
3b
1d
9f
2b
b2
27
43
ce
f0
32
9a
30
33
4a
e2
d3
0c
51
50
42
de
68
66
5f
5c
33
56
51
2b
d7
f6
cf
bc
ff
a9
c8
2c
f4
db
9b
ba
1c
ce
e0
20
d5
d1
5d
0f
d0
2b
e7
60
62
00
67
1f
25
2a
0a
bd
d7
ef
cd
be
24
3e
bd
3d
f1
e5
e3
d8
61
35
58
15
6d
2a
eb
72
57
4c
5f
25
ae
99
ca
19
38
cb
a5
ac
44
aa
09
10
f2
cc
24
64
25
fc
df
39
72
66
63
ca
20
6b
de
48
30
b6
27
03
11
46
45
a0
40
14
ec
09
e9
c5
06
f4
20
6f
5d
59
14
69
11
1b
08
20
d9
e6
59
ee
04
d5
b6
41
2b
d0
06
0a
c9
0c
2b
36
c5
4e
54
63
43
2e
48
d8
23
5e
cb
eb
f3
c4
10
bf
ab
23
45
12
16
9f
ad
1f
c8
12
e2
54
63
71
e8
07
53
56
55
ee
5a
19
ce
c6
f8
fa
c6
04
5c
22
c4
fe
e6
41
1f
5f
56
df
0d
08
13
25
d4
3a
23
3c
f4
43
2a
dd
2a
08
62
69
20
37
2a
ef
18
cf
59
2b
61
1b
6a
c7
5c
03
13
3b
ef
36
c4
55
73
cf
51
c7
1b
2a
63
38
dd
d8
d3
db
3a
2d
fe
ef
15
05
0a
5f
17
41
66
2f
5e
fa
10
2c
fe
cd
ca
69
72
56
5d
f6
4c
4b
1e
00
05
12
25
07
1e
56
f2
e8
39
2e
fe
09
0f
e9
0e
55
5e
4e
ce
62
c9
25
46
e7
45
30
e7
4b
c3
d0
3a
28
d0
46
48
d6
cb
d1
ec
00
73
e5
53
15
6f
1f
26
4e
e4
eb
f2
cf
2a
3c
4f
cf
6d
32
5f
e1
c8
3f
36
ef
cd
3a
02
1f
73
62
36
0e
cb
cf
fc
c4
67
59
3f
fb
fe
59
47
1f
c3
c4
c9
48
40
69
09
6e
c8
08
5d
1f
53
c7
61
31
d3
45
40
20
62
4c
0b
15
ea
1e
24
fa
33
d3
1c
ce
c7
ea
55
66
47
c7
49
54
65
09
e6
52
c6
c6
6a
6f
dc
1c
4b
d1
c7
0e
3b
fd
27
40
fc
b9
35
2d
f9
08
09
52
de
ed
2b
16
3c
4c
55
1f
f2
27
20
30
37
2f
22
fb
03
23
2d
c1
dd
0f
4a
01
13
1c
b9
d7
31
cb
0f
31
5f
fe
53
62
52
45
6f
d1
d6
46
1a
32
b8
c8
bb
0d
fc
1c
36
4b
32
9f
39
f1
ac
3c
d5
26
cf
da
56
57
fe
f0
64
0e
39
0d
c3
0a
c6
c7
48
40
0b
01
39
c2
b2
a8
d4
2f
41
b8
d4
dd
3b
14
3d
59
36
06
54
f7
1d
f2
c6
41
1a
f0
1e
e4
46
1a
24
c4
d2
0f
0c
b9
2a
3b
3f
fa
d4
3d
27
49
3e
2b
44
47
54
e7
ec
ff
b2
20
e3
c9
ab
f5
fc
c6
f0
c4
c6
23
a1
f2
27
fb
e3
c6
63
da
e5
fa
46
1a
19
d4
eb
26
a9
ce
a5
4c
dc
c5
ca
f7
30
a8
35
b6
23
f2
f5
c8
e5
72
5c
08
e5
71
6d
01
e8
e7
23
bd
da
f9
31
16
ca
31
bc
38
aa
17
d2
e9
ee
4f
f8
c3
f7
d8
d8
5b
62
21
0c
d9
3d
0b
06
f7
21
bf
ef
28
ba
16
a6
2d
aa
a7
fd
25
42
41
2f
d2
20
49
45
56
f6
d8
f4
34
b8
cb
2d
a9
b7
ce
04
12
22
ac
09
cd
d3
ab
16
d1
f6
0a
e3
50
f0
e8
cb
11
ea
1b
66
44
14
a4
af
24
6b
c5
c7
f4
e1
31
da
d6
23
23
d3
01
1a
1f
b6
d2
1a
6f
d4
31
38
f0
1e
18
04
e9
fb
e5
ea
bb
2b
c3
c0
a6
af
43
29
be
aa
d8
e6
27
64
50
70
37
d6
fe
c3
48
4f
c3
cd
0f
bd
c2
f9
4c
a4
b3
ee
d8
c2
19
ce
e7
b5
ab
be
bf
3c
49
dd
10
50
3d
cf
2d
18
34
cb
18
4c
f6
b2
bc
39
bc
19
00
e4
4c
30
1c
13
15
3a
4b
38
03
ff
c1
db
0f
08
17
64
17
ab
0e
06
c6
13
42
d9
03
fa
10
14
4a
3c
c7
25
2d
9e
1c
1b
15
67
2f
e4
4c
ea
5f
e2
62
1c
ba
ea
fb
e5
44
40
a4
16
d3
ba
00
0d
f2
cb
ab
f1
0a
ee
e1
f5
2b
0b
6a
ca
d8
c7
da
f0
00
17
bc
cc
cc
da
ad
d9
b2
c3
14
c2
3d
3e
e7
3a
2d
38
e3
11
20
0a
03
10
1d
cb
1a
bf
47
fc
0f
aa
c1
48
db
f6
43
a7
36
34
2c
b8
0e
f2
62
0f
67
ea
29
28
6b
53
30
2b
4b
4d
3a
9f
01
34
fb
e7
d1
05
e6
e7
1b
0f
13
1f
ec
67
19
71
c5
2c
d2
37
3c
dd
02
2a
fb
2a
b0
d0
d0
b0
e5
da
0b
24
18
b8
36
00
c8
6e
6f
1b
40
c9
f0
2e
25
d2
30
cc
c5
67
6c
72
6b
47
0b
cb
21
cc
f3
04
d2
bb
b1
e3
0b
0e
31
e6
ff
21
c4
0e
35
55
6b
32
60
3b
d0
d3
4f
4f
d5
f4
2d
51
45
5f
1f
6c
25
62
f2
f9
2f
d4
38
cc
6a
d2
56
eb
f5
f3
da
34
63
2a
e9
3c
c6
25
d7
68
fb
26
cf
31
e8
e7
45
3f
cf
33
08
d5
e4
34
1e
72
d6
3a
f8
e6
32
10
fa
1e
73
1d
2a
44
52
2c
31
50
29
68
5f
68
46
cd
69
45
09
f4
25
c7
ca
c9
f6
f8
c4
27
17
60
2b
66
72
58
1a
4f
2f
e5
72
3c
0e
38
fa
e5
29
3e
c4
00
6b
f9
d7
d0
3c
61
c8
07
39
f5
4d
d2
ec
03
05
01
42
2d
61
6d
42
0d
20
1b
eb
e4
0c
41
4b
0c
6e
3f
20
31
3b
3a
ee
eb
21
4d
07
d9
1a
4e
c6
12
1e
08
f0
12
2b
00
ef
57
17
fb
23
47
17
f5
4f
27
42
d5
29
f8
e3
f2
53
50
15
24
d7
fc
4b
5a
ef
27
c3
31
58
df
31
cd
21
6e
1e
4f
3a
20
47
00
30
f7
ec
e8
13
40
dd
d2
ea
3b
bb
cf
72
f0
3d
11
e0
14
04
71
5a
68
0b
e8
2d
50
33
67
3a
43
ed
da
11
40
ae
16
fb
b9
35
46
ec
09
24
d8
07
c9
2c
23
0f
51
46
48
40
54
d5
f9
3f
35
c4
df
1d
36
48
d3
ad
ae
c4
1f
22
ad
15
ca
ce
5a
fc
c5
32
38
51
db
72
fa
d2
1e
6f
3f
f6
ae
0a
de
d0
da
d4
b9
d9
f6
2a
12
43
a6
da
c8
c9
cd
47
d9
73
f6
58
30
22
1a
ec
f5
a5
48
c7
18
45
ef
c9
aa
16
dc
14
bf
3c
d7
1a
c2
d0
09
fa
c8
e4
c2
72
2d
04
d1
34
23
0d
f8
44
e8
af
0c
f1
be
35
c0
fa
ae
0e
0b
5f
21
e8
35
6f
46
62
19
0b
0f
da
09
d3
fe
0b
f7
d6
c0
3c
35
d4
45
a1
00
c7
f1
0c
ce
e6
3c
67
40
58
02
44
6f
52
40
d2
fb
d7
ea
3d
fc
fd
2d
ec
b8
13
ee
b9
13
36
cc
3e
eb
01
f9
d3
e7
c6
ca
f7
38
37
d1
65
4d
14
fe
cd
c1
d8
17
c5
ad
f1
eb
03
a7
ae
ce
f8
25
f2
2a
25
20
56
32
fd
50
f3
29
4e
2e
c8
a8
2d
07
2a
2a
eb
d1
07
12
11
e8
1e
04
ba
34
2b
2d
50
4b
5a
df
f1
0e
1c
e7
68
b7
21
0f
1b
cd
1e
07
30
f5
3b
ce
0e
14
af
30
c0
a8
e2
2e
5d
07
13
29
f9
32
e5
35
1a
ab
e4
40
99
2c
39
c0
32
e1
14
f3
a9
c6
ea
11
9c
30
f0
dd
d9
33
3c
c6
ee
4d
d8
70
28
21
d3
bd
00
ea
fb
4b
0d
cd
f6
b3
f7
16
0d
3a
2e
33
51
50
3c
31
5f
61
72
e5
e6
15
c4
46
64
f2
a1
27
18
c0
35
a2
dd
b4
31
34
c0
43
cb
b7
67
6f
52
5b
ef
4e
5b
ed
f9
1f
58
50
63
ef
14
e7
df
f4
05
cb
b2
cb
24
49
1e
2d
44
dd
1c
13
f3
63
2a
f4
d6
0d
55
d9
63
4e
d4
c8
a2
fc
dd
e9
23
b8
d9
38
c4
2e
b1
d5
f0
46
71
30
02
5c
6b
d7
3e
d4
df
15
26
53
b2
2e
12
a7
e9
dc
a9
ab
a1
48
08
19
f0
1d
08
d4
4f
11
18
f3
72
70
c8
c4
ec
57
2a
33
26
fa
44
b0
e9
3a
a6
22
e3
09
f5
fb
aa
d9
5a
3e
e4
df
e0
cc
11
37
20
3f
f0
70
64
df
ea
08
aa
de
05
44
10
a5
fb
24
1d
c6
c9
f1
71
6d
48
e6
e1
d2
c5
3c
c6
e5
d6
1d
dd
11
5f
22
50
d2
1e
c8
af
c8
e5
23
da
38
db
ef
e2
6e
ef
dc
4c
eb
f0
c3
15
48
65
e0
e6
64
e0
53
0b
e0
e6
21
6e
e3
f2
ea
07
06
08
51
c2
14
38
c3
39
57
6c
48
c2
55
03
22
2b
fe
3f
14
65
08
15
4c
e5
f4
c9
d6
e2
62
f2
e0
55
55
0f
db
44
19
10
04
42
3b
fc
e3
06
28
55
e1
6b
0a
4e
d0
53
ea
d7
f3
3d
73
70
12
c9
c3
0b
13
4f
dc
d7
08
3d
db
c2
27
f6
cf
50
34
65
d1
43
23
ed
61
6e
22
db
5c
de
0a
d1
59
1d
4a
33
cf
24
f9
37
e0
47
01
6e
fb
35
dc
5f
1c
28
e7
fc
0c
1c
01
0b
ea
d3
e2
f0
3c
bf
3c
18
53
13
fc
36
6a
2b
ea
cb
e7
e3
d6
fe
1e
42
34
4a
00
43
46
6c
4a
48
64
09
3a
c2
20
0d
61
01
c6
d7
55
4b
d0
24
4c
11
ee
fa
33
12
57
11
1e
e3
54
f1
6e
18
c7
30
f2
3b
5d
65
64
35
35
f7
0a
e8
fa
4f
f9
c6
fa
0b
4b
52
4a
50
e5
51
b7
3b
ce
c0
f4
30
3a
53
08
09
3b
34
06
0a
03
30
e9
2c
53
12
5b
1e
e6
68
45
b4
17
0d
fc
03
2a
31
cb
ff
48
0f
ea
55
c2
43
e4
6a
cf
4c
0b
66
c2
12
48
57
cc
16
b2
42
3e
fc
2a
05
b8
3a
fa
dd
07
27
71
46
63
e3
6a
60
4e
cf
da
f8
de
25
3d
1b
a7
18
ee
39
ec
19
25
48
ee
22
9e
bc
ef
31
20
29
6a
ed
3f
34
66
32
4b
07
24
39
c9
c5
2d
b1
2b
de
0d
ee
2a
e4
a8
b0
1a
44
48
e3
e0
43
51
d9
d2
51
e8
44
db
4c
c1
da
6b
2a
f8
42
a3
43
f5
ca
47
ce
00
36
24
45
d1
ef
40
f5
40
3d
3a
f1
f8
db
e1
1a
fe
e9
54
f4
b5
e3
ba
06
21
d9
c1
c4
28
af
ba
eb
0e
e4
44
35
ca
2d
13
c9
70
f8
04
c5
f5
62
f8
c1
4c
bc
c9
9f
35
ab
3f
b4
de
d9
09
ca
c3
63
50
28
2d
dc
f1
fa
da
2a
4d
60
65
51
29
64
22
f2
bc
06
0e
44
c6
ed
1f
db
d3
15
5b
3b
3e
4d
34
2c
01
5b
3c
c2
58
41
d3
f5
c7
d0
0e
3a
4d
3c
09
f7
b4
c2
4b
d4
f2
00
a9
d2
de
07
fb
eb
39
ca
02
56
60
d1
35
68
01
c1
45
14
4c
c8
ff
20
f7
da
3f
a2
d2
e2
18
5c
f7
02
fb
5b
e2
00
d8
e1
e6
c7
c3
33
28
ae
b0
f1
e2
2c
07
c8
0d
b6
f5
3d
e5
f3
bb
12
0c
c7
47
e3
f1
54
d1
6b
e5
56
69
63
d0
3d
01
0c
3a
2c
f3
29
a7
c5
ac
1d
39
1f
17
1d
3d
de
57
ee
f4
53
e6
60
6d
0f
ec
c9
3d
e6
02
20
44
37
f2
ce
e0
21
fd
fd
b6
14
b9
4c
0e
fb
65
cc
08
47
25
fc
32
45
d4
1f
55
e4
1a
21
1b
ed
29
1e
ac
09
1a
bc
f3
44
d3
d7
2e
33
d9
4c
e6
db
f7
06
ec
fa
3b
d8
be
10
9f
05
0f
b5
41
d9
0f
4f
ae
c3
d5
31
bc
bf
c1
1d
c4
5a
5e
c6
5a
30
48
5e
0b
02
11
c3
c4
1a
ea
14
ce
1f
a2
11
f5
34
e3
c0
1c
09
dd
e4
f8
4e
eb
13
0c
f1
cb
d0
18
12
5a
bb
4e
cd
f5
f5
e6
c4
2d
30
a7
41
eb
fe
bc
2e
fe
fb
07
c9
59
f0
4c
65
35
3e
c6
4b
33
2b
b3
10
e4
2a
d4
a1
21
2f
43
d4
04
52
32
ef
4f
17
fc
40
f4
dd
e0
f6
df
f9
c4
47
d8
1b
03
f5
b4
0f
a2
40
af
a1
ef
e0
30
f9
6a
5a
53
fb
57
1a
4a
df
6b
52
eb
00
f4
5a
f1
3b
ad
cf
28
a9
17
fa
e2
4a
f5
ca
ee
63
67
2d
2e
e7
5b
69
20
64
48
ca
f0
3c
de
f0
72
24
63
26
2e
d0
02
23
de
66
49
dd
73
32
6f
2e
f3
6e
f7
e3
40
de
c0
54
de
ff
0c
dc
63
e7
64
3e
1d
05
ce
f6
11
0a
eb
d8
1f
03
0f
26
18
53
21
2d
63
6e
c9
15
06
46
57
56
d3
2a
6e
12
52
d0
e4
ca
f4
d9
20
f6
44
60
44
c3
23
47
5f
6d
00
6d
e4
48
fa
4d
40
54
57
46
fd
08
d7
5f
cf
c0
6f
6a
6c
09
e4
5d
57
55
df
18
41
1e
f2
fd
e3
13
26
ff
5c
3b
5f
44
ed
6d
18
16
21
db
60
f7
3f
e8
4c
63
63
72
f6
d7
36
f6
07
32
f1
35
62
51
0b
2f
37
c7
d2
15
13
e0
54
d3
41
df
74
5b
f8
14
fe
4c
db
5e
e0
de
4c
d7
60
c3
61
f1
eb
ef
72
2c
d9
01
d4
f7
47
d1
2e
c2
4e
db
fc
73
cb
f1
65
13
57
1c
2a
73
e8
2c
44
fb
ee
5f
dc
d8
e6
48
02
fc
e8
5e
41
39
06
43
59
71
5a
d8
54
62
02
68
c7
5a
c7
15
23
6a
6b
1c
02
e5
16
36
fc
c7
59
d6
23
6d
c9
fd
4b
3d
d7
26
1e
46
4f
74
36
68
55
06
58
0c
08
c9
de
ce
3d
1f
c5
3e
ec
ed
3a
34
4b
16
33
47
49
4c
cc
2a
2b
d1
2f
58
f9
01
cb
5a
d3
40
fb
18
f9
c9
46
04
ba
de
bd
fe
3a
25
e6
b8
d5
16
58
fe
da
58
1d
fa
6b
32
5f
ee
48
e4
04
d6
31
06
38
27
ff
a4
48
c1
3e
31
38
f1
32
a5
0e
24
68
11
30
48
57
1f
36
d1
1c
37
1f
1d
e1
3f
cf
aa
a5
f3
b6
1d
1f
e9
13
b6
fb
d5
c2
fc
d2
5f
2d
da
d7
44
11
60
73
5c
a8
47
b6
ba
cd
d4
bd
08
0f
25
2b
f7
a5
aa
9d
58
24
08
6d
26
d1
f6
4f
57
5d
47
e4
18
c1
b7
d7
c0
30
01
12
a8
c7
f5
a5
1b
dc
c5
09
0a
36
ce
26
cf
65
36
63
22
74
6f
10
d0
15
04
30
d9
ce
27
13
1b
28
c4
b6
c4
c4
41
b9
f4
d8
eb
04
3c
ff
47
45
d1
3b
e9
49
c2
46
d7
38
e2
e8
f3
e1
a2
07
fd
dc
47
4c
16
b9
dd
d5
09
e8
64
45
65
40
d0
e8
3f
cd
4a
b7
2e
11
4e
ea
cf
ad
45
0d
df
ec
3c
1f
39
cd
fb
41
09
5a
d2
d3
e4
64
45
10
c4
d6
da
02
13
24
bd
b7
f6
d8
b1
b3
49
d7
1f
e5
c2
3b
f1
b4
e3
67
c8
0a
ec
42
61
27
2c
37
9f
c3
2b
b5
a9
0b
27
ff
46
b7
e2
fe
f2
e2
c1
f4
49
ae
4e
c5
fa
59
40
e0
32
d6
07
28
fe
bf
0f
cf
40
20
35
e8
fa
b3
c2
01
b2
e8
c5
ce
20
67
e9
cf
1d
4a
d2
08
1c
71
f2
c5
dd
a9
cc
d3
de
c0
e4
b8
40
fe
a7
44
d1
d5
df
31
21
ca
f8
06
f8
08
32
e4
74
27
c6
f0
48
1c
3f
06
45
e0
bd
f7
45
05
0b
04
b3
ab
26
fa
1d
41
f9
20
4c
29
e4
d8
f4
39
c0
39
2b
1c
c8
e7
3e
e7
16
fa
18
2c
c1
bb
2a
f4
12
ff
02
5e
15
07
46
cc
cb
4c
f7
35
41
f3
d9
30
b5
14
ba
f2
16
be
d9
c4
1a
04
b7
f5
b6
ea
df
dd
06
15
ff
08
52
19
6a
d8
e8
e2
ce
1b
db
0f
ce
07
b5
f6
a0
c8
33
e7
2c
9a
d0
57
0c
d2
32
5c
67
74
fd
14
f7
cf
06
0b
06
f1
30
32
ad
4a
27
3a
d6
ee
25
03
44
fd
08
65
59
22
d7
2b
6e
49
f6
42
f8
35
35
ee
eb
f0
3f
28
b2
fb
db
d1
0d
0a
f7
f2
21
1b
d3
50
2f
dc
41
6c
d5
fa
1b
5a
1e
3f
cb
1b
29
20
1c
09
03
4a
14
23
24
b5
ee
17
0f
2e
f8
12
2e
56
f0
64
fa
63
de
f3
46
e4
58
e8
04
00
0a
08
00
32
32
3b
4b
22
35
d1
d6
0b
18
1c
44
f2
2a
37
62
29
cc
20
37
6e
3b
57
c3
48
38
e0
fb
d0
23
e8
67
f6
d8
e3
f1
53
1a
60
17
d2
69
01
32
0f
38
6b
48
5c
ca
e5
31
13
1e
6e
72
58
d9
11
e1
ed
f8
62
47
ec
1a
35
1d
34
0f
4e
e8
5e
cd
2c
2d
05
f9
51
13
cc
23
f0
f9
5c
36
e6
4e
ff
68
04
65
48
46
0e
ea
f5
e4
d0
e5
44
32
26
fd
3f
46
38
cf
f3
cf
57
2b
ea
50
e5
31
11
46
6a
5d
25
58
35
dc
fb
6c
dd
e7
0d
3d
d3
63
d9
cf
2d
73
eb
fa
74
16
59
72
0c
29
d0
ca
6f
de
08
6b
01
da
de
dd
07
5f
6c
d0
01
ec
35
ff
28
27
46
0f
cc
f9
31
0c
ea
70
e1
ce
37
46
54
67
02
40
59
5f
c7
22
15
60
33
f1
3c
4a
3d
de
13
0a
3b
56
de
3c
0e
1d
fd
ef
ac
3f
c3
5f
11
e6
6e
50
4f
53
d6
06
63
f0
39
58
69
40
b4
10
23
b7
b9
20
cc
2c
29
02
1f
a3
53
55
2c
d2
56
58
f9
f4
1c
75
33
3b
cc
e6
0a
06
09
35
9c
10
14
27
17
44
fa
3c
29
0c
bf
1f
c5
f4
07
02
68
65
ed
0c
f5
fc
2c
f6
7b
0f
35
cf
d4
f3
c5
9b
46
f8
44
94
15
0e
9f
13
bb
02
18
38
21
68
65
cc
f4
c8
1a
e7
d2
e4
c3
c9
31
e4
07
d9
30
ba
c3
f7
b2
e0
bd
d3
e0
09
fe
4e
19
ee
16
3f
ce
00
fc
d0
da
2e
fd
c4
05
dd
16
ab
2b
0a
18
02
bd
d8
df
ec
ee
5b
f4
3c
f7
30
22
1a
cb
03
20
16
55
d5
24
60
12
d2
ac
bd
e9
cf
20
dc
d8
ac
d4
65
24
28
f8
4c
3b
59
23
26
c8
45
46
20
16
58
65
17
0f
fc
27
ce
dc
aa
b5
21
b5
d5
1c
e8
48
56
0f
62
65
37
05
f0
c6
54
fd
cd
46
3a
fd
22
e6
00
36
42
1d
c2
ba
d7
0a
0a
ba
e0
08
12
d1
cd
39
d7
65
5e
35
5c
45
20
f8
e6
bd
f4
36
17
3e
0e
be
30
45
1a
d9
c5
41
17
cc
fd
2a
f5
1c
18
72
63
26
46
17
db
5d
cd
de
2d
a9
a5
ed
23
f8
b1
ec
c1
b7
f6
f9
d3
a2
d3
fb
cc
6b
e7
28
4f
59
18
6d
e6
61
26
2d
b6
28
0e
4e
31
b3
da
0e
b9
b7
9c
3b
0b
ca
cd
39
c9
63
4c
13
21
33
de
4a
18
63
35
2f
3d
49
dd
21
cd
c8
47
1c
44
ed
a2
b5
f0
28
16
57
d2
00
23
21
32
d6
1e
57
51
05
56
14
af
df
3c
af
f9
2f
1a
15
17
ba
34
2c
fa
35
17
04
06
61
27
dd
3e
76
19
74
66
4c
d1
09
21
b8
0d
09
3a
a9
d2
4f
20
e8
b8
b5
d0
55
f0
21
45
ec
e7
1b
e6
fa
ff
0a
08
cd
fa
06
a8
d7
1f
41
0f
2c
a4
1b
e4
cd
a6
1e
08
41
d2
09
09
31
f0
03
68
51
c4
62
d6
12
dc
e1
fb
18
41
f5
45
35
a1
a8
c6
32
3c
c5
fd
0d
aa
15
dd
db
53
22
e5
cc
5d
29
11
f6
fb
42
bf
17
40
aa
d0
d9
dc
08
0e
bf
3d
5a
4f
a4
26
0d
1f
dc
61
50
fe
d0
29
28
23
57
07
ba
f4
ba
3a
cd
c5
d2
b2
ab
ae
0a
c3
d5
f4
fa
42
05
d2
5b
1b
e6
59
e4
fe
c7
d5
09
29
13
5c
2f
b9
38
44
30
08
c6
f3
1f
ea
26
31
fd
09
db
d2
e2
24
cf
f5
15
6f
51
12
12
c5
14
32
cb
5d
b5
88
b7
e8
e8
09
f1
4d
de
18
f5
34
c6
4a
55
1d
f4
c6
3d
d7
5d
f4
f1
5f
32
67
5e
3d
72
44
5f
f5
47
59
0a
64
7a
51
17
ed
48
00
f6
c5
51
1a
eb
e6
ea
30
40
62
4e
62
f5
e0
e1
ce
04
0a
3c
fb
6e
0e
1e
e6
10
4c
ec
64
e1
d3
c5
e5
2c
09
59
31
fd
2d
4c
ec
24
0a
5c
28
fd
e0
1d
6a
27
19
5a
ca
c6
d1
cc
41
d6
4a
5c
eb
30
fc
18
4a
f9
4d
52
48
d0
0f
4b
1d
16
44
d6
e0
1f
f2
35
3f
fc
33
1d
eb
12
60
4d
f5
3a
c0
02
f7
ef
fb
ea
ca
2c
38
37
42
4a
1f
04
53
39
19
2d
6a
04
3b
2a
09
6d
06
f1
0d
69
c4
54
d8
ca
ca
0f
e8
f5
30
26
14
07
04
43
20
0f
4d
be
db
d5
df
25
1b
17
12
45
cf
dd
bf
fc
41
61
56
1b
23
2f
61
6e
64
be
3d
41
d9
0b
fc
d2
52
32
47
45
f5
51
46
e6
cc
15
1d
12
dc
0f
6f
ca
10
cd
e4
31
ac
e7
f1
bf
49
47
69
2a
4b
2a
e4
fd
03
25
c5
eb
08
5b
5e
24
dd
58
37
cb
3a
12
00
f7
ed
12
3c
b2
c1
03
dd
ec
d7
12
06
12
ec
05
02
4c
c6
43
c7
eb
d7
15
d9
e7
04
56
09
f5
1f
3b
eb
b5
e8
c7
e9
08
c6
12
d1
60
db
df
30
d2
52
4d
33
36
52
c7
6b
68
29
0e
fd
e8
05
10
0d
ed
bb
bb
12
2b
b6
c1
da
1a
56
66
3f
4b
2b
d2
c1
0b
03
fb
d5
0e
02
ae
ad
13
a9
dc
4e
e5
13
14
eb
f3
4b
20
19
ae
ff
4d
f1
53
51
30
55
0c
ef
3f
1a
df
ff
09
03
b7
b1
09
1e
f9
a9
d4
c5
da
10
24
ee
11
f1
6d
ca
07
ef
fa
5a
14
27
57
1e
59
10
15
fc
1a
0a
04
22
39
fc
f7
f6
3c
b6
c2
f5
25
ce
68
36
1f
54
11
45
46
ce
07
19
42
d0
3f
bb
ee
15
c5
d4
a5
00
f8
11
bc
0d
e1
2a
16
50
50
ee
ea
d6
f3
f3
f8
01
69
44
c4
bd
f2
fe
35
f1
f1
0a
0a
ec
ab
4d
b9
39
b2
1b
c6
cd
2c
4e
2d
44
26
ec
f1
40
3e
c6
1b
23
d4
34
3b
0a
f7
49
1e
a4
46
b1
c7
16
f5
cd
fc
cf
16
4c
e0
29
28
29
3a
f9
d4
dd
f7
1c
13
f4
d3
04
48
05
d1
a1
2e
13
28
4b
38
0b
0c
30
29
c0
c3
f0
4b
f8
fc
1a
cc
b7
1d
1d
45
c2
39
da
e2
b4
4c
25
19
e1
c5
f4
fc
c4
f4
22
4b
fd
f9
ec
f4
58
59
f2
e0
0c
16
e7
38
9e
a8
2b
13
f3
a3
d4
23
d7
b7
0d
28
d3
f4
24
3d
dc
e8
f7
f2
db
d8
41
f2
00
45
ac
c4
f9
44
b5
a6
2a
01
c0
cb
a7
45
37
36
42
f6
21
2a
25
44
2c
61
21
40
5c
c4
1a
c4
c4
d7
43
aa
d2
44
35
f1
d6
e8
16
24
ae
e1
16
51
d9
3e
16
40
3e
01
6e
45
42
0a
f1
cd
3c
3e
cc
1a
17
f6
b4
a4
c8
46
10
f4
ed
63
c9
45
c0
12
62
bf
2e
d1
22
58
6d
f6
32
a7
4a
1f
08
38
3f
fd
14
01
2c
bc
f8
b8
4b
e9
01
01
ef
db
1f
5c
e6
68
11
13
ce
bb
36
50
b4
c1
ea
df
07
df
12
c4
cb
37
da
d9
50
6d
4b
44
c3
6e
fd
e5
26
6b
ef
5a
3c
60
44
31
3d
fd
48
06
d1
44
b9
c0
44
16
d1
ee
e4
5a
6d
dc
37
24
1d
04
ff
ec
ec
1a
63
28
df
1d
bf
ec
f2
a8
21
00
1b
e9
2b
f5
2b
16
c1
d2
d1
30
d6
16
52
0d
3f
f7
42
11
42
e1
e0
56
c4
fd
d5
0a
05
13
c4
e9
6c
e8
c2
cb
10
49
4b
38
c9
3c
4d
20
1b
4d
da
fd
19
10
2f
d5
54
d8
1b
d5
bf
f9
12
1f
df
56
c3
4c
1a
20
f0
6e
5c
13
d6
48
bf
03
d6
ea
4a
0b
c0
0b
f0
dc
6e
d0
5c
5d
e4
56
4f
51
e4
2b
19
21
24
1b
29
41
c0
5e
c8
65
45
02
03
11
3c
d9
5a
64
eb
1d
39
06
15
47
36
43
4b
03
5c
1c
c8
f2
c2
21
1f
36
ec
6b
ea
fc
0a
10
be
c8
02
25
35
29
43
61
1d
10
3f
0d
35
e7
56
f6
05
fd
65
10
6d
00
02
fa
58
f4
d7
1e
50
c8
4e
2e
59
6c
54
3b
13
09
04
10
d3
4e
62
10
66
48
f5
41
17
3a
d4
e4
3d
6a
3d
fe
fa
2e
37
4d
3b
49
fd
d2
5a
11
ce
f1
2f
d3
6a
ed
02
5b
26
18
64
00
6b
03
f0
38
e2
20
57
c4
02
47
04
d0
f9
20
43
e5
4b
37
e2
e8
24
5c
28
0d
2e
10
67
4d
60
37
31
e5
dc
c3
cb
d4
32
4d
63
ce
dd
db
6a
c4
36
39
46
17
ed
64
25
ec
1b
c6
22
df
63
d0
1c
27
49
0f
3a
e3
f6
c4
47
0d
9f
23
fc
fb
f5
a7
a7
ed
40
5c
49
5b
2f
4c
4d
ce
26
fc
39
4c
5e
ee
0c
e1
39
b0
f4
18
d9
22
04
1b
de
24
ae
3f
06
20
b6
14
36
48
d2
63
bf
23
fd
e9
f4
e2
0d
e3
23
46
12
18
b9
d4
d7
14
30
d5
0d
e1
9d
22
3d
ec
c7
f3
d9
d7
f3
1f
3e
1b
65
e9
0d
d4
b9
bb
a1
c0
b4
10
21
3f
ea
ae
b3
ea
f9
2b
cb
bf
5f
d9
c4
d2
ee
3d
c3
67
4e
3a
c6
18
cd
19
13
e9
50
d5
2e
d0
e6
38
d8
41
b9
44
c5
0a
d6
6c
e3
c8
19
da
2d
f9
ea
fc
6b
d7
18
af
cf
cd
b1
ca
28
4c
c1
cc
39
e5
c9
37
27
3b
38
28
0e
23
06
e2
40
54
3a
61
ed
25
19
b9
26
19
3b
a8
c9
cd
ec
ee
c6
1c
ee
5d
cd
4f
ef
31
d1
48
14
fa
fd
0c
48
c8
b5
db
ea
30
cc
f3
48
23
04
b1
13
ce
4a
a4
eb
02
c4
22
11
43
45
fa
62
f7
09
d5
4a
0b
cd
c7
ec
f7
ae
c3
07
ef
ca
9f
29
2d
a4
d5
da
3c
2f
0b
49
fb
2b
f0
55
2f
25
bf
bf
e0
54
1a
4c
e1
ce
b6
4e
bd
a1
37
38
38
a1
24
f5
13
c6
3e
68
38
ed
ca
fc
6a
38
be
0a
46
23
1b
2e
a4
2f
e3
ad
06
16
c8
2d
9f
d1
b2
a9
e1
d7
2b
62
70
46
40
5a
36
27
70
bb
62
dc
c0
d1
43
37
a0
0c
25
0d
ea
39
bd
e6
d4
c0
0d
cf
57
60
3d
01
c0
37
f7
3d
ef
e1
c1
b8
22
c0
4f
3f
ba
d8
e0
3d
c1
ac
da
06
d8
03
49
3a
11
d4
cf
6b
50
d3
0d
1e
f0
2a
f3
b9
bf
15
11
1b
0b
b3
f4
d9
aa
4f
a0
2a
e4
d4
a1
c2
0a
f3
49
31
f3
cf
3f
d5
3b
17
03
1f
4b
c5
e9
20
a6
ad
e9
d3
20
bb
3d
22
f3
fb
e9
f3
2c
e9
dd
ca
f2
ca
2c
cd
4c
33
0e
36
b5
32
12
21
ba
3d
18
c7
33
f6
2d
21
1c
05
b3
f0
44
ea
05
1c
24
66
0d
21
e6
f4
0e
46
25
2a
c9
d8
3b
c5
a2
0d
28
13
32
4b
d6
17
2b
0d
e5
cf
f0
d5
2e
dc
c6
02
4e
d1
c5
1e
e4
d6
d5
f8
0e
e2
33
17
b2
9d
db
50
6d
19
d6
31
e4
dd
69
18
34
3f
c5
39
3d
4c
f8
48
a5
d9
0a
46
e1
9c
b6
b5
54
52
26
11
f2
f1
3a
f1
0c
c9
6d
cf
3e
5f
db
44
6a
fd
01
3a
30
31
cd
20
01
d3
5f
ce
c8
0b
39
f7
d9
d5
1d
1f
68
16
29
fe
c4
e5
f3
17
fe
c1
26
f5
31
51
47
30
d0
5e
f4
2b
c1
18
e8
03
cf
39
1f
45
c1
0a
d2
55
d9
ce
5f
02
cf
26
fc
f6
35
10
43
f6
c5
69
63
32
6c
0d
3d
2b
31
32
d7
21
0a
1d
68
61
1f
fd
cf
43
2e
e5
0d
6e
3c
18
10
5b
6f
46
46
d0
ec
4e
14
d8
00
66
56
d0
d3
0c
36
45
60
3b
6e
e6
13
44
39
09
35
4c
32
00
19
62
4c
f9
fc
0b
00
50
34
3a
ee
53
06
cc
6b
06
06
fd
0b
4a
eb
26
f1
32
d8
c1
46
34
32
df
15
3b
fa
55
01
10
e6
4e
d4
6d
5f
df
dc
52
12
54
3c
5f
5f
1e
dc
64
c3
08
20
18
09
14
25
62
0f
eb
11
d0
14
e9
c5
46
57
c7
2a
ea
2b
d7
16
5d
11
fc
c5
ce
f1
5b
14
2e
da
d3
48
63
fd
cf
d7
60
fe
70
2d
ed
19
30
eb
15
68
6e
cb
53
fd
50
da
03
eb
58
28
17
03
2e
d9
d7
1b
03
4e
3f
37
f1
2f
01
15
14
51
fd
f4
6e
5d
f6
e6
12
20
02
64
13
dd
2f
04
35
ec
1e
c8
39
03
32
f1
cc
c2
1b
c4
55
0f
f4
31
64
56
d8
1d
70
69
6c
2c
f8
b2
2d
19
30
16
ca
fc
2d
a5
1f
ff
ed
c6
da
ee
6c
13
e6
6a
6b
dd
06
f2
37
1d
ff
dd
0d
ae
29
0a
e0
1e
cf
1e
f0
29
e3
ba
a0
c8
fb
55
cf
2f
63
d7
54
3d
26
01
43
cd
18
20
26
b2
d8
43
fc
02
cb
b1
36
ae
4a
f3
34
34
e1
0d
67
27
28
3e
44
00
da
67
da
d7
2f
0f
f1
bf
4f
f6
de
54
9c
da
a3
d7
b8
2c
bc
b4
5f
1c
e6
eb
62
52
ee
3e
05
d5
2b
46
04
f3
e7
aa
b4
fa
be
db
12
01
e4
29
fa
a6
23
02
2f
1e
40
f9
f4
3f
5f
dc
4e
6b
68
08
41
35
08
55
cd
ee
a4
38
01
26
c5
e3
10
34
3d
dc
da
ff
70
f6
cb
ee
e4
17
2f
cf
18
45
c7
e0
20
02
cf
37
39
a5
21
99
21
f7
cc
d3
01
e3
f2
34
56
32
e8
cc
c5
e7
da
18
33
ad
ed
f4
e0
36
10
ae
ff
ea
44
bd
fc
29
46
9c
df
64
16
1e
0e
03
1d
e3
fa
65
2f
d3
63
33
28
4b
ed
51
a9
e2
37
19
e5
46
fb
ef
2a
19
09
0e
47
0b
c8
d3
cb
de
30
e4
2c
71
dd
25
b4
3e
22
ed
d2
9f
d9
3f
4b
fb
38
ea
49
30
00
21
b4
39
6c
44
cc
19
1e
28
d8
6f
cd
4d
cd
06
05
f1
b7
a5
a7
0f
fe
e1
e3
a2
bc
db
07
b6
3f
f9
e3
ef
08
fb
43
55
16
00
cb
56
14
f4
04
d3
2e
4a
3a
3d
b8
ad
ef
04
d0
f1
c1
2c
e4
03
12
3b
0a
21
f1
31
67
6f
fd
26
59
f2
01
41
b2
b5
2d
1a
f6
07
4e
46
f5
d5
c1
bc
5b
2c
4f
1a
fb
cf
47
fe
60
f9
43
27
2d
b9
a6
bf
c2
43
c1
e3
31
e7
bd
1c
fb
aa
d2
d5
1c
00
6e
bf
1d
f3
5a
ea
c5
17
49
ce
3c
17
3a
d7
d4
ae
4e
dd
f9
aa
9c
33
49
24
1c
c5
2b
11
d7
08
e3
0a
ce
43
43
50
e4
35
39
1e
e8
0c
9f
02
bc
45
a8
ee
ef
28
f9
b2
1d
3c
cf
5d
0e
4b
da
46
07
56
05
1b
fc
cd
03
0a
99
29
f7
f5
d1
01
07
2b
e7
b1
dd
0b
c8
db
56
0c
28
cd
d7
fc
56
53
54
f2
57
3d
ea
56
c4
d1
c1
e7
b6
ed
1e
31
f0
ca
3a
19
fb
6c
db
35
64
54
2f
3e
c6
5f
de
db
c9
61
3a
4b
19
60
51
cf
41
f5
e6
2b
50
c6
f6
d6
3a
0c
69
2e
2e
16
44
4d
c4
df
46
52
d6
d0
06
df
56
e2
6a
01
71
e5
ee
28
e3
c9
05
6c
f9
18
62
1a
1d
6e
6f
3b
d9
4d
ef
5f
64
e1
03
58
19
14
ce
c4
4a
20
05
d0
70
51
d0
6c
f6
43
0a
4b
6c
07
03
e9
d0
d0
48
5e
e5
d2
f6
ed
ea
26
41
d1
3f
ea
50
32
39
1b
04
3d
ee
4d
13
51
ea
67
5a
41
59
1a
01
d5
f8
3b
27
0c
ec
29
75
63
5c
25
25
6e
3d
54
1e
e8
5e
48
d2
e1
cc
d3
4c
03
12
c8
ca
f0
0f
70
08
12
db
f3
72
e0
6b
5e
2e
03
f4
48
62
d1
63
3a
11
66
1e
6f
d3
0e
24
0d
54
ef
48
24
6f
6f
27
4a
4b
22
e3
74
16
43
50
63
37
53
6e
4e
46
28
e8
15
fd
29
44
19
1c
2d
2a
06
36
5d
74
3d
f7
6b
12
1b
dc
f5
d6
d7
da
2b
c8
23
d4
dd
fb
58
42
39
25
d5
cb
09
27
71
fd
32
d4
39
4e
31
09
f6
55
44
19
4f
46
36
33
27
de
3e
59
3b
26
c5
3b
1d
16
73
42
0c
fb
ee
55
db
d2
e3
99
ea
ae
27
30
41
39
06
eb
d3
bf
fa
11
4b
46
55
c7
ea
d2
d0
61
72
f5
52
4e
0b
b8
c3
9d
fc
d2
e8
1d
2a
9d
0c
ab
4c
1d
c5
de
75
e2
57
74
ce
c7
22
3d
6d
4b
c3
2f
0e
39
02
f9
12
2d
99
e6
e6
bd
c5
1b
cd
c4
28
fa
d2
df
e8
42
3e
c9
d7
dd
24
e5
9e
31
1d
f9
c0
47
00
41
1e
9f
03
c0
29
04
f6
f4
43
18
12
5c
ea
09
73
54
e1
41
40
10
29
d6
08
31
24
09
da
ac
aa
c4
1c
d3
17
b2
08
a1
fc
18
0f
5c
6f
72
fb
f5
16
1e
51
9c
29
fa
08
ff
e2
18
43
39
45
31
47
1f
d0
0b
de
f5
4b
69
17
5b
63
25
06
de
72
08
43
fb
26
bd
3e
cc
a2
a5
17
df
15
dc
b0
43
25
f7
eb
98
36
dd
07
f1
f4
db
06
0d
e9
e5
c6
ba
46
22
fd
e4
2c
f9
d6
77
e6
ef
1b
a7
15
0b
07
17
61
69
15
0f
6d
43
36
c7
42
0b
31
fa
1d
f4
0b
3f
43
18
c7
c6
b6
cd
e2
c7
d2
a6
1f
09
f5
e9
19
18
cc
2f
5c
4c
fd
19
dd
2b
0b
b2
22
f8
e6
00
bf
e8
ad
b9
00
37
1e
ad
f2
45
54
e2
13
11
5c
00
33
6f
c6
2b
a3
47
35
ff
39
3b
29
22
1f
17
f9
0c
03
e7
2f
09
f0
42
e2
05
d2
3e
ea
fb
06
5e
2c
51
d7
42
ff
b6
0e
ff
b9
af
2a
4b
a8
45
c3
a6
1a
99
c3
29
d4
60
12
ea
3c
00
f4
d6
05
67
ee
e1
21
08
37
2a
d6
c4
10
07
d8
ce
17
22
02
ce
e1
eb
c9
e8
c6
30
ce
54
59
1c
52
f0
18
e9
34
cf
c5
f6
dc
1a
e4
ce
24
c0
bb
22
12
e8
e3
01
ef
ca
09
0c
5f
6d
47
f5
50
fd
ee
d3
23
9c
09
31
a6
0c
eb
1e
a4
bf
e1
ed
e3
a1
2f
39
dd
65
70
6f
ea
1f
05
17
df
d7
d3
03
2e
3b
d2
b6
e5
eb
e2
23
e9
d8
02
cb
e2
0e
b8
ca
ee
0e
53
38
08
e5
3c
03
2f
18
5e
3f
1a
b1
d5
a4
3b
2d
f0
35
cf
bf
35
a8
e3
3c
5e
da
e5
3f
d4
69
db
07
6c
4d
24
f0
cf
44
00
99
07
28
21
f6
d3
00
0c
2e
e2
2b
fd
22
c7
36
3d
fc
e7
04
cf
c4
fa
fc
f0
08
e3
6b
d0
11
41
d9
db
c7
e2
06
ca
ff
fd
0a
4b
f2
60
01
24
19
db
30
32
18
61
d7
d0
3c
47
4a
27
22
f1
57
df
2b
b4
43
19
f2
16
39
62
08
ed
65
6b
24
60
58
58
e5
69
f4
16
59
c5
3f
10
26
61
cf
74
28
07
1d
2d
0a
3d
43
24
09
c5
e9
ee
e0
55
71
34
6b
d9
16
fe
fa
30
31
e5
46
f9
2f
18
5a
44
0c
6d
14
e7
e1
73
e4
2d
26
e4
c9
fe
fc
d1
62
6e
40
42
1a
f2
27
1c
e2
3d
56
cf
4e
74
70
3b
2c
63
36
16
11
28
cb
0a
c8
6f
c8
75
f8
22
38
4d
59
e6
f6
e1
1b
3c
ea
f8
3b
fd
51
02
5e
e0
69
dc
4c
49
e8
4b
39
e4
ff
31
d2
e3
e2
0a
02
db
15
16
dd
14
1e
1a
37
c9
d5
5b
49
2b
21
e9
64
4b
44
2c
3e
e9
15
d4
c2
fe
28
1e
f9
d8
0c
21
07
e9
5f
e8
ed
71
56
5e
f8
3c
18
e3
dc
66
43
c5
37
f8
d6
3e
5b
38
0c
c3
61
24
31
1c
f1
54
5a
c8
0c
eb
07
70
de
fd
28
fa
4f
3f
36
59
c7
21
3f
04
5e
5c
1b
64
03
f9
70
62
11
46
43
27
14
f4
e8
5b
dc
d6
70
d8
e6
29
6a
32
1d
29
f6
25
31
61
29
16
2c
00
5b
2c
f5
d1
1c
2c
c4
2a
24
f5
00
b2
f8
5e
1c
c6
f8
3a
ed
d3
d2
d6
c7
3d
f5
0c
4f
62
e8
d5
d2
c9
9d
3b
bb
00
2e
0d
a9
fb
2b
d0
a6
0f
cd
d3
db
09
6d
4a
0a
c2
fa
d8
31
2d
57
ea
41
10
40
e1
e3
12
f4
09
08
14
14
3b
2c
28
f2
42
1b
24
02
5d
5f
18
e5
fa
4a
5b
4d
c9
e4
9a
36
fd
fe
2a
26
41
16
17
0e
cb
42
22
26
64
3d
51
3e
06
2b
5b
32
d6
00
4e
c8
e0
b1
03
09
28
2e
c4
a5
2b
b7
a8
ca
e7
f4
f0
bf
61
32
4c
12
00
da
e5
19
2f
59
cf
d5
22
29
a6
3b
22
ac
36
ba
2e
ec
2b
db
ad
20
cf
27
db
c4
14
cf
2f
dc
37
d1
f7
21
3a
cf
28
f5
aa
c6
b0
08
53
f2
c7
a2
07
36
17
af
15
cd
4f
56
5b
e1
58
68
4c
51
1d
6b
36
48
48
d7
36
c3
3a
bf
22
b1
9f
de
fc
c6
c8
c9
c9
25
03
4d
00
6b
68
59
f5
f8
68
10
c5
26
2f
1d
44
0f
b6
38
af
ef
2c
c6
2c
32
ef
c5
d9
f6
f5
e0
6e
da
6e
e9
e3
fa
01
18
b9
3a
02
1e
fe
cd
40
30
3a
fc
1d
e3
f6
2b
f5
da
32
43
e1
e6
c3
58
43
34
03
d8
35
31
48
d4
de
34
12
ee
fd
ad
0b
c2
ad
21
3c
4b
d9
b4
32
12
15
12
4b
36
f7
15
0e
19
1b
35
e7
df
42
3c
a2
fb
bc
18
c5
d6
06
9c
e7
0b
e3
b6
3c
1d
ff
66
05
49
20
3b
36
28
16
04
0e
d0
10
9f
2d
3f
4e
40
30
0e
bf
1d
ba
eb
b7
cc
2e
a2
ce
4d
36
c2
6c
59
fd
4e
04
21
07
1b
24
f3
41
9e
41
3e
d5
b3
bc
f5
2b
41
fd
ff
b5
cd
d1
e3
f8
11
d9
ee
58
02
ea
48
0c
d1
4b
17
b3
03
c0
bc
a7
be
c1
c1
33
00
d7
13
34
13
ff
50
ef
15
24
d6
f3
d5
1c
f4
1f
1b
ba
b2
3a
3f
27
0e
f0
ec
ae
dc
10
c9
4a
f3
0d
cf
20
39
68
c6
19
03
df
55
d1
c6
e8
61
e2
1f
a6
0d
07
c7
c4
dc
b6
b1
44
b2
ff
d8
f4
55
ff
55
61
c1
d5
42
19
3f
14
1f
28
fe
de
d3
a5
3d
35
d8
2c
d9
fd
a1
23
c3
0d
61
69
5b
e2
c3
33
49
47
19
e8
6a
5e
04
38
51
09
1a
c2
25
a2
e7
f5
b1
33
0c
97
4c
e7
3c
26
d5
55
d4
e2
f4
f9
e5
02
38
2f
2f
04
71
e5
57
4b
08
20
9e
2d
3d
ae
27
ac
2a
2c
f0
4e
f1
2b
15
20
01
d3
30
02
51
25
68
07
66
14
32
64
64
06
54
37
69
75
2b
f2
d6
18
2d
19
e8
4f
f3
6e
ec
c2
11
4c
73
1a
35
0d
3c
36
c9
d4
45
f6
5b
22
c8
32
f4
4b
c5
48
ca
6b
cb
5c
70
27
e7
da
64
04
5d
68
f3
09
45
50
3c
0a
c2
1a
cd
20
00
46
29
38
5d
e3
5d
0c
1a
68
2d
19
5d
e3
5a
28
07
1f
eb
c4
61
c6
54
ed
66
35
ea
4b
5f
35
17
47
56
dc
6c
e9
c4
35
28
20
ea
f3
d9
47
26
e8
60
6f
4b
df
60
61
3c
d2
5f
07
59
46
59
e9
6e
f2
cb
e4
07
48
2a
48
4c
23
f4
18
cd
cf
03
d7
4c
50
18
e5
f1
68
1c
4c
ec
4b
52
ed
29
fa
65
25
68
38
46
e8
01
05
3a
33
0b
e5
68
c7
c9
0c
e7
57
e1
2a
0c
3f
67
55
d9
c6
0f
3c
13
61
2a
4a
6d
cc
60
3d
0e
1b
22
d7
54
2b
28
d7
cd
e0
51
e9
10
dd
09
d9
05
c2
c5
50
eb
32
63
f4
0e
4e
66
f8
11
e2
00
52
48
6b
d5
08
c9
c3
f7
f9
1a
e9
3e
e2
3c
d2
c7
45
c9
22
1a
43
d2
c9
62
33
d1
c9
4f
4c
3a
0f
c7
fe
fb
64
ae
f1
d4
1c
14
09
e5
0b
25
fd
b3
14
30
21
d5
64
08
ec
f9
11
e6
19
dd
fa
6b
1f
c8
e0
49
ba
a9
1b
1d
47
13
3e
a2
3b
28
39
cd
cb
04
31
d9
29
23
2f
5b
fb
24
30
d8
3d
c6
b3
a5
3e
b5
e4
c9
b2
e3
44
2c
22
f0
a5
01
f0
1b
d7
cf
cf
65
55
62
dc
12
27
cc
3d
cd
3e
dd
10
f1
4b
1a
36
1c
e9
ad
00
c8
19
28
d6
1d
21
4f
61
38
eb
2d
e1
5a
3e
ab
fa
0b
16
2d
ff
f9
ed
f3
39
42
f0
fd
ab
fe
e8
17
d2
11
e0
36
40
ed
49
54
25
4e
72
18
d1
f9
d0
3c
20
9d
c0
33
e1
d5
d7
a2
48
a2
ca
50
37
49
cd
eb
22
70
3b
ee
56
58
00
d9
1f
e2
a6
38
c6
ee
20
bd
12
27
ae
1e
0d
38
08
ef
47
4e
de
13
23
2a
39
2e
fb
36
dd
28
1e
2c
00
3d
e0
13
fa
0f
25
c2
f7
21
aa
0f
40
51
57
05
0e
37
e6
0a
f7
ef
db
6a
48
fa
0c
ef
db
af
f6
b5
07
c3
c4
9c
e5
d1
ec
d1
b7
35
01
35
2d
f4
07
ec
24
df
0b
ff
0b
de
fe
cd
b0
ce
45
e1
fd
f8
ae
2e
21
e2
e5
a8
23
41
e6
58
fa
21
f3
32
55
61
50
41
d2
e6
13
07
2c
31
42
4d
c5
d3
ba
04
32
1d
e5
b2
0c
4d
1a
d8
3e
ca
f8
0e
58
34
69
13
12
de
3e
c0
a1
33
a7
ba
cd
d3
2a
10
42
d6
12
46
dc
c5
20
39
d9
30
71
d4
ec
1d
e5
66
cf
c6
9f
17
f4
1e
24
32
3d
12
f3
13
4a
dc
2e
17
2e
54
71
2b
d5
dc
13
0c
1b
d5
37
17
18
da
03
e2
db
b8
b3
dc
16
14
c8
a7
11
a1
c9
fc
15
d2
c9
f4
36
f0
2b
5c
04
f5
f3
ca
07
b8
63
ba
03
04
e8
b4
31
f3
33
c4
34
02
0a
35
45
31
f2
43
70
65
05
ff
6e
62
5a
d4
0d
ec
e2
fd
37
2b
c2
d6
f3
cf
a4
c1
e9
a1
c2
ed
09
61
e6
c6
2b
1b
49
d1
16
f6
47
da
19
24
6b
cf
d9
16
fd
a8
40
d6
9d
0e
b4
b0
ec
45
23
49
6d
39
39
d7
06
cd
22
55
db
ff
30
6c
6c
fa
08
b5
31
a7
2e
2c
d5
a4
3c
2d
d6
0c
5f
20
27
40
14
6d
f2
36
02
fc
44
6d
0c
fe
f0
23
e4
b7
0d
33
e8
2e
1d
03
47
63
07
6b
01
20
1c
20
c3
d4
e5
e8
2f
6a
44
dc
e5
e8
47
5b
20
73
d7
30
f5
03
e3
29
a2
30
02
5b
16
45
0b
e0
6c
c5
de
d4
24
5b
1a
d3
05
42
4f
d3
f8
d0
07
29
22
15
3b
0c
69
68
db
29
dc
2c
c9
5b
63
52
d6
4d
2b
6c
46
e9
2d
c4
07
21
69
ca
0b
f3
69
5e
d0
60
ee
da
01
39
60
f8
f4
1f
72
36
c3
3b
2c
59
25
05
6e
bf
e8
65
f9
5e
33
1e
e0
fc
6c
5d
e0
2b
2a
cd
21
5f
f0
51
44
15
6d
f7
59
02
2c
3c
f8
43
3a
63
3b
13
d0
44
48
6a
11
d7
12
f1
5c
67
19
5f
c0
46
57
16
41
6a
3b
1c
c9
da
ef
4d
4b
2a
66
f0
d9
4b
53
69
23
21
52
6c
43
e8
52
cd
c1
66
2e
d7
22
30
fb
47
16
cc
36
c2
1f
20
46
f7
63
d5
25
af
34
ff
4a
c3
65
d0
45
c3
d1
d4
07
19
cb
e5
33
3f
69
c4
c8
e6
5a
55
df
c8
1d
db
0b
49
4e
c5
cb
c3
d6
c8
ff
dd
ea
14
58
54
19
50
de
2f
53
d4
28
ea
0a
6a
10
2a
5b
fb
c0
b6
c5
df
00
19
6d
0e
dc
33
61
30
e1
06
2d
5e
f9
62
f8
d3
38
36
38
2f
e1
48
c1
ce
e0
c1
ef
fc
e0
41
b0
f3
4f
50
61
3e
d8
4f
06
f4
53
e7
18
ff
d5
ca
c2
13
0c
f5
c7
dd
4e
ce
ec
c8
41
a1
ae
14
08
c4
1f
03
56
2d
63
36
69
2c
3a
2c
39
0a
d5
4d
42
3c
d9
33
d8
ae
b8
d4
b8
ec
19
f3
b4
36
53
60
59
c1
05
cb
5d
d6
ff
c6
f9
04
47
57
b1
ee
34
ac
38
a7
db
1f
02
b4
13
e4
c5
cf
06
ed
f6
38
f3
c5
3c
39
d9
e6
dc
3a
44
da
1e
dd
48
14
30
fc
f9
e2
d2
d5
27
ce
62
44
e2
49
f2
f5
cd
de
cb
20
30
0f
f3
2d
53
e1
b2
b7
18
3a
05
c5
21
02
39
3c
eb
11
e0
27
1a
5f
65
ef
d4
c9
f7
cf
e9
cc
d4
0d
e6
03
22
1f
13
09
ae
fd
4c
22
df
ce
a1
4c
17
5f
06
68
57
c9
dd
6f
4c
5e
67
3c
47
f0
44
e1
10
4c
31
c0
c1
ca
dd
40
1f
45
a2
17
11
3b
c3
2e
15
18
ec
ec
c7
bf
14
06
c7
d1
df
4b
2b
e5
b4
f9
ed
f5
f1
9f
29
0f
e1
2a
26
31
da
0c
20
c9
f0
3d
2f
30
ca
48
2b
00
f7
12
0e
1f
00
a3
1b
ab
44
be
9d
de
27
34
b3
0c
11
c5
51
28
18
11
d0
4d
00
70
c1
be
e8
a3
3d
12
ed
34
b2
b0
db
df
2e
c3
9f
2f
c1
46
3c
2a
4f
51
c5
60
10
2f
e8
db
fd
ca
29
dd
e4
c2
28
20
d3
a3
b5
da
bf
28
c8
35
ca
e8
fc
33
e7
33
25
48
c0
65
56
4a
4b
1e
1d
13
ad
41
b9
db
ce
cb
1f
04
bf
51
e8
d2
bb
d6
2e
68
0b
3b
50
25
67
20
d0
d9
6f
fe
d8
c9
34
40
16
d7
a2
24
1b
0a
c1
2e
04
39
56
0a
e9
1d
67
46
0c
33
1e
10
63
ed
6d
38
48
be
40
0e
12
a6
31
4f
f8
de
b9
b7
f2
43
30
1d
01
3f
ef
24
4c
00
fb
ee
51
03
f8
10
be
37
a6
0b
24
26
a9
14
4e
ef
44
50
d9
ef
de
dd
c0
d1
cf
23
d7
fc
32
67
0c
c4
c2
0c
d2
c8
ea
cd
ee
d4
42
d5
c9
0f
ff
18
33
03
06
4b
0d
4e
49
0b
f8
df
c2
f1
e5
1e
f9
d1
f3
2c
51
37
1f
bd
c2
aa
2b
30
d0
bd
2a
f6
6d
69
ce
44
ce
c0
ee
d8
21
0c
67
46
4a
ed
16
fa
18
45
37
14
58
fd
cb
47
eb
2b
49
4d
17
e8
fa
38
4e
19
13
33
49
07
4d
c6
0e
f2
2e
de
42
f3
34
d9
31
0d
c3
f9
2e
cb
df
e3
c5
54
fd
6b
1d
27
6b
5e
6b
35
5a
f3
31
df
1b
fd
f8
dc
6d
3a
21
17
c2
c9
31
eb
19
d4
47
4e
38
2d
0f
5f
66
f3
e7
fa
3c
d6
2f
5a
3e
44
27
d0
5e
11
39
54
db
67
51
41
d7
20
70
16
e2
0c
ec
ec
3f
64
6c
e0
14
03
0e
d8
23
16
50
ce
e1
c3
10
75
47
45
fd
ef
57
1c
6f
cc
69
3e
fe
5d
fd
5c
c7
5a
f5
f6
28
3f
e5
23
4b
d4
f2
0d
3a
4a
19
0e
6a
d9
32
6c
f0
55
58
54
51
03
db
ec
32
68
2b
09
70
4c
49
40
33
17
d8
e6
2d
2a
6b
0b
df
3e
cd
c8
cc
55
12
51
27
6f
4a
e0
2a
54
51
44
67
45
fa
cf
51
c8
ee
e9
cb
c7
d3
5b
f2
e9
de
27
72
f2
f7
04
fd
6b
5d
4c
63
1a
d7
3f
d1
e7
21
37
62
f2
d6
d0
eb
52
1b
48
51
fd
eb
72
eb
fa
e8
69
e2
ee
04
ca
1c
0e
c4
66
fa
04
23
4c
53
f3
15
fb
d1
c3
df
0d
bf
bd
46
48
05
26
0b
2a
ff
6d
09
29
27
e9
00
5e
42
10
0d
d1
f2
e8
bc
f4
9d
c7
f9
2b
29
a3
c1
f6
1b
36
74
64
5e
2a
fa
08
d5
20
17
fe
d5
e3
d5
14
3d
bf
13
f6
35
f2
3b
09
f8
ae
be
dd
13
cd
fe
06
30
68
dc
70
d5
d6
5a
34
31
3e
14
a6
29
d5
a2
e3
b9
36
eb
f5
db
3a
0f
c8
f4
48
fc
08
01
12
51
f7
e1
05
0c
dc
1e
42
d4
06
95
d4
2b
0d
a6
aa
3f
c2
09
ad
03
02
01
c0
cc
00
1f
11
10
1f
4a
46
43
ef
ec
51
e7
06
b6
27
3d
df
22
0e
bd
5d
a9
b7
c6
46
ae
41
1d
1e
cc
48
e1
64
c7
c5
27
d5
4c
20
29
dc
38
b3
10
a6
2c
29
db
eb
4f
3d
db
b8
e4
d7
c0
e5
2e
75
c4
01
f0
dd
1b
15
f5
a1
1a
05
3d
0b
d3
47
35
c7
e5
ca
ee
d2
f6
35
31
36
e8
61
d6
f8
50
57
0f
fe
2f
47
27
ee
12
b9
0a
2c
af
2f
47
ac
c3
f0
20
52
bb
bf
26
40
e9
ec
38
21
fd
53
67
41
ca
41
10
b0
25
43
ef
a7
4a
af
f2
ec
da
1a
b1
31
9c
f1
41
bb
c3
12
ea
45
2a
e7
11
6d
1d
b5
d6
1f
dc
b0
ee
e8
f7
1b
53
c0
0f
a7
b1
d4
f0
a1
d1
40
44
e8
ec
73
08
d5
5e
c8
5b
6a
12
bc
cf
b3
da
3c
db
bd
25
c5
ce
eb
59
b9
1f
39
dd
cb
44
6d
db
75
3d
23
f4
1e
57
e8
3e
3e
2c
16
0f
10
ee
ee
4a
09
cb
08
a5
05
f0
d3
cf
a8
e8
f9
5d
21
00
2b
5d
2c
1a
4b
b7
ba
bd
2b
19
3c
0e
00
f6
c1
42
f2
aa
3e
34
b9
2e
bc
c6
0d
1a
37
42
12
0b
59
1a
fc
bc
40
2f
29
29
02
fb
ee
e5
f6
25
d2
ad
18
f5
30
f4
e6
d4
dd
40
c4
ed
5f
58
e3
64
51
b9
0c
d8
12
10
f1
b8
03
ad
10
e5
00
35
f6
1f
c3
1a
e3
f3
32
39
da
53
12
28
19
59
22
50
21
c0
c1
d4
a3
e8
12
e2
28
fe
d7
0c
44
36
9f
4c
2f
5d
6e
5e
63
15
f8
57
c4
46
4d
f0
10
5f
c0
ad
c0
3f
2a
c8
02
3b
a9
da
d9
1d
e4
56
51
f4
ca
42
f7
30
de
c5
4b
55
fe
31
ea
36
38
05
cb
bc
a1
4b
c8
33
20
15
05
11
2c
3f
3e
21
60
34
6b
66
64
60
67
4b
0a
c7
59
1c
ef
3f
c8
2e
ff
eb
ab
b6
f8
ed
f3
53
c9
24
48
37
22
4c
0c
d2
56
6d
6e
e9
08
e0
c9
34
10
16
12
eb
fa
df
30
de
00
42
f8
17
fc
cf
d7
3f
3e
20
ea
5a
0b
63
18
fd
0e
fe
fb
53
e8
34
e4
5a
fe
d8
3c
66
6b
61
62
44
eb
e3
d8
0a
f8
61
d2
21
52
70
35
ca
04
4e
54
21
d5
05
01
1c
2d
51
2e
5c
49
39
2d
57
41
23
4c
12
2c
db
f2
e0
f6
e8
69
ee
5c
56
51
cb
32
30
26
e9
15
1a
c0
e6
04
69
38
cf
e0
e0
e7
22
f9
d2
14
20
6a
2f
19
4f
4c
28
22
e5
d5
37
58
55
c1
df
dc
11
f6
44
3a
65
e5
2a
17
39
0c
37
fe
2c
3f
04
64
07
71
24
35
e3
c2
45
f7
5b
4d
c9
3f
1a
0c
c1
51
e3
42
ff
ff
c7
f4
36
ee
c2
29
08
c4
4d
d2
20
42
51
01
56
4e
13
58
6d
d1
0c
34
2c
e0
2e
34
c2
e5
e8
41
6b
cd
08
23
72
28
c1
de
e6
c8
4c
f6
3d
69
28
ff
48
16
e9
b9
24
e6
50
20
5d
44
f3
0a
16
60
55
10
e5
59
e7
58
65
e6
50
3d
03
57
a4
d4
c5
1b
ad
f0
3a
ec
15
f0
39
f5
2a
3e
33
14
2e
c7
e8
fc
20
e2
15
6e
45
f3
1e
a0
b3
d9
2f
c5
2b
29
44
33
fb
26
28
9a
d6
2d
f6
ef
4e
fa
d1
0e
52
41
1e
6a
3d
cb
d2
d2
0b
3d
ad
ab
d5
a3
1f
ba
48
b7
a8
c6
52
21
6b
ee
d9
e5
cb
69
f6
50
65
25
01
0a
9d
d5
40
f2
25
d9
d5
bc
c8
bf
28
c2
0e
e5
14
06
c8
3f
51
eb
ef
70
20
03
ef
54
c7
bd
43
e0
a5
dc
d7
d3
d2
26
a2
16
9c
10
11
fa
fa
30
e8
34
4b
0d
07
1d
37
4a
1f
36
e4
10
bc
05
35
36
f4
e1
4f
13
03
b2
23
16
ec
e4
3c
10
dc
d9
3f
52
1f
6e
c7
63
28
e3
1a
3f
2e
e4
f7
e0
0c
ea
a0
e4
0e
3e
20
04
f8
1a
be
ef
f9
53
32
62
0a
1c
15
49
08
39
f2
48
b0
08
af
d7
ba
eb
2a
0d
08
b2
d8
d5
db
2f
ed
ee
ff
6f
1f
6c
f2
49
d8
63
01
c7
34
f7
a0
ef
a5
25
e9
a0
b6
f1
2e
06
12
0b
9d
b5
0c
55
17
3a
2d
fd
db
d4
1b
6b
e8
1e
35
c4
1f
01
ad
2f
10
2d
dc
ee
21
40
f2
ed
e1
d1
35
38
5b
23
25
e8
d2
f4
e6
d6
ef
bb
25
f1
e8
47
b4
f4
c5
28
14
02
df
a2
e6
da
4a
06
36
dd
02
3f
4b
49
0c
2c
de
04
f3
2c
9d
c7
a9
ac
22
14
b0
49
d7
c7
3b
d1
19
2e
13
30
c9
fd
0b
f1
6e
3d
ee
69
c9
27
e1
0a
06
37
b6
ca
dc
4a
1a
a2
0a
b4
be
0f
22
3e
41
db
fe
d3
f9
ce
47
42
69
40
33
39
3d
b3
1c
c4
9e
a6
25
a3
f7
ab
23
12
aa
9c
36
d4
38
c8
49
fb
f7
43
c3
2c
39
d0
db
d2
b2
49
f3
08
44
03
c4
19
4c
0e
45
23
35
2d
c3
bb
fe
13
5f
e2
48
43
d7
37
d3
63
44
41
11
ba
e5
c1
17
ee
cd
ad
e4
36
ca
42
ed
e8
e6
1b
bc
24
38
04
0f
4b
cc
d5
4f
3e
66
5f
c1
1e
b8
f3
15
39
c2
19
b0
17
b0
37
49
fc
26
bd
39
e6
57
20
24
c3
cd
fc
34
1f
f7
49
ec
fc
4f
cd
ee
b3
b6
e5
49
b4
4e
d5
ea
e5
3d
1d
30
cf
cb
e6
65
1b
d0
0f
69
ce
cb
08
12
43
cc
04
11
0b
23
35
c5
c3
43
19
cf
d1
52
4f
56
51
e4
43
19
cd
f2
3c
f4
55
5b
f0
f5
01
26
25
3d
c4
2d
d9
f0
e7
e7
ec
ca
f5
cc
11
52
f5
ec
00
72
72
6d
62
48
d6
4d
09
1c
3f
de
61
47
37
2d
20
cb
e9
d3
17
73
07
61
fb
f6
f2
2d
17
17
26
69
e6
f1
df
d1
12
c2
e6
c3
13
5f
f8
6f
08
01
37
d8
6c
15
c4
3e
e1
00
68
06
23
1c
e2
4d
1a
36
d3
1b
6e
64
41
15
cf
2c
d6
13
46
4b
2e
24
46
dd
03
3f
f7
e2
4b
d6
c7
2a
1f
e9
54
03
4f
03
f7
c5
d7
50
51
3e
c3
3d
42
67
ca
5e
2d
d9
e2
c3
63
42
18
e8
ec
4e
35
c4
5b
ef
f9
38
df
1f
24
c7
2b
eb
5f
16
cd
00
55
13
37
44
f6
d6
06
d4
25
24
14
f9
cd
1e
50
0b
22
38
4f
2a
65
f4
04
d8
3d
4c
5a
ce
28
4c
01
04
c8
1a
73
35
6e
10
d0
35
44
fa
04
26
4d
33
21
2c
e3
46
20
42
f3
db
1d
50
aa
aa
ff
d8
4f
56
26
1c
e5
65
35
40
04
74
70
cf
60
dc
0b
37
56
e9
64
22
c3
47
2f
1f
3f
25
44
ef
31
ee
27
0c
41
2b
e0
68
31
15
27
32
37
51
11
cd
24
3d
5a
3a
bf
a2
b7
f3
0d
c3
c4
34
41
d6
6a
4d
d7
09
53
41
e2
d3
24
28
fb
e8
6f
05
f1
67
18
d3
c2
d6
29
3c
16
c2
dd
e4
d4
b3
04
5d
50
f7
d3
44
08
40
74
39
f3
4f
c9
32
2e
f1
2a
c3
06
e8
1b
a2
2d
0e
14
e2
f1
cf
0e
2b
fe
59
d4
e6
40
f2
10
0b
d0
fb
54
4a
58
cf
f6
43
ea
ee
26
cc
f9
9e
a9
43
d1
af
23
dd
30
c5
15
04
6a
cf
eb
cc
d7
38
49
35
3a
fe
a6
dd
9c
2b
af
c7
1c
33
f6
e5
26
dd
d7
12
68
dc
6b
0f
1b
1d
64
0d
c2
26
08
ef
53
3e
b0
b2
14
02
33
23
a9
d6
15
10
b9
f7
ff
ee
3c
37
f2
48
68
e2
67
0e
35
68
bd
4c
df
3e
ab
24
2e
d6
05
ff
10
1d
c0
b1
3e
f7
e8
d1
47
e1
c2
de
25
2b
28
31
ce
4d
67
e1
19
01
2e
1d
11
df
a3
36
4e
ac
11
fd
c4
bc
07
ad
c1
f1
4e
e4
ee
4d
66
d9
e8
4a
17
0f
0d
f7
fa
2c
dd
c7
fd
d4
e8
03
ac
c8
31
2e
b1
ee
d1
36
ce
20
f7
46
57
6a
68
59
e9
31
d4
db
e1
49
ba
4b
27
fd
eb
02
eb
c3
e3
16
05
2f
4c
57
e7
60
28
4c
f6
1d
f6
ea
de
e8
14
5d
ac
f2
a4
3f
ba
af
26
e6
16
48
2d
2f
dc
33
f1
1f
17
e9
fd
d5
29
d4
c7
eb
d2
f9
f4
f5
b9
ce
20
f1
e6
b5
0a
b1
13
33
3c
1f
2b
ad
c6
3c
ca
ea
ea
64
dc
39
54
04
d5
2a
c8
2d
37
ad
b4
4a
ec
d1
21
01
e2
9c
00
c8
22
2e
3f
13
60
68
cb
fd
48
74
e0
16
37
46
16
12
ef
33
dd
3c
24
23
10
db
a8
0f
1d
32
e6
0c
22
07
47
c5
38
54
d4
5f
f6
1a
cb
23
e5
cb
17
20
4d
a3
de
bf
ed
bc
f8
b6
11
20
b2
5d
cd
5f
30
d5
21
64
15
60
33
d1
59
cd
d9
d3
44
b4
f1
09
3d
f2
13
18
d3
25
c4
3f
aa
57
0a
d5
e9
32
31
3f
39
3a
04
d6
2f
f8
d4
06
c0
3e
f6
46
3d
ff
01
c6
39
0b
c8
29
f1
51
cb
65
36
40
1c
ef
04
f3
1a
27
f1
e6
2f
07
f5
36
c5
f6
e0
45
c8
45
93
c7
35
28
4d
c8
d3
6d
65
e4
03
51
ed
cd
5a
73
6a
c7
67
d3
2c
21
c0
0e
9c
b9
33
0a
cc
36
d4
cf
4c
27
fa
18
29
0b
04
3d
f3
ca
2e
0b
e8
1c
19
3d
5d
e5
d9
ed
11
2f
54
16
ca
64
31
48
1e
da
3c
08
6c
30
46
35
1d
30
67
1e
cc
53
fa
68
04
6c
ef
63
fa
59
11
0f
64
01
60
2b
2b
17
eb
f6
1f
70
56
0d
6c
ee
60
cd
18
e4
53
01
da
13
6a
5c
66
3f
46
06
67
dc
44
3c
e1
0e
19
33
29
dc
51
26
36
00
3e
dd
71
1a
49
0d
fc
31
42
0d
4a
49
d9
54
11
da
eb
35
55
c3
ed
42
ce
66
50
15
52
db
44
f9
44
6b
15
e9
69
4b
dc
27
2d
5c
ed
64
06
f0
3c
d3
ff
10
3a
73
1b
1a
5f
2d
e9
10
45
4d
00
05
5e
5d
61
e9
73
d3
45
24
c4
ec
42
c9
04
49
d6
1d
e8
df
61
5e
6e
5c
e6
5f
19
f7
48
ca
ce
64
2d
69
e4
75
f0
3b
12
10
da
de
53
16
48
fc
37
dc
2f
60
0b
47
dc
ee
f8
3c
c3
57
e7
49
13
33
0c
02
d2
0c
f1
22
0f
51
e7
5f
27
71
4a
db
d6
ec
ed
ea
66
28
1b
3b
50
3f
cb
23
e0
1d
21
cf
33
c5
16
38
29
08
3f
cb
60
0a
72
dc
0e
d8
72
55
c1
d5
1b
ee
f3
28
c6
05
d5
e3
5b
39
a5
aa
c8
38
d0
dc
ba
29
08
36
71
55
62
c3
f9
31
d6
47
d1
1a
c6
f6
51
12
4d
3d
3d
26
a9
b0
36
c0
2b
e6
d6
b0
56
0b
c3
38
f1
d7
30
11
24
4f
51
43
c6
40
32
b6
da
db
f7
bd
ad
b5
14
c1
bf
b0
33
07
bf
a3
11
ee
64
5f
11
c9
48
0b
00
d3
c2
1d
f1
2c
0a
42
a5
b0
cf
0c
9c
b5
35
48
0e
c9
35
c8
05
57
46
14
d9
21
63
1e
1d
44
f0
2a
0d
36
38
35
32
46
fd
31
d1
12
21
bc
a4
3b
41
f5
6a
e1
1c
d4
da
73
01
49
48
2f
24
eb
38
ce
16
9a
05
47
dd
c6
cf
dd
ad
d7
de
b9
18
f4
48
21
02
23
41
64
1d
66
e0
c9
fa
2e
11
10
41
a3
b3
15
e9
0a
17
0b
ee
e2
47
c4
ff
ea
0c
3b
52
ce
64
6e
37
0e
31
41
64
ce
b7
d3
a2
29
1d
3f
1a
e2
e4
df
3e
09
46
31
ad
11
19
70
19
d3
00
f1
e9
e5
2f
5b
15
f1
17
41
d2
ab
01
a8
bd
36
ac
1d
d1
05
dc
20
04
01
19
c2
69
dd
20
62
f9
3f
5f
fd
cf
54
d2
f9
3c
28
43
ec
3c
4a
f8
bf
3d
b4
0a
d1
04
33
0a
54
5b
48
68
41
71
67
f1
6b
d4
0a
22
d6
f7
f8
4c
08
d4
fd
ee
ba
0c
11
07
09
0a
1d
d1
44
33
29
0b
2e
f4
5b
72
6b
17
c4
ed
fc
e0
c7
05
15
f9
15
c4
ea
9c
e6
28
08
b7
e7
55
d2
d0
24
4a
29
13
00
e3
14
4d
53
0c
36
19
36
f1
ca
d3
b1
03
3c
a9
e8
0c
2d
ab
36
72
e7
01
69
31
3d
c8
13
6d
5f
2c
2a
c6
f5
d8
e8
4b
0a
ca
29
16
d8
04
36
a7
e6
ea
1b
fe
c7
f2
12
3b
4d
0f
50
6f
ed
eb
d5
2b
54
3c
b4
1f
f7
e7
d8
08
fc
35
13
47
39
37
00
db
0b
6c
1a
07
21
39
fb
32
c4
65
28
ce
fd
f7
cd
bc
ae
de
08
c7
1f
21
f1
f6
c7
ee
fe
fe
2c
e8
e7
cd
4f
26
c7
53
e9
6b
4e
4a
15
eb
49
1a
9d
20
c6
2b
33
a7
9d
47
5c
c4
67
f3
e6
16
5d
da
50
27
05
1b
57
2e
3c
c1
23
e5
c5
25
d7
46
c9
ca
2d
f3
b6
06
29
1f
10
23
08
fc
d2
db
ca
d9
3a
1e
de
ec
c2
10
2f
0d
0b
e8
ba
f0
fe
13
a3
2c
d7
ce
ef
cb
2c
dd
27
f0
cf
05
d3
0f
e6
30
d5
fe
3b
2b
c8
f5
66
67
fb
cc
c2
af
1f
2f
2a
66
3b
2c
20
15
ef
fb
54
dc
d3
e9
45
61
fe
c2
00
0a
14
09
07
d2
ff
46
1e
f7
f5
4b
62
19
fd
c8
58
02
48
5c
1e
02
4b
4e
46
6d
68
26
06
3e
26
f7
33
c3
5d
26
f5
14
ea
e7
72
fc
51
c9
59
53
47
01
57
d5
58
23
e3
3f
58
6f
cc
5e
f8
ca
cf
34
5c
4e
09
43
1b
e5
f7
3b
e9
63
c7
2f
db
6f
00
4a
ef
09
c4
f2
f4
4d
35
6e
d4
f2
fc
c1
19
39
48
cc
0d
c5
66
d2
07
14
cb
3e
05
f6
d1
e7
38
2c
f0
c7
60
f1
5f
e0
0a
ed
d0
55
59
05
0b
1a
f9
14
d5
f8
3b
0f
5c
1f
c9
f9
e0
06
46
00
4e
1f
0a
c9
6d
3b
08
1f
31
d3
3b
f5
ed
de
13
de
f6
5d
58
0e
67
6f
01
39
da
03
19
0b
f9
0a
27
39
d6
2a
63
fa
64
3b
62
f4
4c
39
39
33
0f
eb
61
c2
e2
ee
64
fc
65
db
5d
2f
6a
f7
d0
e8
cb
da
00
4e
e7
28
c1
27
02
ee
c7
3f
e4
5c
e8
f1
6a
4f
1f
4e
2a
eb
34
f7
6d
e2
48
1c
d1
3a
69
09
2d
e4
36
37
3b
c1
ab
41
3e
d5
2d
44
e8
24
55
46
25
f9
e3
d9
02
3d
2d
d5
f9
70
c4
24
3d
fd
3a
fe
be
42
4e
ad
3d
f9
00
ff
2a
0d
59
50
30
2f
c3
5c
71
69
f2
1b
f5
cf
12
ef
2d
16
2c
e0
13
9e
fa
fb
ca
c5
bf
cb
d6
3a
3b
cb
11
6d
47
f5
01
51
61
fe
59
e5
36
0d
ad
c7
a7
49
0d
de
3b
11
47
e8
49
9d
22
fb
4c
67
46
d0
37
57
3b
e5
f3
c1
fe
18
bf
ef
49
e1
02
ae
a5
42
cd
38
08
c8
2a
b5
cc
ef
59
d6
70
d8
68
23
13
5a
40
bd
3b
03
2e
3e
ec
b2
47
ac
e0
31
ce
9f
ed
fc
f8
21
ce
25
df
5f
0f
36
3f
4c
31
24
05
39
3b
ac
49
4a
c1
03
f6
46
c5
0d
b7
2c
ce
e9
43
47
d7
f7
5f
3d
d8
1a
4b
22
d1
f8
2a
e8
ce
e6
c1
b6
4c
aa
b4
41
2c
30
a1
0f
26
11
46
3b
fe
a6
29
46
3b
e8
40
62
d0
ee
e2
db
0b
3a
ba
a8
f2
c8
a7
2c
30
ec
45
02
c0
bc
08
47
25
db
f5
12
6f
53
46
35
1a
4f
f0
c8
de
9f
e3
d2
4b
d6
4f
e8
32
a9
37
0a
eb
c3
2f
ff
38
f5
d4
61
e0
fd
42
e8
43
4b
e8
10
cb
fd
23
c4
f0
39
b0
da
a0
c2
d8
0d
a2
f1
c1
4b
f3
c3
f1
74
4d
ea
31
2a
18
2d
58
0c
d2
20
b4
25
19
02
2a
28
c8
ef
12
d4
04
9d
c0
3a
39
18
c2
35
c2
6f
4e
58
c3
e1
c5
0b
62
13
f6
b8
a9
e5
c1
21
d1
f4
ea
dc
46
37
43
ba
a4
03
69
30
1d
02
70
71
c2
c7
13
50
eb
48
2b
4a
00
35
0d
b3
a5
37
a7
a7
f6
1e
10
be
cd
c3
10
28
28
02
c4
e1
38
3c
c4
c1
f5
d7
b6
fd
2f
2e
ed
fa
0e
35
1b
37
d1
cc
e0
34
18
f5
3b
35
d6
70
13
f6
03
54
1a
25
31
09
19
ec
9b
a6
ee
11
bd
42
d2
bf
1e
c2
d4
ed
e1
ce
06
ca
ea
d8
6b
f3
59
2f
63
21
39
15
f9
ac
f4
aa
28
19
21
c2
a6
3d
bc
59
55
db
e3
df
0d
38
d4
0a
54
f4
17
41
39
35
fc
c5
f8
f4
24
0c
07
d8
3a
a6
be
9f
39
29
23
de
6e
fe
f1
41
3a
f0
01
f5
21
c4
40
c9
d4
07
dc
eb
b8
f6
be
bc
c4
4b
f9
1c
f2
c8
ee
1b
0d
27
e8
3f
5e
f1
e0
65
4a
4b
63
48
4b
39
51
f2
c1
41
54
c2
5a
0c
1b
43
37
4c
fb
68
f7
14
3d
0c
46
61
d0
3d
3c
08
ff
2e
ca
63
59
e9
2e
04
d8
4c
3c
c7
23
1b
ce
01
17
25
e2
2e
ed
f9
14
59
cc
fe
c7
c1
4c
e5
dd
5e
70
34
12
d2
32
01
5c
6c
08
2a
cf
64
d4
59
32
5b
35
eb
65
1b
c9
ea
c7
02
dc
2d
29
43
40
64
25
ff
4b
4c
49
33
d9
59
1e
49
ed
18
27
62
40
6c
51
71
ed
05
c3
71
e5
46
d2
cd
cf
0a
27
d7
1a
f6
fe
29
d7
6b
1e
d7
5d
47
63
d4
0e
0d
ea
4a
60
21
72
19
2d
73
3a
c3
d5
65
02
28
31
32
ed
2e
70
39
fb
22
24
3d
5f
3d
43
31
f6
67
1d
6e
21
40
32
6d
23
05
40
fa
49
62
47
62
c7
ca
43
66
f4
23
60
69
61
c7
01
5b
31
48
ff
02
64
dd
2b
f1
ee
de
15
c1
23
54
e9
5f
51
e5
c7
4e
eb
4a
52
4c
68
eb
fc
64
08
15
55
63
2d
eb
15
29
fc
c8
51
e3
3d
cf
f4
04
60
66
b1
30
ae
bb
b1
3a
32
cc
14
f7
34
14
eb
d6
fd
36
2d
ec
de
de
f2
36
c7
57
d0
e4
da
e6
1f
ec
1d
a3
23
e9
0c
d5
23
54
1a
5d
64
fb
59
df
68
5d
eb
d7
6c
dd
3f
06
39
d1
38
3f
e3
0e
3e
3a
31
c7
f3
e8
38
70
4b
eb
dc
dd
fe
5b
44
69
c6
cd
33
e0
d2
f9
b4
3a
c8
ca
33
15
e0
e2
de
fe
c7
35
3d
1f
43
71
0f
3e
13
27
c9
5a
d5
61
ee
47
ef
10
e3
2f
00
e0
f7
20
c2
0b
1f
bd
45
41
6b
0d
d6
72
d7
40
e3
12
22
e1
01
39
29
3f
4a
de
df
0d
cb
dd
e0
d2
9c
25
d5
d6
e0
e4
0f
6d
2b
23
19
45
1d
50
55
57
f6
fb
ba
ce
26
aa
ef
3a
de
07
f1
d0
1b
21
05
11
0d
23
44
16
e9
ff
0e
20
60
2d
09
1e
d6
04
2a
d3
0e
bd
d9
aa
28
cd
b6
15
3a
a4
df
0f
1a
00
fd
51
3a
c6
4b
5b
c4
49
d9
36
63
05
23
b6
30
4b
25
a8
3d
f9
b7
fa
44
cf
e1
e2
98
a9
66
4a
2f
f9
f5
61
34
63
c2
28
67
e1
c4
ef
aa
cc
c3
29
ba
1e
38
22
c6
08
fe
bd
43
3b
61
61
ed
dd
d0
cc
2b
3b
4d
50
d1
ab
1e
3e
1c
21
fd
33
c3
ba
af
a8
d0
dd
e0
0f
f7
21
ec
48
3f
47
c6
ca
41
e3
69
c8
c2
cb
37
28
d9
f6
fa
47
04
3d
f9
22
d4
49
f6
4e
a9
05
5a
3e
ec
d1
60
cb
e3
4c
dd
39
d8
24
e3
df
f2
f8
03
c6
1a
37
1b
2c
e5
b7
d3
3d
bf
54
69
e7
ee
68
0f
c7
58
cb
15
18
b0
40
c4
a2
fc
3c
46
25
20
fe
b0
12
32
27
3d
f1
a8
4e
5e
dc
08
43
40
4c
61
32
d2
1c
b4
ae
97
39
c1
a8
48
bb
ab
c6
ca
ce
25
c7
01
1d
f8
f3
e5
64
67
34
4c
c6
cb
c4
41
f4
48
30
11
e2
0e
da
d8
3e
13
32
41
f6
bc
dc
e0
f0
26
45
18
f9
ec
61
34
0d
6b
ff
02
da
30
e3
3f
9a
e5
29
d2
32
9b
0d
28
3d
c8
d1
ce
2b
10
0f
e1
3d
08
5e
25
6d
fb
c2
2e
c6
51
f1
48
2c
ca
d9
06
10
1f
a7
c5
c0
ae
fe
62
6c
24
de
e7
3e
3c
f5
e0
4b
58
6f
fc
3e
5f
5a
d2
b0
a4
c7
14
36
44
bb
2a
c6
5e
3f
ee
d8
3e
0f
c4
fc
cf
3d
2f
5b
6e
f8
d1
12
6e
64
e2
d6
ec
1c
02
a6
cf
a4
bd
5b
2f
46
20
19
f6
e6
16
20
0c
f3
66
cd
ee
2c
6a
dd
25
dc
34
ed
0a
19
b9
b5
d2
63
0d
08
d6
0f
12
d5
2a
33
de
10
65
f6
46
69
d2
2b
29
56
3a
d9
cb
35
c4
c2
1c
ca
e6
ec
56
23
e8
41
77
6a
56
0c
56
21
d6
65
72
c7
c1
1c
46
1b
0b
f3
c2
ea
6c
07
47
c3
ee
d3
38
f6
0e
59
39
5d
d9
53
c8
14
04
64
ca
6e
48
c5
4b
3b
dd
e2
03
34
15
d6
1f
3b
64
55
5c
68
5d
e1
60
c4
0d
d4
6b
fe
11
e5
16
fb
64
55
10
67
f5
16
fc
37
12
6c
0b
c2
ee
23
08
35
d4
17
22
1f
fe
5b
e3
5d
2c
ee
52
d9
dc
eb
f9
c6
c5
38
c7
f6
59
67
d9
28
02
e8
51
62
d6
d7
58
e3
44
cc
3a
fe
30
24
3b
ed
63
2f
de
07
1e
63
68
52
e1
0f
4b
f7
f3
dc
13
74
ca
1e
25
dc
5b
3b
cc
0f
4c
5c
3f
10
6d
f6
2a
35
4d
53
de
57
01
52
36
03
5b
fb
3d
10
d3
08
ce
ff
04
55
e1
0b
ff
63
ef
0f
36
0c
47
16
39
58
e8
c8
e8
d5
d5
00
44
f8
1d
f9
28
30
f6
45
00
c4
27
e9
d8
eb
45
27
39
2c
eb
1d
e8
c4
07
47
03
70
08
9f
d0
99
f7
45
26
ea
bd
b5
76
e8
ea
2d
d6
6b
44
f4
69
51
2a
58
15
3e
71
c5
b8
33
e5
f7
03
ce
3c
16
2f
cf
db
a9
32
cb
db
44
63
d2
43
e1
ff
01
d9
2f
f9
4e
f2
c0
c1
22
40
26
22
cf
16
3c
de
c5
d1
2a
31
49
2d
57
cd
f3
dd
c9
c5
d0
1e
e5
33
6b
25
21
e1
08
43
ca
ed
22
c2
b3
f6
18
12
06
1f
fe
2a
46
c6
d2
16
0c
cd
53
29
31
56
ed
38
0a
ed
bc
0c
46
9e
e4
b1
1b
da
b6
e0
e8
48
30
2e
c6
cd
5c
21
3b
65
03
dd
1c
4b
06
2f
eb
d3
33
ba
d2
27
38
31
23
39
a9
b6
fe
fe
1b
61
d7
28
56
c3
0b
56
ea
5d
c8
d2
f4
a3
37
bb
ed
fd
06
d1
2e
30
a4
e9
eb
c5
c4
bf
bd
f1
d8
c5
dd
02
1c
ec
43
14
fd
5c
38
36
24
be
46
a4
b7
a0
f1
01
b9
ae
9e
f3
06
00
df
f2
22
4b
30
07
d6
3e
f1
fd
10
39
35
b9
fe
f4
b2
a5
b0
f3
13
cc
45
2a
f7
25
d0
34
b6
3a
c0
d1
67
6b
4a
d6
c9
52
57
48
d8
39
de
2d
22
b8
f4
05
eb
d0
29
9e
f5
2f
c7
9d
ea
1d
f1
02
f3
54
1f
43
57
dd
4e
02
45
f4
4a
18
3a
cb
43
dc
b8
a5
46
e3
b5
f8
a4
00
b6
c7
2e
51
d8
c6
45
f3
42
03
b9
e7
ca
2f
11
e0
ca
09
e7
00
36
b4
23
24
d7
ff
c5
c8
0c
eb
59
1e
4a
50
fe
4b
1a
1f
1c
b2
ec
fa
c9
3f
12
0c
0c
cb
ee
11
f0
fb
c5
15
1f
ba
cd
ca
ff
5f
70
5a
ef
ee
1d
07
c2
25
2a
c8
0f
41
e2
30
b5
3e
9f
2e
b2
b2
cf
c2
40
dc
11
49
ce
de
6a
ec
4b
6b
11
d1
1b
42
12
be
9f
0a
12
f7
06
b6
f5
3d
ef
d9
f0
b8
e5
15
2a
d8
02
d1
03
59
c2
4d
d9
16
c7
ec
e4
10
08
bf
33
38
e9
37
dc
b0
4a
48
b1
df
a4
37
f9
da
ff
fa
4d
16
73
40
dd
73
3d
0d
bb
3a
c6
39
47
fd
2e
33
f2
31
e4
ba
06
32
cd
b7
3c
02
c3
6a
e7
e8
fc
2f
15
65
65
c5
d5
e8
fe
f1
cf
da
fa
45
cf
f3
49
38
2e
3a
e6
4b
6c
02
50
e4
02
12
01
f2
d8
0c
d7
1f
f1
d7
11
47
09
dd
9d
3c
20
c5
c8
3f
e5
15
36
68
09
57
25
fe
c9
3a
f7
e1
12
5b
d7
30
14
2d
d8
4b
43
1a
32
af
e7
c5
d1
3d
d5
1c
f5
dc
ff
55
3c
0d
fc
71
59
2b
40
0f
e2
5c
5a
32
17
59
f4
29
09
61
d6
60
d6
42
04
19
e9
25
f4
39
63
6e
62
1a
fb
16
40
71
01
0d
59
42
6e
56
5d
c8
3e
2a
4d
39
f1
3c
69
ed
62
28
08
1c
3d
71
3e
66
1a
06
6d
11
34
1c
c7
05
31
26
12
5a
eb
6c
39
3e
56
42
08
6e
f6
60
f1
29
f6
25
1d
5e
f9
34
6d
d7
25
1a
0a
13
5e
d9
20
0d
ef
6c
57
e9
d8
55
36
e2
d7
58
73
73
d1
5d
56
20
26
64
11
2b
10
20
f3
d2
ec
00
ca
58
29
04
dc
3e
09
c3
1c
5e
f3
e4
ca
22
3e
53
10
dd
14
29
3f
3f
30
54
50
48
33
50
28
1b
49
04
22
77
6a
e7
57
c7
12
fc
05
67
2e
1f
28
28
d1
c5
fc
eb
c7
07
71
6b
0e
53
d4
30
ed
43
19
e9
05
1a
0f
19
d2
f1
55
54
06
5b
10
2b
60
e0
d6
0e
15
65
4b
67
30
38
06
64
b0
25
34
07
ae
fc
60
39
45
44
d8
19
1b
c8
ca
c7
5c
5e
07
26
32
e4
6b
e4
5d
de
03
c4
c7
da
2c
e1
11
0f
e2
3a
18
5a
f9
33
dd
51
f1
03
13
04
ef
36
02
28
ca
d2
2c
d1
30
c8
e5
b0
99
f9
fa
43
d0
e1
ee
d0
60
2f
c4
0b
48
43
40
12
52
3c
d3
63
2b
0d
c2
12
47
0a
af
25
d2
b8
c1
47
08
1f
20
ec
3b
75
f0
51
53
1b
44
03
22
2f
d5
ee
00
1b
b2
b9
33
eb
0e
d0
1f
c1
e2
f4
1e
e7
9d
c0
44
d5
f7
2d
15
f3
69
d5
e2
4f
f2
66
2e
a8
9b
a0
3a
40
9b
48
1a
d6
22
0c
e1
b7
3c
c6
55
e6
47
c5
4c
16
45
e8
d8
4f
f3
57
d6
fa
03
3a
d1
cb
a2
f7
c7
2a
1f
10
db
b3
23
0e
66
24
6c
c6
6d
10
11
2e
fe
54
13
d3
05
cf
ae
39
19
df
9e
f8
b0
c7
97
b2
27
c7
c7
f5
cf
31
e7
dd
cf
3b
63
1d
cf
d5
da
28
d7
44
f8
f6
d2
34
47
04
c2
09
21
25
e8
23
43
a4
dc
2b
41
43
c5
71
e0
c7
f1
eb
59
4e
29
b6
be
19
b1
0f
2e
c2
bc
44
03
c3
1d
03
32
db
cb
4d
c9
5e
05
f5
66
ce
48
c9
24
c4
08
da
fc
a6
af
35
26
13
d9
08
e6
e2
26
45
c4
f8
e9
41
db
6d
2d
16
69
33
70
e0
2b
36
3f
fd
d7
c0
cb
05
e3
ae
da
3b
1f
25
df
be
2d
f2
d6
3a
66
63
64
d7
f5
19
d5
ce
3f
fb
46
e0
ad
e7
2e
02
08
33
2c
3e
97
de
39
49
bb
21
43
43
34
f5
41
37
6f
fd
48
60
74
05
f8
bd
fb
ea
21
af
b7
06
2e
2f
2b
f7
f6
09
38
6b
ea
d0
26
11
51
18
3f
0a
14
3f
03
33
e1
4d
c6
db
b3
0b
bf
2d
12
d8
4a
19
d9
fe
b6
2d
50
de
e1
04
d9
55
d7
65
41
74
58
73
e6
24
18
35
ab
ef
d4
bb
0b
ce
0e
31
35
45
d5
32
43
c8
f5
0b
d4
3c
12
4a
d9
71
4c
dc
0c
b5
a6
0d
cf
2e
eb
af
46
18
b3
cc
3f
fe
ba
f3
ee
6d
04
e0
33
f1
32
63
f2
df
21
01
3d
ee
02
4d
b6
02
19
27
35
cb
d1
2b
99
48
1e
da
4a
19
1d
d1
5b
53
d9
69
18
30
db
26
09
34
03
de
b1
e5
c4
23
44
f6
1e
16
21
69
76
4b
1a
4a
46
15
00
c7
3b
43
e7
62
ca
cc
57
46
18
d0
d1
ba
a6
36
e5
e4
3c
e2
2e
2e
2d
44
07
ff
52
d9
00
f2
d4
ed
54
20
eb
35
74
47
cc
19
32
e6
cb
eb
16
db
3b
47
41
4f
24
72
e8
ce
f1
e8
d5
01
60
55
5e
d3
0f
de
2d
d9
1f
1c
f5
d3
12
5e
33
ea
05
53
56
c9
3c
61
c7
d4
c8
d1
5a
29
da
66
56
43
d4
06
35
66
05
42
2a
d6
d6
fb
3b
48
6a
47
dd
f7
41
41
51
4d
02
31
ee
0d
4f
d9
4e
05
00
2b
ec
6b
73
39
df
02
57
16
db
6a
00
35
2d
02
1a
29
04
61
e3
1d
e5
c4
5a
57
ca
6e
f5
f8
cd
f0
16
ef
fc
d3
c9
03
37
db
f4
43
20
f8
cb
27
12
33
72
33
d3
e8
c5
14
47
3c
42
53
1b
ca
69
c6
f8
f1
11
37
64
c6
6b
53
6e
4b
4a
46
e6
ee
49
db
32
54
26
2b
65
c6
0e
03
6b
e0
53
cf
f1
06
25
fd
48
c5
47
cf
4a
32
db
06
5f
2f
ca
d9
36
43
08
10
6f
5a
cc
2f
45
17
13
3d
0f
0f
59
74
f3
eb
04
3f
45
d7
f2
09
31
74
40
fb
34
5a
ce
4a
4a
2b
0c
cb
4b
6c
d7
3b
28
fe
cf
5a
e9
2e
e5
09
5b
eb
5a
2f
53
ca
56
72
d3
46
5d
29
4d
31
61
ea
f9
50
11
dd
db
d6
e1
fb
45
d6
38
ee
d3
20
07
5c
02
69
0b
c8
62
f4
f9
24
14
20
04
0b
c6
d4
e0
c8
20
c8
20
4e
47
aa
c7
d9
a7
b5
de
f4
01
70
f2
3e
51
eb
dc
f7
07
4b
d7
69
5c
2e
ee
d3
1f
f7
ca
ff
cc
db
cf
18
48
21
c7
d0
f9
ee
ea
60
e6
09
4b
cb
50
44
c8
4b
d3
54
99
ae
16
bc
b5
15
c8
42
1d
1c
fe
ef
ea
48
0c
64
3d
e6
3c
e9
3f
52
29
cb
1a
1e
0f
f9
34
32
18
b5
33
21
ef
95
d2
b4
42
1a
2e
2b
51
c0
de
4d
d7
df
c5
07
de
2d
5c
51
d0
ec
38
9d
49
dc
22
3b
b6
c8
0b
fe
f7
cb
f4
19
43
5e
38
6f
62
f3
21
3c
6d
dd
1d
61
08
bb
e9
c5
0f
ec
48
b9
d8
f7
01
00
b4
f1
1e
ac
fe
f6
eb
22
da
31
2d
34
50
47
02
44
11
1a
bc
a9
4a
f3
f6
46
ca
14
ac
f8
22
1d
29
e1
0d
18
26
42
f6
d6
fc
61
f2
3a
4f
02
ad
2c
a4
13
3e
b9
ad
c3
1b
06
3f
1e
0f
1c
41
51
f7
5a
45
05
13
d2
0f
3a
e6
4d
74
15
e1
2d
a0
28
d3
1b
1d
d2
00
eb
28
35
c3
17
f3
f6
53
29
fb
4e
32
73
1a
e3
db
30
5a
0a
28
e9
d0
3b
ad
a5
ae
0b
a8
16
a8
3f
d5
d9
c4
00
ee
05
07
14
2d
1b
3f
c6
53
ed
fc
1c
47
ea
2a
1f
00
3b
c2
b5
25
a5
16
40
ad
ac
c8
11
c4
10
c6
4c
e3
28
22
19
fc
d3
ce
23
5d
49
f7
0e
a0
bb
23
2c
ac
ee
48
a8
c5
b1
dc
5e
0f
23
31
06
31
eb
dd
67
4a
d1
3b
f6
d0
34
2f
28
2f
a4
30
1e
b8
c2
06
05
e7
df
14
24
c9
f6
de
d2
3b
72
10
31
21
1e
ee
d2
f6
5f
08
20
b5
0f
d3
ac
17
9f
e2
af
a3
dd
c6
20
33
28
dc
40
65
c4
61
db
13
23
df
d5
c9
2d
18
f9
d0
3f
ae
ee
05
9b
ab
aa
30
cf
2a
01
ea
e5
dc
55
e6
3f
4f
68
2e
16
d1
f9
21
1f
64
e7
e9
ce
ea
12
10
47
00
c2
12
56
0d
c2
64
55
5f
72
0d
5d
6f
e9
f9
c5
f0
ee
c5
70
d9
dc
f8
f1
ae
45
3b
16
2f
e4
2a
21
ed
22
73
dc
3c
54
d8
ed
de
28
c7
12
37
5d
23
49
d1
c2
b8
08
c1
19
ef
e0
16
48
57
0c
14
26
3a
ca
5d
43
e4
e7
69
44
e8
13
ce
1b
ea
ef
2e
41
cf
12
b7
36
bb
fa
17
29
52
17
c9
6f
db
5e
3a
ec
6f
e4
15
2f
40
43
3d
05
26
e4
6c
1e
60
d2
0e
29
bc
d2
30
16
3a
54
0a
e5
6b
57
fe
2d
22
40
35
db
51
e0
1b
ce
07
f3
21
4d
32
04
58
2d
31
e7
63
e5
54
62
ce
f1
c4
2a
66
5b
e7
ca
c5
23
56
f4
0c
e9
fd
09
5b
de
d1
f5
54
61
12
06
3a
46
d4
40
32
2a
dd
ef
32
25
09
03
33
e4
27
52
1e
5b
27
00
cf
f3
dc
54
07
55
5f
45
06
46
25
1d
54
13
f5
21
ed
31
26
d7
fe
ec
76
47
58
15
3d
ff
14
30
df
41
1f
ed
ef
1b
69
db
72
67
55
53
2f
57
dd
64
50
5e
3f
03
f4
00
59
fb
36
ea
fc
62
5a
d2
e0
6f
3c
d8
09
15
2a
56
3c
d7
56
51
56
f3
12
3e
d4
44
ea
fe
c9
fd
ee
4d
57
e9
30
05
c5
6d
1c
f1
f5
00
66
48
3e
fb
d9
2c
f6
dc
31
30
f4
4d
c8
fa
cc
19
eb
45
1b
d9
53
09
04
dc
db
16
ea
1b
fc
53
19
d3
d0
3e
2d
f8
4e
1b
12
f5
22
71
e1
5b
41
ee
c1
f1
1a
b4
f5
3f
0d
ee
21
1b
00
d1
32
d4
de
f8
df
24
ef
3e
f2
e4
68
ec
18
1e
ec
c9
16
f3
b5
fb
ac
28
e8
fd
f7
a2
19
32
2e
32
76
0d
0a
1d
4c
f9
d1
e8
0b
c6
0a
f8
d8
32
c8
10
24
11
c3
e9
09
47
0a
b4
b6
db
c7
0b
20
08
5e
34
0b
d3
e3
e0
05
68
61
65
3b
b7
fc
f4
40
22
f4
bb
e7
a7
35
39
e4
02
98
48
ca
57
50
48
e8
51
c9
2e
df
63
d1
d1
45
d6
ef
d7
c6
be
b6
e5
e9
1e
9c
47
37
da
ab
d6
a6
38
44
cc
c6
d0
2d
1b
cb
e8
d5
4a
61
10
dd
39
0b
eb
bd
04
f2
a1
be
e9
a8
d1
aa
f9
21
4b
72
74
0c
73
39
32
20
f7
c9
de
d6
f9
e5
22
b1
e6
ce
ff
b4
25
ce
04
ae
a3
c0
e8
34
5c
2b
06
02
c9
cc
e3
dc
5b
d9
5e
dc
2f
43
a0
ac
e8
b4
43
35
b1
bd
c4
f9
1f
46
2a
60
e1
0e
2e
38
fb
1e
28
ca
35
53
0d
bc
f2
c0
c8
e4
c1
c5
17
21
a3
2a
28
b3
38
b2
30
dc
e2
23
cb
19
d7
42
69
f4
d1
28
2e
d1
f8
c0
11
bb
0d
c9
e9
14
2d
f0
ad
39
e7
cb
28
ef
e4
54
5f
59
d8
34
55
fb
6c
12
ef
00
27
a7
fb
a5
d2
a3
9a
12
da
de
41
07
c5
29
b0
41
5c
df
46
e7
f2
5f
60
26
5e
dd
22
24
1f
2b
db
d7
c5
da
de
ba
13
ec
13
13
32
3a
23
04
64
32
db
4a
6d
e2
71
64
74
55
f9
d6
b0
9f
25
13
b3
25
3e
33
2b
b1
37
35
c8
f2
2a
c5
2e
6d
75
53
f6
f5
1f
2b
29
f2
17
ee
c6
36
f5
20
22
20
32
3c
da
29
41
19
1b
ab
20
30
6b
04
15
cd
fb
f4
e1
ee
d8
2b
aa
f0
a1
3c
19
ad
2e
ca
0c
e8
f5
cf
44
d6
db
f6
ed
d6
f6
15
3c
37
d5
20
3f
51
73
1f
42
b4
a8
b9
a0
b1
c7
0c
ca
ff
28
46
2e
44
bf
17
17
cb
4a
0e
2c
4f
2f
58
ed
41
19
22
e7
be
08
39
fd
fc
cb
38
15
c8
3a
b7
0f
eb
bb
ef
ec
6f
31
05
59
e5
27
cd
07
22
18
17
54
f7
e4
ed
d3
bb
2b
ea
1e
f3
b0
bd
d8
1e
2a
29
16
0e
de
6a
fc
ef
4c
54
06
fa
73
6c
36
01
bd
df
dc
08
3a
ab
11
f9
18
db
56
f8
02
dc
db
72
37
e4
f8
74
2e
f1
65
22
d7
4c
d5
77
77
f7
fd
35
43
1d
17
da
e0
5b
17
ea
32
42
0b
fe
e7
fb
62
f9
3e
63
2e
f4
70
d7
f5
15
f6
18
00
e8
6a
ed
1f
1f
cf
21
f9
0e
46
0f
dc
d5
cc
cc
54
75
de
cf
08
0d
d7
28
14
5d
44
cd
4b
24
70
d1
36
4e
51
59
36
34
d0
49
44
21
e2
66
3b
2f
1c
4d
c6
3d
e2
1e
56
fe
d4
66
61
e1
f4
14
5d
3a
3a
f6
37
d2
64
67
41
71
cf
41
75
ea
c9
2c
73
44
fc
33
2d
5f
63
02
0d
4c
fe
4d
f7
ee
58
50
f3
5a
13
16
d5
5d
e8
fb
dd
31
c3
26
72
26
cb
1e
27
13
4f
3c
15
0e
10
fd
d2
5c
0b
e6
5b
18
d5
fc
ff
51
cd
ea
20
de
0c
03
37
f6
0e
34
0a
4d
3e
71
36
19
e0
53
f5
da
fa
1d
28
db
65
12
d0
0e
e4
eb
f8
11
31
1b
fe
26
59
cf
5a
d3
fa
71
3d
1b
0a
58
1e
b4
15
19
4a
3d
d5
3d
27
1e
2c
24
d2
12
26
1a
53
d9
33
5e
28
e7
6d
41
da
69
f1
d8
0b
c3
1f
4c
c9
dd
3e
d9
0c
d3
73
ea
18
48
1e
20
5f
16
64
55
cc
01
44
cc
70
3a
a3
b1
b4
1a
b8
f2
ff
e2
43
48
3c
c9
cb
03
3d
d8
50
c2
13
0b
e0
c7
6e
54
54
69
33
eb
35
36
02
aa
24
fe
de
c2
f7
db
d5
d4
ed
d3
59
15
58
38
3a
23
ca
22
4e
de
40
1e
e9
11
4b
dc
02
1f
0e
d7
e4
f5
e2
ea
38
0c
21
23
6e
c4
41
5f
48
21
43
dd
ee
f5
d5
ba
ef
e0
29
cc
c1
22
bd
e2
b8
43
a4
23
b1
13
bf
58
35
f2
0c
d0
e0
6a
4b
29
08
2c
c2
45
49
30
00
fa
a6
08
a2
42
fa
c4
14
a4
13
c7
f0
fa
30
66
fb
eb
13
ce
03
35
db
07
2c
00
37
1e
37
04
fb
e3
fb
32
b5
1a
d6
f5
0f
13
63
20
05
70
ed
22
c2
f0
62
f3
2f
fa
2b
10
f2
b0
09
3f
da
16
b2
ba
c0
f5
31
3e
34
02
dc
4a
52
e8
d8
61
2f
4a
67
5c
51
18
33
39
b5
36
25
d8
20
fc
e7
12
3d
0a
31
05
16
0b
44
e4
08
c8
0d
4c
19
d6
fc
22
1b
22
f4
1d
a0
c4
47
29
23
26
ec
ee
ff
4c
44
4a
d1
d0
06
52
44
08
6b
02
3f
f9
f3
1b
a1
d1
b7
ad
1a
08
4b
42
aa
0e
b0
ab
f5
ca
0b
17
d3
56
24
c6
3a
1d
60
46
50
40
47
53
b4
14
20
b4
c2
ed
39
24
34
d8
41
b6
4c
06
be
c4
c4
09
ff
c0
66
2f
26
c8
d0
5c
f5
57
07
fb
b2
00
0a
a4
ea
c3
c1
de
42
a2
f0
2c
3d
1b
ca
d0
06
41
48
53
e3
d9
ec
0d
5a
eb
35
ac
c1
05
03
c7
17
09
e6
37
ee
a3
9c
c6
af
01
ca
c1
0e
31
fb
58
0a
3a
48
29
62
00
4b
30
30
c2
30
29
13
3d
d0
c5
f1
44
0a
3b
ec
db
4b
09
01
35
c8
68
21
6a
01
15
f2
00
37
41
1d
a5
40
e2
31
b2
f4
05
01
4b
ed
d4
47
09
c8
23
d9
04
39
c9
6b
f5
f0
1b
d1
c8
26
d2
fe
cc
20
0d
37
20
24
ca
23
af
40
b9
02
db
4f
3c
12
4d
2e
ca
c6
c2
13
21
5c
f2
1f
e9
30
f9
a0
af
9e
2d
f6
44
ca
bb
9c
f2
5a
1c
15
cc
2a
48
47
5e
2a
3e
67
c5
1b
05
d0
0a
d9
fa
22
b9
e9
e5
ee
0d
d3
00
38
ef
c4
45
06
72
01
57
c5
62
c1
36
0f
0b
e8
72
65
65
ea
60
d5
fd
eb
b5
c6
c2
da
f8
da
19
3e
21
1c
db
57
ec
49
17
ec
2f
43
58
dd
6d
d0
ef
f6
d8
d2
1f
4b
a9
e3
d2
3a
fb
d3
4c
db
e5
40
50
1a
d7
f6
d8
42
11
d8
05
f1
c1
d3
67
db
57
cf
f6
c8
68
cc
4e
ef
28
47
1f
15
0d
5f
10
3a
d7
4a
21
d4
00
05
28
37
31
56
f0
cd
56
f1
01
48
38
46
fb
fe
4b
47
dc
73
5b
d0
e5
4b
2a
4b
e6
d3
1b
0a
50
4d
2d
f7
e4
4a
fd
42
c6
ea
07
ca
f8
35
cd
f3
53
46
22
5b
3d
f5
10
09
f8
13
24
3c
fc
6b
4e
bf
70
d6
0b
c5
3d
11
06
43
c4
57
4d
17
6a
3e
14
f6
12
c6
54
45
4b
27
66
56
34
32
02
fc
1b
08
42
f1
1c
66
49
35
cd
5a
01
3e
4c
cd
06
58
e9
cc
48
30
de
25
38
21
ee
55
55
29
d0
c6
3c
66
49
36
00
ce
38
de
32
f3
39
31
31
06
ff
c3
63
fd
56
d1
30
51
24
50
21
db
6a
09
3c
c2
c7
f1
cf
68
34
f9
cb
04
c4
c7
41
22
6a
18
01
1e
d5
dc
f9
d2
25
02
d2
55
62
d6
4d
de
40
c5
27
33
c3
48
c0
23
e7
fd
3b
45
5f
ef
e8
44
2b
68
61
67
3e
ef
cd
64
c4
4b
ce
08
d9
08
12
0a
23
c8
fc
08
be
d7
3b
0d
c2
54
27
24
4c
cb
63
f2
63
f9
4f
49
6a
5a
5d
df
b2
05
a5
22
cb
d1
43
c0
d9
29
e4
6b
4a
0a
e6
5e
6b
16
05
c2
6e
1b
3c
23
d6
f8
11
44
d9
38
d5
16
21
2f
d1
f7
4b
09
c7
df
40
d7
fe
cc
0c
0d
63
eb
dd
23
5e
c9
65
2e
e5
22
df
a3
48
de
e0
4b
22
d5
1b
e1
0c
1f
f3
35
02
d0
f3
ea
09
fc
70
f4
dc
39
08
d8
d8
02
19
ef
4b
c7
f7
3a
04
e2
30
03
2c
cb
6e
35
18
09
fa
0a
6b
f8
ee
17
d9
6c
6c
fe
d2
45
d7
36
d8
32
de
17
da
bf
f5
13
ee
f3
61
56
30
f7
c0
6f
ce
27
d8
20
12
2b
d5
12
c2
33
bb
a1
e2
d7
c7
11
1d
b7
f4
ad
01
c6
f9
f4
66
1f
22
27
60
54
34
f7
e2
f6
44
e4
24
df
32
fe
db
3a
d9
d8
17
03
ee
d8
34
16
f2
68
2e
25
3e
10
40
5e
2d
68
c7
20
d3
30
3e
a8
47
a9
dc
18
18
c9
11
c0
24
30
0a
f0
0b
d4
3b
33
e6
40
c0
c8
ec
23
15
3f
10
dd
f8
f3
ce
43
2b
f1
04
27
14
d7
ae
e8
d7
2d
35
0b
47
6d
cb
ec
65
46
65
fd
19
c3
39
cc
de
0e
0e
44
ff
28
3a
45
ca
2a
2c
06
cc
04
de
d3
69
d0
f6
09
04
3c
07
dc
2a
6d
3c
b7
bc
2c
01
f0
1a
35
49
14
da
1e
16
d9
2c
d3
5f
3a
de
36
59
ed
df
d5
68
db
f2
31
34
e3
c6
0f
b6
09
2a
a7
1f
db
06
3c
a3
34
03
c9
21
fb
20
c7
27
36
2e
2b
03
69
c0
00
cd
00
c7
a0
46
ba
f2
3c
9d
a8
02
c1
ce
1f
2e
4d
f7
6f
e6
3a
41
41
f9
6d
05
32
13
db
3a
32
0b
a6
2c
2e
0d
c2
a4
38
10
bb
00
45
da
3e
2d
fc
34
fb
f3
2b
e1
08
44
05
e8
5e
f7
32
02
00
b7
fa
ea
ca
ee
2f
ce
c8
2c
11
e1
34
bd
28
dd
55
52
e3
2a
31
33
25
c3
dd
2d
d8
13
c7
fd
2c
1e
1e
c2
ae
34
fc
22
55
22
03
17
45
47
f6
49
1c
16
2c
4e
35
1f
e6
55
da
4a
a3
f6
23
e1
eb
d9
21
d5
d6
04
08
5f
d2
48
5c
5e
49
6d
34
ce
f7
4f
08
22
4e
6b
db
e0
0e
be
c5
0c
0f
e9
dc
dd
17
61
e5
00
4e
eb
0b
e0
2a
42
6c
03
29
f7
e3
e3
4d
57
6d
ce
b5
2e
20
c9
b3
aa
c8
4a
54
5c
3c
ea
37
d1
04
5f
c5
d4
1f
c0
26
d5
de
35
cd
c4
2b
1c
60
18
dd
68
3a
44
16
3e
cf
c3
e6
66
4f
25
33
34
04
39
f6
6f
57
c9
6a
df
cd
c7
53
e4
22
02
56
df
37
3a
fa
db
5b
2f
2a
62
52
00
f9
59
41
54
07
eb
ce
20
e0
1f
59
3a
02
0c
c4
2b
4b
6d
dd
6e
53
d2
1a
62
4e
ee
ef
e4
6f
29
12
ff
c2
30
4a
cb
71
d2
ff
4e
e2
29
2c
60
e6
de
5b
33
6f
31
64
ce
60
4e
54
c7
21
f1
3e
fc
3e
4d
50
cf
07
41
db
6d
5f
ed
30
c3
c4
35
c8
0a
5a
17
d3
55
0b
3f
c1
54
3b
1a
17
fc
68
d4
15
e4
62
1f
07
16
ee
3c
5f
fb
db
6c
63
4d
59
44
e5
4e
e7
f6
0b
e1
3c
16
3a
54
41
dd
cb
15
c5
47
14
19
e3
5b
fa
5f
ed
e2
d9
23
3b
1f
6b
16
27
2f
51
37
dd
01
e4
e3
d1
40
d4
5c
0e
fb
f4
e2
e1
f1
ce
18
02
3c
ef
e1
dc
f5
c1
cd
40
54
34
3e
46
2c
04
ec
26
e5
1f
d7
f7
4f
de
e9
26
d7
a4
3e
18
12
f7
34
36
1d
0d
09
0e
e9
f9
3c
00
24
c1
31
2c
04
64
ce
23
1d
f6
2e
21
ce
4a
05
d7
41
1b
bc
e9
b8
f5
ab
06
1a
fc
1a
d6
58
34
fa
ca
4a
59
c6
cf
3e
24
e9
db
36
11
cb
a9
08
be
b8
0a
f9
e5
03
a9
dd
e1
2c
1c
54
fe
5d
70
40
2b
2c
f8
28
cd
cb
01
02
15
c5
cd
0a
2a
d7
2a
b5
d3
24
e8
dd
41
e1
06
38
63
33
30
35
68
5e
e0
16
3e
3d
b2
0b
c7
18
1f
fd
f1
27
2d
1e
00
b2
e9
d1
fd
f9
e7
41
d8
56
fd
69
ff
e4
ea
3b
be
f9
ce
ab
e3
13
17
28
e0
b4
4a
9f
1c
40
a6
25
d4
d1
59
e5
46
4b
fd
07
20
09
0c
14
d2
1d
c5
c5
9c
a7
a7
0b
4f
35
99
e9
d1
24
38
ee
29
f0
68
d7
e1
50
e2
cc
0b
5d
cd
da
fa
3a
02
be
13
ac
e4
b5
a4
1a
0f
0a
a7
ea
ee
c6
de
09
c0
5a
2d
5f
36
13
f0
05
1f
e8
9e
11
14
d2
34
41
b7
11
39
f8
c6
c0
a2
43
f9
da
39
39
3e
6a
3f
50
0a
65
4c
0a
fb
d7
ee
32
d7
ed
dc
be
28
9f
47
fa
a8
b2
23
a3
2f
4d
f8
46
03
f6
fa
f5
49
12
6c
e4
e5
0e
d6
ff
3d
b6
07
d0
1c
d9
a0
e9
e3
3c
08
3e
19
0a
09
0f
13
35
da
e3
27
40
69
1a
3f
f9
e4
9a
1d
08
d1
ae
c5
ff
48
2f
de
06
cd
e0
9e
b1
45
36
30
ca
f8
c0
d0
54
40
09
cd
35
ce
20
9e
25
4b
db
d5
01
b5
24
33
43
da
d3
f2
d3
2c
48
d0
55
2d
fa
58
1e
3a
6e
5e
28
12
ae
d1
28
ca
49
f7
12
0c
e0
c5
20
47
2d
26
42
2f
ba
d7
fa
ed
24
db
32
65
ca
ca
27
b6
f7
02
30
f8
f2
c2
c3
ec
dd
0c
b0
35
45
bd
cb
b9
de
12
47
40
c6
d5
e2
31
00
2f
11
08
37
f7
42
28
ef
3e
dc
b0
d7
14
ce
1f
40
ef
22
24
d4
2d
d1
56
f8
68
6f
12
0e
d5
c1
3e
a1
ff
d3
1a
4c
36
a6
b3
e1
a7
b6
fb
44
ef
0c
3b
11
f1
22
1d
e9
44
59
6c
64
6c
55
47
2a
33
d3
b3
03
ca
13
45
28
c6
d9
3a
2e
ff
ed
23
71
6d
e3
ee
29
c9
d0
63
0a
ef
0a
d9
f1
6b
36
ab
c4
c0
13
ee
f1
3d
e7
25
f8
48
ff
63
cd
15
1a
1a
cf
62
09
e7
0b
ce
f9
18
40
1c
bf
68
39
32
06
e5
4c
d7
3c
fc
df
4a
3f
50
5b
3f
29
f6
04
44
53
11
41
5a
11
59
3b
c7
c2
fc
f6
5b
2d
09
c4
14
d2
f1
43
03
f4
44
26
4e
63
ce
37
53
cc
11
cd
23
17
dc
19
2d
0e
41
02
33
df
29
ca
68
ef
f0
56
29
30
f6
6a
24
1e
43
d3
63
1e
4c
d2
1f
f5
15
cd
d7
4b
e7
4c
60
5d
2e
16
c5
35
02
0b
21
d0
26
2e
d7
0f
db
e2
ed
08
3e
01
52
14
4d
07
f8
14
eb
1e
f1
08
29
5a
3a
48
4c
38
eb
45
1c
25
5f
fa
1b
26
da
42
d9
09
56
f1
09
34
2f
6c
07
f3
d8
6e
2a
f1
66
5e
4b
14
28
55
c3
ca
10
12
69
21
14
cf
cc
5d
34
cd
d8
27
4a
21
c7
24
d2
d7
c2
16
c3
c9
0e
36
56
f0
55
14
fb
29
51
e5
47
56
0a
fb
4d
e8
2d
1d
4a
5d
23
29
43
48
0c
2f
b2
39
50
6e
d1
5e
c2
50
c6
51
f0
45
e3
ce
eb
cc
2a
54
2c
3c
4a
3a
fe
34
de
0d
2e
9e
fd
18
2c
f4
06
2c
47
64
1a
32
4a
36
47
d8
4f
70
23
2a
1c
ee
f1
2b
45
49
fa
cb
49
a5
01
2d
d3
34
15
09
5a
4e
1d
3c
6b
57
5a
1d
15
13
63
6a
1c
35
ba
ba
45
3b
ad
30
34
f9
1c
00
be
cf
dd
43
00
c4
2e
1b
ea
0f
cd
e0
0b
c8
35
66
1b
eb
39
e2
01
be
1d
e9
f8
9e
fb
12
12
ec
1d
e8
57
f5
f8
f5
1a
6d
fd
29
74
06
62
ec
d4
b9
a7
26
b4
15
00
14
22
be
d7
28
16
ba
cd
e8
e9
44
d3
fb
2c
ee
e1
00
e7
3e
66
03
31
e3
36
f7
cc
b9
bf
15
49
17
45
f9
47
bc
29
0c
6b
ec
ef
1a
d5
fc
6d
64
1f
12
12
42
c0
0c
ea
2b
fa
49
69
16
36
9b
43
ad
07
1d
58
cc
ea
16
d3
45
65
5c
39
db
0c
6f
30
0d
3c
ad
1c
4c
73
4d
ee
24
0f
eb
a1
a1
db
14
47
53
12
25
20
c6
5f
47
67
18
ec
64
e2
e4
02
31
47
d0
ee
e3
58
01
f8
22
3f
f7
f3
b8
b2
5c
00
d9
f0
67
1a
e4
73
12
5b
4f
55
fe
bb
41
52
eb
4c
64
cb
1b
ab
de
ca
09
cb
2e
dc
f2
f4
10
26
36
6c
15
ed
e4
0d
60
cf
e0
50
e3
09
0d
fa
ec
de
1a
f1
39
eb
0b
9f
e2
e6
0a
ae
ac
b3
10
e7
de
fa
cb
fb
12
59
3c
da
e8
d7
d4
25
ea
26
34
fc
ad
e4
15
d1
dd
c1
a9
ca
44
19
0b
e7
e6
0b
d6
fb
08
5f
cb
ca
cc
eb
47
cb
a7
d5
02
f9
bb
fe
a9
ab
db
d7
bc
0b
69
5a
24
d9
fc
07
6f
f3
ee
18
de
ea
c9
bb
42
43
c8
e1
1d
e1
dc
f0
c3
fa
c5
3c
e7
be
26
30
3b
cd
df
16
28
39
53
02
db
12
f3
21
04
11
f9
44
31
26
e6
e0
1a
d0
f5
13
f3
48
9a
0e
38
43
4f
5e
dc
f4
0d
21
6d
ee
1a
b1
db
09
e0
9f
e5
18
bf
1d
de
13
0d
fc
a3
14
bc
fd
1f
6b
3f
d7
29
d0
06
0f
66
39
24
a5
f0
fa
49
07
fa
c9
da
fb
f0
f5
ac
26
38
bb
e4
27
03
f9
18
f9
04
49
58
09
41
07
f7
26
f8
fc
9f
39
40
36
2c
da
31
9c
48
4b
ce
13
ec
bd
cc
4d
3b
0d
4e
fb
3f
42
48
71
ac
39
dd
9f
12
dd
00
19
c4
08
03
df
32
0a
f2
cf
f1
fb
4e
33
cf
39
cb
10
6d
f8
c3
44
3f
c1
dd
c3
10
f2
b5
c4
f9
3d
0d
e1
6f
ff
0d
e5
e0
19
e3
19
48
e7
6b
d9
1b
f6
ea
48
32
54
70
0f
23
0f
03
2c
d1
22
58
60
cf
4a
49
0d
ef
1f
45
63
cd
6f
d6
61
0e
c3
38
56
e8
ea
04
51
52
4a
e1
1b
e8
3d
52
00
14
4e
70
01
d6
62
3b
10
0e
6a
0d
6c
c9
e5
1d
5c
df
47
40
ff
3b
f9
ee
ed
1c
d8
55
d1
6d
d8
e4
12
5e
5b
49
c5
f0
f2
62
57
fc
18
73
61
e4
fc
65
4d
07
da
4e
cf
25
5a
5e
e4
0d
da
ef
27
1c
68
50
e3
63
2a
e9
3b
c2
60
ca
68
22
28
24
d6
16
d4
6f
fc
5d
14
05
e9
23
33
cf
61
69
e0
26
48
59
71
27
66
02
0a
36
c3
f6
44
4d
e9
c5
48
31
00
53
e7
57
e0
22
ec
fa
46
c1
d1
0c
1b
de
c5
10
6f
47
c3
21
13
e9
38
6d
d8
3d
23
18
33
03
11
02
d7
13
37
63
ea
2d
42
60
0d
02
db
fa
2f
54
00
6c
f3
48
1b
2f
70
10
17
5d
e3
57
dc
22
5a
df
c2
53
fc
59
ef
55
3f
4b
cd
cb
43
c8
e5
24
3b
0a
f2
3f
26
22
4d
f8
1a
f4
56
d5
df
e7
c9
42
58
f2
24
30
55
f1
1a
fe
14
30
02
68
ea
da
d1
3d
cd
35
ad
41
18
d6
2b
d9
c0
dc
57
33
6f
b9
07
45
c7
2d
2d
61
03
ff
3a
16
35
1f
e6
cc
41
ab
1e
a7
de
00
ca
fe
eb
a2
af
e3
e9
bb
d1
34
cd
c6
69
00
6b
f3
54
e6
54
11
6c
25
d7
9a
17
4b
f5
29
01
f0
a7
42
42
0c
ef
28
4b
0e
45
6a
71
4f
d9
f4
3f
0d
0d
d5
fb
0f
58
db
ba
ce
43
d5
46
ad
b7
ab
ba
f3
ac
18
53
e4
ca
2b
66
6a
45
ee
30
ce
36
20
d5
51
e6
fb
0a
0c
db
de
ae
af
1a
05
a0
19
2f
10
d1
f2
d8
61
5a
57
07
1f
ef
27
51
0e
d3
46
0d
c6
f9
d8
ab
fc
1f
aa
d6
ee
4b
f7
b5
1a
45
15
22
2d
58
1f
1d
56
64
d4
48
42
14
e1
3e
18
4b
16
ec
45
13
e1
9b
ff
1a
51
c3
4c
d2
57
c9
c7
72
4a
6d
d7
02
dd
31
52
d1
af
fc
2c
27
29
33
46
d0
16
1b
0c
b1
b8
e5
2b
16
33
4e
0c
20
6c
26
db
12
39
df
f1
48
ef
3a
14
a8
32
ab
29
49
4a
a4
dc
cf
c5
43
1a
52
0b
4c
5c
ca
0e
00
db
67
db
18
ef
41
0d
00
f7
25
c3
ea
ea
1e
c5
16
b3
f7
c4
d1
0a
00
30
e1
5b
d3
dc
23
2f
3c
ec
3e
c2
f1
08
2e
0e
c8
d8
f0
c4
b8
f6
e1
f8
f0
e2
5a
27
d8
e8
36
10
f2
28
23
f9
02
de
62
57
34
b7
f9
9f
4b
39
e3
ac
09
ca
3d
25
d3
17
ce
32
0b
34
1f
49
ed
e6
f7
46
65
53
11
23
f2
06
d9
d9
f6
cf
10
1a
4c
46
4d
a2
bc
67
1c
38
ea
0f
f4
64
0a
2b
65
09
f6
d8
fa
48
70
50
05
18
bc
cc
a7
a1
e6
1c
d7
f2
1c
31
ce
65
f0
e9
54
22
10
2f
cb
29
0e
e4
d7
4a
1e
f4
a5
fb
2e
0c
11
d8
0a
04
f0
f9
de
1c
dc
68
d5
0f
e2
1c
ed
50
fd
5e
2e
59
25
df
bc
3e
a9
e8
bd
4b
e6
9c
a6
e1
05
c5
e4
2c
cd
20
14
3a
4f
e9
2a
1f
ce
e1
16
ef
62
07
c4
22
36
cc
01
0a
bb
25
d4
30
9a
25
c9
2f
2a
5e
4f
18
5c
46
c0
03
27
69
d3
2a
2c
0b
2f
12
d2
20
d4
38
2e
e3
10
39
35
5e
42
2f
02
17
25
03
47
3c
32
4b
eb
cb
68
52
15
c3
de
1e
47
cf
1d
23
00
3e
9d
15
f2
2b
02
5f
fc
f2
cc
f4
60
3e
51
14
f1
e9
fe
25
1e
32
10
3c
ec
00
07
2e
cf
b0
d2
1e
4b
23
dd
eb
61
6e
e8
1a
52
ca
e6
4b
0b
3b
69
51
51
39
13
d4
ee
56
30
d2
31
20
66
3d
e6
4c
15
05
03
3d
c3
c1
69
06
d2
41
01
24
ee
f7
35
37
02
cb
38
1f
cb
34
19
5e
57
16
48
16
f6
01
d3
c4
31
33
38
03
67
29
32
fa
33
6a
37
f9
d8
c6
e2
4e
68
30
65
61
4e
45
5b
e3
70
47
c7
5d
28
dd
f7
ec
2c
67
00
3a
00
35
12
4c
13
11
33
4b
c5
fd
4a
0e
43
04
6d
ec
2c
fd
fe
c6
1b
5a
ca
18
fc
c2
03
55
6d
07
45
63
1f
6c
3b
43
fa
1b
cb
56
d6
ed
f5
f4
30
ef
3c
61
d1
22
59
30
c0
68
06
66
00
fa
50
48
0f
fd
0b
57
34
f2
fe
56
ee
6a
13
f9
d2
6c
df
ef
c4
26
ce
d6
08
5e
30
d7
f5
69
48
05
35
1a
38
0f
53
f4
f2
50
4e
27
ff
e9
d8
1e
cb
61
0f
24
e1
d6
09
e1
03
34
1c
66
cd
70
5c
bf
c2
2c
fc
d3
e5
2d
e9
49
ce
d1
e4
52
2f
28
13
ea
e2
1c
6b
6d
c5
17
16
5d
1d
d0
ea
dd
f3
17
33
bd
1b
ea
c8
2b
03
26
34
26
21
2a
30
5d
4b
70
f0
02
4d
59
3a
60
ee
46
fb
1d
08
cb
3a
46
4d
d5
b0
17
47
a4
df
47
0f
2d
df
54
66
fb
e1
5b
6b
e0
69
c7
ff
67
70
db
21
a9
00
a8
f4
37
49
9d
e2
f9
c6
9c
da
0d
f5
db
fd
42
04
4e
0c
cb
49
02
6c
2e
04
00
dd
c3
ec
dc
2c
c4
99
49
ba
07
bc
e7
40
d3
cd
52
ca
32
e6
45
6c
6f
bd
cd
fc
35
fa
d0
33
fe
e6
29
20
20
05
48
f4
33
26
38
d2
e0
05
04
1f
0d
4c
2f
c3
e0
09
62
43
c2
be
10
d6
17
2a
9c
1f
b7
b0
d6
00
ad
01
ef
14
e8
2f
d5
d3
6c
4d
03
4a
4e
57
39
3f
d4
37
cd
15
3f
bb
ea
3a
cb
fc
ea
dd
09
a9
ef
02
03
08
d0
60
26
1d
e9
26
e2
13
e9
c3
44
1d
b8
af
f0
de
17
d9
f5
49
9d
ab
4a
c7
14
3b
65
0b
3e
d2
5c
f2
c3
0e
68
cd
1f
4c
17
b4
bc
fa
35
ab
e7
b7
d1
cc
bf
30
34
f7
a9
bc
28
33
22
24
df
ff
57
62
49
5d
04
ca
3c
ce
28
43
4d
cc
a0
47
3c
c8
e8
31
fc
1a
9e
2b
ad
e9
fe
06
62
60
c2
fe
52
ee
74
18
ec
a5
1f
f4
d3
30
ad
42
ae
fe
e3
48
28
d2
c9
24
06
66
fb
e1
37
23
f8
60
17
1d
d9
cf
f4
19
27
d0
b5
1b
a9
24
c2
d9
05
14
cd
cb
e9
35
a1
15
f2
10
63
5e
ff
2b
5a
64
04
21
14
22
9d
2d
ec
bd
3e
d2
26
48
c3
f3
24
3f
a2
4d
f8
6b
0e
e9
c5
d2
d9
c5
f0
c9
e6
db
f5
1a
42
ff
18
fb
38
33
17
35
f9
fe
4a
2c
26
12
25
1b
c5
cb
22
00
f4
c6
39
3b
e7
62
04
b2
12
2b
2d
26
c2
1d
bd
c1
10
c4
d5
eb
b1
04
1e
d0
11
47
4a
6c
6a
6b
d1
e4
16
64
48
28
d2
32
c2
ab
d4
9d
e3
ea
af
e1
cf
f7
26
16
69
3f
18
57
66
cb
39
30
ff
fb
1f
52
fd
17
2d
01
49
1a
a7
04
2f
1e
28
f8
e7
2e
d4
d7
c1
5e
4c
d6
3f
dd
32
48
f9
46
47
e1
3b
d2
48
b7
09
1c
29
3d
24
cd
e9
21
da
6c
e0
c0
ed
35
f2
f9
3e
fc
30
2a
1a
54
d8
3e
ee
30
1f
c6
00
24
9c
fa
cd
cf
a7
2c
c7
31
02
d7
de
54
30
19
c9
d1
e7
6b
e8
2a
15
04
22
c5
16
f5
2f
26
24
9a
b4
4b
5b
32
f5
1d
68
1b
50
50
14
27
d3
1f
df
2d
20
0d
e2
c1
ca
71
1b
36
08
48
1c
64
ca
d2
3d
c5
38
cc
0c
38
e9
1d
e9
5a
35
ea
68
37
4f
19
e3
10
ce
f8
03
02
de
0b
0a
5d
1e
49
41
73
c9
30
5c
ef
d4
2f
53
46
12
25
48
c7
55
e6
d8
cd
63
5f
69
27
da
6b
5e
d3
0a
05
65
42
e2
cc
10
1f
62
eb
ea
69
6f
22
33
2e
17
20
69
09
fc
d4
53
38
70
e2
f5
e9
61
02
fb
2a
ca
e5
37
6c
34
c6
fc
34
cb
ea
de
2f
3e
e4
fd
26
2f
e0
17
35
f6
f8
e2
57
16
ed
03
d0
0f
58
dc
72
5f
d5
30
ed
d3
2c
f8
4c
e5
2f
32
15
26
3f
76
4f
ff
66
25
27
59
59
cb
16
f4
0c
58
e3
db
e7
dc
4e
72
50
06
55
66
ec
5f
de
6d
76
de
62
5d
66
41
50
e2
33
70
3e
34
1a
12
5e
3e
0c
e9
f2
d6
3e
5d
55
33
e5
42
65
fb
41
fa
d2
cc
2c
c4
47
d3
0c
df
63
fe
d7
e0
4e
71
4a
46
e2
5e
11
f3
fc
17
5a
ff
2f
f6
05
fd
1d
1a
d6
ec
0c
35
d4
ef
09
b6
17
d3
fd
76
3d
f3
eb
d0
c9
26
19
59
16
fc
2b
e5
06
c0
46
19
35
c4
01
d3
49
24
ea
37
32
42
df
46
62
d7
fa
3e
0e
cf
2d
6e
e4
77
2b
f4
21
45
02
f1
45
9c
e7
22
e7
3d
fa
29
9f
ba
08
5e
e1
e2
cb
da
2b
39
dd
cd
e4
c8
20
e2
ae
21
3f
a3
2b
2d
e6
02
43
35
0f
3d
dc
d8
47
47
2e
e9
3e
1d
e2
23
29
19
77
60
2f
11
1a
a8
a7
16
27
46
08
bf
b8
01
09
a9
ad
21
a4
f2
45
46
4f
e2
0a
09
77
d5
2e
1e
d9
0e
0e
9a
fe
0c
01
d5
c2
27
f1
37
2c
30
06
04
d9
d4
17
c7
30
74
74
e2
c8
21
e4
fd
36
22
39
0c
01
bd
a7
e6
df
42
ab
07
18
fa
44
d5
fb
c6
17
0f
3f
d5
71
d5
05
e5
2b
d6
62
18
ae
28
cf
04
ed
a7
39
f1
bc
3f
ab
d5
10
46
e1
0d
65
5c
51
4b
04
e6
32
20
69
35
54
23
28
c6
3f
46
a6
bf
b1
f0
10
b8
fb
bf
ee
04
c4
14
4a
52
d0
70
35
f0
40
3f
30
19
6f
db
f6
2d
b7
41
d8
e0
