fd
03
04
fa
fb
fd
fd
04
06
fa
06
01
fc
fe
0d
04
fc
04
fa
00
fa
05
06
03
02
06
fe
03
fa
01
01
fe
fa
f5
ea
f0
fb
f9
06
12
0c
06
15
16
1a
10
ec
e1
e4
e8
eb
ea
fd
04
fb
05
03
05
f8
0d
0a
fe
fc
fe
01
12
1a
06
0c
11
1e
0b
04
fe
fa
f9
f9
14
0c
fa
0d
0f
02
fd
06
04
f8
0d
fd
f3
f3
fb
f2
09
05
04
ff
0c
03
ff
fc
f1
e4
e9
e2
ed
fe
fa
fe
f0
fe
fb
fb
fb
fd
e4
f3
09
0b
06
03
0d
12
04
fb
10
06
f7
fa
08
08
0f
0a
f4
00
07
e1
e5
ee
0a
04
03
f2
fc
08
f9
f8
00
fb
f2
03
fd
fc
ff
fe
ed
ec
f5
0c
07
04
0d
16
10
f9
f3
fb
0c
ff
fe
06
13
0c
02
03
f3
ea
ed
f4
fb
05
ff
ea
de
e7
f6
f8
e8
f2
01
08
00
ff
ef
fb
07
05
eb
0a
0c
fe
f0
fa
f0
ea
ef
f9
10
09
0b
f3
dc
ec
fb
00
f9
fa
ff
fb
01
ff
06
0c
03
1b
f6
fa
fe
f6
ef
f6
f3
eb
f3
00
15
13
03
fa
f1
f7
0a
00
fd
fa
f7
f5
fa
ef
f7
ef
ea
f1
e4
00
fe
f4
ef
f0
fc
f1
f8
07
0d
13
09
f0
f5
08
04
0d
fa
f8
fa
ee
f2
fa
da
d9
e6
f7
f6
01
10
f1
ff
fc
f5
eb
f4
fd
0f
0b
fc
ec
f2
10
17
03
fa
ef
fd
fa
ed
ec
df
e4
e4
f2
17
f3
07
f0
f3
00
f9
ef
f5
05
0e
07
ed
da
e4
05
11
fe
00
f1
fd
f8
e8
e7
ed
d9
ec
fb
0a
ee
05
ef
e8
eb
f8
fd
f6
06
0a
05
f5
e4
df
fa
06
f7
fb
f3
02
0d
f9
00
03
f1
02
fd
02
ee
02
f2
f1
ff
fc
ff
ff
02
0d
0d
f9
eb
e9
fb
02
fb
f3
f8
02
14
0d
17
1b
15
17
0e
fd
06
05
fc
ff
f9
08
03
08
0a
12
10
08
ea
ea
fa
f8
ee
f2
f9
06
11
18
1f
22
22
14
02
f1
19
08
f7
00
f6
00
0d
11
15
1e
1b
07
f9
fe
f9
fc
f3
f7
f8
0c
10
09
18
2b
31
19
fd
f2
10
10
f4
fe
fb
01
09
0f
0e
1c
10
fa
ff
08
15
09
04
03
0d
18
0d
09
14
39
2e
1e
03
ee
12
f9
fc
f9
f4
00
08
08
15
0a
01
fa
02
0c
0d
06
12
0c
0b
17
19
05
0e
29
12
27
e6
01
fa
f6
fd
fe
fc
09
12
0c
0f
fe
f9
f0
07
09
0e
04
0e
07
08
0c
0d
09
14
2d
0a
21
02
f4
00
fc
0c
f6
fe
0f
0f
13
16
08
f9
fe
01
0a
09
07
10
0b
06
10
12
06
00
13
20
0d
04
08
10
0e
15
f2
f7
0f
16
1e
13
16
06
fb
02
05
0b
10
1f
20
1a
14
09
01
f6
f1
15
02
01
09
14
1d
11
0a
03
05
0f
13
16
06
08
04
f8
fe
01
00
0c
12
18
02
0c
0a
fa
02
1a
00
00
f3
0c
11
f3
19
0c
0f
1b
13
13
04
fe
fd
f0
f1
ee
f3
f5
0b
01
0a
01
fb
f4
f5
f4
fe
02
fa
02
f4
f3
04
11
09
12
08
0e
03
04
fd
ec
ef
e7
ed
ef
f9
f3
f7
e5
e3
e4
f6
03
04
ff
fb
f3
e2
e5
eb
f1
f2
f2
f1
e5
e8
e3
e0
eb
ea
e1
e4
df
cb
d9
da
d5
de
fe
0a
07
02
06
fc
f7
ef
03
e8
e4
da
cf
c3
c9
dc
cd
d7
d6
e0
e3
c9
be
bc
cd
cd
e7
f8
ed
07
03
fd
fa
fa
05
ff
0e
03
f9
d2
d1
da
cc
d4
e1
dc
cb
e2
ea
d7
c7
da
d1
d8
e8
f6
ee
ff
fe
fb
ff
ff
03
02
f9
fc
f8
f8
ef
f1
e7
ed
ef
f0
d8
ec
f8
ed
e4
f0
f9
e7
f1
f8
fc
02
fa
03
fe
fb
fb
fb
01
fe
fc
01
01
04
02
fb
01
00
0e
05
00
05
04
fd
fb
fd
05
05
04
06
00
fc
02
06
fa
fd
06
02
0c
0e
0d
11
14
16
18
11
f5
0f
28
26
0d
1f
1c
0e
13
09
fa
06
00
04
02
fc
0e
14
19
08
0b
0f
1b
20
29
2b
10
f6
fc
01
ff
04
0e
ff
0e
1d
10
1b
1e
17
01
03
fe
fe
f1
15
13
01
13
06
1a
1e
15
22
16
12
0d
0b
0a
04
11
04
fe
0f
03
16
1b
f7
0a
fe
06
fc
e6
ed
05
fe
08
09
07
13
0b
0f
02
f3
07
09
05
0e
0a
fb
f6
e9
e7
f2
f9
05
0c
11
01
01
ff
f7
fa
d6
e4
f5
fc
f7
05
09
fa
04
f5
fd
08
0d
08
07
01
f8
e1
e2
eb
12
1c
0f
fb
ee
01
de
f3
e5
f0
01
0a
00
0f
11
03
0f
14
0a
0f
05
09
01
01
fd
f6
de
e2
08
ed
07
03
f1
02
df
fd
ed
f6
f5
08
fd
0c
0a
09
0f
06
12
0d
ff
00
fc
f5
03
e8
dc
f0
09
e7
0e
0b
f9
ee
ec
f4
f5
fe
f0
02
02
08
05
fd
07
06
fe
09
fe
ff
09
02
fd
ee
f4
f4
ef
fc
05
f7
e9
fd
03
f2
f7
fc
f6
07
fe
10
03
f8
f4
fd
f9
03
01
05
0d
ff
fc
f6
f8
0b
f4
ee
e8
f6
fc
f8
0a
f9
10
18
0d
08
07
02
fc
fc
f8
01
00
05
04
07
fd
ff
03
f9
23
14
f6
fc
ea
f5
fe
f7
fc
f9
06
0b
0b
0c
f6
f2
f9
f8
05
01
fe
02
09
07
00
11
16
10
24
2d
16
0b
e4
ec
ed
f4
f6
08
fa
0d
fb
f8
01
fb
fd
f7
07
ff
f4
fd
02
01
0a
09
0a
05
23
1b
0a
02
ed
f0
ff
f0
ff
04
05
02
02
fa
f6
04
08
12
11
0a
f5
fa
f9
02
0c
fe
07
15
1e
1c
0d
0a
0d
fa
f5
e5
fb
f8
fb
0e
fe
f5
f7
05
16
17
0d
05
02
04
fa
07
02
0d
0e
15
10
0d
13
24
11
ef
ef
d6
fd
fc
11
07
fa
fc
fe
07
11
0e
0b
03
ff
01
04
0a
09
0c
09
f6
05
29
1f
ff
18
f6
f2
f4
06
10
17
0f
f9
f4
fd
10
1c
0d
fe
f5
f5
02
0d
06
07
02
00
0c
08
05
2b
16
24
04
f2
f2
05
fe
11
13
fd
07
10
12
11
13
02
fa
fb
fa
06
07
06
f5
f2
f5
f4
fa
12
06
1f
02
ef
f2
fc
05
fe
16
12
05
0c
1e
10
0f
ff
fc
fb
fe
06
fb
fb
eb
e5
02
03
f5
05
f2
02
fd
fc
04
ec
ff
fc
03
00
03
0b
1f
1c
1a
0b
fc
02
00
ff
06
fe
f7
f2
0c
0b
f6
f6
0d
00
05
0c
11
06
15
1e
f3
02
fc
09
0f
14
0f
0a
08
03
f5
f2
fb
ef
f1
f1
04
04
fd
11
00
f6
f5
07
15
07
0f
f6
02
05
fd
10
09
14
0e
13
0b
03
03
06
ff
f2
ee
f0
02
02
fa
06
1a
fd
fc
f4
0d
24
fe
ea
fb
08
0a
13
16
11
1b
1d
09
01
0f
06
f9
f0
f7
f6
ff
06
00
05
e8
06
01
02
f6
19
fa
f7
ec
ec
08
f7
fa
06
0a
fe
07
00
fe
ff
fa
f5
fe
0b
28
1a
28
fa
df
fc
fe
fb
f5
f5
f7
ef
e7
ed
f8
f5
f9
ee
06
01
fe
00
0d
06
0a
05
10
03
18
1d
2a
0c
f0
03
fc
04
09
f1
ef
04
00
06
f4
f1
00
06
fa
00
fc
07
12
0d
0f
1a
27
14
0d
06
09
08
08
04
01
00
05
0a
1b
15
11
14
00
ff
13
14
1b
0b
19
09
09
15
1a
07
19
13
00
03
0e
f6
02
fe
fd
06
06
01
e9
eb
08
07
09
00
ff
0b
04
f6
0e
0b
00
ec
05
0a
fe
ea
ec
eb
00
fa
fb
01
fc
fb
06
06
05
00
02
05
05
03
05
06
f6
fc
0e
07
05
fc
00
02
fa
fe
00
00
fa
02
03
fa
fd
00
fb
02
fa
f5
ee
ef
f4
f7
f1
e3
e3
f7
ff
e1
ef
ee
e5
e3
df
e5
ef
ed
ff
fe
03
fb
fe
00
fb
fe
f0
0a
ff
f7
07
1d
23
26
2f
02
31
24
2b
3b
2b
25
1c
0a
ec
f8
09
04
ff
fe
fd
ff
f8
fb
f9
16
09
19
1b
01
07
1b
13
07
21
0b
1f
0c
11
20
1b
1a
0f
e3
04
08
07
01
05
01
f4
03
ed
03
fd
ff
fb
eb
02
ff
f1
e2
f5
fd
fc
f9
04
ff
f9
fa
fb
03
07
0c
f4
ec
ff
fa
06
18
16
fc
fe
f6
fb
fa
ef
e8
f6
f5
f1
ef
09
08
ff
f7
02
ec
eb
04
ff
ff
ed
f0
05
10
0d
0e
25
1b
08
ff
01
fe
e8
e5
e9
ef
f8
f6
ff
05
08
ff
f9
ef
00
fb
10
05
16
01
00
16
00
0f
19
26
02
f6
fb
fc
eb
ea
f2
f2
f9
f8
02
fc
fd
fe
fc
f1
f5
e5
19
1e
15
fd
f8
12
02
0e
09
ff
f7
f5
ee
fa
fe
f9
f6
07
fe
03
fa
fa
04
05
07
05
ff
fa
ff
0e
f4
f7
ff
03
0e
12
eb
fc
ef
00
f7
06
0a
0a
17
13
16
ff
e4
ee
01
07
03
01
09
ef
ed
e3
fc
1c
fd
fc
f7
1d
ec
f7
fe
fb
f9
04
03
0a
12
f3
ec
eb
d5
d8
dd
f3
f9
02
fa
f1
e7
04
05
f9
04
e1
fa
ec
d9
f8
fa
f8
fa
03
fe
e8
ed
cd
ca
d8
e8
e0
d4
f5
f2
fd
00
eb
e2
06
df
e5
01
f3
07
d7
ed
ed
00
f2
03
fd
fd
e9
ed
f0
f8
fe
f9
e4
f1
f8
01
fc
f4
eb
e2
f7
df
e9
e3
fe
fc
e2
e4
f4
04
02
fd
fa
06
02
1a
18
16
16
13
11
04
08
01
f7
ee
f7
0e
f4
fd
12
0d
fc
ec
ff
01
f6
0e
17
0d
1b
1f
19
25
20
21
24
26
1d
17
11
0f
fd
f7
06
0b
fd
26
08
06
09
fe
0e
0d
10
21
18
1d
2b
31
2a
2e
25
2c
2e
21
24
1b
1b
09
05
09
0c
06
11
28
29
01
0c
03
15
04
0e
13
16
0c
21
20
35
38
1f
20
25
16
25
1d
0d
0b
1f
25
1a
0d
29
2d
18
02
12
11
21
0b
f9
11
0a
03
03
05
0e
0b
15
04
12
15
15
21
13
07
19
16
0e
e9
ff
09
ef
fb
07
0b
2c
0c
03
02
03
f2
e8
ec
ef
f7
f5
f1
04
16
17
1d
1e
20
1b
1d
19
0f
ff
f2
11
ff
e6
02
21
05
09
f2
ee
dc
d6
e0
e6
dc
df
f2
f7
06
0c
20
16
1e
27
1a
22
09
f9
2b
f6
fc
e3
f8
21
00
f7
f9
ec
dc
e1
d4
d8
d3
db
e6
eb
f2
03
11
0b
15
16
00
1b
07
02
1e
0c
fb
08
0c
1c
fe
ea
e8
ed
ef
e9
e8
ef
fc
fc
ef
ea
ee
f0
fa
f5
ff
04
fb
0c
f8
f3
ff
00
fc
06
0d
11
f4
e0
e0
e8
fe
f5
f6
00
ff
fe
f7
f4
f0
e1
e1
da
f1
f6
f3
0b
14
eb
f1
fa
02
03
1f
1b
25
ff
06
01
03
01
15
15
06
01
06
f5
e7
dc
d8
cf
d5
d9
ef
00
07
ea
06
fd
fa
01
23
1e
25
17
32
29
17
0b
16
11
06
04
0c
fa
f0
fb
e3
e0
ef
06
0b
0d
0b
13
06
02
05
fd
1e
ed
21
39
44
28
1a
0e
0b
15
10
1e
03
fe
02
00
f6
ff
0e
13
20
2f
19
08
06
06
01
fa
03
07
24
24
2a
02
f0
f4
09
10
0f
0b
f6
e6
f0
f6
ef
ff
09
f9
f9
00
f1
f2
ff
ff
03
fb
00
06
fa
f4
fc
fd
fd
00
f3
08
09
ff
05
ed
ec
eb
f1
07
fc
e3
e7
f2
05
03
fc
ff
01
fb
03
fc
fc
01
fa
03
02
fa
fd
fc
00
02
fc
00
fd
04
04
06
05
02
04
fb
00
06
03
00
fe
00
03
fb
05
02
02
06
06
ff
fd
04
0f
09
03
11
fe
06
14
26
22
15
0a
fc
fc
fd
04
ff
fc
00
02
0f
1f
fa
fc
08
f0
ef
ea
ec
e1
eb
db
ed
ec
f2
fa
fb
f8
04
1c
0c
f0
f7
fe
00
00
01
02
1f
16
03
10
09
f7
fb
f5
f0
e7
e7
e2
eb
ef
fd
03
fa
14
0d
0d
32
0e
fb
f7
fb
06
ff
00
16
e6
e0
d6
e6
df
e4
f6
f9
eb
ee
f2
04
ff
fa
07
12
19
20
1d
2f
19
02
15
09
05
fa
08
18
ec
e7
eb
fb
db
f7
f2
e4
f0
fa
00
01
f9
10
06
0e
0b
10
1a
0f
1d
ff
1a
0c
fd
09
f9
ec
e4
e7
eb
f6
ef
dd
eb
f4
f6
ff
ff
04
f2
f3
f0
00
05
f3
06
21
1e
24
0d
03
01
e8
ec
d8
df
e6
e4
f2
d8
eb
01
ff
01
f9
04
05
f5
f9
03
fb
f8
f1
f9
15
14
19
11
0b
fa
d5
f9
ef
f2
de
e8
f4
d7
f9
fe
0a
14
15
0e
06
07
0a
0a
fd
fd
ff
fa
f9
28
1d
27
11
ef
ed
f1
d9
ea
db
e9
e8
e6
fc
07
0a
02
14
11
07
09
05
fb
fa
f3
f5
ec
fe
2b
1e
07
e4
f0
f8
07
f4
05
e6
dd
eb
dc
e8
fd
02
14
11
20
0d
06
00
ff
f1
ef
f2
f5
0d
11
f6
00
f4
ef
f5
f0
ea
f0
fa
fb
e9
da
e1
e9
fc
10
1b
18
08
03
03
07
f4
ea
e7
f1
10
0b
f3
30
fd
fc
f7
f2
ea
e8
f2
f9
f1
d8
e1
f0
0c
29
30
17
0e
0c
10
06
03
01
f3
f1
11
fe
ef
fd
e9
1c
fe
e0
04
ee
ec
ee
db
e5
fa
f7
18
2e
16
1a
0e
0b
0e
03
07
f9
e8
e5
fc
ec
f1
f8
fa
08
0e
05
15
f1
ef
d5
dd
f6
fc
02
0c
14
17
0e
07
04
07
f4
fb
fa
ed
de
df
ed
09
e1
f7
0f
0c
22
fc
ec
d8
da
e6
08
fd
f6
ef
0f
06
04
ed
02
ff
0b
08
06
fd
de
dd
f8
f8
d3
ef
f5
19
21
03
f5
f4
ef
f0
09
f5
e4
f0
07
04
fc
f2
fa
fc
0a
14
11
e9
dc
ef
f0
d9
de
fb
03
13
f6
01
09
02
f7
05
03
fc
f8
fe
05
f8
f4
f5
0c
13
11
13
0c
f8
e1
ec
ea
de
ec
11
e4
f5
f4
04
14
01
06
ff
fa
fe
fd
fc
fe
f7
f5
04
12
0b
13
13
04
ee
d9
e2
e1
f4
04
00
0d
f3
03
18
0b
06
03
f4
ff
01
f5
02
f8
fa
f7
02
0e
1b
21
0b
f4
df
c7
df
ef
ff
00
fd
03
18
fa
00
03
05
fe
f9
07
08
02
01
02
f9
fc
07
0c
29
1c
ff
e3
d1
de
e0
f0
fe
08
13
03
eb
ec
fb
04
05
0e
05
00
07
05
0f
0d
08
05
10
0c
0f
00
f2
eb
dd
e1
e3
ff
f6
f0
fc
08
00
df
01
fb
0b
08
ff
fe
fa
06
0b
0e
0b
10
0d
fe
f2
ee
e5
de
e2
f2
f7
03
05
fb
f9
04
01
11
f8
fb
f7
f5
fb
02
02
0c
0f
0f
14
10
0e
01
ec
df
ef
e2
e1
e3
ef
ff
fc
05
01
fd
fd
11
fa
e6
ea
f6
ed
06
20
0a
05
14
0c
04
01
04
df
e7
ff
fc
fe
f9
ed
fb
fa
fd
00
02
fa
0f
ee
df
e2
f0
f7
fe
15
00
f0
eb
df
e1
de
db
d9
e3
fa
03
0f
fd
e6
f3
f8
f7
06
02
05
06
f6
fa
f5
e6
de
dd
d4
df
ed
cb
b9
c1
e2
f9
fe
fb
ed
f4
f9
f1
ee
fc
fe
00
fa
fd
05
04
02
00
f7
f4
f3
f0
e1
cf
f2
f4
e9
d7
fe
ed
e3
f2
e5
f8
f7
f9
00
03
fd
00
06
06
fb
fe
fe
fa
fc
fd
02
06
01
00
fe
fb
f5
04
09
04
01
02
02
00
02
01
04
ff
03
00
fe
02
06
02
fd
f8
03
f3
f5
fa
fb
fb
f7
ee
f3
03
12
06
07
04
fb
f8
fc
0f
0e
05
03
fd
fc
04
fd
fb
fd
eb
f5
fb
f4
00
12
09
ec
e6
e9
e9
fe
0d
02
05
0d
12
02
fd
0a
03
04
fa
04
fa
01
0b
0d
01
02
01
fd
15
1d
1a
0b
0c
fe
e5
f3
e4
e9
f8
fc
08
0b
fc
09
18
0d
01
fd
fe
fa
0a
12
07
0d
12
12
06
13
14
17
14
00
f6
f9
05
ff
0d
0a
10
09
0b
15
1e
11
18
fd
00
06
1b
12
10
1d
15
08
f9
fd
01
0c
12
fe
05
06
0a
02
09
05
15
19
18
03
1a
21
12
fb
01
12
09
0b
07
0c
13
08
0b
09
1a
22
1c
14
1c
0f
0f
0d
0a
02
01
00
0f
0d
11
1e
0d
02
ff
12
f3
07
0a
03
0f
0d
1c
0f
24
17
13
13
10
0e
02
fb
0f
f7
fa
07
0e
05
fe
0b
04
08
f6
0b
02
11
07
03
09
10
16
12
24
18
12
16
11
fa
f0
f1
fc
fa
fa
f0
05
00
f9
05
18
0e
ff
0c
04
16
1e
08
11
0f
15
13
19
12
08
0b
f8
e5
e5
f2
f4
f1
e0
f1
fb
01
04
0d
0f
f0
fe
03
02
15
31
16
0f
01
0e
0c
0c
0b
fc
00
f8
e1
e5
eb
f3
ec
f0
f2
fc
fe
ee
0f
16
fc
01
04
fe
1b
26
04
03
f9
f6
f7
ff
fd
fb
05
00
fa
f4
f7
f8
ee
ef
e7
e5
e1
ea
03
15
01
08
0d
fc
0d
03
fd
f5
fc
f0
ed
ed
ea
f5
fa
0b
fe
f2
05
fd
f9
03
fe
e2
dc
e9
fe
13
fe
11
05
01
09
e1
f0
e5
f8
e7
ea
e4
e4
e3
fa
0b
f3
f6
09
09
02
0c
06
e9
e2
e8
ec
05
09
0d
fc
0f
07
de
cd
ea
f3
fc
f5
ea
ec
f2
03
0e
f7
f8
03
07
fb
fe
fa
ec
f0
ef
eb
0c
fd
06
0c
0a
0c
ed
d2
ed
eb
fd
fc
fb
ef
fa
12
10
fa
fa
04
08
f6
f6
ed
e8
e7
f9
ea
fc
0e
fa
14
1f
1b
f6
d8
f3
f5
f4
00
f6
f1
01
14
07
f7
fc
0b
0b
10
01
00
f4
f7
fe
f0
07
17
06
0e
1d
28
01
f0
ff
fb
fc
f2
ee
f6
04
0c
10
fe
05
ff
04
05
0b
0b
ff
fa
f7
02
0c
27
02
06
0f
1b
12
04
ff
fa
fb
f7
00
f5
ef
0a
04
09
0a
03
00
08
0a
00
00
fa
01
fb
19
11
06
ff
10
0e
13
16
12
fc
0e
ff
f7
f2
f6
00
00
07
09
01
02
0a
05
01
fb
0b
15
1a
18
09
03
fa
0b
21
13
1f
25
17
19
04
01
f3
f6
f9
f7
09
04
fb
09
04
0e
06
13
1d
1c
1f
14
10
0b
01
fb
16
28
15
1f
19
0f
11
02
fb
02
00
fe
fc
fc
06
0f
0a
0e
13
0c
14
1a
21
0a
01
05
03
fe
19
33
24
1d
15
0c
0a
03
07
f8
f2
f1
f0
00
05
03
04
17
07
15
19
1e
13
0d
00
06
06
1a
18
30
18
09
0d
02
08
03
ff
ff
fd
f3
04
0b
02
fe
01
0c
00
1b
2c
33
10
21
01
06
03
04
10
fd
ef
fd
00
ff
fc
ec
fe
03
fc
fa
09
0a
11
23
22
0f
0b
10
13
17
02
0e
fa
fa
fa
f9
04
f0
e5
01
02
03
05
f7
00
1c
1a
16
29
36
2f
21
2a
12
0d
0e
13
1e
04
02
03
05
fa
fa
fa
ec
e2
e6
eb
ff
f2
fb
03
01
12
14
16
2d
2b
1d
29
16
05
00
02
00
03
ff
00
fc
fe
01
fa
01
08
00
05
07
07
10
0a
12
17
10
0b
0d
23
06
02
fc
ef
f9
ff
01
00
fa
04
fe
fa
06
06
fc
05
fc
03
fe
03
02
02
fa
06
fd
05
fd
fe
ff
01
fe
01
01
06
ff
fd
fd
05
fe
06
ff
04
fd
00
00
fe
fd
01
04
fc
04
03
ff
06
05
04
05
05
05
03
ff
ff
fb
03
fe
00
fd
01
01
fb
fa
fe
04
00
04
fb
fc
04
02
03
fe
06
fe
fe
00
00
04
ff
05
fe
04
06
06
fe
06
fd
02
00
fe
fc
00
05
03
04
fa
fa
fb
ff
07
05
01
01
00
04
ff
fe
fc
fc
fd
04
fa
00
03
03
fa
05
03
01
ff
fa
fd
02
fd
fb
fc
01
02
fa
03
fe
00
03
04
03
f8
02
05
fc
fa
02
04
00
06
fd
ff
00
fa
01
fa
fe
f9
fb
04
fa
fa
f9
05
01
fd
03
04
f9
f9
02
fc
00
fa
fd
fd
fe
ff
fa
fe
02
fb
04
f8
fb
01
00
01
03
fe
02
fc
fd
04
00
f9
fb
fa
ff
01
f9
01
fb
01
ff
ff
fa
fb
03
01
fa
03
02
fe
01
01
fd
fa
00
02
f9
fa
00
02
01
fe
02
01
00
05
fa
02
06
04
05
fc
fd
05
fc
fe
06
00
05
01
02
04
03
fe
fc
fb
fd
fd
fa
fc
01
fd
01
fc
fd
02
04
03
03
fc
04
fd
01
00
fe
ff
05
fd
00
03
01
02
00
ff
03
ff
05
fd
05
f8
fd
05
ff
fa
01
02
06
fd
00
01
00
fd
fa
02
00
00
fb
fd
fa
fe
f9
05
03
fc
fc
fe
03
04
01
fe
fa
03
06
02
fb
06
fc
ff
05
f8
ff
fd
00
f8
fc
fc
ff
04
fa
fd
f9
06
fd
fb
04
04
07
02
fa
06
04
ff
fd
fb
fe
05
03
fa
03
fa
fd
fb
fc
03
fd
fa
fe
f9
fa
fc
00
fb
ff
04
06
fa
ff
00
fc
03
06
06
00
fb
fe
05
00
04
ff
fd
04
fc
01
03
05
03
00
ff
01
00
00
03
03
05
ff
05
04
fd
fe
fe
fc
fb
01
fc
fb
fa
04
fd
fc
fb
fb
fd
03
fb
00
f8
fb
f9
fd
05
ff
01
06
00
fc
03
02
03
fd
01
03
fc
04
ff
ff
05
03
02
fb
ff
00
03
ff
01
f9
f9
f9
fe
05
fc
04
fe
02
ff
01
fe
ff
f9
f8
fd
05
01
fb
fb
fe
05
fc
fd
fd
fa
f9
04
fe
fe
fa
fa
00
fa
ff
00
03
06
06
00
02
f8
02
05
fe
04
fe
00
fe
fe
fa
02
00
fc
fe
03
fe
fc
fc
ff
fc
fc
00
02
fa
02
fa
fc
fc
fb
01
01
fc
fd
fe
01
00
02
fc
03
02
03
f9
03
fc
fb
fa
fb
04
02
fd
04
03
02
fd
06
fa
02
fe
fd
05
06
fa
04
f9
f8
01
f9
fe
fa
00
02
ff
03
02
ff
fe
ff
ff
fc
fe
fc
fa
04
ff
00
fa
fc
ff
fa
04
01
02
fb
fb
fd
f9
fd
f9
ff
00
fb
04
f9
05
fc
fb
06
fc
fe
fa
f9
fd
fd
fc
fd
fe
ff
fb
04
fe
02
ff
fc
fe
fa
fa
fc
fe
fd
03
00
fa
fa
00
04
03
fd
03
03
fc
fd
fb
03
01
fe
ff
ff
fa
02
fe
fa
fc
f9
fa
fd
03
05
03
fd
00
fc
ff
fc
03
05
ff
fe
ff
fd
fa
05
04
02
fe
01
f9
03
02
04
03
04
fc
01
04
03
05
02
fb
02
fb
fa
fd
06
fe
fa
fd
f9
01
fb
02
fe
00
fa
01
fe
fa
f8
01
ff
04
fb
fc
fe
00
fe
fd
00
00
ff
02
fb
fc
ff
fb
fe
05
fb
fd
fc
fd
fc
fe
02
04
02
05
01
00
fc
ff
fe
06
fc
05
05
fc
03
fa
00
fa
02
fa
05
04
00
03
03
05
00
04
fa
fe
03
04
fb
05
fc
02
06
fd
ff
06
fa
fb
04
02
02
fc
05
01
01
06
fe
ff
fb
04
04
fc
fc
fc
fe
01
fa
00
fd
fa
05
ff
00
00
02
ff
01
fd
02
fe
fe
02
fd
06
04
fe
fa
03
01
0b
f3
fe
01
fd
fc
fb
00
03
fe
00
fc
fa
03
01
fc
00
06
00
07
03
07
06
02
09
06
fa
08
03
06
f5
e9
eb
1b
25
13
22
0f
ff
fc
fe
04
02
ff
00
0a
f0
f6
02
0b
0e
08
ff
01
02
05
08
14
03
f4
03
06
05
0b
16
1f
0d
00
fe
04
01
fd
01
e5
eb
03
14
10
0f
fa
03
fe
fd
fb
fe
02
f7
f4
f2
04
01
f8
0f
20
25
0c
f2
fa
fc
05
00
ee
fe
0c
ff
e9
fa
f8
f7
f2
f9
08
01
0a
fd
02
00
fa
08
0a
19
12
0f
0f
07
16
1c
00
fa
f1
e3
02
fe
05
0a
16
10
0a
15
13
17
12
03
fb
0b
fb
f9
f5
fa
eb
fe
0e
14
09
15
fe
f3
05
f9
fd
01
ff
0a
0a
0a
02
16
12
0a
08
0c
0a
0d
ff
0a
03
04
fa
03
ff
09
f8
1a
00
f7
0b
07
ef
f5
f6
00
06
08
0a
0f
0a
05
06
0f
07
0a
0c
0c
04
06
04
ff
06
01
fe
0c
f3
09
13
09
f9
06
0c
10
11
14
06
0c
02
0a
fb
04
00
02
0f
04
fa
09
01
fc
16
0f
07
06
05
1f
01
00
01
0c
18
06
09
0f
fe
04
fa
fb
02
f8
f6
01
05
04
10
0b
02
fe
00
06
02
13
13
0b
fc
f0
06
01
05
08
03
09
05
fc
fc
00
fc
f8
f7
f8
04
08
09
04
03
f9
f9
f7
e5
13
16
f9
21
07
0a
19
12
12
13
15
10
07
10
0e
0b
fe
0a
fe
05
f8
0d
0d
0f
0f
05
e4
f7
0a
14
0f
21
15
11
20
05
10
12
0d
08
13
f8
03
f9
1a
13
0b
07
fc
04
13
10
1b
07
ea
f2
07
e3
15
17
0b
0d
1f
11
17
11
14
16
08
ed
f8
03
1c
16
06
06
0a
13
15
11
10
f4
f0
dc
f2
f8
09
1d
04
0b
16
0e
0c
0c
11
0d
0b
01
fd
04
0d
11
11
0b
1b
0b
09
04
f9
e5
eb
da
fa
f8
fe
e5
07
fc
f7
11
19
11
12
10
11
fd
fd
08
04
06
19
15
10
04
06
15
fe
db
f2
e7
ec
05
fa
f5
f1
f6
f5
09
09
1f
17
0f
04
02
fa
04
03
0c
15
0f
07
06
f8
f9
f8
e1
ed
de
dc
fa
f0
f7
ea
e3
fc
fd
ff
0c
08
03
07
f7
03
01
10
0c
0f
07
07
09
01
05
fa
0c
f1
f4
d3
11
f7
0a
e8
eb
eb
fc
00
fd
03
07
f9
ff
09
04
02
04
01
05
0b
12
fd
f2
f5
f5
ef
0f
e0
fc
0b
02
eb
ec
f6
f6
f8
01
fc
fe
f4
f9
fd
00
fe
f7
fd
01
07
06
fb
f2
f2
f8
e3
ea
e7
04
f8
f3
d9
e1
ee
ec
f2
f8
f6
f9
fa
fb
04
01
01
fb
f7
ec
fa
fb
00
f6
f5
fd
f1
ec
ed
f2
ff
e0
d4
eb
03
f9
05
0a
07
0a
02
07
03
05
02
fc
fe
f2
f9
03
09
fd
fa
fc
e2
e4
00
f8
f5
e2
e6
01
f9
07
07
0c
04
09
09
09
05
01
05
00
ff
f9
fb
06
07
fa
02
08
04
ee
ff
05
05
e8
e8
04
fd
fc
0d
03
fe
f5
fa
fc
f8
02
04
ff
f6
f8
0a
07
0a
fc
06
0b
f8
de
fd
00
fb
0a
f3
01
1b
0b
09
0c
fc
0c
08
03
fc
f3
04
04
f0
f4
03
18
ff
fc
06
ef
f0
f4
05
fe
fa
f8
16
0d
0f
06
07
0d
0b
1e
20
01
fb
0f
09
0d
06
0b
0b
0f
09
e9
f0
ef
00
fc
ff
05
fe
fe
08
f9
01
02
1e
29
35
15
08
0f
20
20
13
08
16
17
0c
12
2c
23
1a
16
0a
02
00
fa
fe
fc
fe
03
07
0c
0c
0e
12
2f
13
0d
14
2c
13
1a
25
30
20
1e
1e
1b
0a
fb
fb
fd
04
fb
fc
fd
02
02
03
04
04
05
fb
00
fb
ff
fd
0a
04
00
fc
05
fd
03
fc
ff
00
04
ff
05
fb
fd
ff
ff
06
01
fa
f9
fa
fc
f4
fb
fe
f0
f6
0a
ee
f1
ec
dd
df
d7
ed
ef
f6
00
01
01
ff
fa
04
f2
f9
f1
03
03
f3
ea
f8
ed
ee
03
0d
09
0c
02
ff
fc
f6
e7
e6
e3
dd
fc
02
02
04
01
06
0d
fe
1d
e0
f4
f3
e3
e7
ea
ed
0e
09
09
12
15
05
05
00
ec
f6
fb
d9
dd
11
fd
fa
00
fc
05
ed
f4
fb
03
fb
ef
fd
01
10
1b
15
09
09
0d
0e
fe
03
ff
02
fc
f8
13
20
00
eb
fd
03
ed
09
f7
05
ff
e2
d7
e8
f6
f7
f8
f6
fd
00
05
0b
01
13
18
0d
14
02
04
14
fe
f4
fb
ef
03
e8
f2
f9
f0
e9
ea
f5
f8
ea
e1
da
f2
04
08
05
ff
0f
0c
f8
01
09
09
16
20
fe
fc
e2
00
de
d4
fb
e6
e8
fd
fc
ed
de
e4
ef
fd
0b
05
f9
f5
00
04
0f
0f
0a
00
0e
26
02
e7
ee
0e
f6
ed
f9
f0
f3
f8
f0
ea
eb
ed
fc
fd
14
0a
08
03
05
07
10
04
08
17
32
35
14
01
e9
02
fd
e1
f3
ef
f1
f5
fa
f3
f3
f4
fe
ec
06
0e
0d
05
00
09
06
08
f9
1e
1c
1f
e8
fb
f2
f5
f6
0d
f2
f1
fe
fc
fd
fd
06
ff
e9
e8
fb
fd
02
00
00
f9
f8
f7
fc
0b
09
19
f5
fd
ee
e1
e7
f7
06
09
0a
f9
fe
07
fa
f9
e0
e3
ef
f8
ed
fc
00
ef
f1
da
f2
0f
1d
3e
f3
f8
ef
ef
f8
00
11
17
16
02
0a
0e
09
0d
00
f0
fb
fd
f9
ff
0c
02
f5
dc
da
e2
fb
08
e7
20
fb
ed
ff
f6
13
15
24
14
13
10
1d
20
1d
13
18
0a
07
02
ff
ef
e6
dd
dd
db
f1
13
0e
0b
ed
de
00
06
1b
1e
25
20
1d
14
1a
16
11
12
15
10
10
ff
e7
d6
dc
de
d8
e8
f3
1d
0f
05
ef
0d
11
10
15
14
19
1f
1e
0e
0c
08
12
12
0d
16
00
f2
e1
c8
d3
de
e3
f8
05
1f
1d
fc
f7
0b
0f
06
0a
14
12
0c
09
0b
fa
0d
10
14
13
06
f9
ea
df
e2
e8
e7
ee
f1
06
2f
19
fd
f0
0d
15
10
13
19
09
04
0e
0c
0b
0c
0d
12
0b
fc
eb
e7
ea
f5
e7
ed
f2
f8
f3
0e
1e
f4
fa
02
0e
14
13
11
04
ff
0b
0d
0e
05
11
0b
fb
f5
e4
f3
09
03
eb
f7
fe
1b
03
0c
1a
0c
f0
ec
0d
17
02
02
eb
ee
f9
f0
f5
f2
13
fa
fa
06
07
11
0d
0e
06
0d
1b
1d
19
26
0e
fe
ff
08
fe
0c
ff
fe
f1
f7
f5
f9
fd
fd
ef
ed
0a
1d
21
18
18
1d
13
14
0e
15
1c
1f
0b
10
fd
ea
ef
0d
08
03
fc
f6
fc
fa
fa
f4
f9
f8
07
11
18
12
19
21
21
19
25
14
25
e8
fa
0d
05
f0
f3
02
01
09
fd
f8
00
fd
f8
ea
f5
fd
01
04
0e
1c
1a
1f
24
10
19
22
14
fa
fe
ff
fc
0b
00
fb
f0
e7
e0
f4
01
fd
f2
fa
fc
05
09
04
07
12
15
23
31
27
13
08
10
0e
05
fe
fa
00
ee
fa
e2
d4
e7
fa
02
f9
fd
05
09
03
02
f8
07
11
16
15
13
12
0e
07
12
09
ff
01
00
08
05
e9
d7
cf
e2
f0
e8
d9
dc
f6
fc
fd
0a
03
fd
fb
e6
f3
f8
09
1d
08
09
02
03
04
04
fa
07
12
e6
e1
02
ff
df
db
00
05
e3
e0
ff
01
fc
e7
e0
eb
e8
e6
fd
f1
01
03
04
fb
04
03
fe
fa
f8
02
fc
04
0c
ec
12
08
00
fa
0b
f9
e3
ec
04
f4
e0
e0
e5
fd
fa
04
ff
06
00
fb
00
fd
fe
fc
05
04
fa
04
01
fb
00
17
08
01
04
00
ff
04
fa
fc
06
01
fe
ff
fa
fd
fa
03
fb
00
01
07
fb
03
04
00
fc
ec
04
0f
12
22
1b
ee
fa
fb
fa
09
06
00
fd
ff
02
fc
ff
fa
06
01
00
04
07
fc
08
10
18
22
23
12
17
26
0f
fc
ed
ed
ed
f0
06
00
03
fe
01
fe
02
15
fe
e7
f8
01
fe
16
1e
16
0d
15
1a
0d
15
20
12
08
fb
ea
db
de
d7
e6
f7
f4
fd
fd
00
15
02
ff
f1
12
0d
12
13
07
13
17
14
1f
23
15
06
00
f8
f4
d1
ce
c7
c3
d7
eb
e5
05
06
21
f8
0b
fe
13
05
12
13
01
fa
fc
13
1c
1b
1d
0e
09
fc
f3
f6
f9
f5
d2
d6
d9
e7
fb
f9
f0
08
03
fd
0b
05
02
0d
01
fc
01
0a
24
28
35
32
32
0f
09
0d
f8
de
c9
d9
e0
ef
05
17
04
02
ea
e6
f8
f2
fb
fa
fa
f6
0d
10
1f
27
3a
31
2b
26
11
0f
09
f4
d4
d0
d7
ea
e9
26
f8
f9
e0
e3
e2
ee
0d
fb
f4
ff
f5
e9
12
17
25
27
28
28
17
07
0e
fd
d4
d3
e0
f6
07
24
f9
02
ec
e5
e6
f1
06
f8
0c
f2
ed
e1
f3
0f
1c
1b
1a
21
13
f3
02
ff
dc
d9
d0
04
04
0a
09
f3
f3
ef
f5
ee
f6
f4
ec
e6
cf
c5
e4
fa
0c
0a
14
1f
21
00
f8
ec
dd
df
da
09
0a
10
f3
da
e5
da
e5
de
eb
e4
e3
e6
c7
b8
cf
fa
f5
ff
17
28
31
0c
fc
e4
e8
f4
d9
0a
09
f5
f0
e7
e0
d5
e7
e3
e8
eb
f6
f2
ce
bb
e7
03
f7
ff
10
26
24
f4
e4
da
d6
e2
f3
05
16
f6
04
f0
df
e3
f8
f3
fc
f4
f9
f7
e8
e9
00
04
fd
07
10
14
06
ed
dc
cc
cc
e5
fc
07
f0
fb
05
f3
ed
f2
17
09
fe
f4
ff
f6
ef
fc
0b
16
11
0a
13
05
f6
e5
e3
d5
e3
fd
1b
0b
f1
01
f8
ee
fd
08
0e
05
05
f6
fa
f8
ef
f2
fb
05
10
07
09
f8
d8
d3
da
e3
fb
03
18
0a
08
fb
fd
f1
fd
0f
09
00
01
08
01
fa
f5
f4
f5
f8
01
07
fe
e5
d3
de
eb
e6
0a
0d
0d
0e
fa
07
ee
f7
fa
fa
fc
e9
ff
00
08
fe
00
fc
03
0a
06
fc
ed
ea
d9
e0
e6
e3
03
2a
26
1b
1e
0e
e9
f1
f0
f9
f8
01
0e
07
08
01
fa
03
02
fd
03
03
f8
f4
eb
ef
fd
fd
0e
29
20
1b
03
10
f4
e4
f8
e8
fd
0a
0b
12
0f
04
0c
10
00
fe
f6
fc
fa
f3
f2
f1
fa
13
0d
26
1c
17
fc
14
f5
fa
fc
fd
02
0e
08
09
0f
18
18
0d
09
fa
00
fa
f3
02
f7
f9
f6
0d
1c
07
18
0d
0a
01
15
14
07
fe
fd
03
00
07
1b
06
0f
10
04
03
06
00
ff
02
f8
ff
f3
0b
24
0d
07
01
0d
0e
08
02
fc
1c
12
0b
10
12
05
02
fc
ff
05
f6
07
fd
fc
f5
f4
fd
fc
11
11
f7
ee
fe
fb
05
f6
d9
e9
04
0a
0b
f9
00
01
07
00
01
f2
ee
eb
ee
e7
f2
ea
f9
16
08
0c
fa
f3
fa
fb
02
09
ea
14
16
01
fc
fc
f3
fd
f3
02
f4
e9
e7
e8
f5
ea
f6
f6
09
10
10
1a
13
09
02
02
fd
0f
10
04
0b
ff
03
1c
10
f3
06
16
0a
fc
f1
f2
fd
fc
fd
1a
1a
fd
01
f8
02
0a
fb
02
fe
04
13
f2
f7
01
32
3a
46
4d
2c
1a
1a
1f
19
2f
1a
27
1c
29
17
11
f9
02
06
fe
00
05
03
02
fa
07
02
0f
10
15
18
30
22
10
18
1c
14
13
16
19
08
0a
11
06
09
fd
06
02
ff
06
06
ff
05
fa
fd
06
04
01
fa
02
fc
fb
04
11
0a
fb
04
03
06
03
fc
fe
fb
00
03
fd
fa
06
fe
ff
fa
f6
ff
fd
f6
fd
f5
f3
fa
f9
fb
10
f2
fe
f0
ee
ea
f6
fa
ee
fa
fc
00
fa
01
04
00
ff
f3
e7
e5
f6
f4
fa
f8
e8
cf
ed
ee
ed
ea
f3
f7
07
f5
f2
f1
ee
ed
04
01
03
fd
04
fe
02
f3
fc
ea
ee
00
f1
f2
ee
db
d5
da
f0
fa
09
0c
14
13
10
19
12
f5
ef
00
02
02
fa
f6
f8
ec
f8
04
12
11
01
0c
f6
06
0f
0f
fb
fc
f9
fc
08
0a
04
0b
0d
10
15
09
fd
ec
fa
fb
ea
f6
f8
0b
18
08
0f
17
1d
10
0a
f9
ec
e8
e5
f4
f7
03
09
11
1b
05
05
07
f8
ed
00
fe
08
e9
ff
2a
0e
04
0e
0e
0f
08
10
fa
e7
d4
c3
d9
f1
fd
f4
fd
0c
0a
0c
0b
0f
f6
01
06
10
04
fd
22
10
08
06
12
17
19
10
ff
ed
d7
d6
f0
06
fd
fb
08
10
12
07
0d
1b
f7
16
04
1b
12
f3
0e
03
05
03
14
15
1c
23
fd
e6
df
e1
ff
09
fe
10
03
07
1a
19
21
21
0d
0d
15
1e
09
f6
fd
f7
f3
fb
0c
15
24
1c
ff
dd
cb
e9
ff
0f
0d
06
17
05
15
26
27
2c
0a
0c
0b
1c
06
fe
01
f6
f6
fc
04
0c
28
24
07
e3
d3
e1
07
11
09
02
13
10
0f
1c
16
32
09
14
1f
04
14
04
fd
ff
f9
eb
00
0e
1f
2a
03
e2
d5
eb
04
12
01
f6
fc
13
0d
06
05
29
fe
0c
04
fb
0f
f0
ec
f3
f9
f0
ff
13
28
3a
10
e1
ec
fb
08
0e
0e
06
10
10
fd
11
0d
22
ef
fc
01
fd
fe
f7
fb
ef
f2
f9
02
11
21
1a
01
f3
ee
f9
0a
08
fe
0f
05
fc
fb
f4
0b
11
08
0c
01
03
ed
f7
04
ef
00
06
07
0e
03
04
fd
fb
fb
fe
01
00
0a
06
fc
f6
f6
0c
f9
16
11
07
f9
0e
fa
00
fb
f5
05
09
11
11
08
fb
fe
f2
f8
fa
fa
02
03
ee
ee
f5
ff
09
ec
22
10
03
f4
f6
06
01
eb
f6
fb
02
fc
04
03
02
fe
f6
f3
f8
f6
f3
02
f9
07
ff
02
15
f9
15
0f
fe
f5
01
f7
1c
00
fd
ff
fb
fe
07
0b
0a
f2
f2
f7
f8
f4
08
fa
f4
07
01
04
14
02
1c
f3
e7
f7
fb
f8
23
11
fa
fc
fc
08
07
0d
0d
f8
eb
ec
f4
f7
03
fb
fa
f0
f5
07
18
fe
0b
04
fc
ec
02
0c
17
0b
ff
08
0d
03
ff
00
06
f4
f9
fa
f7
00
02
f8
ee
eb
f5
00
16
00
17
04
02
ff
00
fd
06
f7
02
08
19
0a
fb
06
05
f9
ed
ef
fc
f9
fb
f5
fc
f7
02
01
06
f9
08
ff
fb
fd
fd
f7
03
00
0a
11
0f
04
fd
08
f7
f6
ec
f6
f1
f2
f5
07
0b
07
12
20
16
11
0b
fe
fa
fb
fb
fb
0c
0b
16
0e
0c
04
05
0a
f9
fe
ef
fb
f6
f4
00
0e
04
06
0c
1e
0b
fd
29
08
01
fd
f9
f5
08
11
09
06
04
14
22
1f
16
16
03
01
00
09
ff
04
f9
ff
05
11
01
01
1f
fe
06
05
fc
fd
df
f1
f4
f3
f9
05
09
1c
1f
20
1f
0b
09
03
03
fb
f2
f5
0b
f2
01
06
06
00
fa
fa
ea
07
fa
e4
f0
e3
e3
e4
05
06
0d
14
12
24
2a
0a
f8
e7
e5
09
17
0f
09
03
02
00
fa
02
fe
ff
e3
ec
ef
c8
d3
d6
e0
e9
ff
e4
d2
fd
02
f0
df
ed
e7
f0
f3
f2
e5
04
ff
03
fb
fe
04
06
17
11
eb
ec
ef
f3
f7
e9
f2
00
e1
ed
06
08
f9
f1
09
03
03
1b
00
01
fd
05
05
03
00
05
fa
ff
fb
fa
04
02
fb
04
05
06
ee
04
fc
04
05
04
00
fe
ff
00
fc
04
01
04
00
fd
00
06
fe
06
fe
f4
f8
ee
f2
ef
f5
f4
1e
14
f2
f4
e2
ed
e0
e7
01
01
04
06
01
03
00
04
f5
0b
f3
ed
01
f6
f7
ef
e8
f7
fe
15
03
15
22
1b
18
1b
07
e3
e6
eb
e6
01
ff
05
04
02
18
1e
0b
10
0a
14
15
fa
fc
f6
0f
07
05
14
1a
16
20
19
16
fb
e5
f1
ed
ed
00
fd
fc
09
0f
29
12
09
07
0e
1a
0c
15
0a
08
09
05
19
16
06
0d
13
fc
0e
02
ec
04
0d
0f
f9
ff
01
1c
18
03
21
1c
1d
0d
06
fa
02
06
0e
12
0d
16
0c
04
07
06
04
08
06
03
f2
07
00
fe
0f
0c
0a
10
19
1a
07
07
0e
07
09
08
fb
06
02
05
fd
08
06
06
ef
f0
03
1a
00
1c
04
02
16
fc
0c
10
14
09
08
ff
06
00
f8
fb
f4
fe
fb
f7
f2
f7
ff
fd
ef
fc
f9
e1
e7
19
07
ec
0f
0e
17
0d
13
f8
01
e4
ef
ea
e8
fc
02
f9
f3
e5
ea
eb
f1
f0
f6
10
ee
eb
0c
1f
0d
08
04
01
0a
1b
05
0c
f8
f6
f2
f1
ec
07
0d
18
09
04
f8
ef
e9
ef
fc
07
f4
dc
22
36
0b
0b
07
f6
13
1a
fe
00
f4
eb
f6
02
00
0d
1f
17
0f
fe
08
f9
05
ff
f6
00
f7
f3
11
1b
13
0a
0c
15
21
2f
13
f7
eb
f4
02
09
02
13
17
1b
12
05
05
05
06
fd
ee
f1
ef
ec
02
04
1e
12
0f
1c
18
25
14
fc
06
03
01
00
f9
01
0b
14
12
fe
08
0b
03
fe
f1
ea
f7
ca
e9
16
1b
11
0b
19
16
0d
08
03
fa
04
04
e9
ec
f6
ff
14
0c
05
09
0c
07
0c
01
e5
ec
e7
f6
08
ee
0f
12
26
13
02
fb
fe
eb
f5
f0
e6
db
f0
07
19
14
13
0f
00
0d
07
0f
f1
fe
f5
fa
f5
f2
10
0b
27
05
04
f7
03
eb
ea
e3
ca
d1
e1
10
24
18
0d
fd
02
18
18
15
10
0a
fa
f4
08
f8
03
1a
0e
10
0c
03
f8
fe
f2
e0
d5
c1
db
16
10
02
fc
fd
0c
1a
1c
0d
07
fe
07
d6
f3
f7
00
17
01
18
14
06
03
07
f3
e2
d0
d2
e7
03
0c
0d
ff
04
ff
16
15
17
05
06
f1
c7
fe
eb
0b
12
11
29
0d
16
0d
fc
02
f7
e8
e4
ee
0d
0d
16
10
15
01
05
0a
15
03
fa
f9
e6
fe
09
08
0c
ff
13
0c
12
15
0c
0b
07
f8
f8
fe
07
14
1a
1e
10
00
0a
07
02
ff
03
04
04
f5
01
01
fb
eb
07
f7
fe
0e
0a
0d
10
06
01
fb
02
14
1d
17
13
0d
f7
0b
03
05
f8
f6
e1
03
0c
0c
fe
f5
f1
ee
f4
01
0c
ff
fc
fe
04
08
0f
14
0c
05
0a
0d
0b
05
fe
f8
da
e4
f1
eb
f9
0b
09
00
f2
ea
ee
ec
f4
ea
ec
f0
fc
ec
f2
05
0c
0e
10
10
17
0f
fd
e6
cf
dc
f5
04
fe
fa
02
12
0a
f9
ef
e6
ee
e3
ec
f7
01
f6
fa
ff
0b
0c
03
06
12
03
d8
bd
d0
e1
f0
14
fe
fa
03
0b
0f
05
fd
05
fa
f2
fa
fa
05
10
13
0e
04
fd
f8
ec
f4
f0
e5
e2
e4
e8
fa
15
fc
06
fd
0d
f9
fe
01
16
1d
32
2d
14
0f
2d
21
04
ee
f3
fa
09
13
04
fd
03
00
f7
f9
02
fb
fd
01
02
f1
ea
01
09
13
17
f6
fe
0c
07
fd
db
e8
f2
f2
01
0c
f3
dd
f5
08
f8
07
01
fc
03
06
06
02
14
1e
1e
17
0d
06
09
fd
f4
17
f6
f3
01
21
0c
0d
fe
fd
ff
02
00
01
fd
03
ff
fd
fa
fc
02
00
fa
00
fc
04
fe
04
00
ff
18
0b
06
ff
fe
01
fb
fe
02
fb
06
04
fd
00
05
06
03
fa
ff
00
03
fd
f8
ff
00
08
ef
fe
fd
01
17
18
02
00
04
f9
01
fe
fb
02
fa
01
06
fc
05
fd
f6
fb
fd
00
0d
0b
10
03
18
21
11
fb
f6
fa
09
f4
06
06
f2
f5
05
fb
ff
05
fe
ff
ef
f9
f7
0e
0e
02
18
21
26
17
26
24
2e
15
1b
0f
04
03
12
0a
f9
f2
fb
f0
02
02
04
02
f9
08
07
07
16
2d
28
29
1f
2a
28
24
1e
27
1f
1e
1c
02
f9
f6
03
ea
ee
e4
10
fe
fe
fe
0d
12
10
fb
10
23
26
1d
18
2a
2c
2f
27
25
2a
24
1e
0b
06
fb
09
f2
e7
20
12
fb
fe
12
fe
16
08
0a
22
15
15
0f
27
26
24
35
34
3b
36
28
29
16
0f
14
0f
f4
eb
08
fb
fa
fa
11
fc
13
06
fc
0b
00
0e
0d
11
16
12
20
26
2d
2a
26
27
17
0d
09
00
e3
d5
eb
01
0b
01
fe
ec
05
f7
df
e0
ee
02
f5
fb
ea
ec
eb
00
fc
18
12
1c
1a
18
ff
0c
00
dd
f2
08
06
04
fa
fb
03
f0
d9
df
f5
f2
e5
d3
cb
d6
cd
c4
dd
f1
13
1b
10
16
0b
1c
18
dc
03
ef
fa
fd
f9
fb
05
d3
db
ee
eb
e9
cd
d7
d0
c7
c3
c3
cf
f2
0d
08
06
11
1c
2d
00
dc
fa
fd
eb
f8
fa
ea
f1
d5
c7
db
e9
e2
d3
e3
dd
cf
d8
d7
d3
df
fa
fc
0a
1d
21
17
f1
e1
f6
01
ef
f5
fb
e4
f1
d8
ca
db
e8
fa
f8
0c
fd
ff
f4
f0
e6
ec
e8
f6
10
18
0f
f6
df
dc
f3
0b
f7
ec
f3
e6
01
e9
f1
f7
08
0a
10
18
04
04
11
04
ef
ed
eb
fa
07
0b
0a
ef
cd
e2
f3
fc
f6
00
ff
08
11
0a
02
0e
22
15
0c
ff
f5
ff
17
13
09
f1
ee
f7
fd
01
f9
f4
e3
dc
f0
0b
16
01
0a
fe
0b
1d
0d
0d
0e
03
fb
f9
ef
e9
f8
f9
11
ff
f1
f6
f5
e7
f2
fc
ef
e6
ef
0f
0a
01
0f
08
0e
15
07
fe
f9
f1
fb
f8
f0
01
08
03
04
0b
04
f6
e3
ed
fa
01
ea
f3
f4
0b
0d
00
07
00
0e
0b
fb
f7
ee
f8
f2
eb
f3
f9
fb
f0
00
0d
0b
ea
e2
dd
ea
ec
e0
e5
15
fa
1b
08
09
f9
fb
fb
fa
f5
f2
00
f7
05
fb
e4
e6
e9
0a
15
0a
fc
01
fa
f8
f9
f0
f4
11
02
14
f5
08
f7
fd
f6
fd
fd
fb
fe
fc
09
fd
0b
07
00
0c
09
09
08
fc
00
ed
de
f1
0e
0a
06
09
06
14
10
0f
00
10
ff
01
fd
07
05
00
fd
14
05
12
09
0e
fc
05
f7
f0
e9
f7
01
ff
fd
f9
f7
00
28
17
f9
f4
02
00
f4
fd
04
08
0f
0b
11
0d
1a
0b
07
0c
02
04
09
11
08
0f
1d
06
f2
08
24
11
f7
fa
04
0c
0f
0e
16
1a
0c
11
11
0b
0e
0b
0c
10
06
f5
0f
16
25
0d
f2
08
03
05
14
11
01
01
11
22
08
11
27
2b
0d
0e
12
0d
07
1b
12
0e
0d
0b
1e
2b
20
0f
e2
fa
04
fb
fd
16
1a
0d
17
0f
09
10
0b
09
11
10
17
13
0e
14
1a
0f
16
18
0e
02
1d
19
02
00
fc
ff
07
f2
06
06
11
0c
14
1a
1a
12
fb
fd
fe
f7
f2
eb
f8
03
04
fe
ff
f8
06
f8
07
04
00
ff
06
0d
f2
e5
e8
ed
07
0f
08
f7
ed
f8
f4
f0
fa
f1
f7
f2
f5
f8
fc
0e
08
00
fe
06
ff
01
00
02
02
ff
01
03
fd
ff
fe
fd
ff
f5
f5
00
f3
fe
f8
f8
fc
04
03
fc
04
00
04
00
fc
05
05
00
fe
06
02
06
03
06
02
01
0c
04
f7
ff
01
04
02
05
02
06
fb
fd
01
05
04
ff
05
04
fc
fb
04
03
09
0c
0e
0e
0d
19
20
22
04
01
fa
09
22
24
15
27
19
0a
03
fc
fa
06
fc
04
10
0d
19
04
12
1e
0f
fe
0b
15
10
19
17
05
fe
0b
fc
05
ff
0f
29
0b
fa
f6
fc
00
03
01
0c
12
09
ff
0d
05
07
06
15
18
0c
0e
11
f7
ee
ee
f2
eb
f4
01
0f
17
03
f2
0a
fd
fc
fd
06
02
01
e2
e1
f4
03
1d
1b
10
12
07
0c
00
01
fa
ef
fe
00
0c
11
0c
0c
10
fc
12
04
fc
fb
fa
ee
e0
e2
fc
1a
1b
22
19
0b
07
ff
ee
e1
e9
e4
ee
f7
f2
07
0d
1d
15
15
1a
06
f8
fd
de
ff
06
ec
04
05
04
0c
0f
10
00
fc
e6
e5
e3
e5
f1
ef
f8
04
0d
33
1b
11
0f
fa
ff
ea
e7
e6
ff
ec
01
05
17
19
17
0a
f5
f1
f2
f3
fb
04
05
0f
14
20
16
1b
14
1e
09
0a
ff
fc
f2
dd
e8
f8
fc
15
1e
13
11
07
f7
ed
ed
fd
fc
05
0b
1e
1f
0a
00
1c
2f
0c
fc
fa
fd
f0
e7
e2
c9
f5
09
17
26
18
19
f6
e8
d6
e1
f7
f0
ff
fb
0c
12
ee
f3
1f
1a
00
f3
fa
ff
f2
da
dd
d5
ea
10
26
33
2c
0b
f4
cb
c7
e5
f5
f6
f4
ed
02
f2
ea
03
25
18
f6
eb
fe
ff
ed
d6
d1
d8
fe
19
26
2d
2b
0b
f2
da
e6
f2
00
f7
f0
f2
f2
fb
fc
12
1b
f8
01
ef
ff
f4
ea
df
d3
da
04
26
25
29
1e
0f
fd
f0
e5
fd
07
fc
fe
e9
f9
01
f9
18
13
ef
e4
e0
01
f2
f5
e8
e4
ee
0b
1a
1c
27
16
07
00
ec
f2
0c
08
00
03
ff
fe
01
04
12
fb
ef
d7
ec
10
00
ef
f0
ee
f9
06
14
1e
2d
1d
11
04
eb
e9
f9
05
0b
12
03
01
02
0c
03
0a
ed
dc
f0
05
fe
09
f6
e9
ef
f9
0f
17
21
21
18
0f
f4
ec
ed
ff
09
fe
fc
f5
03
0a
0b
f0
00
ec
eb
f7
fe
02
fe
e4
f2
f4
ff
16
0f
16
17
11
f5
f5
ed
f3
fd
fd
fe
fa
f4
04
00
f3
04
e1
e1
04
fc
fe
e9
dd
f7
f5
fa
03
0a
0b
11
06
fc
fb
f6
f5
fb
02
08
00
fe
0a
0a
07
ea
db
d1
03
ff
ea
ea
dd
f5
f9
f1
fa
07
07
06
14
0f
00
f0
f2
ff
02
0c
0b
06
f4
fe
fe
f2
d7
e8
ff
f2
f9
fc
ec
f3
fe
f9
0d
07
03
08
07
06
02
f3
ee
f7
09
11
14
0c
02
04
0a
e4
db
f7
fa
06
00
f3
f3
e9
e7
fc
fa
0a
03
f9
0a
02
05
05
f8
f8
0d
14
03
00
05
03
05
09
e3
07
03
03
fd
00
03
f3
e4
f7
01
08
fd
ff
fb
fe
05
0d
fa
ff
0e
05
02
fa
07
0a
00
03
0c
fe
fc
ff
f4
0a
0d
ee
da
e5
f6
ee
fb
f6
ff
03
0b
19
15
0b
0c
06
f8
f8
ed
10
02
07
1d
00
fb
05
02
22
12
0a
ec
e4
f3
f9
01
f7
05
0d
16
19
1a
09
09
03
f6
f5
f2
10
f8
01
15
fa
06
fa
fa
0b
02
13
f4
ed
f4
0c
0d
07
03
09
01
06
03
fc
05
f8
02
ea
00
0c
e6
ea
f5
ff
04
ff
01
09
09
fb
08
0a
0e
1a
18
0c
fc
07
f7
07
f2
f0
07
04
fd
0f
28
33
20
fa
f8
00
fe
03
05
08
01
e8
f7
f9
07
06
fc
0d
1e
02
fb
f9
ff
09
09
f3
f3
f0
f2
02
ea
fb
fb
01
fe
fe
04
04
00
f8
f0
ed
ef
fd
ed
09
07
e8
e6
fd
ff
eb
00
fb
e7
e6
e5
02
01
02
ff
03
01
fe
fa
fe
03
06
fc
02
03
02
fe
fc
08
02
03
00
fb
fc
03
06
fc
02
02
fd
01
01
ff
03
04
fb
fd
05
05
07
04
fd
ee
fe
08
05
0b
11
15
19
fe
03
11
11
10
11
07
03
03
02
fd
02
03
06
0c
03
01
02
06
fc
f3
f5
03
f9
f1
0c
0b
1e
33
31
2d
2e
11
03
12
0d
fe
fa
03
fb
00
05
0f
0a
02
f8
f0
ed
ee
ff
f4
dd
e7
f0
ea
03
0a
10
1f
0d
fe
ff
15
12
10
06
01
00
fb
f6
09
f0
ea
f9
f0
e7
e7
fb
fd
f9
f3
f6
fd
09
1c
0b
15
10
02
06
08
16
08
0c
0b
02
fd
02
09
ea
e8
f7
f0
f0
e2
f5
fa
ff
fc
f5
02
07
08
0c
03
0c
1e
0f
10
10
12
07
20
04
02
ff
01
df
e5
ec
e5
f0
f1
f1
05
04
0a
03
01
07
01
f2
01
06
0d
08
13
11
19
1e
0e
05
fe
ec
e9
d4
d3
d1
de
01
06
fa
fc
fc
0b
05
0b
0e
05
f4
01
ff
0b
18
19
1d
0b
fe
0f
0d
fd
ee
e8
e7
c9
de
f3
fb
fe
fb
f6
06
04
ff
fd
fd
01
0c
fc
0c
03
13
0f
10
0b
07
22
10
f9
fa
e0
eb
e1
e3
f7
06
04
03
08
0d
fa
fe
f2
fb
04
fc
ff
00
ec
f8
06
0c
23
24
17
f7
f6
fe
ea
e0
f9
fe
fb
01
00
fc
10
05
04
fd
fd
06
07
01
08
08
f3
ea
f3
07
1f
27
15
f5
ee
f4
da
e6
0f
14
07
04
fd
00
ff
fb
03
06
11
0b
06
fb
0b
ff
e7
d2
c0
e6
fe
25
1b
0d
ed
f4
d6
00
0a
10
07
09
01
07
06
09
05
0e
0b
ff
e6
ed
f7
e9
d6
d4
bd
bf
be
f3
14
05
18
e1
d4
15
05
0c
08
07
05
12
ff
03
0e
0d
07
f5
eb
f2
eb
f4
e4
cd
c8
c2
b4
db
f6
ff
02
ec
db
fa
f5
f3
08
fe
04
04
0a
00
fd
fc
03
f5
f8
f2
ee
e3
ef
e2
dd
cb
cd
da
fd
fb
0b
e5
f6
ee
e1
e7
fd
ff
00
0c
fe
08
0a
0d
11
f2
ff
f2
f9
e2
e7
eb
d9
df
d8
ea
eb
f0
f4
fb
ff
fd
df
e1
ea
eb
fa
ff
04
0b
0e
13
11
f6
f7
e3
ec
fa
f0
01
f6
f3
f3
fa
f3
ed
05
fa
e0
17
e8
f3
ed
f2
f6
ed
01
04
03
0a
0d
01
f6
ef
f2
fd
fe
ff
fb
e7
e0
d6
df
fa
f8
f3
f7
17
00
f0
f3
f2
ed
ec
ea
e5
fa
04
01
00
f9
f0
f1
01
10
fe
f4
f1
ff
ee
de
09
05
f9
0a
fe
02
f8
05
f0
fc
02
ec
ec
f3
03
03
06
07
05
03
0a
0f
0b
08
19
0e
0a
f4
01
02
fb
0a
ff
fd
f9
07
00
07
06
03
fc
03
08
fa
12
13
11
12
1b
15
16
23
22
14
19
06
15
09
00
e5
fc
18
10
04
09
0d
12
02
0b
ff
0b
09
08
05
19
1c
15
26
25
29
21
18
0f
0c
04
07
fc
eb
01
1d
0b
fb
02
08
09
02
04
08
09
0e
09
08
17
1a
14
21
17
11
27
08
09
0e
fa
ff
03
09
05
11
0a
04
01
0b
0b
07
0a
11
04
06
14
1b
0d
0d
0f
1f
0c
1a
21
14
06
1f
fd
01
fc
15
06
eb
e8
f9
fc
1b
1e
0f
06
0c
08
07
0f
10
10
1f
16
17
09
09
11
14
f1
0c
03
fe
fa
13
0d
ed
e2
07
f9
07
12
02
fd
13
1b
0a
17
16
1f
14
18
1c
10
24
18
22
01
fe
ff
04
fa
04
fa
09
ec
e8
ec
d9
eb
f9
09
01
ff
04
0b
10
17
fe
ea
00
f7
f6
06
f1
f8
01
fa
05
fd
00
fe
ff
05
f7
00
fc
f0
e6
fe
fd
f4
06
04
01
e5
e9
e3
eb
e4
e5
05
fa
fc
00
fc
fe
fe
01
06
fe
00
fc
fc
01
fe
00
02
ff
fe
01
06
fa
01
fb
ff
06
06
fd
03
ff
ff
01
02
03
06
fe
fb
04
ff
0c
13
0f
10
10
11
11
0e
09
01
fa
fe
0e
02
05
01
fa
ff
01
fb
fd
04
fb
fd
01
04
fe
02
12
1c
1f
07
11
38
0e
01
13
16
11
1a
19
17
0f
14
0f
05
ff
ff
fe
01
06
fb
00
fd
06
10
15
25
15
0e
0b
fd
fb
fc
f6
03
13
13
14
07
0c
0f
11
0c
fd
f8
fc
fe
03
fc
05
08
11
0d
1d
24
0b
0c
0d
f9
f2
e9
fa
fa
0a
10
0f
07
f9
01
01
f9
fe
f8
fe
ff
fb
04
fd
05
03
fa
04
fc
01
0b
06
07
f3
ef
f8
09
11
14
f6
ef
ee
fe
f2
fc
f7
fc
f4
03
02
05
ff
0b
0a
fa
05
fe
fb
0c
fe
02
f5
fe
04
04
fe
fa
f4
ef
f6
f0
f6
fa
f6
fe
05
03
03
00
f7
06
14
02
f9
ff
01
06
04
00
fc
00
03
f8
fc
fd
f6
f8
f6
f0
fa
f9
fb
06
08
06
fe
00
fa
10
11
00
fb
fa
04
03
ff
f4
f8
01
fd
ef
fb
fe
fe
f4
06
fc
f6
01
05
ff
03
0a
fb
f9
06
05
0d
13
fe
fc
f9
01
f5
f7
fa
07
f8
ef
f8
fe
fa
04
fe
fc
06
08
0b
02
fe
04
01
fa
06
05
15
16
f7
f9
ff
fc
f7
fb
fe
fa
ef
f3
f6
fc
01
07
fc
fb
f7
03
10
0b
04
00
ff
05
fe
fe
0b
13
06
fd
fe
fe
f6
fe
fe
f2
ee
ea
f6
fe
02
07
ff
fc
f5
06
0c
02
0b
11
fa
01
03
07
0a
0c
09
04
f5
fb
f2
05
f7
f4
ed
e6
f1
fa
07
fc
07
09
f7
00
09
20
14
0c
ff
fd
fc
fb
02
0d
05
02
fb
fa
ff
03
f3
ed
ee
f4
f4
fe
ff
00
f9
00
fc
09
0c
1b
12
0a
05
ff
03
f2
f1
05
07
02
f7
04
ff
00
fe
f5
01
05
01
01
f8
03
fa
0a
12
04
03
10
12
fa
04
01
fd
f8
f4
fc
f7
f4
f5
07
0e
0c
00
fa
fc
01
fe
f8
f4
f8
f2
0a
0e
03
02
10
0b
03
00
fc
03
f1
ef
f3
f3
fe
ee
f9
06
0c
01
fc
fc
04
ff
f7
f7
f7
00
07
11
02
09
0c
fe
fe
fa
fa
fb
f7
f4
fb
00
07
f8
f7
fd
ff
ee
ed
f4
ff
03
fc
01
f3
f5
0d
07
fd
06
07
f7
fc
00
fa
fc
05
08
fc
04
05
ff
fd
0f
ff
fa
04
f8
fa
01
0d
02
ee
f9
07
08
0d
02
00
fe
03
fe
03
01
03
07
01
08
fa
01
fc
0e
08
00
fd
02
f5
fd
0d
0c
fe
06
13
19
19
06
f4
00
04
ff
01
fc
f9
fc
02
0d
03
f8
fc
fa
ff
01
fd
f3
fd
05
08
09
00
0d
03
14
18
05
fd
fd
02
04
05
fb
ff
03
ff
02
07
f8
f4
f3
fa
f1
f8
f9
02
f6
f9
f8
fb
fc
f8
1e
15
fa
06
fb
02
06
fc
fe
04
03
fd
05
fe
f8
f6
fb
fc
01
ff
f3
03
f8
02
f8
f9
fb
f6
01
fc
f6
0b
00
03
01
03
03
ff
fc
01
f7
f8
f3
f8
ff
ff
fd
f2
f1
f4
f3
04
07
fb
03
00
07
03
f4
fa
fa
fd
ff
03
fd
02
06
fa
fd
f6
f7
fc
f7
ff
fc
fa
f6
f4
fe
09
00
fd
00
01
04
05
fc
ff
ff
ff
ff
fa
fd
fe
ff
05
fc
00
f9
00
fe
fa
f5
fa
f5
ee
f8
f7
f9
e8
e9
e8
fc
f7
fe
fa
fc
fe
fd
05
02
fa
fe
fb
03
02
03
fa
fb
fd
f5
fe
fe
fa
f5
ea
ef
f3
ed
f2
fe
fb
02
05
fe
00
fd
01
06
03
04
05
00
fb
02
fa
05
00
f9
06
07
08
ff
fa
ff
01
fc
06
fb
05
05
00
fd
fe
00
05
02
01
fd
ff
02
05
02
fd
fe
fc
fa
04
0c
07
fa
fc
fe
fd
03
fd
fa
fc
fb
fe
01
01
fe
05
02
fc
00
02
0b
01
09
08
0a
0e
0b
06
f8
ee
fa
f7
04
07
0b
07
04
05
fa
03
04
06
00
fe
03
e9
ed
ff
08
0c
1a
1f
26
1c
15
fe
0e
fc
02
0a
19
f2
08
16
09
0c
14
09
fe
fc
fb
fc
f2
f7
1b
0c
11
11
07
1d
0b
1f
15
15
19
09
0e
fd
0c
07
00
24
1f
2c
24
10
09
00
04
fc
e6
e1
ed
f9
07
11
09
0a
15
09
0b
f8
04
fd
06
0b
0a
08
0c
0a
02
0b
36
34
2c
1e
fc
fe
fc
01
05
e2
f2
fd
f6
05
0c
0d
08
fc
03
f4
03
04
fe
03
07
0c
fa
fc
1f
41
2a
16
fe
fa
fd
df
00
ef
f3
02
09
0f
02
f8
fa
f9
00
fc
f5
f6
f0
f5
ef
e7
e9
f2
06
38
15
0c
fe
eb
00
e6
06
06
09
0d
1c
04
f9
fc
f8
fb
fe
fd
f8
e9
ec
f1
e5
f8
f6
e6
08
2a
09
13
ee
ff
03
fc
05
02
04
fc
fb
f0
f0
f0
f3
f9
f7
f6
fb
f5
f7
fa
f9
fd
f3
f7
05
25
2d
16
00
ec
0b
03
f3
05
07
05
fd
fa
e8
f1
ec
ec
f1
fe
03
fc
fd
03
09
06
01
01
0d
26
17
e8
fd
fc
f3
04
04
07
13
07
06
fd
fe
fd
f1
d8
e9
fb
f6
f8
01
0a
07
fe
f7
0b
1f
01
09
e7
f4
eb
e3
f4
04
13
15
06
0c
12
08
04
e9
d0
dd
e9
ed
fb
f7
12
00
f6
f2
15
20
2b
2c
e8
f6
f9
ef
00
fc
08
07
07
fe
0d
12
0f
f5
e8
db
e1
f3
fb
f2
08
fb
02
f8
08
15
08
03
ec
f6
fc
ec
01
ee
08
07
0b
05
0d
12
1d
05
07
fe
03
07
f6
00
11
09
05
05
0a
06
06
1a
0d
04
ef
dc
fb
fb
04
0e
0f
02
08
0d
18
0f
06
09
0c
17
0b
01
f8
f5
01
02
f3
fb
12
32
0d
07
ef
f2
16
02
11
16
04
01
01
0a
13
13
18
14
1b
1d
0b
00
fe
f3
f0
ee
ee
06
25
1a
17
f9
f9
f8
1c
00
10
10
fe
fb
f5
0c
17
20
16
11
1a
1b
09
05
f6
ee
fc
f6
fa
f7
43
2d
12
02
e9
01
16
09
09
18
05
01
fe
0b
11
15
1a
07
00
09
fa
f6
f9
f7
f0
ef
f3
ee
0f
f8
03
f6
f9
f3
09
0e
17
23
09
fe
fd
0c
07
18
19
09
fb
fc
f2
f6
fb
f5
fb
fb
fe
06
10
f1
0a
fc
f5
fc
fd
0a
13
0c
f9
fb
f0
ff
10
10
09
05
f9
fe
fc
03
f5
f7
fb
03
12
02
14
0c
07
fc
fd
11
07
fa
12
fd
fd
ff
02
fb
02
02
00
f9
05
ff
f5
fe
f5
07
02
04
14
fe
05
fe
ef
fd
05
06
04
06
f5
fc
00
03
0c
01
ff
ff
fb
fd
04
04
07
0b
08
0a
14
20
20
0a
00
ec
01
fa
ff
05
09
0b
dc
e6
e8
eb
fa
02
ff
04
fb
fe
02
02
06
0a
06
05
19
20
16
1a
fb
e5
fd
fe
ff
fc
16
07
da
ce
cf
e4
eb
f2
ed
f3
00
02
ff
0b
00
14
1b
1d
30
2d
27
0f
03
e9
fd
00
01
fd
f5
ea
de
d2
db
e7
eb
fb
07
08
05
11
15
1b
0e
25
21
1f
0b
20
20
12
05
fa
00
fa
fe
0c
06
f8
fc
fb
04
f9
f9
02
06
03
19
17
20
16
0f
0e
06
04
01
0b
18
10
ff
06
00
01
03
fd
06
09
ff
16
18
25
fe
fd
0d
18
01
f7
f0
f3
ef
e5
da
f5
04
ec
fe
f3
ff
04
01
06
01
03
06
02
f8
07
07
06
05
eb
11
0d
fa
04
09
f0
e7
f1
ff
fa
ea
eb
e9
fc
fe
03
04
00
05
06
fa
01
01
00
02
06
04
ff
fb
0a
05
06
05
02
fb
02
fc
ff
04
01
fc
04
01
fe
fd
fa
02
02
01
07
fc
fd
04
0a
0b
0b
0f
0e
06
10
09
fa
03
07
0c
0c
0f
08
05
02
00
06
00
fa
fa
04
fc
03
00
04
0a
08
09
0a
12
1d
29
20
1f
14
12
09
07
0d
11
18
02
fe
fd
02
fd
01
fa
e8
03
fe
f6
08
01
f4
09
00
f7
f8
03
04
01
09
04
fd
01
ee
0a
24
32
1a
fb
02
01
04
f9
f6
fb
02
f2
ec
fd
05
1b
13
fb
02
f0
fc
fd
09
14
16
14
12
15
19
33
36
25
1e
14
04
fe
00
ea
ee
f8
e7
ec
0a
01
f6
f0
fa
f0
02
ee
fd
00
06
16
0d
06
0c
1a
30
34
22
0f
fb
00
ed
da
e5
f4
e9
f2
ff
f8
f4
f9
04
f1
ff
ff
ec
fc
f5
09
f8
eb
f4
0c
1e
21
12
13
01
ed
f3
de
d5
f7
e6
fe
09
0a
12
fa
fc
ed
f5
fe
ef
f4
f8
fc
f7
f2
04
08
0a
05
09
12
f9
e7
02
fa
f3
fc
0b
19
0b
0c
02
fa
f7
fb
ee
f4
f6
ee
f7
fb
fc
f6
f5
fd
fd
0d
28
11
fb
ef
fa
fb
ea
eb
04
08
10
01
f5
fd
e4
ee
e8
ec
f0
f8
f2
f3
fe
05
f8
fb
f4
01
08
e6
03
f8
ed
eb
fd
ec
ff
0b
0a
0a
0f
fd
f9
e7
eb
f2
ef
e6
ea
ed
f4
ee
fa
fb
f6
e6
e8
ef
01
ee
f3
de
05
02
06
05
0d
12
16
0d
0d
fd
f6
09
0d
ea
d9
ee
e8
fc
fe
fe
f2
f5
08
fb
03
f7
e7
ee
f6
05
ff
10
14
0c
00
08
0f
0f
fb
0e
12
f3
f1
f8
0b
11
14
f9
fd
f8
db
e3
09
fd
eb
e8
ef
15
0b
0e
01
07
00
02
04
00
08
16
0a
f7
fc
14
17
12
18
00
f2
f4
db
f4
0b
02
01
fb
fc
28
29
15
10
05
f5
f6
f5
10
1e
0b
09
01
f8
07
00
01
03
f9
f1
fa
e8
fc
07
fb
0d
0b
07
16
12
0f
05
fb
e2
f4
01
15
2a
13
0a
fd
f3
ec
ec
ee
f7
f8
ef
03
f8
f3
f9
08
09
14
f4
08
03
f6
ee
d9
d9
e3
0e
1c
25
1f
0d
ff
eb
e8
ec
ec
eb
f5
f7
0b
e8
f7
05
fc
04
06
e9
fa
f1
dc
da
c9
cf
f9
16
16
28
23
0f
fe
fb
f1
f0
f1
01
ff
03
f5
e0
fa
f0
fa
f0
fc
ed
f6
f6
d6
db
d5
e2
01
1d
26
20
12
01
f8
07
f6
f5
f5
fc
f5
17
02
df
ed
05
e5
ef
f7
e6
e4
ec
de
d9
e5
00
19
23
25
1f
10
04
02
0d
00
04
f8
f8
02
19
f5
f5
f8
fd
01
fa
f2
d9
d9
da
d9
db
e1
07
2b
36
1b
0e
19
0b
11
0b
00
fd
fd
f2
f4
fe
fb
fc
02
ff
03
fb
f7
e9
da
dc
d6
f3
00
ff
0c
1a
15
0e
10
01
1d
0a
fc
ff
04
03
01
f4
f7
fc
03
fb
07
f5
ec
ea
e4
d8
da
f1
f9
f3
f9
fe
08
08
00
06
12
08
0e
f6
07
03
01
f9
06
0a
fe
fc
01
fb
e7
ea
dc
da
d1
f3
fa
e9
e6
f6
fc
04
01
0f
14
0b
0e
07
10
1d
08
ea
02
04
fa
ff
02
ff
f0
ec
e9
cf
c4
cc
e8
ec
01
ff
fc
01
fd
05
f4
0d
13
15
08
1a
05
e3
e5
ea
00
fe
fa
fb
fd
f1
df
eb
d9
c8
d2
ec
ec
ec
f9
08
00
f9
06
08
f6
fd
03
0d
0a
f3
fc
f9
02
03
fb
02
ff
f3
f0
e7
ee
ed
d2
c9
d5
ce
cb
c1
c0
d4
e2
e5
d4
de
ef
ee
fa
01
02
fa
fb
02
02
ff
fe
ff
fe
07
fb
fe
f4
f0
eb
f7
ee
dc
e8
ea
ff
fd
00
02
ef
f3
00
00
fc
03
fa
06
fa
06
fe
02
fb
02
04
fb
04
fb
fb
ff
03
10
0d
03
fc
fe
00
01
06
fe
04
05
03
ff
fa
fd
fc
fc
05
fd
f9
fb
f7
f1
f9
f9
ea
e5
ed
06
fa
06
fa
eb
e3
f0
ef
fc
f6
05
03
02
03
fe
fd
fc
fe
f6
01
fa
f3
f7
07
06
00
02
02
f6
fb
04
ef
f3
de
df
f0
f1
f6
01
08
06
04
fd
04
0e
f6
f7
fe
ff
06
09
fa
0e
17
0a
08
fb
04
fb
f4
f9
fe
fa
e6
e7
ea
f6
01
f7
03
fc
0e
16
15
fa
fb
02
09
0f
0a
0e
0d
19
12
06
06
07
f6
fa
f7
f4
e9
e6
d0
e1
f2
ff
01
fd
03
1f
0f
09
0b
0a
0a
fa
f9
02
03
09
06
01
0a
06
f8
07
07
f5
fb
f3
fa
ef
fe
07
02
fb
11
ff
23
16
0e
12
03
02
0e
0d
0e
06
10
10
0f
14
0d
0f
ff
f9
03
f1
e9
e5
ef
fe
fc
07
1b
ff
21
1c
fb
0e
fe
04
10
05
ff
13
0c
10
0b
07
00
0a
09
07
00
fe
e7
e0
de
f0
f5
ee
16
fa
03
16
fb
f4
03
0a
02
08
fd
08
0a
12
0a
fe
0b
10
12
0a
06
12
ef
cc
e3
fa
00
04
17
06
09
09
04
06
13
0a
05
00
f6
fd
05
06
0f
07
07
06
0b
08
0b
10
f9
ce
f9
14
0c
09
01
07
1a
01
fe
0a
f5
f3
ea
ed
f2
ea
ff
06
03
10
12
0c
11
1b
0c
07
ea
d7
03
0c
0d
13
fe
16
25
03
e6
f3
e4
ea
eb
ee
f9
eb
f4
09
03
ff
0a
1d
1c
11
f9
00
e8
e4
04
07
0b
05
0e
05
0e
ee
da
d2
e0
f4
f2
f0
e9
e5
f8
0c
0c
0b
0b
15
0d
f7
e5
dd
d8
f0
12
14
1c
03
01
0e
00
f2
d7
dd
e3
f9
f4
ef
f4
e9
01
15
09
06
0f
03
f9
eb
e8
e2
e4
fa
10
09
07
f9
10
0e
0a
00
de
ef
f2
f2
f1
e3
e9
f2
0c
16
08
0e
0e
fe
fa
ec
ed
e8
f3
00
10
19
0b
f4
19
0b
04
0e
f7
f8
f4
f4
e8
e7
ea
ed
07
0e
14
15
0b
fc
f4
f8
ef
f8
f7
02
04
0b
13
01
22
17
0a
17
06
f9
f9
f1
01
ef
eb
f6
0f
0e
0b
0d
01
f4
f5
f7
f5
05
fe
0b
0b
15
12
06
11
03
12
10
05
f8
f4
fa
f1
f4
f2
0a
1a
0d
09
01
fc
f9
02
ef
f5
f7
02
14
1a
18
13
16
15
0f
17
fe
10
fc
f8
fa
f8
fa
f8
fd
0d
08
05
ff
07
03
01
f5
f8
04
12
0c
13
17
1a
fc
11
f4
0c
0b
0c
02
09
fd
fd
00
f0
fb
05
0e
04
07
05
fd
fc
fb
f7
02
18
0a
21
1c
0e
fb
f4
f6
17
0c
00
10
10
08
fc
ff
f3
ef
f9
ff
f6
fd
f6
fc
fc
fe
07
02
13
0a
fe
12
f9
00
09
1d
22
05
0a
0d
0b
03
02
06
f5
f4
f3
fb
f5
ff
fd
01
03
fc
02
02
09
f9
fc
ea
f9
04
11
18
0b
0f
15
08
12
0b
01
fe
fd
f7
f9
ff
00
fc
00
0f
0c
10
07
08
f9
fc
ff
eb
00
fb
03
12
07
09
09
01
08
ff
fc
f9
04
fe
0b
05
04
08
0e
0b
09
07
02
f8
00
0a
02
f2
00
fd
04
0b
0d
1e
12
0d
06
f5
f3
ff
07
01
01
07
08
fc
09
f4
f5
fd
03
f8
05
0b
17
0a
fd
00
fb
0c
f5
06
16
0a
14
1e
10
08
02
13
08
0a
fe
0b
05
ff
02
ff
f1
e8
ea
f7
0b
00
fc
fa
fb
fd
fc
e9
f2
03
1d
1e
25
2f
16
03
1d
27
10
10
14
20
19
15
01
ff
fb
fa
06
02
fd
01
04
fd
fa
0b
ff
09
17
18
0e
1b
05
04
16
23
09
1b
1e
17
10
07
04
00
02
ff
fc
fd
01
03
02
00
05
02
02
05
fb
01
00
00
01
0c
0d
fd
fd
01
fc
02
fd
fe
fe
05
06
fe
00
05
06
fe
06
fc
ff
0a
fe
ff
08
fe
ff
0b
0e
08
03
02
01
e6
fa
24
26
24
1c
1b
0b
00
06
03
ff
00
06
16
01
11
fe
04
03
fe
f9
fe
02
fb
f8
ff
13
21
28
05
17
27
36
37
1a
06
03
ff
fe
fa
05
1b
0a
02
0b
04
08
f5
f4
e8
e5
e1
ea
f4
f2
02
0e
09
20
1b
06
f5
fe
f7
e5
f9
fb
fe
fe
19
02
f7
08
02
fa
f9
e7
f0
fd
f7
05
fc
f0
fc
0f
0a
11
ff
ed
db
e3
e7
d6
df
fb
fa
fe
32
07
fd
01
fc
f3
d9
cf
de
eb
ee
e8
eb
f9
f5
f3
0d
fd
df
de
d7
ef
f1
e6
f1
f9
02
f2
f5
f7
f9
f4
e4
e6
d6
c8
cd
d9
ea
ef
01
0a
08
11
11
ed
e1
e1
f4
e2
ed
ed
05
09
01
de
ed
f8
ee
e8
d2
d9
db
cb
cf
e3
f3
01
18
16
1a
0a
fc
f2
ed
f0
01
e6
df
e6
01
02
04
e6
f6
fd
f1
ec
e9
e5
e6
d5
e1
e5
f9
11
17
0c
fa
f9
e3
e2
e0
f1
fb
ec
dd
e3
e9
ec
f7
f6
f7
e8
f1
f0
e6
e5
ef
e5
f4
fe
fe
1a
19
1b
f7
d5
d9
da
dc
e4
ec
ed
e0
d5
e8
04
f9
fb
f3
dd
e7
e8
d2
eb
e7
de
fa
fd
03
1d
1b
1a
f9
e2
cf
d7
c7
d2
e5
e5
e6
d2
db
00
f3
f7
00
e2
df
ed
e2
e9
ef
e1
fe
08
13
15
13
12
00
f4
ec
e4
dd
ea
e3
de
c8
b6
ca
ed
02
fb
ff
ea
e7
e2
db
e4
e7
f4
0d
1c
24
2a
24
1a
18
04
fc
f1
fd
00
eb
ef
d3
c5
c6
f2
13
f6
ec
ed
eb
e7
e1
d8
f1
fa
17
15
28
26
25
16
11
07
07
08
0d
03
ee
e5
d0
c4
d0
f7
03
03
03
06
02
e9
da
d9
ef
0a
15
1a
1f
1d
15
0d
11
fd
03
0c
15
fd
f1
f0
e5
e2
dd
f9
00
01
14
fb
ff
ef
d6
d6
ed
00
20
24
17
17
16
ff
13
f3
f4
0b
0a
0e
f3
f2
e1
e3
e8
f8
fb
02
0e
f8
fb
eb
c6
d6
fe
02
1e
29
14
11
0e
05
0b
f0
ee
ff
07
fb
ed
f5
f1
d8
d2
f9
01
0c
fc
fd
f5
e3
cb
d2
f4
05
14
0e
06
22
1e
02
ea
db
ea
00
01
fb
e8
fd
f2
ed
e8
e1
f4
0f
ec
00
e5
e0
cd
c9
e5
0b
02
fc
17
22
15
f2
d6
d9
f3
f2
f2
ee
db
fc
e9
fe
09
11
0d
ea
ea
06
e9
db
e2
de
e3
fa
f2
13
2a
19
0d
f2
df
d8
f9
02
f5
f0
ec
fc
08
08
06
19
fb
02
f9
f4
e9
e6
ef
d7
d1
d9
ed
0d
17
0a
11
f4
ee
e1
f9
f3
f2
ec
ef
fd
fd
05
05
09
0d
04
f8
fa
e1
f0
de
d5
d4
e8
f6
f5
0d
05
09
fb
f3
e5
f9
e4
fc
f9
f9
00
0e
f2
f7
fc
11
11
fc
f6
e7
f1
e1
dd
ea
e4
e9
dd
ee
f5
f7
00
fe
ff
00
f9
0d
04
00
0d
09
fe
0d
02
fa
fe
f6
f0
e8
f0
e5
e1
e7
f5
ea
f7
fc
ee
ed
ef
ff
0b
07
fd
08
0e
0a
0b
02
08
18
fd
fc
04
02
fb
11
0e
f3
f6
01
fa
0d
ee
e9
eb
f6
fe
04
18
1a
07
06
1d
16
18
06
19
11
03
fa
ff
05
f4
11
17
f9
06
20
10
fd
01
f6
00
12
f6
f8
0c
08
f9
fc
f9
f8
12
0e
ff
fd
06
05
05
fb
0c
1d
0c
0c
19
0b
0d
08
0a
0a
f2
12
05
06
06
05
fa
06
f5
f4
fc
07
03
05
fb
00
fd
ff
fd
05
fe
02
0a
ff
07
0d
0e
0b
fe
18
0e
09
04
06
05
fc
fb
fb
02
05
fa
04
05
ff
fb
fe
04
03
04
fd
fb
fa
04
fe
ff
03
01
fd
fd
02
fe
02
01
ff
00
04
04
fb
02
06
06
03
fc
fa
05
fa
fd
02
04
fa
fa
03
04
08
11
0d
12
17
0d
f1
fa
03
f5
ef
fc
01
02
fb
01
fc
04
fa
11
14
03
f8
fc
fc
f6
ed
f8
ff
0d
ea
e4
f3
e1
e5
eb
da
e8
e4
f3
ed
09
fc
ff
fd
fb
fc
14
09
f7
fb
eb
eb
ef
e2
d7
e4
ef
f3
fd
f4
f2
dc
e5
df
e4
e9
e3
f1
0f
08
fe
06
03
05
fe
f4
f4
e4
e2
d5
e0
de
e3
e0
eb
fe
fe
f2
f4
e5
df
dc
d5
ea
f4
ee
f9
02
f1
fa
04
f1
f5
f9
e9
e0
dd
db
f2
f0
01
f3
01
04
fa
ec
ef
e3
d9
e8
ef
ee
d9
e1
f0
f6
f1
02
ec
12
ee
ef
f1
eb
e7
e4
e7
00
08
f4
f2
f6
fd
f9
fa
08
09
03
06
04
f0
dd
ff
05
f4
00
eb
0d
e3
e6
e1
eb
ea
ea
eb
fa
f0
f8
01
f5
09
0f
1d
19
0d
19
1f
12
11
f9
0d
f4
f7
20
0d
fc
f6
d6
e0
e6
ed
ef
f5
f1
ec
04
03
06
08
20
29
2b
1c
16
16
0b
1e
2a
08
08
14
15
11
ff
f3
d4
d7
e1
f1
f4
f6
03
f5
06
11
0f
14
17
1f
20
1c
15
0c
0e
1a
3c
2a
17
fa
14
06
0d
ef
f2
ef
ef
00
03
06
fe
12
15
15
1b
10
0f
09
1a
0c
09
0e
10
1a
2f
1b
2e
06
1b
21
21
05
f6
fb
03
1c
0c
fb
09
18
13
12
24
0f
f5
ee
fb
03
14
13
16
2d
41
31
33
1a
05
09
18
06
02
fa
13
0f
00
09
09
15
0a
10
15
fd
f5
ef
fd
0f
05
0d
19
21
0e
0b
2f
20
05
02
16
08
13
02
06
0b
03
05
0d
07
11
0d
0a
ff
fc
eb
f6
06
fd
06
1a
11
0c
08
13
fd
07
08
16
01
04
0d
09
fe
f7
fe
0a
06
06
0c
00
02
ff
fb
fe
f6
03
06
14
05
0e
f6
18
0c
fb
fd
e1
f1
03
18
02
04
fe
0c
12
0d
0b
f6
e8
ed
f1
f7
f8
fd
01
fb
f3
f3
11
ee
e1
fd
f3
f3
e9
eb
07
18
07
02
0a
10
18
11
f7
e5
dd
e8
f6
f2
ea
ec
f5
f7
f7
ec
f4
e5
f6
07
03
00
dd
f0
ff
09
12
06
14
23
1a
06
ec
d5
e8
f1
fc
f5
f0
f3
fe
f4
fb
f5
02
01
fe
16
1f
fb
e9
dd
f6
f7
14
19
1f
23
02
f6
d6
df
f1
ef
f5
fc
f2
f7
ff
ef
fb
ff
01
fc
fc
f5
02
1f
f9
d2
f4
f7
09
13
1e
11
fa
e1
e7
ec
e5
f1
ed
ef
f1
00
fb
f2
0e
13
0d
0a
f5
01
00
0d
f7
d3
e9
0e
0c
0b
0e
01
fa
e3
de
f4
e2
e7
e5
f2
ea
f1
f7
f4
02
03
09
22
fc
0b
05
fb
ff
f1
f8
10
21
1e
10
0d
f8
e5
e5
ed
ed
f1
e8
f2
fa
ff
fc
f3
e6
f3
0f
19
11
fd
06
f9
ed
f7
02
13
21
1e
1c
1d
0d
f3
fe
00
f6
f8
f0
f6
fd
f4
ea
e9
ef
02
01
1e
07
03
ff
fa
e1
f3
fc
0c
07
07
0d
09
0d
07
0c
0e
04
08
ff
f8
ea
e9
dc
de
02
0e
0b
0b
f5
fc
02
02
f5
f2
ea
f8
e4
f4
07
05
0d
11
16
16
06
0d
f2
f0
ee
f6
01
01
03
0c
10
f8
f7
fe
05
05
06
0d
e8
ea
dc
f5
f4
fc
fb
fe
05
01
fb
fa
fe
fc
fb
16
32
2f
22
0e
1b
00
fc
04
05
fd
03
16
f5
f6
f6
18
18
19
10
12
1d
25
2b
10
15
0b
08
20
3e
38
2e
0d
11
0d
05
03
fa
02
01
fb
ec
e7
14
0e
17
21
21
2d
2c
21
34
27
2b
31
2f
13
0b
19
0f
ed
03
fb
fc
00
ff
fd
02
fb
03
01
05
02
fa
03
01
fd
10
12
fc
ff
03
03
fe
fa
fd
fe
fc
04
fc
05
fd
fa
05
00
fc
02
0c
0c
0c
0f
12
21
1c
38
3d
4e
68
4f
57
59
2a
1f
00
04
08
0f
06
03
00
01
04
01
0f
11
14
1b
17
16
11
fc
0f
26
0f
43
4d
5e
6e
51
3b
3b
2e
0e
10
21
09
fd
fb
00
02
fb
0f
14
11
e6
f6
fc
f3
09
0f
e9
08
38
33
3a
29
22
1e
3a
27
11
00
fa
1c
00
fa
00
00
f2
e2
f2
f4
fb
06
f9
fd
02
0a
0f
0d
12
14
22
0c
fa
04
05
fe
1b
20
1b
26
37
12
fe
05
ff
da
e8
e0
0d
00
ef
06
16
23
14
09
12
0c
0e
07
0f
13
0d
16
12
28
1f
23
1c
27
08
fe
eb
04
ce
e7
f3
fa
ff
0f
0b
10
15
0d
19
1b
24
21
10
22
23
1e
16
1e
0e
26
31
33
15
fc
df
ed
c6
d4
ea
fd
10
13
1b
13
1c
20
1b
31
1c
20
18
1e
1f
21
11
01
e6
f7
05
25
09
ff
03
d8
cb
cc
e9
08
01
13
06
0c
1e
15
0a
02
ff
ec
e1
e0
e6
f1
e5
e0
eb
d2
e4
18
08
00
06
d4
d4
fd
f6
0b
0b
17
08
15
22
0a
f1
ca
b0
9a
97
9e
8c
a4
a8
b6
c6
d4
d9
1d
16
04
00
e6
ef
fe
08
00
0d
18
16
05
07
f8
e4
b6
b3
c5
b7
a2
81
90
87
92
a0
b2
d9
0d
1b
0f
fb
f9
d9
ea
03
01
06
fe
02
f8
f0
de
ed
db
f1
11
17
08
d9
b8
aa
ac
a7
aa
ce
fa
16
06
ed
ed
eb
eb
fe
06
fd
01
f6
f9
f3
e7
f1
f9
0c
1c
1b
28
0b
fc
dd
d2
d1
bd
ca
fd
19
fa
e8
ea
f5
f7
e9
fd
ff
f4
f7
f8
ef
f7
f2
fa
0c
07
13
08
0e
18
f7
f8
ed
e9
dc
eb
fc
0c
02
f1
da
f4
d6
ec
f7
ff
f8
fc
e7
ea
ed
f8
07
0e
00
07
0b
14
ff
05
13
16
ef
d8
f0
09
03
e9
ea
d2
db
da
e8
fb
f9
f7
f2
f0
e7
f2
09
15
05
0e
07
0d
0b
fc
0a
1d
11
14
fe
03
fc
e0
09
d1
cc
cf
db
eb
ec
fa
f9
e1
e8
0a
13
01
07
03
0f
04
02
0f
00
21
2b
17
f8
06
f6
e2
1e
e3
d1
dc
e2
ea
dd
ec
fa
dd
d9
15
11
f9
f9
07
0a
fd
fd
06
fc
19
0c
e9
e9
04
ed
ea
13
14
de
d6
de
e6
d6
c7
cc
c9
cb
0e
1c
0a
0c
05
fe
08
12
00
fc
12
17
e7
e4
03
df
0b
16
14
ec
e7
db
e2
d2
cd
d6
d3
d9
12
27
19
0e
0a
0a
0f
13
07
0f
2b
20
eb
ee
00
dc
08
1a
1f
19
ff
eb
f3
f7
f0
fe
fd
00
16
21
21
1e
0f
15
0d
14
14
18
2c
2e
fb
07
06
d7
d0
06
2f
28
13
1b
1e
02
15
14
1d
15
17
24
20
0d
0d
10
17
20
16
12
21
19
12
01
fc
f0
c8
09
24
1b
08
08
14
0a
16
12
17
06
0c
09
10
04
02
12
0f
0b
ff
02
fd
07
11
06
02
fd
df
10
1f
19
11
01
00
08
11
19
0c
ff
08
11
05
f9
f1
09
14
0f
fa
f6
fe
0d
15
fb
06
04
f8
fb
f3
10
1b
17
15
1b
17
0e
19
09
01
0d
01
00
ff
f7
0a
0c
f7
e4
df
e9
fd
06
06
03
fd
02
02
02
1f
13
11
1e
0d
09
1d
0f
09
10
06
06
fb
15
09
fb
18
01
03
11
06
02
02
06
fe
04
fb
07
15
09
08
23
22
17
09
0e
1a
0a
f4
14
1a
1d
1e
0b
16
1b
fd
03
fb
fb
fd
fc
06
01
04
fc
fe
01
fe
f7
eb
ed
f4
f4
ff
f9
05
fc
ef
e6
e8
eb
ec
04
04
04
fd
fb
04
02
01
00
fa
fb
04
02
fd
06
fc
03
05
06
02
05
fa
fa
fe
fc
fe
04
03
fc
00
fa
fb
00
fc
fa
02
03
03
ff
09
05
0c
0a
17
0e
02
fe
f3
fb
fd
00
0e
1e
1b
12
11
0c
06
03
fe
02
ff
03
0a
ee
fe
02
03
11
1e
21
2c
2e
1d
04
1e
18
f4
f6
fd
03
15
21
1e
0c
08
ff
05
ff
fa
fc
f6
f3
f4
2d
26
07
f0
08
f1
ff
f4
f6
01
e0
e8
00
ff
f8
ec
00
05
04
fd
0d
ff
fd
fe
ff
f9
df
14
29
1f
01
fb
fa
07
00
ff
fe
ed
db
e5
eb
e8
e4
ec
e8
f5
0b
f6
06
df
fe
fb
fb
1f
ef
2f
20
18
0a
30
1d
18
04
ff
f9
f1
f4
f3
eb
e8
dd
dd
e4
dd
f0
f5
09
d3
fe
05
ee
f7
17
0f
11
0e
18
1b
13
05
06
fa
f5
f6
f1
fe
ff
ec
de
e0
f4
dd
dd
e1
ee
e7
f0
05
ff
19
12
fd
f1
15
03
ff
0f
ff
01
f9
02
f4
f6
f0
fd
e8
e3
ef
f4
e3
de
fc
11
0a
ed
e3
1d
17
05
01
0a
09
fd
03
09
01
f9
f9
f2
ff
fd
e5
e7
eb
ed
eb
f5
ed
ee
ec
f2
ed
f1
11
24
07
09
0c
0c
00
fb
fb
f3
f7
fa
fb
fc
04
04
ed
f7
f6
f3
f5
fc
f3
f3
fe
de
de
f8
0f
0e
03
fa
f4
11
0a
07
fb
fa
eb
fd
02
11
0d
f4
fe
fa
00
03
05
fc
08
ea
e6
ee
c8
e9
17
09
1d
f3
ec
fa
0e
14
0a
fb
fc
0f
27
16
02
06
0c
02
08
11
17
1f
18
ec
c9
d0
c6
f4
0c
0d
21
ea
ee
f5
fd
11
18
fc
08
1f
1a
0c
04
0f
14
0e
0d
16
13
1f
29
07
ec
df
d9
1a
ea
0a
2b
eb
05
fb
0a
0c
14
04
1b
12
05
ff
0d
13
13
0f
17
15
14
25
19
16
02
dc
eb
04
f0
01
22
0c
fd
ff
02
11
12
15
12
0a
fb
06
0a
24
21
15
21
20
23
22
25
22
f7
ed
eb
ff
f0
ff
08
11
00
fb
0f
10
0a
09
0e
00
f5
08
0d
27
14
24
25
28
23
20
18
08
ec
eb
ee
04
0c
f6
0e
f3
05
0d
17
18
0b
fd
00
fc
f0
e9
15
22
22
1d
24
2a
1f
22
0e
fc
f1
f6
f7
f8
ff
f2
19
ec
f6
02
fc
fe
ff
f8
05
f1
e5
fa
1e
26
1f
21
31
15
0e
1c
0b
f4
f4
2d
02
f6
1e
f7
05
fe
0d
f5
ee
fb
f1
f4
e6
d3
d8
f7
1b
28
1e
25
1c
0e
fa
04
f8
f0
f3
1f
26
26
fd
11
06
ed
02
f9
00
06
e9
dc
d8
db
e1
f6
1a
17
16
09
00
fa
e7
e8
e6
e4
df
f5
13
17
fe
ef
ff
e4
ee
f9
f1
f7
dc
d8
d9
dd
ed
fb
12
06
fe
eb
ef
df
d7
dd
da
dd
f3
e4
13
fd
ff
00
f7
df
e8
ef
e0
de
e9
e6
ee
f1
01
ff
00
f3
f6
e0
e8
d9
cd
da
d3
e2
02
e1
e0
03
00
fe
f1
de
d9
d5
d3
d7
f2
02
08
fd
fb
ff
ed
f4
f3
e0
e2
d9
d5
dc
d6
d4
00
f0
e0
02
03
fa
eb
d7
d7
d1
e6
f6
ed
02
05
0a
0a
ff
06
f1
e4
e7
e2
e7
ed
f4
e9
e5
f2
f3
e3
fc
00
fb
0a
f6
e7
ef
ec
f9
05
09
06
08
fc
f2
f9
fc
f8
0a
f3
04
07
1b
08
fe
08
22
0e
02
04
ff
06
fe
e8
f0
f1
f6
ff
06
03
13
fc
e9
ff
f9
f8
f8
f8
ec
f5
f5
e2
e7
e5
0c
fc
fa
fc
02
fe
0b
f8
eb
01
0e
20
31
14
ed
f5
0a
18
0e
05
fe
fe
04
05
08
1c
13
0f
05
ff
01
04
06
ff
fd
0f
09
0c
fd
07
0e
26
02
fd
23
25
0e
15
36
31
23
1a
29
22
15
fc
fe
02
fd
fe
05
ff
ff
fe
fb
fb
02
fd
04
fa
fc
f9
f8
0e
09
fa
fc
fa
03
00
fd
fd
fa
01
fa
06
05
03
04
06
05
fb
fa
fb
02
fb
fd
f2
f1
f4
06
0c
1a
20
0d
f6
eb
f0
ec
f5
fc
04
fb
04
01
05
01
04
00
f6
f7
f7
f9
f3
f6
ec
f0
04
04
f8
f9
03
ff
ff
e4
f3
ee
f3
f4
03
ff
06
03
06
04
13
e5
e2
01
f7
f1
f2
e6
f3
ed
e9
f7
ff
f8
ea
f6
f3
e4
e7
f4
ff
08
ff
ff
f9
01
ff
0d
1a
f9
01
f3
f5
06
00
f8
04
fd
0f
17
1e
12
13
f7
fe
f1
f1
e6
f3
da
ed
00
0e
f9
01
fa
1a
ef
fc
e9
fc
fa
e2
e5
f6
ff
fd
10
12
1c
13
08
0e
06
f9
fe
f3
ea
e2
16
fb
f5
fc
15
ee
f0
e4
db
f2
f0
ee
fe
04
00
03
09
0f
12
19
14
08
f5
f7
02
e5
f0
d4
07
00
05
03
f6
ef
e7
fd
fc
f6
e9
07
07
07
f8
01
fb
03
0d
0e
0b
0c
12
01
fa
fc
f5
eb
f8
f9
fc
14
f5
ff
f6
04
02
02
f7
02
fc
06
ef
e6
ee
f5
05
11
14
1b
1e
0a
11
08
e3
e0
f7
fd
05
fa
e0
06
0f
f4
f7
05
06
07
fd
fe
e7
e1
ec
f1
06
16
1b
19
20
1b
0f
01
f6
e1
f5
00
f6
f9
fa
ed
01
f2
fa
08
03
03
f9
f0
ec
ee
ed
f2
ff
10
1e
22
20
12
01
0b
fc
c0
d4
f2
09
ea
03
e5
f2
fe
fd
03
08
0b
fb
ed
ea
ea
f2
00
06
10
1d
1c
28
27
13
ff
e4
cc
ee
01
f7
f1
ed
f2
fa
06
07
0f
03
fc
f2
eb
f4
f4
ff
0d
0e
0d
1a
12
2f
24
10
f4
ea
e3
e5
eb
e6
16
f4
e0
07
0d
07
03
01
0c
f7
ec
ef
f7
02
17
0c
0b
16
1b
26
16
08
02
e5
d6
ea
00
07
f9
01
e5
09
11
02
fe
06
ff
f2
ec
fd
07
13
15
14
0d
11
05
f3
fd
ff
ef
cc
c9
fb
14
06
01
0f
fa
0d
10
fa
eb
f5
fb
f4
e7
fd
0a
16
13
07
11
04
ee
e0
ec
ee
00
e0
da
fd
22
0a
f6
15
1a
10
1e
f8
ef
f3
fd
05
07
0f
0c
0a
05
fb
05
f3
e6
d7
df
e7
f3
f6
f6
fc
12
07
fd
15
0b
0a
1b
f5
e4
f5
03
06
08
09
13
08
f2
e7
f5
fb
e7
e5
ea
e6
e9
fe
f8
e6
05
08
f6
10
07
13
02
fc
f6
ee
03
06
07
04
f2
fc
ea
f7
fb
f5
f7
f2
f4
f4
e9
f0
fe
f3
06
05
0a
f2
eb
1c
0c
10
fe
fa
f9
00
f9
e5
f1
02
f5
fd
01
02
02
fa
f2
f3
f1
f9
f1
fa
11
03
02
18
f7
26
1e
06
08
05
f5
fe
f3
f1
f0
fe
fd
fd
0b
08
0b
0b
06
f9
f1
f5
f8
07
03
04
06
01
17
25
13
04
09
00
03
f2
f3
f8
f3
fe
04
00
09
07
08
fe
04
f9
fc
f5
ea
09
0a
fc
01
18
11
0e
08
15
14
f9
03
f6
fa
0a
fe
09
09
07
04
ff
0b
fa
0e
0a
02
04
fd
15
fd
05
03
04
1e
0d
f3
fb
f8
08
09
03
09
0f
11
13
01
0a
03
0a
10
03
0c
0f
19
1b
1a
0f
f5
02
fd
06
f5
0d
11
f8
f5
fa
fc
00
06
fc
02
02
ff
fe
09
05
15
14
13
19
18
14
0f
12
f5
fb
fb
00
11
f0
ef
0d
11
0b
08
00
fe
f0
f9
05
07
fb
01
05
ff
15
11
07
f6
fe
f0
02
f9
00
02
01
fd
0a
26
25
22
18
0f
0b
13
04
06
fc
0f
ff
06
fb
f7
f1
09
18
0c
1b
19
f2
04
04
06
fc
03
06
ec
eb
04
11
07
fe
ee
01
08
eb
05
0e
fd
e9
fb
0e
01
03
01
f2
fd
00
00
04
fc
fe
fc
fb
ff
ff
fd
fd
ff
fb
01
fc
fc
04
fc
ff
00
02
02
fb
04
fb
fc
02
fa
fe
02
fb
02
fb
fe
fa
fb
02
fe
f9
02
f7
fa
ee
ee
eb
0d
01
fd
fe
f8
f6
ff
04
fd
05
02
06
fa
fc
06
fd
fa
e3
e9
fe
e8
f8
13
f7
e2
eb
e2
f1
fd
05
01
08
ff
f8
f3
f2
ec
f6
00
fc
02
02
fb
fe
06
eb
07
ee
f5
e3
de
02
fa
e7
f4
da
c8
d4
d6
bb
c1
cf
d4
f0
06
dd
e8
14
15
fa
06
ff
06
ef
02
f6
fc
f9
fb
fe
ed
e4
e8
e3
ef
ea
e3
ed
e9
d4
e4
ec
f4
00
f9
fc
01
ee
fc
ff
00
e1
f4
08
08
04
0f
03
ea
07
0e
0b
03
01
f9
e6
e9
e3
f6
f2
f1
ed
f7
f9
fb
ed
fd
01
fb
03
15
28
20
17
13
00
fa
06
16
04
f9
f0
ec
f1
f6
f8
fb
fc
f8
f1
f3
f8
12
fe
03
11
15
16
1e
16
06
0a
0b
02
fe
fd
01
f5
ee
e3
f4
f3
08
ff
05
22
19
08
ef
f3
0b
05
ea
1a
10
14
1f
07
04
0c
ff
f5
ef
02
07
ff
02
fd
fe
0d
11
10
28
29
1d
31
10
05
09
14
09
19
08
04
16
04
04
06
0a
02
03
10
12
15
1c
1b
1e
27
32
22
1d
23
2b
29
29
29
13
0c
0c
0f
06
ff
14
12
10
07
08
06
0c
0c
18
33
30
31
18
28
33
2b
28
2b
13
1b
3d
2a
31
03
12
f7
07
04
14
1d
0f
11
05
0f
0b
10
11
19
14
0b
04
f8
fa
05
03
11
00
07
1c
2f
32
10
09
18
06
e9
0c
0b
fb
17
14
0f
fd
f7
ee
e8
df
ee
e4
dc
e4
dc
dd
da
e3
e5
e3
16
36
12
08
11
14
e7
e5
04
f4
fc
05
08
ff
e9
cf
cd
e2
dd
e9
e1
d5
dc
e9
d7
da
d7
de
eb
26
0b
00
0d
1c
ee
d8
f5
e4
e3
fc
f4
fd
da
ca
d6
ec
ed
f0
e4
e2
ea
df
e3
f3
df
c1
e2
00
0e
04
01
0d
03
e6
d8
df
d7
dd
eb
ec
e1
e0
ef
f2
f2
f0
eb
e7
e3
ee
f6
01
ef
cc
d6
ff
17
03
fe
06
f4
df
d7
de
cf
d6
e2
e4
ed
fc
fa
06
04
02
fe
e3
ea
e6
00
ff
04
d2
f4
0d
1d
05
04
fd
e6
e9
de
f2
df
cb
e7
fa
0a
05
0e
16
12
0c
fe
f8
e5
ef
00
07
f6
f6
28
12
23
18
f3
0a
e5
f4
de
f8
fb
e2
02
02
0c
15
0e
12
0d
fb
ff
fb
e3
e8
fc
04
f8
f0
04
17
24
fb
17
16
fa
f6
de
f6
f3
fe
0b
0b
0e
15
19
10
06
fd
f1
f9
ef
f6
ef
ee
f8
f9
fb
1d
1f
03
04
08
fd
f5
f2
ff
fc
0e
0a
10
14
1e
0d
0d
0f
fe
00
fe
00
f1
f7
fe
f6
ff
04
fd
fd
0c
fd
0f
f3
ff
fd
f9
01
07
12
11
10
12
16
20
13
10
17
0f
ff
00
f8
e9
fa
fc
12
0a
03
0a
0a
00
e3
f7
0c
0a
ff
0d
0c
02
00
12
14
1e
1c
0f
09
08
f8
00
ef
d9
dc
dd
fa
10
fb
ff
00
ef
e8
08
09
1d
06
08
0d
0b
01
12
14
0e
10
0a
0a
fc
0b
01
ef
e8
e5
ed
01
1e
00
fd
00
0b
ea
f6
f5
ec
ec
f5
09
08
0c
0a
ff
ff
02
f9
10
19
12
0b
03
f0
e7
1e
02
13
05
06
02
ef
16
09
ea
f5
f0
f1
e7
e6
fd
02
f1
ff
00
f3
12
09
09
0a
0f
0b
e7
f9
f5
03
ff
fe
06
ff
f5
db
d7
e0
e7
f9
ea
e2
ff
0a
13
ff
f9
f3
ec
06
29
15
01
0b
07
ef
09
fc
00
fa
00
fc
03
16
15
07
fe
f8
05
1b
07
fe
2f
02
f5
00
23
00
00
02
fc
06
19
fa
02
00
00
06
04
fe
03
04
fb
ff
01
00
03
04
fe
fb
ff
fa
ff
fe
fe
06
fd
ff
fc
fc
02
fa
00
fc
03
03
01
06
fb
04
01
03
fa
fa
03
fd
f9
04
fa
01
fc
fc
fd
fd
fa
fb
01
01
fa
fe
01
00
05
fb
02
00
06
fe
fe
05
03
05
fd
fc
03
03
fc
fe
01
04
05
f8
fa
f9
02
ff
fc
01
05
04
fa
00
fc
02
01
06
01
03
05
ff
fd
fd
02
03
fc
03
fd
f9
f8
fd
f9
fd
03
fd
fa
fb
fc
02
01
04
ff
03
fd
05
02
02
fa
fc
f9
02
f8
02
00
00
fb
fd
03
03
01
02
04
ff
fb
03
04
04
fd
fe
00
04
00
fd
fa
00
f9
02
fa
ff
02
fd
00
fd
fe
f9
fd
fd
fb
fd
f9
f8
03
06
00
03
05
fb
03
fd
06
fc
04
00
fe
fc
04
03
f8
fd
fe
fa
03
03
fe
ff
fa
fe
fa
fe
02
00
00
07
06
05
00
fd
fb
00
ff
ff
03
fa
fd
fd
04
fd
04
ff
04
f8
02
ff
02
05
fd
06
00
fc
07
02
fc
02
02
01
05
01
fa
00
fe
f9
f9
00
04
fb
ff
f8
fe
fe
fe
ff
fb
fe
06
01
00
fc
02
01
05
fa
02
05
01
ff
01
ff
fc
fa
ff
fa
00
fb
04
f8
fb
04
fc
fc
fa
f9
05
00
fd
02
00
fc
fd
01
04
02
fa
05
fb
ff
fd
fc
02
00
ff
f9
f8
03
04
00
01
ff
f9
02
02
fd
05
fd
01
fb
ff
fc
fa
ff
05
fe
02
f8
fe
fd
04
fe
04
fc
f8
04
f8
fc
fb
fa
fa
01
fc
00
02
fc
fe
fe
04
05
03
01
03
fe
00
02
02
04
fe
fd
02
ff
01
fe
fe
fd
01
fb
fd
04
fa
fb
fb
fe
01
ff
04
fe
fe
fd
02
07
03
fc
f8
fa
04
05
fe
fe
04
04
00
00
f9
03
05
ff
fd
01
fc
01
02
fc
fe
04
fe
fa
05
fb
fc
fd
fe
fa
f9
02
fa
00
02
03
fd
03
fb
fe
fc
f8
f8
04
f8
04
ff
ff
fe
03
fa
fd
04
ff
fe
03
f9
01
06
fd
01
01
ff
04
02
fa
ff
fe
fd
fe
03
03
f9
02
02
04
fb
ff
fa
05
06
01
fe
fc
02
00
fd
01
fe
fe
01
fb
f8
01
f8
fb
ff
01
fe
fd
05
02
05
06
05
fa
00
fe
ff
01
08
05
fa
03
02
01
fe
00
00
04
fe
fa
03
fa
03
ff
fa
fe
f9
fb
fb
fb
00
ff
fe
ff
fb
02
01
03
02
fb
03
01
fe
f9
fd
fa
01
02
03
01
03
05
fb
fc
03
01
01
01
fa
01
fb
fc
02
fa
05
fc
00
03
04
04
01
fd
f8
03
fb
fc
fe
00
02
f9
02
06
00
02
00
05
00
04
04
05
02
04
fb
04
fe
fa
fc
ff
fd
03
fa
00
f8
fa
ff
fd
05
fe
fe
06
05
02
fe
03
01
fb
02
03
fc
f9
fe
fb
01
03
01
f8
fc
02
03
fe
ff
01
fb
fa
f9
f9
06
fc
ff
fd
fc
fb
03
fe
fb
fb
fe
fc
00
f9
fe
04
01
02
f9
fe
fe
fe
03
00
02
02
04
02
05
03
00
fd
fd
05
fc
05
01
00
ff
02
fa
fd
03
f8
fd
fc
fb
fb
fc
f8
00
fe
02
fe
fb
fe
fe
fa
05
03
fc
01
ff
fe
05
04
fa
02
04
fd
fc
f8
f9
00
ff
01
ff
fa
fc
02
fe
05
06
06
04
03
fd
fa
fe
ff
02
05
00
05
fc
00
06
fe
fd
fd
02
fc
ff
01
03
01
fb
02
04
02
fe
05
02
03
fe
fa
01
04
fb
fa
03
fb
ff
04
06
fc
03
04
fa
06
05
02
fd
00
07
06
02
04
fb
fe
fb
fd
00
03
fa
fd
fd
03
00
01
fb
fe
ff
05
05
fb
04
05
02
06
03
01
fa
ff
03
05
00
ff
02
ff
01
fa
02
fe
06
fc
06
04
05
fd
02
fa
00
01
01
fb
fd
fb
fc
01
01
fb
fa
fb
fa
fd
00
00
02
03
03
fd
fc
06
03
04
04
fb
ff
05
06
05
01
01
fe
fa
05
fa
fc
05
fc
05
00
05
05
01
04
04
04
fa
fb
01
05
00
fc
fa
05
05
02
03
00
04
03
fb
fe
02
04
ff
fd
fb
fb
02
fa
fa
ff
01
fd
05
fc
02
ff
fc
fa
05
fb
fd
fa
fa
02
fa
05
fc
01
f9
00
fb
00
01
06
fa
02
ff
fe
fe
fe
fa
03
ff
fc
05
fe
02
01
fc
fd
fc
fc
fb
fe
ff
05
04
02
00
f9
fd
fd
00
fd
06
03
fe
fc
fb
fe
00
fe
01
06
04
fc
fd
fb
02
03
ff
04
fd
fc
fd
f9
04
01
fa
fe
fb
fd
ff
03
03
fc
05
03
fb
02
05
fe
05
02
ff
fe
fb
02
06
01
ff
03
fb
fa
f8
00
fb
fa
04
04
01
ff
02
f9
fd
fd
ff
03
fc
fa
02
fd
04
ff
fb
fc
07
fc
fd
01
f9
fd
f9
fd
fa
fc
00
00
fb
01
fc
f9
01
fc
01
01
fd
05
fa
fb
01
f9
fa
fd
fe
f9
03
fe
01
fb
fa
ff
04
ff
fc
03
fe
fd
02
00
fe
03
03
02
05
01
ff
fc
05
00
06
fc
04
ff
fa
03
02
fd
03
fb
06
fc
05
05
03
00
fd
02
fc
fb
fa
06
03
02
06
03
fe
02
00
fc
02
f8
fa
ff
01
fb
04
01
fa
f8
fe
fb
03
04
fc
04
03
03
02
06
fc
06
fb
03
02
f9
fc
04
fb
ff
fc
02
fa
f9
04
02
ff
03
fd
f9
00
00
f9
01
fd
03
02
fa
01
fa
00
fd
01
03
fc
05
fe
01
04
00
04
fe
ff
03
fb
f8
fe
ff
fb
00
fb
02
06
03
01
03
03
03
ff
03
01
fe
02
fd
fb
fc
fc
02
05
fe
fc
fd
00
01
f9
fe
fe
01
fa
fd
fd
04
fb
fe
fa
fc
fb
05
00
fd
02
03
f9
04
fc
fe
fa
03
fc
fe
03
fe
fc
f9
fc
fc
f9
ff
fc
02
fc
02
00
02
fe
01
fd
04
00
fc
fe
fd
fe
fa
fd
fb
fd
fe
fa
01
fc
fd
ff
05
f9
05
05
06
01
05
ff
01
03
02
fa
00
fe
fa
05
ff
fc
fa
04
fe
f9
fd
ff
02
fe
fe
01
fc
03
fb
fb
06
00
04
fe
00
fb
01
01
f8
fd
05
fe
fb
fd
03
f8
fd
03
fd
00
fa
01
00
fd
fc
00
fc
fa
03
06
01
02
fe
05
fc
fe
f9
04
fd
ff
00
fb
03
03
03
f9
fd
ff
fa
fd
fe
02
fb
05
fe
05
03
00
05
00
fc
fe
04
ff
f9
fd
03
01
ff
fd
fe
01
00
f9
f9
ff
fe
02
03
fa
fc
fd
02
fa
03
06
04
fb
01
fd
ff
fb
fc
fb
fc
00
05
03
04
05
fa
fc
fd
00
fa
fd
f9
fd
ff
06
05
fd
fa
05
fd
fd
ff
fe
fe
03
fd
02
fe
fc
fc
02
fe
05
04
fe
fe
01
fb
f8
03
fd
00
ff
03
fc
02
03
03
fb
fc
01
fd
fe
ff
01
00
00
03
01
00
fd
fa
fd
fe
02
fb
05
04
06
fd
fc
fd
ff
fb
fd
ff
02
05
fb
01
03
06
fa
05
f8
ff
fc
fb
00
fa
04
05
fc
02
04
fa
05
fd
03
03
ff
ff
06
02
06
fd
fa
05
fd
ff
02
fe
05
fe
05
04
00
fd
fe
00
05
02
02
05
06
fc
02
fc
02
01
fe
fd
02
fc
fe
fa
04
fd
03
02
fe
fe
ff
fb
fe
ff
fb
fc
fc
fe
01
fe
00
02
fb
00
fe
02
fa
06
05
ff
01
fd
02
ff
fd
ff
04
05
fa
fb
fa
04
06
04
fb
fc
02
fd
00
fc
fb
fa
ff
ff
ff
03
04
fd
00
02
ff
ff
fd
00
06
00
fa
03
ff
fb
01
ff
01
04
fe
fe
fa
fc
05
ff
05
03
01
04
fd
fa
ff
01
ff
04
06
03
fc
fe
06
04
0b
03
02
fa
03
04
fa
05
04
fe
00
fe
02
fd
03
fb
fd
02
fe
0b
12
11
0f
0f
15
0c
03
02
fe
1f
1c
19
1e
22
14
0c
0d
10
fa
00
01
04
02
fe
0b
fb
00
0c
0b
1a
28
3b
38
38
19
1e
25
3e
2b
28
2b
23
1e
1b
1a
1d
23
0c
fb
05
05
03
13
05
11
04
1d
0a
01
18
06
0c
14
12
02
11
11
f9
f1
f8
e3
f8
07
03
0d
ef
ea
fa
05
fc
11
e6
00
16
24
02
13
13
11
08
07
0a
0d
f6
f7
ef
e3
ff
ec
f4
ef
05
e0
df
f4
0c
05
01
2c
fc
18
30
26
1a
21
13
0a
f4
03
01
10
0d
19
ff
eb
f0
ec
05
0a
11
0a
f3
fa
11
fd
0f
ed
f9
0b
14
12
18
06
07
fb
fc
f9
f8
00
12
0b
f2
e3
f5
ee
ea
05
0c
0f
07
f7
13
05
20
03
eb
fd
fd
fb
15
f7
f5
09
fe
ff
01
10
0e
f8
05
ed
ec
f7
f3
f3
fa
fc
f4
06
0b
01
0b
de
ed
f5
f9
05
04
df
ee
ff
ff
02
11
0a
04
ed
02
ec
f4
f8
e6
f0
f6
d6
dc
08
06
00
12
06
09
f8
f6
e2
f0
f6
ef
e7
e8
ec
f0
f2
f3
f3
f3
e3
e7
f0
f9
04
f1
ea
ec
0f
10
01
0d
05
da
eb
e7
e2
f1
f7
fe
ec
e3
d9
ec
ff
0d
fa
fc
eb
ef
ff
07
08
f0
01
fc
12
19
02
10
dc
ef
e9
dd
db
ed
ea
e8
d9
cc
d9
f8
2c
16
02
e0
e7
ef
fc
09
09
0b
0b
1d
e1
1c
fc
f1
f8
00
e9
d9
c6
d9
dd
d8
d5
e1
02
26
35
1a
06
e7
ea
ee
ff
12
07
fd
1a
3f
21
2d
fe
e8
0d
00
db
dc
cd
ca
d1
d9
e9
02
22
2b
27
20
0b
f6
f5
09
0a
0f
02
04
2e
30
2d
0d
0f
ea
e6
0e
eb
e4
e6
df
f2
f7
fb
29
3e
30
29
15
04
f3
03
0b
01
08
0e
07
10
16
2d
10
0f
f5
e9
15
f3
f7
06
02
08
18
15
3e
3c
35
32
12
00
fa
13
10
01
04
ff
04
14
0d
0c
12
fa
fa
fa
20
13
13
18
22
2a
34
2c
2c
33
2e
23
13
07
08
20
16
fb
05
fe
0c
14
1d
22
08
fc
f5
05
13
1b
1e
25
20
1f
2a
21
1c
0e
10
16
09
ff
fc
14
10
0d
09
15
1f
2e
2e
1c
e3
f3
00
fd
0b
1a
1e
0c
16
18
16
13
02
ff
01
f9
fc
01
fe
02
ff
0e
f9
01
24
27
42
37
1b
06
ea
f9
00
18
0c
12
17
17
25
0a
ff
f9
f5
f4
04
09
09
f8
ed
02
06
07
0d
07
26
20
0d
ff
e5
01
06
08
f7
16
22
1b
19
0b
fe
fc
f8
f5
07
0e
02
f9
ea
08
06
fd
fa
ee
f8
13
09
07
06
0c
10
07
01
0f
18
04
0b
04
f9
06
04
0c
06
0a
03
ee
f6
02
fb
f4
ea
d9
f6
13
04
09
01
0e
ff
13
1a
08
0c
ff
09
f8
08
09
00
ff
07
04
fc
eb
f7
fb
fc
ed
de
d1
ec
f8
03
ff
00
10
d8
0e
03
fb
03
f7
07
09
01
0b
06
01
07
07
ee
dc
ef
f2
f0
f3
d3
bc
e9
04
03
05
01
02
d9
db
de
eb
e3
ef
ff
f1
01
fd
ee
fb
f0
fe
eb
de
ee
f0
e8
df
c6
dd
06
07
02
fb
05
ed
1a
e9
d8
e0
dd
e3
f3
f7
ef
e8
e0
d4
e0
d4
cd
bd
e0
f9
db
ec
e1
e1
ff
08
06
fd
00
00
fa
e7
d7
d3
ee
eb
f5
f7
dc
cf
d6
c5
bd
c2
c7
e0
ea
da
d3
df
de
ed
fb
fe
ff
05
01
01
fb
f9
fa
ef
f0
ec
f1
04
fa
f2
de
e4
fa
fb
f0
f5
f7
f6
f4
f7
fb
04
00
fd
04
fc
fe
04
fb
fc
04
02
fc
fd
fa
04
fc
07
0a
01
02
00
fd
04
fb
00
05
04
05
fb
00
fa
01
03
01
02
04
03
05
0e
09
17
02
07
14
1e
19
fd
00
04
01
09
18
0f
04
10
07
01
fa
fb
fe
05
fa
fb
f1
f8
01
07
1b
21
23
2c
28
21
f7
22
19
08
17
25
0c
0f
13
17
0a
01
07
06
fe
02
05
ef
fb
18
25
27
0e
fc
0c
0c
fe
e3
e9
f6
f2
ff
ef
f5
f8
ee
e4
e8
f5
05
00
06
05
fd
ff
ea
e4
1b
30
10
03
11
14
14
ef
ef
e6
e3
e0
ee
02
f4
ed
db
e4
ea
f4
fe
08
0c
14
fc
03
eb
e8
0e
fd
f8
0c
23
0a
f5
fd
03
02
f0
eb
fa
f7
ee
fe
fa
04
02
14
08
10
09
0a
fb
01
f2
09
18
0a
11
03
1a
12
09
0c
17
ff
f4
ed
f1
f5
ea
05
11
15
05
2a
15
06
fd
1a
04
0c
11
18
17
0b
04
13
10
13
10
0c
0a
fd
f2
f9
ed
f4
01
04
06
14
0f
15
08
ee
fb
0e
ed
12
0a
18
28
0c
17
12
1c
14
15
fe
0d
01
fd
f1
eb
f2
f7
fe
07
03
08
1e
01
f8
0f
07
11
11
08
0c
11
0e
04
0b
08
02
f8
fd
f9
00
f5
f4
f5
01
fe
f5
03
10
15
1d
13
0c
18
f3
0f
06
0b
fc
07
13
08
08
07
fd
0b
01
f2
ef
dc
ee
fc
08
02
f2
f6
12
19
13
24
00
db
fc
0e
fd
04
fa
16
12
07
08
ff
07
10
0f
05
dd
d2
ef
07
fd
fa
f9
01
fe
fe
01
0c
f8
e1
f6
07
0b
f9
07
f6
0a
e9
f6
02
03
02
02
04
df
d4
f3
05
07
f8
fd
04
05
08
ef
07
0a
e4
0b
ec
05
11
14
e3
0b
fe
f8
ff
04
fe
fc
e9
db
e3
f8
03
03
0a
08
04
09
01
0c
18
12
0e
0e
f5
06
10
08
e5
03
0a
01
02
f1
fc
f4
e4
ed
ff
08
06
01
06
10
fa
fa
04
10
0e
12
19
07
01
fb
f4
0f
e4
fa
0d
f1
e7
d8
d0
ce
e5
08
13
18
0b
12
01
07
f4
e7
f8
04
13
0f
0f
0d
06
fa
f7
0b
ec
f3
01
cf
c1
b7
c2
d4
00
18
26
1d
16
12
07
06
f5
f3
fb
0a
07
1c
18
0c
06
f7
f8
0b
f2
f6
f2
bf
ac
a8
bb
00
2b
31
20
0e
16
15
18
04
f1
ea
f3
fd
12
1d
14
0d
05
fd
fe
06
ed
e9
eb
d2
bc
bf
e3
24
3c
36
22
12
0e
18
0f
05
f1
e7
ee
f1
08
04
fd
ef
f9
0c
fe
f3
e2
d0
d3
c8
cf
e3
14
3f
34
2a
24
05
fe
0f
07
f7
ef
e3
e1
f3
fe
f3
15
ef
02
f7
fa
ed
d2
c6
c9
de
e0
f6
1c
2d
2b
1f
14
11
fb
f3
ea
ec
f6
f5
e7
f0
03
f8
08
eb
f6
02
f5
ee
c2
d5
cf
cf
f1
fb
0e
0a
08
14
16
0d
fb
f6
f5
01
ef
f4
fd
fe
02
f9
f6
ff
fb
f1
fd
e6
e5
e0
e2
ed
f8
fe
f4
fe
fb
05
0a
01
fe
de
ec
00
f6
08
04
00
fe
06
f1
05
fe
ff
f2
dd
f7
ec
04
f8
fc
08
f8
09
12
11
13
0c
01
f6
f2
0a
f7
06
1c
03
fb
ff
f8
04
05
05
0b
ed
e3
ed
05
e8
e9
fb
f3
16
21
25
21
14
12
f9
fb
03
04
05
0e
fa
20
10
00
00
04
00
ed
16
0a
eb
0a
fe
ea
e6
00
06
06
09
1a
19
11
fd
f8
e9
e5
e0
ea
e9
f3
fc
07
06
fc
03
02
f5
e1
df
f3
fb
f9
e9
e2
eb
ed
fe
f2
f1
e2
e8
f7
f4
ff
ec
f0
03
04
03
01
fc
04
03
03
fc
1a
18
14
07
0e
0b
13
fc
ff
23
f5
ec
01
0c
fb
0c
0a
04
04
04
ff
fb
fe
ff
fc
03
03
02
01
fd
00
06
ff
05
04
ff
06
00
f0
f5
fa
fb
ff
fe
02
fa
01
fb
05
00
ff
01
05
fe
05
ff
00
02
06
07
10
0b
0e
04
00
0c
0a
ff
f7
0b
13
18
12
1e
14
04
01
fb
05
fa
fb
02
02
ea
fa
01
0b
15
0c
06
0a
1f
14
0f
19
0b
01
0a
11
17
12
11
1c
18
01
05
04
fc
05
02
fc
00
1a
02
05
0c
00
06
fb
fe
fe
01
f9
02
ee
f3
0c
17
07
1a
0e
0a
0d
ef
ff
fb
ff
ff
01
1a
12
f2
f3
f5
e9
f3
fd
fb
07
fd
01
08
12
0e
16
13
18
21
1b
15
11
fc
00
00
05
00
00
04
f1
f0
e9
f4
f7
09
0c
04
02
ff
eb
fd
08
1a
12
03
f8
0e
06
01
0a
f3
05
04
fe
f9
24
f8
05
05
f8
fd
fd
06
01
ff
fc
f8
f4
f5
04
0d
0d
fa
f7
fc
fa
ec
07
24
09
fb
04
fd
18
02
f9
04
fa
04
09
0d
13
0e
0d
fe
03
01
13
15
08
04
0a
06
f7
e2
07
06
10
02
f9
0e
0e
f1
02
06
00
03
0a
07
09
17
0c
ee
f7
00
07
04
02
f4
f9
05
fb
e8
fe
ff
04
f4
00
15
04
f5
17
07
05
00
fe
07
08
22
09
d9
d8
f3
ed
ea
e5
d3
da
e7
e7
e5
ff
09
03
03
05
0d
06
f3
13
0a
fe
fd
fa
0d
14
1d
02
d0
c7
e8
ef
e8
e7
db
dc
df
dd
d3
eb
02
fb
05
14
08
26
f8
0b
1f
13
00
f6
0b
21
13
02
d3
e1
01
18
13
09
f8
f1
e8
ee
ee
de
e4
ec
fc
11
16
21
02
11
13
0c
0a
10
14
14
0c
ea
d6
ef
fe
17
0c
1c
13
11
01
0f
05
e9
da
e7
fc
fb
0a
25
f5
1f
21
08
02
fb
09
01
fd
ea
e5
f3
00
12
0e
07
09
18
15
03
07
02
e3
d9
e9
11
05
31
11
1c
17
0e
05
07
04
03
ee
e5
e3
f1
ff
11
0f
14
13
12
06
0f
13
ff
df
e2
f0
0f
f9
03
06
08
06
17
11
00
01
09
02
f2
e3
df
ef
fe
18
17
0b
0b
14
0c
0a
f7
f0
ef
f6
07
eb
ef
f8
fb
10
14
0c
11
0b
03
fd
f3
d8
da
f0
04
12
12
1a
12
10
04
fc
fc
f9
ec
e9
05
eb
ff
fd
f6
11
19
05
10
09
0e
03
e5
d1
e7
02
0a
20
26
13
0f
06
fd
ed
ff
09
f7
db
06
ee
0c
06
0f
11
10
08
0b
12
10
02
e1
d6
f0
ff
1a
20
16
04
11
07
f2
e8
e9
f7
f3
ed
06
08
12
15
0f
0f
16
00
04
08
fd
fe
df
db
fe
03
08
07
00
05
0a
fe
e8
e9
fb
ff
ed
04
fe
fb
0d
0d
06
07
fd
e6
f7
03
e9
e6
e2
e2
04
0d
06
04
f0
01
fb
ee
e8
ef
fe
23
f0
08
ff
fe
ec
f3
f4
00
eb
e7
e7
e8
ed
e8
f1
fb
02
0b
0a
00
07
ff
05
fc
fa
05
23
15
e7
05
03
f5
e6
e6
e7
e1
d6
d8
e5
dd
f4
f4
f6
03
0e
15
17
06
fe
06
00
fb
f4
07
1a
04
15
ff
05
fb
ef
02
f4
f1
f2
da
e5
e3
ea
ee
01
ff
1d
1c
11
0d
ff
07
fa
fc
f1
0b
16
0f
0e
fd
fc
fc
0a
0c
04
09
0d
f9
f6
f4
f1
fd
fd
10
09
10
16
23
08
fd
08
06
0b
0c
04
ea
f5
fe
fd
fb
03
10
00
fd
04
ff
0a
12
f5
08
14
1b
1c
17
22
20
21
0f
20
3f
49
2e
2c
05
fe
05
fe
ff
fd
ff
05
02
0b
19
1d
1b
09
13
0e
14
21
25
2a
1a
14
31
2e
29
1a
03
ed
fd
fa
02
ff
04
03
03
fe
01
02
fa
00
27
29
18
19
24
1b
06
0f
2a
1e
06
1c
24
1e
13
04
ff
01
fb
fa
04
06
05
06
03
fa
fa
05
01
03
fe
00
09
0e
0e
05
01
06
01
fa
04
05
04
04
03
fa
04
fd
05
06
06
03
06
0c
0a
09
02
0a
0e
13
0b
ec
ff
27
1d
01
0b
0b
01
04
0c
02
fd
03
fa
01
06
0b
06
05
02
11
10
18
28
24
25
1f
0d
19
07
0b
02
02
ef
06
18
08
13
0d
11
05
01
03
fa
f2
08
ed
1b
1a
1d
26
24
18
29
1c
19
1a
03
0d
03
f9
f3
fb
05
fd
fd
13
06
0c
fe
04
fc
f3
ed
f8
1c
27
09
0e
0a
17
1b
14
fc
f7
ee
01
fa
00
01
ee
e7
f2
f0
f7
0c
0b
17
ff
ff
00
fa
01
fb
f7
02
04
fd
0a
10
03
02
ef
f8
02
fe
fb
fe
0a
fb
fe
04
fd
07
15
12
04
16
05
06
0b
fd
09
03
09
11
08
05
05
04
09
04
07
f2
f9
01
f6
ef
f2
ec
ff
05
05
10
05
0d
ff
0a
18
06
08
0c
17
05
05
09
03
0f
0e
fc
f6
ed
f1
fe
f6
ed
f8
d5
ec
07
11
0e
01
ff
fa
03
13
fd
ff
07
0a
05
0e
0e
06
00
03
f3
ec
ec
f5
fc
fa
00
07
eb
cd
f8
02
f8
00
fe
0b
05
01
06
f4
f9
fd
ef
f7
ef
ee
d9
df
ed
f4
fd
05
09
07
02
11
09
da
fa
f4
f8
f6
fa
01
ff
f1
f1
f6
e7
e2
cf
d1
c9
c6
b1
cc
dd
f4
09
10
04
07
08
ff
12
04
11
f4
f3
fc
fb
f3
fe
e5
e3
c8
b6
bb
ae
af
b7
b5
d0
e8
ed
04
08
02
07
fb
ff
09
15
19
0d
d5
ed
f7
fa
f0
f1
cf
bc
a9
b0
b9
c9
d5
f4
02
0e
0c
02
0d
fc
f3
f8
ff
ff
03
fd
20
18
01
09
f1
f8
f3
f9
c3
c9
d8
d8
fa
fc
16
1c
2c
32
19
fd
ff
f7
eb
f9
f8
00
fc
13
2b
26
12
0b
00
f9
f1
ee
ec
f7
12
16
1d
28
25
29
29
27
10
07
02
f5
f5
f8
fe
f2
f9
10
22
23
22
14
00
fe
f3
0e
15
27
2b
1d
17
14
18
10
06
06
0c
06
02
f5
04
0a
04
0b
f4
0b
39
21
18
18
fe
03
04
1e
1c
33
2a
19
04
0d
09
04
fb
fb
00
06
ff
06
05
05
08
19
09
0c
1d
29
1e
14
00
fe
18
1f
13
15
1b
fd
fd
fb
08
08
ff
f5
f0
01
00
04
00
04
03
00
04
ec
ec
0a
ff
18
f3
0c
04
1e
09
0f
07
02
04
08
03
00
0b
07
fb
00
07
07
04
03
ff
f5
f8
e9
f3
0d
f6
08
f6
eb
fb
f5
fe
0b
f6
fa
f2
03
0b
05
0c
10
07
0a
06
07
f8
ed
fc
f6
ef
f7
f8
02
0c
04
ff
e6
04
07
fb
00
fe
01
fb
02
00
00
fe
04
00
0c
ff
f6
f3
ef
01
fb
e5
f4
fc
00
02
f6
f9
fe
19
12
fb
ec
ee
ff
f8
f8
fa
07
08
07
0b
07
03
07
07
06
ff
fb
f9
ff
fe
03
13
fc
f7
fd
1d
18
01
f0
e7
f5
fa
f9
04
08
04
02
0d
05
0b
02
04
0e
00
fd
ff
fa
f7
f7
ee
fb
03
fa
17
26
17
02
f1
01
fb
f8
fc
f9
fd
02
12
03
f7
f5
06
ff
05
11
1c
05
f8
ff
f2
00
fd
01
fb
12
07
f0
fc
fd
07
09
0a
01
01
00
10
0b
ff
04
00
f1
00
0c
11
fa
13
07
02
04
ff
fa
07
f2
02
f5
ff
09
fa
06
15
06
f7
fa
07
08
0e
17
05
02
05
03
01
f1
00
00
ff
02
03
04
05
00
fa
fa
f3
f9
ff
fc
04
f0
ef
0c
01
ed
f0
e8
ee
f4
ee
f6
f8
02
00
fd
fd
fa
02
00
05
fe
03
fe
f9
01
f9
ff
fe
fa
fe
de
f3
00
f5
fe
f5
f5
fc
03
07
fd
06
fc
06
fa
01
fe
04
02
04
06
fa
fd
fe
ff
fd
fc
fa
fb
ff
fc
fc
02
00
fd
01
fd
fd
ff
fe
fc
fc
01
fd
06
ff
fd
ff
fa
ed
f0
e9
f0
ec
ec
eb
e4
f3
ed
db
e0
e2
e1
e1
ec
f2
f6
05
05
00
fb
02
ff
f0
09
ed
f5
ed
f2
e9
dc
ce
c3
ca
cb
cb
df
ec
f0
da
f0
d8
dc
dd
d4
e8
f4
04
fc
05
03
e8
fa
0a
e5
d3
c1
cc
cf
e9
ec
e6
bd
c3
e5
e7
ff
00
f2
fb
fc
f4
df
f7
fd
fc
05
03
09
f0
12
ed
dc
d0
d0
c7
df
e4
e5
db
d5
d8
e4
e2
ff
ff
eb
f8
0d
0c
f1
f6
e9
fc
f8
fe
01
d7
03
e9
f1
eb
de
e7
f9
fa
f2
de
e1
e6
e8
e2
e4
fb
ed
f2
f3
fb
eb
f3
e8
f5
f0
03
f6
14
05
f1
f4
e6
eb
fb
01
fe
f5
f4
fa
07
fa
fd
f8
02
f2
f6
fc
03
fd
f3
f5
ff
f2
05
fd
12
0e
e7
f0
ed
e7
f5
0c
0d
11
0c
18
0c
03
0a
15
0d
06
fc
fb
ff
01
03
f9
fa
0d
07
fc
0c
03
e0
f1
f5
f5
07
0f
09
0c
0c
00
13
1e
22
1b
15
fa
fb
00
04
f9
0a
07
e7
f9
04
15
12
f5
ed
f4
04
f9
0f
10
12
13
10
10
15
1d
1e
1f
1f
15
11
fe
ff
f8
f0
f6
e9
11
00
fc
08
00
f5
f2
08
07
15
13
0c
03
02
06
06
15
13
0e
08
14
06
ef
fa
e1
f2
03
f1
06
0d
fc
06
ec
e7
f0
0d
0a
16
08
08
07
00
f9
fb
08
05
0a
13
0b
05
ed
f9
e9
e4
f2
00
ec
06
fb
03
fa
fd
f8
08
0b
14
06
ff
f6
f5
00
f2
07
f7
ff
13
0d
07
f6
f4
f6
ed
ec
fd
07
fb
09
fc
fb
0a
fa
01
15
10
01
f4
fc
fd
f7
f7
fb
fe
0c
10
09
ff
01
f1
ef
fc
f8
fe
ee
f3
0a
f4
0d
0f
04
04
13
0b
00
fa
04
05
06
ef
f8
f9
0b
12
18
18
f8
fc
07
10
fe
e4
ff
fb
05
ef
0a
21
0b
0b
07
08
ff
0b
0b
0f
f8
e6
fc
04
18
14
09
0a
07
02
0e
03
fa
10
f2
09
fd
02
f6
0e
12
08
08
11
0c
12
17
14
f6
ef
fc
ff
13
11
03
13
03
03
03
02
e9
ec
fb
03
03
03
f7
f8
0b
00
08
10
17
10
07
0c
fe
f9
0a
0b
17
12
ff
01
01
09
03
f4
f8
01
ed
0a
04
11
f8
fc
03
f2
f0
01
fc
02
ff
f6
f4
07
03
12
08
0d
00
fd
06
09
f4
d7
e9
0f
ed
fe
14
0d
08
0c
ff
f1
e3
e3
e9
e4
ee
f5
f7
02
05
0b
0b
02
0b
09
07
ef
db
de
fe
ff
ec
01
10
f6
09
0a
f9
e5
d1
dc
e8
e2
e5
f3
07
07
f4
0d
15
00
fe
fe
f0
e7
e3
f7
21
fd
01
f5
fc
ec
fe
fd
f0
d8
d8
ec
de
db
e1
fb
ed
ed
f8
03
fb
fe
f4
ef
ed
f2
e9
0a
0d
02
ff
00
fb
f2
03
ed
e4
ef
e5
f0
ee
f6
f6
fd
ec
fd
f7
02
fb
f0
ea
f2
e9
f5
f9
09
12
11
fc
ff
00
ee
0c
f7
09
0c
13
fb
ef
fd
fe
f9
f0
fe
f8
fb
eb
e5
eb
f5
f7
f5
03
18
0b
f6
05
06
01
0b
1b
2c
32
15
1d
03
04
04
00
f9
fb
06
f9
fc
01
ec
ee
07
0d
10
13
fe
fd
ff
ff
06
00
11
18
22
2e
08
05
fa
10
12
13
f5
f7
f8
fd
01
f3
fe
fa
0e
13
0b
05
f8
ff
ff
04
00
04
03
03
16
2b
23
1c
0f
1c
17
17
18
1f
29
13
1e
12
10
12
1f
28
1d
13
1b
0c
fe
00
fa
06
fc
03
f4
fb
09
16
0c
05
13
13
0a
00
13
1a
0c
0a
1b
18
0a
10
0e
f1
00
04
fd
04
04
02
00
fb
fb
02
ff
03
ff
04
00
fd
fa
fa
05
fc
ff
fe
fe
ff
fb
fc
06
05
01
ff
01
fc
00
ff
02
fc
fa
fc
02
05
fb
03
00
fd
00
04
05
03
fa
03
05
01
06
fe
03
fa
fd
06
02
01
fa
ff
fc
01
fa
fb
fe
04
fc
01
fd
01
fd
05
fb
04
f9
01
05
05
03
fc
03
04
fb
fb
fb
00
fe
01
fa
05
f9
02
fa
fa
04
06
fe
03
03
ff
00
fa
fe
02
05
fc
04
ff
05
04
01
01
01
03
00
ff
fc
ff
fe
ff
00
fc
05
01
05
03
00
fa
f9
fb
01
f9
00
fe
00
fb
f9
06
fb
fd
fe
fb
fe
05
05
ff
01
00
fc
05
04
ff
01
ff
fa
fe
fd
fa
01
00
fc
fd
fa
04
00
fe
06
fc
03
fb
03
ff
fc
ff
00
fb
fd
fc
fb
fc
02
02
01
04
fd
01
02
fd
03
01
fe
03
01
f9
02
06
05
03
fe
01
fc
fd
02
06
01
01
fe
fe
04
ff
02
01
00
f9
04
02
fb
04
f8
ff
f9
fb
06
06
fc
fe
fc
fb
fc
ff
06
fa
fa
fa
ff
fd
01
fa
01
f9
fd
fb
02
00
03
f9
fd
fd
02
01
fb
03
00
06
fb
fb
01
05
03
ff
03
fc
fc
01
fd
fa
fd
00
00
fc
fb
fb
f9
fc
04
05
fa
fb
06
fc
00
04
03
04
04
02
05
f9
02
fe
f9
00
fa
04
05
06
f8
02
03
03
fd
f8
f9
05
04
fb
01
fb
06
03
00
ff
fa
05
fa
04
fb
01
00
fb
05
fe
fe
03
03
fd
fd
03
03
f9
02
fd
fd
01
ff
fd
01
fe
fa
02
fd
fe
fb
04
fb
fe
01
05
ff
04
04
fd
fb
03
fa
f9
03
fd
04
02
fd
02
02
04
ff
05
03
04
04
00
01
fc
fc
fd
ff
fd
fc
ff
fd
fe
fb
01
f8
02
fa
f8
ff
02
04
03
05
01
fd
06
05
fb
fb
ff
05
fa
01
ff
fe
fe
fe
fa
03
fd
04
fa
02
f9
fa
fe
fd
fc
fe
fa
05
fe
fe
05
fe
fa
fb
fe
ff
ff
01
04
fd
fa
01
fd
02
00
fb
01
fb
fa
f8
04
00
04
00
06
fe
03
01
fc
03
01
01
03
05
06
06
fd
fe
03
03
fd
03
ff
01
f8
f9
00
04
f8
00
00
05
fe
ff
ff
fc
ff
02
04
fe
fa
ff
00
ff
00
fe
00
03
fc
02
04
ff
fe
02
fd
f8
fa
fc
02
05
fe
02
02
fc
02
05
fe
04
fb
f9
f8
ff
03
fc
ff
ff
ff
fe
fb
02
ff
fd
04
fb
ff
01
02
ff
fb
fd
00
ff
fe
04
ff
ff
fa
ff
fc
fc
fe
fa
02
fa
fe
02
fb
f9
fa
02
fd
fd
fd
ff
fc
fa
05
01
05
ff
fa
05
fd
fd
02
fc
ff
fd
fb
fd
fb
00
00
f9
fe
f9
02
05
f9
f8
fa
03
02
03
03
00
01
02
00
05
05
05
ff
03
03
00
f9
ff
fe
f9
f9
f9
fc
01
fa
03
04
fc
fd
fd
ff
05
00
f9
01
ff
03
05
00
fb
fc
00
04
03
03
00
f9
05
fd
ff
fe
fe
02
00
f9
fd
04
fa
03
fb
ff
04
06
04
01
ff
00
00
01
fa
00
04
03
00
fc
f8
f8
fe
03
fd
fe
04
fc
fd
ff
fd
05
fe
03
ff
03
00
fe
02
02
02
05
fd
fd
00
03
04
fc
fd
fd
fc
00
03
03
fc
fc
00
04
fa
ff
06
06
02
06
00
fe
03
fe
05
04
02
01
fd
fd
fe
05
fc
04
fe
f9
03
f9
f9
fe
06
fb
05
fa
fb
00
02
fd
01
fa
06
01
06
fd
00
03
02
fc
06
fb
04
fe
fa
06
fc
03
05
02
fb
05
06
fb
ff
fc
06
fd
fc
fd
fa
02
05
fa
fe
fb
fd
02
fc
04
fa
fb
03
fa
00
02
fc
03
06
fc
fd
ff
04
ff
00
06
03
02
05
fe
01
fe
00
fc
02
03
fb
fc
fa
fb
fc
ff
04
02
05
fc
ff
04
02
00
fc
05
04
03
fd
fc
01
02
fa
fa
01
00
01
f9
fa
fe
fd
0a
06
09
00
08
fe
0b
02
fd
fe
f8
01
04
fe
fb
fa
fe
ff
01
fa
13
0e
fe
fa
fd
f7
fc
0a
03
02
f0
f2
df
d3
d7
e4
e5
e2
df
e1
ec
f9
ec
06
fe
05
05
13
0d
0a
f4
01
f5
ea
f3
df
ce
de
c9
c0
c5
c7
e3
f2
de
d6
de
fa
f0
ef
10
f8
06
03
06
1a
06
03
e7
fe
ea
e6
d5
cb
c4
d0
e4
ed
f1
05
0c
03
00
01
03
05
f3
e2
f9
05
ea
ff
03
09
08
f5
f2
f1
f1
d7
df
cb
ce
ce
e0
e8
fc
f3
04
07
0e
07
05
f8
db
db
e1
e3
e0
03
e6
fa
12
13
ec
06
0a
ec
d7
cb
ca
d8
ee
00
00
0b
10
0f
09
1a
12
01
fa
dd
ed
e8
e8
03
d8
08
0b
ff
f5
08
f4
e7
df
d0
cf
ec
02
0a
19
1c
1b
19
16
14
12
07
0c
f2
e8
ef
ee
22
ed
fa
03
05
00
0e
f7
eb
ea
d0
d0
fa
21
24
1e
16
17
14
0a
fa
06
fa
fe
09
f9
07
0a
f0
e9
ff
e2
fd
fa
05
f6
ec
e1
d8
e6
08
29
29
21
0b
01
fa
fa
f5
0a
f6
f5
1a
02
f7
f0
f3
05
08
ec
07
f6
eb
e5
e1
d9
e2
fb
0a
11
24
23
0d
fc
ec
f2
f8
0f
04
06
0a
f1
ea
0a
f9
1c
21
fd
f4
df
dc
e7
e8
ec
00
0b
06
0b
1c
19
17
02
01
e7
04
16
16
20
1e
e6
11
1b
02
09
28
03
f6
eb
fa
f9
f5
f3
01
11
fb
01
12
1d
0d
0a
f4
fc
12
1e
22
29
14
e4
f9
1a
10
00
03
0a
f8
e3
fe
0a
02
03
f2
fb
f7
fe
11
0d
13
fd
ef
03
0b
21
26
10
fb
f1
e6
fc
fc
fc
12
fe
f2
ee
06
08
06
f7
f5
f4
f7
15
1a
15
09
f6
eb
03
09
17
0d
05
ff
08
e4
01
f9
01
14
f6
03
01
fe
13
15
00
fb
06
0a
18
19
10
05
eb
ec
ea
ff
11
10
fe
fb
03
ec
fa
05
ff
13
f6
ff
15
14
fd
0e
00
01
0d
08
16
15
02
fd
ea
d7
e2
fe
11
01
fc
04
ff
f1
f9
00
01
02
f6
f4
fd
03
09
0f
0d
0b
02
05
0b
0f
e6
e9
e0
e2
e9
07
04
01
04
04
fb
03
f4
1b
04
0a
e5
fd
ea
e3
f3
0d
0b
f9
06
fd
07
ee
d8
db
ee
df
e6
05
f8
f2
f9
f9
0c
16
10
09
1c
08
e7
ed
eb
f2
f1
00
03
f5
ff
06
02
f0
e0
e7
e8
d7
e6
ef
00
f3
01
08
17
11
0f
fc
19
fc
e3
e6
f0
fa
fd
fe
fc
ff
00
0a
f7
f1
f9
f8
e4
da
e2
ec
ed
ff
07
13
10
0b
09
0f
fa
eb
f3
ea
ee
fa
fd
03
05
05
fd
fb
f9
f6
f4
e3
d6
d6
ec
f8
f5
fc
07
19
1c
16
06
0a
06
e8
03
f8
0c
11
0b
07
14
0a
06
09
15
0e
02
e1
d1
e0
f5
fb
ff
f7
0a
0b
09
03
ff
ff
fd
e7
db
f3
0f
05
0c
12
15
0f
0d
24
18
17
0e
e1
db
db
e7
ef
e9
fb
05
07
0e
18
03
00
05
f0
df
e7
07
f3
fc
03
04
fd
13
11
02
05
f5
d4
c8
d0
f0
f3
f0
fe
05
fb
07
03
fc
fe
ff
fb
0f
fa
f0
e1
fb
09
f3
e7
f3
f8
07
14
f9
f7
eb
e7
f8
03
f8
f9
f6
f5
05
fd
04
03
01
03
12
22
0e
0a
13
18
16
03
fa
10
09
22
24
2c
18
13
0c
0a
0c
15
f5
06
05
00
fd
fc
00
02
01
e3
e4
0d
16
15
24
0e
20
20
22
4b
23
1a
1a
19
fb
06
00
fa
fc
fb
fe
fc
fe
fb
06
fb
03
02
ff
01
02
01
06
ff
06
01
03
0d
06
01
fe
02
05
fd
fd
04
01
00
fd
fb
01
fd
06
03
02
fd
ff
01
f7
f9
fe
ff
f3
e7
e8
ec
ea
0d
03
f0
ec
f4
01
00
fa
04
02
01
01
fd
fe
fb
f2
fe
fc
fe
f2
08
10
13
0a
0a
f7
fd
ed
eb
e6
05
f6
08
0d
fb
fc
0b
0f
ff
04
ff
05
0e
f7
fd
08
13
10
2a
30
33
22
26
0d
0a
08
06
06
05
fb
16
01
ef
ff
ff
17
20
fc
01
05
17
20
f9
02
27
24
0e
28
1b
29
2e
15
10
02
09
14
17
01
0b
00
f3
f9
23
22
03
ea
06
03
f8
15
07
12
25
1f
1b
20
19
19
19
1b
08
fd
06
02
fe
fd
02
fe
ff
fe
f4
0d
01
f4
fb
13
09
15
0f
27
21
0f
16
24
29
1f
1b
13
11
03
fe
fe
fd
07
fe
03
11
f5
00
14
08
eb
02
1c
1b
2c
0b
0b
0f
ff
19
1d
19
1a
23
22
18
0a
06
01
12
0d
08
0d
1d
01
fa
0f
06
f3
ea
0b
18
0d
05
fb
f3
0b
11
0b
19
25
26
22
28
21
13
09
15
0d
14
0e
21
19
f8
fc
15
12
0c
08
11
0b
fc
05
fd
f6
fc
00
04
fd
1b
1c
18
10
05
16
15
07
0c
09
17
0d
e1
ed
fd
f2
0d
01
17
15
fb
0b
f5
dd
e0
e7
ed
f0
02
05
02
f5
05
0e
ff
03
01
06
0d
f8
d6
02
fc
ea
0d
01
11
09
f3
f2
e6
da
c8
ce
d6
ee
f8
f0
ec
e2
ef
0a
04
03
00
eb
f5
db
f1
11
fb
e1
0a
05
0a
ff
e2
d9
ce
da
cf
ce
d9
e5
f9
eb
dd
eb
ff
0c
11
04
f9
e6
df
dd
03
00
f4
e3
fd
05
09
f2
d1
cc
c8
d0
db
db
e5
f4
f3
f7
f2
ef
fe
08
07
f4
f7
ec
db
da
f1
06
06
fb
0d
15
19
fe
e6
cd
d7
df
dc
e4
fa
f0
ec
f3
fb
fa
ed
07
07
03
f5
ed
e7
ea
fb
0f
10
07
10
23
04
fd
f1
e5
ed
e8
e6
f0
fe
ea
e7
f2
e9
f3
ed
f5
00
ff
fb
02
f9
f7
19
0c
19
1d
02
11
0b
04
fb
02
f9
03
fa
fe
ff
ea
f0
fa
e8
f3
f4
06
08
06
0c
10
07
ff
0b
1e
1a
1b
fd
05
1e
12
17
04
07
fd
f9
03
ee
f9
f2
e7
e5
f8
00
08
fd
09
04
0b
f8
e9
ff
32
10
21
0a
09
05
18
11
19
0c
05
02
fa
02
07
f7
ef
f0
00
0a
00
02
ff
04
fb
01
f9
0e
13
1a
11
f7
00
06
1d
16
15
0e
02
12
09
0e
04
03
13
13
12
07
08
03
fb
03
f5
ef
01
f7
02
19
0a
02
08
0f
1d
04
16
05
0c
15
08
07
16
08
19
0e
13
03
01
fe
f7
fa
f6
f2
00
f8
04
01
00
f2
ff
26
10
00
fc
ff
06
0a
05
0e
0f
0b
15
0c
08
00
fe
fe
fc
ee
f4
06
0e
0e
13
1d
00
f7
fa
25
08
fc
ed
ff
0e
fe
00
0c
09
07
02
fe
04
fc
05
ff
fb
f3
e8
03
0d
03
0a
f4
f9
fb
03
16
0b
1e
06
15
17
02
0b
0e
18
fc
fe
02
00
09
01
06
fb
f0
ef
f8
03
13
08
ed
06
03
06
0f
1b
20
14
25
13
0e
09
08
0b
01
0f
17
0b
06
0c
fa
f7
df
f5
fb
02
1f
02
f7
02
fe
02
ee
07
1b
03
15
1d
11
19
18
13
1c
13
13
17
2a
11
0e
f8
dd
ea
f3
f7
f9
fc
00
fa
04
fd
fc
f5
e2
df
ec
07
1f
14
14
00
16
1a
11
30
15
0a
1a
0e
fa
e8
f6
00
fb
03
fe
04
00
01
00
03
16
12
14
08
0c
08
15
12
15
17
06
1a
0f
19
0f
05
fc
03
f5
01
01
01
02
02
06
ff
fd
06
ff
00
fb
fb
fc
fc
04
fa
fc
00
0b
0a
05
ff
06
01
04
02
fc
fc
fe
fc
fb
fe
fd
03
05
01
fc
fc
f5
f0
fc
f7
fa
09
02
04
f9
fb
1b
0b
f0
dd
e8
ee
ea
fc
00
00
fb
fe
fa
02
f7
11
05
ff
fd
f2
fc
03
fd
ff
0a
06
01
f1
f3
e3
e9
d9
f9
13
19
fe
11
0c
03
04
fa
05
ed
07
e9
f9
f5
ef
f3
f7
fd
fc
fe
0b
14
19
1d
ff
f5
de
e3
f7
00
0c
09
f6
fb
fe
fb
02
e8
e6
fb
f2
08
07
f1
f8
f1
f3
00
0c
16
12
14
1a
06
04
07
f0
f9
f3
f1
fb
08
11
fd
00
e4
f9
f6
e2
00
fb
ea
e1
df
f5
00
0a
0c
1d
1b
1d
15
17
0c
02
f5
ea
f1
0e
fb
09
01
ee
f3
f3
ea
d7
df
e0
d2
dd
e3
f8
f0
ef
f3
fb
0c
18
12
0b
0e
08
05
01
e8
fe
e7
0c
fc
f1
fd
f9
f8
da
e2
d7
da
f0
fc
fb
ed
f4
e9
05
05
0b
0d
0e
01
11
0d
0d
03
0e
e3
fe
0d
fd
0d
05
fa
df
df
e4
ec
f9
fd
f9
fa
ff
03
05
0a
09
00
16
ff
0b
fe
fd
02
04
f9
01
fa
f8
03
12
eb
da
ef
ea
f0
fb
0a
f7
01
1a
0a
f7
f0
fb
f6
0c
08
09
f8
07
01
ec
e8
e5
02
ff
06
0c
ef
fd
00
fb
ec
fb
03
fe
09
0d
08
e8
dc
e7
f4
fc
f8
00
ff
12
f5
e1
e8
f7
f8
00
07
07
fa
0a
07
0c
01
0e
00
03
03
f7
f0
df
db
dd
e1
fa
fe
03
02
11
09
f4
06
f3
fc
f8
05
07
03
09
1c
0d
04
15
02
f5
f2
f5
e0
e2
ef
f7
ed
13
1a
16
18
1f
23
ed
e5
e7
01
fe
f6
fa
07
0b
0a
0a
18
1b
11
05
f1
f1
f8
01
f3
02
06
14
11
1e
2d
1a
fd
08
13
20
f3
f1
e7
f4
0e
12
11
0c
1b
19
1b
1e
09
16
0a
ff
fa
07
0b
12
11
1f
16
00
01
26
33
11
f7
f6
e7
07
06
07
00
10
1e
23
1e
23
1b
11
0c
02
0e
05
03
17
07
0d
0d
fc
07
1f
26
1c
04
eb
f3
fe
fb
01
0d
14
19
17
28
27
18
fd
08
03
0e
0a
02
03
04
09
05
ff
f3
1d
36
26
ff
f3
08
ec
f5
03
09
0e
14
22
21
19
0b
fd
0a
14
0e
fd
ee
fa
f5
fb
0a
fd
f3
08
27
38
04
f7
fc
f4
fb
f2
13
20
16
22
1f
fe
f1
f7
11
0d
fd
f9
fb
ff
f6
fd
15
0f
07
fd
10
16
01
04
f3
ef
01
fe
0a
11
1b
19
17
e6
e4
f1
0e
13
fc
f6
ff
04
fe
0a
17
1a
fa
f3
12
14
ff
14
0d
07
08
0b
08
17
0b
0f
0b
f0
e9
f4
02
0b
f1
ee
03
fc
00
0c
0b
07
ff
f3
01
f2
f9
0e
19
17
11
10
1b
14
10
17
07
fd
f6
fc
fe
fd
f6
f4
f9
05
f4
fe
06
fa
eb
ea
f8
01
fc
fc
0c
13
ff
fd
1f
10
0d
13
13
0d
09
09
f9
f8
f4
ee
f5
f8
fe
01
04
f6
05
fc
e2
06
03
03
f6
02
f4
e5
fd
04
12
15
09
05
00
01
fb
f1
e6
f6
00
01
05
ff
08
fd
02
f7
df
01
fd
ff
f7
e4
e6
e1
f1
f2
02
fb
f9
fe
fc
f7
f4
eb
e2
d9
ef
fc
05
f7
fb
07
06
07
fd
ff
02
05
0f
e8
eb
fa
0d
fc
fb
fb
fa
02
ed
f3
fa
f3
ed
d0
ed
01
0b
f9
dd
e5
e5
03
fd
00
fa
fe
03
0f
29
22
23
17
0d
fd
fc
0b
0e
0b
08
f9
f8
f1
fd
fa
fe
ff
f4
04
14
f2
fe
fb
02
fd
00
ff
ee
e9
fa
0b
0a
0b
19
16
0f
03
0a
fd
04
fa
0e
1b
ff
ed
f1
f0
fb
fb
ff
fb
04
01
fd
fd
02
05
ff
ff
05
ff
fa
fb
ff
fb
f4
00
05
03
03
fb
03
04
fb
fa
fa
00
04
02
fd
05
06
fa
03
03
fc
fd
fc
f7
ea
e9
f4
ed
0c
0d
df
e0
de
ed
ed
f1
fa
fa
04
03
05
fd
05
fe
03
06
fa
fc
f9
fc
ee
e2
cb
e4
fc
fd
e8
03
01
ff
09
15
ff
ea
fa
fc
e8
fc
03
06
02
fe
14
11
12
ff
f4
fa
18
10
04
06
17
05
ff
12
01
0e
1c
0e
18
00
e2
f8
00
f7
f7
04
fb
04
0c
1e
fe
e6
e6
fc
fb
f8
02
04
06
17
19
14
0d
06
fe
08
01
fe
ee
ed
f8
05
03
f7
fc
04
00
12
eb
f3
f2
01
f1
f7
fa
f8
00
0a
11
07
05
05
01
fb
00
ee
e8
e1
ed
ea
fe
00
01
0a
0c
ef
e5
ea
ef
f3
f6
fa
06
07
02
00
fa
01
f3
f8
fe
f9
ff
f8
f2
09
12
05
16
fa
fc
1b
02
f0
e3
e5
ec
fd
f7
09
10
02
fd
f6
0a
08
ff
03
fa
01
01
ef
07
1d
09
06
16
f5
01
01
12
0c
ea
ed
ec
fd
fa
f8
f7
fc
05
0e
11
13
05
04
10
03
09
ff
14
1b
28
25
1a
15
0c
18
04
0a
ff
e6
ff
00
f8
01
fc
fd
05
0a
11
0c
0d
0d
14
0c
08
08
28
28
2a
41
26
ff
09
0c
09
26
0b
e3
f1
f6
f3
f5
f9
f9
0e
0c
0a
0b
04
0e
0a
15
1a
0c
18
20
27
2b
27
f4
11
06
16
33
22
03
ec
e0
e0
ee
f2
ed
f5
06
0a
09
ff
0a
0e
08
ff
e4
f8
0a
0e
20
26
0f
18
09
13
22
14
01
e6
e1
e7
e5
f4
e6
f9
06
0f
1c
09
08
0f
f2
e9
d8
d0
d0
d0
fb
11
02
0b
19
0b
0e
09
f8
dd
d6
e1
e8
ec
fc
06
0b
0f
13
0a
0c
09
eb
e1
e0
c4
be
be
e2
f3
fd
07
12
19
05
08
00
ea
dc
db
e6
f5
05
12
16
1d
11
05
04
fe
ea
ef
f3
cc
cd
dc
f2
f1
f7
09
09
0f
ee
13
0f
ff
ee
df
d6
e8
fa
16
1b
1a
0d
fe
04
07
f8
04
f9
e0
de
d2
e0
fa
fd
f7
1b
07
03
23
13
03
ec
e6
da
dc
e9
00
17
09
05
06
08
13
06
12
ed
d1
c1
d1
cd
ea
f0
05
17
f3
06
18
0b
0c
03
f2
f1
dc
e4
f3
05
01
0d
0a
10
07
10
10
f4
d1
d7
e5
e1
05
df
07
0c
07
06
02
0c
0e
14
0f
ff
f1
03
ed
fe
0d
15
14
14
0a
15
0c
ef
d0
cf
e4
fa
17
f1
0e
10
04
0d
05
0c
0d
0f
10
04
f5
f4
f6
f8
fd
06
18
10
1d
17
ff
e5
d6
e0
f1
09
05
f7
00
01
f2
f7
01
09
0b
00
09
04
fd
f3
ef
f8
09
06
0f
1d
15
07
f0
da
db
df
e0
ed
02
17
07
fe
ea
ec
f8
fb
04
fd
fc
ee
f7
fc
ff
fd
fd
09
0b
13
07
f7
ea
cb
c6
d3
e3
e0
ee
f9
02
0d
f2
f3
fe
fd
00
f8
de
dd
f6
fe
fa
02
01
07
0f
0e
fc
ea
e0
cf
ce
e1
e6
ea
03
fb
02
ff
18
15
04
06
f9
ee
e7
e4
f8
fe
f2
fd
03
08
fb
f8
df
e0
e3
d5
ce
e0
f1
ec
06
00
fb
05
15
27
0e
11
12
01
fb
08
11
ff
ff
fc
f6
ff
06
fe
e3
f1
e8
c5
df
ee
f7
f3
f3
06
fb
fb
01
08
0f
1c
14
1f
36
43
2b
26
30
23
0b
08
06
f2
01
24
08
f9
0f
03
05
fa
05
03
06
fb
00
f3
e3
f5
0a
04
04
11
12
2c
2d
21
fe
11
24
23
17
0d
08
ff
01
00
fb
09
02
fe
02
fd
fa
06
0e
06
05
f8
01
08
06
0e
04
10
08
02
01
0b
f5
f1
04
fa
fc
04
00
02
04
fd
02
fb
fb
00
03
fa
06
05
00
03
00
fa
08
fe
f0
fa
fe
05
03
06
03
05
ff
fa
06
06
fa
05
02
01
01
05
09
08
00
ff
10
08
0d
0d
10
09
01
ef
ea
fe
19
1b
18
18
0c
fa
02
01
01
fa
06
03
fc
f2
ef
08
06
16
17
0b
05
0f
0f
13
1f
15
07
19
15
04
0e
1d
27
10
00
fb
03
fb
02
fa
ee
ee
18
19
1a
21
17
18
12
16
16
1a
13
07
00
f9
00
03
00
1a
2a
27
09
ed
02
00
03
fd
e9
f2
09
06
ff
1b
11
0d
0e
0d
02
f6
f4
f1
fe
fb
06
07
0f
19
0f
1d
27
12
03
1a
01
fc
f5
f9
0d
e8
ec
01
01
ff
08
02
01
f2
fb
f6
f3
fd
ff
06
03
04
fd
0b
1b
1a
14
0f
fd
f5
06
e4
04
f6
e9
04
02
09
fb
02
00
ff
fb
f5
f9
fb
f7
fc
fb
f5
fe
0b
0c
0b
03
11
02
f8
fd
e4
0b
0c
ff
ff
0d
0c
f9
f7
ef
fd
07
0d
f8
f1
ee
f9
f6
07
0c
fb
f7
fa
14
0c
ee
f5
0b
0a
19
11
12
0c
06
ff
ea
ed
e9
fd
02
01
0a
f8
f4
f3
00
00
f5
f1
04
1b
13
0f
ff
f1
04
00
02
0b
14
0a
09
00
f1
f0
df
dc
f1
fe
08
f3
f6
03
09
05
fb
03
03
fe
00
e8
f8
f6
ef
f8
05
0b
14
0c
10
10
00
ed
d7
bb
d1
eb
ec
ec
ee
03
00
f4
f8
0f
0c
f5
ea
eb
fb
e9
e1
e4
00
12
11
14
1f
27
20
fe
ea
cc
df
de
e6
e9
fb
fe
fd
02
08
12
1b
01
0f
ed
05
f4
ed
f6
03
09
0e
1f
22
29
20
15
ff
f1
df
e6
f1
f3
fd
0a
08
12
11
24
2a
fb
e9
e0
f9
f9
e4
f3
03
10
11
1a
1f
2b
2e
20
0f
04
f8
03
0b
04
04
11
0b
17
18
1b
0d
ed
eb
fc
01
03
e1
eb
ff
1a
16
17
22
1f
1d
1f
0c
0e
11
0a
16
10
0c
02
f2
03
12
03
f8
f8
e7
f9
00
05
f5
fc
fb
03
0d
11
13
13
11
1d
24
21
10
08
12
0e
f8
fd
f4
f9
06
07
eb
12
0a
ef
f9
f8
f3
f8
e1
f5
00
fe
09
00
11
1c
2b
22
05
03
0a
0d
fa
ec
ee
ef
00
02
fd
0d
ec
eb
02
f9
08
ed
cf
e9
fe
07
03
fc
08
15
1c
0a
03
02
0e
fd
f4
f2
fc
f3
fa
fb
fb
f9
e7
f8
fb
fd
f4
e9
ce
e8
05
f6
f7
f9
02
01
13
11
07
01
05
f2
f8
fe
00
f6
eb
ee
ff
f9
e0
eb
f9
ec
d8
e1
d3
ef
f1
f4
fa
fb
fa
02
ff
0a
13
0d
03
fb
f9
fd
04
fe
06
0b
03
f4
f5
f8
fc
f8
f2
d8
cf
ee
ee
f4
f8
fc
fa
f5
09
05
13
24
03
fa
fe
fd
04
10
09
0b
fd
fb
fa
fc
fb
fe
f7
df
dc
e3
e8
03
07
09
f7
f9
0c
0e
14
19
04
02
ff
06
00
0e
19
1d
fd
f1
e3
fd
fd
fe
ed
ff
ee
e6
eb
f2
ff
ff
fc
f9
0d
01
fd
fd
fb
f6
04
07
05
17
06
1d
07
07
0a
ff
fd
fa
f6
0b
09
f1
ed
ee
0b
06
04
fc
f0
f9
f6
ee
f9
f9
1b
1c
1d
26
1b
2e
12
02
08
fb
05
04
fe
fe
0d
01
f9
f7
01
0b
19
25
08
08
fe
fa
01
f3
16
18
24
03
0a
23
e9
f5
f7
04
ff
03
04
0a
04
fe
14
10
06
fe
13
06
fb
10
09
04
07
03
1f
17
10
11
07
09
f0
00
f8
ff
fd
ff
00
04
1f
07
0f
17
0e
08
06
0a
1a
0e
0b
fd
ef
f4
ff
f1
00
fe
e4
05
0a
fe
03
ff
06
fc
fb
00
f9
f8
fe
fa
01
ff
e9
0c
0d
f8
fa
07
fb
e9
fc
0c
eb
e1
e4
e5
01
01
00
fe
06
fe
fc
fd
01
01
04
06
fd
03
fd
06
05
01
13
00
fc
fe
fb
fb
01
04
01
02
fa
fa
fd
05
01
fa
fc
ff
04
04
09
0c
0e
05
12
0b
12
0c
f2
1c
1f
1a
0e
18
20
10
11
0a
06
04
05
fb
fd
00
16
ff
0a
02
04
15
17
21
20
10
13
0d
14
28
30
33
30
25
26
26
1c
21
10
04
02
fb
03
fb
ed
0d
0c
ee
01
f6
f5
07
f1
e9
eb
08
ff
07
0b
0c
1a
13
f9
1e
2a
22
11
e8
0c
fd
05
fa
e8
f0
0d
f1
ed
f0
f2
fb
f4
f5
f8
f4
05
01
14
25
1d
1b
23
13
0a
22
19
08
11
11
06
04
1b
ed
ef
eb
e0
e3
f5
fd
fb
ff
fb
ff
06
f9
0a
1d
25
20
2c
1c
08
11
1c
1c
20
0f
fb
fd
0a
e5
dd
e9
d5
f2
fe
fb
f4
f7
03
ff
02
0c
0c
12
16
18
05
02
fa
0c
1a
33
05
1d
05
fa
07
d6
d2
d8
df
f0
07
fb
06
f9
ff
f4
00
f7
fe
f6
03
f1
e7
f0
ed
ef
06
11
fd
1e
00
02
08
de
d6
dc
05
09
ff
07
01
0b
ff
03
e9
e7
de
e6
de
e7
d4
cf
d4
e1
fa
fd
07
0a
fa
f2
fa
e9
da
e2
05
05
fd
01
08
0b
fd
f1
e3
c7
d0
cf
d7
d8
d4
cd
dc
e3
f0
05
08
f4
ff
fe
f8
e5
eb
ec
08
f8
03
fe
0f
0a
fa
f0
e6
e1
dd
d2
eb
ea
e2
ef
e9
ea
f0
0d
22
f7
ff
02
02
e6
f4
04
0f
0b
f8
04
05
0f
0e
0e
0f
ee
f1
eb
fa
01
f8
01
f1
05
05
24
3c
0e
01
03
0f
16
01
ff
07
0c
09
02
01
1a
0e
0c
08
04
fe
05
01
ff
01
03
fd
f1
0a
1f
20
0a
09
02
15
2f
09
00
06
09
00
fe
fc
11
11
0b
07
07
f3
fa
0d
0c
11
0e
00
0a
0a
09
1e
1c
10
f4
f8
2a
05
fb
0d
09
ef
eb
00
04
fd
14
19
04
fe
f3
fc
00
03
07
0c
00
fa
14
25
11
12
ed
ee
1a
fb
fc
fc
f3
f7
ed
f3
ff
04
24
28
09
05
f2
00
ef
f7
07
fa
fb
09
25
07
1f
fe
f6
f1
19
01
fa
f9
e3
eb
f9
f6
08
15
23
26
0c
09
fa
f6
f3
00
05
fc
fe
10
36
2d
24
fd
f4
f7
1b
05
fb
fb
e6
f3
f4
fd
0b
13
13
18
09
f8
fd
0b
08
10
0c
0c
0b
17
2d
18
19
f9
f4
06
06
0b
04
01
fa
f3
fe
07
02
13
12
12
ff
fb
07
ff
0c
0a
01
fb
01
1e
24
f7
17
f8
fa
15
f3
05
f8
04
05
ff
09
14
11
13
1d
06
fd
08
0e
07
04
01
fa
01
04
11
20
1c
0e
fc
fa
11
fc
fa
fa
07
06
08
10
15
1a
1a
0a
02
0c
fc
07
0b
03
04
0f
05
07
0d
16
0d
ff
05
07
f6
0c
fb
fc
01
06
01
10
05
0c
05
08
05
00
00
16
0d
0d
08
12
07
08
fd
14
0b
03
0b
fa
f9
13
14
01
03
00
00
07
00
f8
02
f7
01
fe
fe
06
00
01
00
00
fc
0b
ed
f6
f5
00
03
ff
01
f7
0d
0c
fb
ec
fc
f9
fb
f5
fc
fa
fb
f9
02
f7
ef
04
ff
f7
01
0b
e9
fd
eb
03
fc
04
ff
ec
f2
07
f5
e8
f2
fd
ff
0a
02
ff
f4
f6
ff
e7
08
fa
f2
e6
f0
f0
fe
07
00
fc
02
ff
fe
ff
ea
e2
d4
cc
d2
da
ed
f6
ff
f0
00
01
00
04
00
e7
ea
ef
07
f5
ff
fd
09
ff
06
ff
04
f7
fc
f6
f1
f9
e8
e9
ea
f1
e7
e6
e0
e2
e1
e0
eb
ea
f9
08
09
02
00
02
06
fa
03
fc
fc
06
00
fa
fd
01
f9
ff
f6
07
02
ff
f8
fc
fe
fc
f2
f3
00
05
04
03
fb
01
01
fc
fa
01
02
00
fc
fd
fa
03
ff
fb
fb
fe
f9
00
fd
fb
06
01
02
fc
02
fe
03
fb
fb
05
fd
02
fc
fa
05
02
03
ff
ff
fa
00
02
fa
f5
ed
f1
ff
ef
e7
e9
ef
f0
e7
eb
f5
f2
00
fc
fc
fb
06
ff
00
f6
f9
02
01
fd
f8
fa
f2
f5
e6
dd
d9
e2
ef
08
f6
e9
e7
e7
ea
ea
f6
f1
02
03
05
01
14
fc
f6
e8
ef
ee
d4
d7
db
ec
da
b9
c2
cd
d5
fe
0c
03
f9
ec
fe
f9
ee
ea
f1
fc
04
fb
13
0b
ef
e9
f6
f1
df
c0
d2
f8
eb
d7
cd
e7
ef
e9
f4
fa
ec
fc
fc
f0
e8
e4
e5
e7
05
fe
1c
fe
ed
f0
f7
fe
fb
f8
fd
00
01
d9
f4
00
fa
f3
e8
e0
e5
ff
0d
f7
e8
df
d6
e9
04
f5
0f
07
f8
f7
f8
03
05
02
01
11
fa
05
0d
f6
f6
fc
f6
ed
eb
07
0a
fe
f9
dc
fa
ea
05
e6
10
13
f8
f4
fc
f0
fa
12
fe
f8
01
0f
06
f5
05
fe
f6
f4
fc
f4
fc
07
fb
ef
0d
f3
ed
e8
fc
fe
07
0f
00
fb
0b
05
f8
f3
f4
fe
ff
0a
05
0f
01
f0
ed
f6
fd
fc
13
0a
f6
f1
fc
06
00
e0
f6
01
00
f7
0b
fc
f1
f8
03
0d
0d
25
14
18
11
f5
ef
ee
0c
04
11
ff
fc
11
f6
ff
f0
e3
f3
f4
f2
f0
06
ff
fa
05
14
0b
17
2a
25
11
03
09
fd
ff
08
11
2a
31
0b
0b
f5
e9
f8
ff
e7
e0
fa
09
15
01
0a
0e
06
02
13
2b
24
17
0b
00
00
02
0c
12
23
19
fc
1f
04
f8
02
04
ee
d1
03
16
1b
0b
05
ff
02
0c
13
28
13
01
00
ee
f4
01
f9
08
15
1f
12
1b
13
fe
fa
07
04
d5
02
2a
1a
13
0c
04
fc
05
11
17
0c
08
fc
e9
f3
04
f7
f4
f6
13
fb
f2
04
0a
fe
04
02
f9
06
1f
1a
20
0f
0a
11
05
0a
0e
13
11
0b
f9
04
08
fc
fa
07
02
d7
f2
04
00
f4
09
07
04
0f
16
24
2b
25
1e
17
00
07
18
1f
22
07
e7
f8
0d
06
18
ef
e4
f0
e9
0b
fc
ee
f1
f3
02
02
0c
2a
27
26
23
25
1f
13
19
15
08
f6
f0
f6
04
f3
05
e5
de
d8
e4
03
05
fe
e2
e2
03
f8
f8
04
13
0f
0f
1d
18
19
0a
fb
f1
e9
ea
f7
fc
e8
fa
f2
f5
ea
df
f2
03
01
e2
df
f3
db
db
e0
e1
df
f6
00
0f
fa
e7
e1
de
d6
e1
e3
e9
e0
e9
dd
fb
1d
18
0c
f1
fa
f7
e5
dd
d3
da
cd
c9
d3
e3
e4
f1
e9
e1
e9
e1
d3
d8
d0
e2
e0
d6
d7
17
07
23
05
13
fe
eb
f1
e7
e2
cc
cc
df
d6
df
e5
f5
f4
ea
00
f8
f0
dc
d9
ef
ff
e8
e8
16
11
16
08
fb
00
f2
03
05
e7
e1
e1
f4
f5
f7
f3
eb
ed
f9
fe
ed
f3
da
dc
f9
ef
ed
ff
1c
e1
01
0e
fe
eb
0d
0c
0c
06
0b
08
0b
12
f9
fb
f0
f7
fc
f7
f8
e9
ed
f1
f0
ef
fe
fe
14
f6
00
01
fe
ec
f5
fd
16
1a
1c
20
0f
13
00
03
fe
05
ff
00
ff
f2
fa
fd
fc
f8
0a
09
16
1b
fd
02
04
f7
ec
07
13
0f
1a
19
15
0c
06
f9
f5
f7
f5
ee
f8
fb
06
07
0c
14
29
f8
04
03
fb
04
fc
10
10
17
28
f5
f9
04
fc
ee
f8
e1
f2
f6
ec
ed
ed
f8
f7
f9
05
fb
0e
02
02
f8
ff
03
04
05
02
22
30
2a
14
01
07
11
fd
01
0a
13
1b
17
00
fd
04
14
14
07
0e
11
05
fb
02
fb
fa
fb
01
f4
f4
0b
07
0a
06
13
0e
04
fa
07
14
01
01
0f
14
07
fa
fe
fc
fb
01
fa
ff
fb
06
ff
02
00
04
00
fc
fe
01
02
ff
f9
fb
08
02
04
03
ff
ff
04
fe
00
fb
05
06
06
ff
06
04
06
fb
f8
fc
fb
00
fd
f7
fd
02
01
00
13
0f
08
fe
f5
ef
f5
ed
f1
fb
02
01
fc
02
01
fe
fd
10
01
02
fa
f2
eb
f6
f2
f6
06
0c
0d
08
05
03
04
fd
04
01
f6
ff
09
06
fa
02
03
fe
01
07
e3
f5
ec
fa
fc
f7
fc
fe
fa
13
19
11
1e
1d
fe
fc
f5
f3
fc
fe
fd
f6
eb
fb
fe
03
0e
f2
f6
04
02
05
0e
19
08
06
12
1b
14
12
17
18
16
0a
0c
fb
f9
d5
d1
dd
fe
00
00
00
11
0a
fa
fa
08
0d
04
fb
f8
f4
f0
fe
06
00
fc
02
14
14
0a
14
0e
f6
e1
eb
ef
f1
04
0c
eb
16
fc
06
13
ff
f9
f1
f1
fa
f3
fd
fb
eb
f1
ff
03
0c
06
10
18
ff
e1
e6
ec
00
03
09
f2
13
23
16
15
08
fb
fd
0a
fe
09
01
fa
ec
f1
03
17
17
0a
0b
0d
07
e9
de
d8
00
0c
03
03
23
26
0a
05
0a
01
10
0a
06
12
06
f9
f2
01
12
16
14
0f
02
09
fe
d8
e1
eb
f9
fd
02
0f
20
0b
f8
f7
02
0a
08
01
f6
f6
f2
f3
eb
fd
0e
10
0b
18
01
02
03
e1
f4
fd
01
06
0b
11
11
f8
ef
f8
fb
06
fa
eb
f7
ed
ed
ef
f1
f9
1a
16
0f
08
06
0f
f8
dc
d7
e5
0e
fc
1e
09
10
fa
ed
eb
07
f6
e8
eb
f1
ee
f2
fa
fb
f1
fd
02
05
06
fe
fd
ed
e0
e3
ec
fb
fe
01
13
0e
f4
eb
ed
f9
ee
f7
f4
fb
0a
05
f9
f3
f8
fe
ff
fa
08
03
0b
f6
06
08
fc
02
09
08
07
05
f4
f3
f9
f3
fe
01
f6
02
05
03
03
fc
f0
fb
08
fc
fc
0d
0d
fe
05
18
1a
0e
fb
02
fd
ff
f0
07
f9
fc
0e
08
00
11
0e
03
f7
f4
ea
04
08
02
05
08
0b
fc
02
17
20
0d
05
03
1d
f5
f8
04
00
06
0b
0b
09
11
09
04
f3
f1
f5
f7
fe
00
ff
05
05
06
0b
0e
22
14
fc
06
19
fd
06
ff
01
19
19
1b
1c
12
00
f7
f9
00
03
03
f8
03
02
0a
f3
0b
0e
13
29
12
fb
06
22
fe
15
06
f8
10
15
20
1f
0b
fc
f0
f2
f3
fe
fa
f2
f2
ee
fb
fb
0e
10
16
16
1c
f5
13
19
04
12
06
f5
0c
1a
22
0f
f8
ed
e6
ed
f6
fc
ec
fb
ea
ef
fd
03
0d
1a
09
05
0c
05
0b
f5
01
13
02
01
0c
11
20
0d
f3
ed
f3
f4
f6
fb
00
f9
fc
fc
02
18
09
04
10
1c
06
04
0a
08
1d
1c
fd
ff
1d
16
0f
09
fc
ff
f8
ff
f7
f7
fb
fd
06
10
08
0a
05
0a
f6
13
ff
02
04
26
36
14
01
13
1d
0e
08
09
04
fd
f4
f5
fb
fe
03
07
0b
06
fd
10
0a
03
f8
1e
01
01
0e
1b
1f
07
1e
28
16
16
18
0d
11
f9
fe
04
01
ff
06
08
0d
06
09
06
03
fa
fa
fb
fd
06
04
16
fe
f4
fd
14
18
1c
1c
1b
15
13
0f
06
00
00
08
11
fe
f3
fe
f6
f1
e0
fd
05
05
fa
fa
fc
f6
e3
e6
f6
ea
f1
f9
00
fa
04
fd
f2
f2
f9
fa
04
ef
e8
ec
e6
ea
f4
0e
04
ff
00
06
fb
ee
f4
e2
f4
eb
f5
ea
f7
f2
f1
f2
ee
fa
fc
df
db
d8
dc
e4
e9
fb
e9
fb
08
04
05
02
fc
fc
05
f8
f8
da
ed
f7
00
ee
f1
ed
df
d9
de
dd
da
dd
d3
e0
ea
ef
ed
01
06
fd
fc
02
fd
03
fa
04
f1
f2
ec
ed
eb
f3
f1
f4
f6
f2
f8
f6
f8
f5
f0
f9
f2
fc
fb
06
fd
fb
06
03
fc
00
fd
fb
06
fe
05
fc
05
fe
06
0a
fc
03
fa
04
01
00
fe
fc
fd
02
06
ff
03
02
fb
03
fb
fa
03
07
0a
10
17
11
0a
09
1b
12
f4
24
14
26
16
20
1c
21
16
0e
00
06
fc
00
02
fb
0b
18
1e
03
10
17
13
fe
1a
15
10
fd
f3
f9
18
17
14
12
14
1c
21
22
04
02
fc
05
02
00
1a
1f
0b
16
17
0d
28
15
15
11
12
17
1c
1b
1a
1f
2b
23
39
09
fe
16
1c
f8
f5
06
fc
00
0c
17
24
0e
09
03
16
15
19
11
0d
08
0d
08
09
13
19
09
0c
fd
fb
e9
d6
e2
0e
f0
02
fc
23
0c
16
06
0d
06
0e
08
06
fa
f9
fa
eb
f4
f4
f9
03
f5
f1
f8
f2
e1
da
d4
f8
f7
00
09
fa
0a
11
fe
f8
f5
f9
f6
f1
ef
e6
e9
e9
e0
e0
ea
fe
eb
f2
fa
ec
cf
d8
c7
df
f1
01
16
f2
0c
fd
f5
f2
00
f1
f1
ef
e8
e2
e0
f0
ea
ea
e9
fb
f5
f0
df
db
de
de
d0
d7
e7
13
22
f9
ff
0b
ff
fe
fc
f3
ea
ee
e8
f7
f0
fc
00
00
f1
f4
ef
f4
f6
f0
f6
e7
c5
db
f0
0d
26
fd
12
2e
16
07
0d
fe
fa
fd
06
15
1a
1d
0e
02
02
02
fe
03
06
01
05
fb
e5
e6
0d
0e
11
18
0c
20
12
11
0b
0a
1d
1f
27
26
33
22
15
0c
06
14
0f
16
16
0b
19
05
f1
e6
ee
14
1d
28
26
2a
0c
0a
18
18
24
30
39
21
24
19
11
09
16
24
17
23
14
14
19
0b
eb
e7
10
12
16
20
1a
1b
1f
0f
21
28
22
2b
1e
05
fb
14
0a
1a
1c
1b
0c
13
0a
1c
1b
11
0d
13
12
fa
03
23
0d
20
25
1d
05
0b
11
0f
f6
da
da
fa
04
0e
08
07
0c
10
18
0c
17
22
05
f2
ee
fd
03
2b
0d
02
21
10
fd
02
00
fb
e2
e0
d8
ee
01
f6
f4
01
0c
13
26
13
25
23
ef
df
f0
fe
f7
01
ef
fe
1b
10
fe
ec
ef
ed
e6
e6
e6
f3
f9
e4
ee
fd
0a
26
27
19
17
1a
f4
cf
f5
0d
16
fd
f2
0b
15
0a
06
01
f4
e6
e7
db
eb
ec
e9
d9
e5
fc
10
0f
1a
1f
0f
0e
de
d0
f1
01
05
ed
04
0d
15
01
05
04
fb
f3
fa
f1
f9
f4
ec
e6
fa
05
0d
0d
0d
16
05
fc
f8
df
13
10
08
08
08
05
0f
03
0a
1d
0c
11
04
f6
fd
f9
f0
fb
08
0b
0c
00
07
05
e9
db
09
f8
f4
01
1f
02
02
fc
04
06
06
10
16
13
0f
13
13
fe
f8
02
14
01
06
01
ef
e3
dc
f1
fe
ed
f7
fd
18
dd
f2
ea
f8
f8
fe
02
15
13
0e
0d
10
11
fe
0e
0d
fd
01
ee
dd
db
e0
df
f4
f3
0b
01
01
e6
e6
d8
dd
dd
ef
f4
fe
01
04
0c
05
fe
0a
14
06
0f
f9
e3
d9
ce
c9
d6
f4
18
fc
ff
08
ef
ed
e5
d9
d5
da
ec
fa
f8
ee
ff
0a
07
0e
0c
09
fe
e3
d5
ce
df
c2
bc
f0
12
fd
fa
02
08
05
f4
f3
e8
e2
e0
f8
fb
fa
00
ff
02
f5
f3
fa
e6
da
d0
d2
d7
cf
d9
ee
03
ff
02
fe
06
0d
19
1f
fa
f9
f4
ec
f1
f5
fc
0a
fa
fe
fc
03
ec
f4
f7
e6
e0
d2
ed
f6
fc
03
05
01
fd
09
15
0a
1d
17
13
00
f6
06
21
0f
15
fd
10
03
f5
19
0b
07
fa
e3
f9
05
00
02
fd
fb
fe
f5
e2
e8
f5
0e
1b
18
1a
11
0b
26
1a
1e
1a
0c
11
2f
17
09
1d
ff
00
12
fd
06
02
06
00
ff
16
16
17
08
0d
0d
2c
08
0a
27
27
07
13
2f
0d
09
10
15
18
20
00
fc
04
fb
fa
04
03
fd
fc
fc
ff
03
05
ff
fe
fe
05
fb
f9
00
01
06
fc
04
fc
06
fd
00
03
fa
03
fc
06
05
06
ff
fa
f8
fd
f2
fe
fb
fb
00
ff
ff
02
e9
e2
e7
fb
ea
ee
fb
fa
f8
fb
fc
06
fa
fa
fa
f0
f0
fb
04
fe
ef
f5
e2
df
f4
ef
f9
fe
f2
e2
ed
f2
ee
f3
e9
f4
e9
ee
fd
fb
06
00
05
e3
ea
fd
03
f0
e9
cd
c8
d7
e3
dd
e3
03
fd
f9
00
0d
ff
07
14
16
10
fd
06
0e
fb
05
fc
ea
02
01
ff
e1
e4
ce
dd
ed
f6
ff
02
0b
0b
0d
19
08
09
05
03
0b
20
31
26
10
04
ff
02
d6
f1
e6
de
d4
e6
ed
05
0b
1c
0f
0f
11
0d
09
0d
01
01
fc
f6
ef
f0
0a
15
03
fd
00
f7
f4
e0
e1
e3
de
e3
03
0d
0a
0a
13
0f
14
0a
0e
08
f2
f6
f4
f9
03
0b
fe
02
08
fd
fa
f3
f9
e1
e9
e8
df
e7
fe
08
05
09
09
0b
03
0b
05
02
00
f6
f1
f8
00
0b
0f
04
15
f8
07
ec
04
fd
f2
eb
fb
f2
05
14
00
08
0a
04
f9
fa
02
01
f8
f1
01
0a
f2
fb
16
34
24
16
f2
f9
07
f2
dc
ed
fa
f0
fe
12
0e
09
04
f8
f5
f6
07
f8
f3
f1
03
02
fd
00
11
17
06
e7
f2
f5
fa
e6
eb
ea
ef
f6
03
14
12
0c
0b
e6
f0
fb
f6
03
f8
f5
fc
fb
ff
05
0d
f8
ed
f8
f9
f6
e7
df
e3
f6
fe
01
09
13
06
02
06
fe
f9
05
05
02
f9
f2
fc
00
fd
01
0f
01
12
ee
f6
f3
f6
ed
e9
ff
04
05
03
09
05
0a
04
04
f5
07
01
fe
fb
fd
09
06
ff
1c
10
e4
ef
db
fb
fe
f3
e7
f6
fc
fc
08
0a
0d
12
0b
fe
05
fd
10
08
07
01
0a
03
fa
0b
0e
e3
de
e8
f8
f8
fd
ea
ef
ec
f1
f4
03
0d
09
0a
0c
0a
07
fd
00
07
11
05
03
fd
f7
f2
e9
d9
e8
d4
ed
ef
0a
f2
fa
ed
ec
e9
f8
04
0c
0e
12
0c
03
01
04
0f
0e
08
fc
e9
f1
f2
e7
d2
e2
00
f2
f3
03
fe
f3
e3
ea
e8
f9
0f
00
0d
0f
19
fb
f9
03
09
15
04
f4
f4
de
e5
e3
de
de
de
e9
fb
00
01
e8
db
e8
f1
f9
05
0e
0a
19
0f
f6
fa
0c
10
13
0e
00
04
f8
ea
f5
e4
da
ed
de
f9
f4
01
f7
e7
ef
f0
ec
ff
ff
09
0e
0a
fa
f8
01
0b
0e
0c
0c
07
f8
e4
e7
e7
e1
ec
e8
fa
ee
fa
05
f4
00
f1
ed
00
f5
ff
f6
f3
e7
ea
f7
09
0f
10
09
fd
f5
e3
e5
e4
df
e7
e7
01
15
05
fd
ef
fa
e9
f5
f8
e6
e7
ef
ec
ef
ed
06
0b
0b
06
fe
f5
f4
ec
e5
dd
f4
e5
fd
f9
01
fe
ef
fe
00
f8
f1
ee
f4
e2
f1
ee
f7
fc
08
09
0b
ef
f1
ef
ef
ef
f0
f2
f7
f1
08
fe
00
e9
f0
00
e3
fa
ec
e4
e0
ed
fc
0a
07
0e
08
0d
03
f2
fa
e8
e8
f1
0a
03
05
14
fd
02
00
f2
ff
f7
e5
ee
f9
00
f9
04
03
05
15
0f
0b
0f
08
05
fa
f7
f3
04
12
06
08
00
02
fa
ff
f7
03
fa
ff
f5
06
07
0e
0f
13
15
17
06
0c
18
fc
04
fc
01
f0
03
14
e9
ef
f5
03
fa
00
02
fd
f4
0b
0a
0b
09
0b
22
09
f5
04
03
05
08
07
06
fd
06
ff
fc
0b
ed
fb
f8
fe
00
02
fc
06
1a
19
20
0e
09
06
05
0a
0d
ff
0a
f5
f7
0c
01
e9
f9
fc
f0
0a
0b
fc
fa
fd
03
fe
05
05
fa
fb
02
01
ff
f4
eb
fe
fe
e9
f3
08
f7
ed
fb
10
fb
ec
e7
fc
02
04
fe
fd
ff
ff
fc
05
04
06
00
01
02
00
02
fa
fd
06
fc
f9
02
04
fe
ff
fb
05
00
ff
06
02
fe
fc
05
fa
01
02
ff
01
07
05
0b
0f
06
0a
16
1e
f8
0c
19
1c
1d
1e
1e
1a
04
fc
06
00
fd
ff
06
03
0a
19
19
03
07
10
13
08
11
1a
0b
fd
03
05
0b
0a
06
15
1e
22
1b
28
0e
ff
ff
fa
fa
01
f5
21
16
22
10
0a
11
07
10
20
1a
0b
11
02
05
04
1e
24
29
0e
f2
fc
21
06
10
06
01
01
fd
0c
24
24
0b
00
14
07
13
10
01
f9
fc
02
04
02
09
ff
f7
e9
f0
f7
e9
f2
fd
11
fc
01
29
1f
22
fe
eb
e5
ee
f6
05
01
f7
fc
f2
01
00
f7
03
11
0a
f5
f6
05
fb
f1
1d
10
01
0b
ec
ff
1b
00
f3
e3
fb
fb
f1
ed
ec
f5
fa
f3
03
01
0e
06
04
04
04
0d
24
08
15
fd
05
11
f7
ff
1f
0d
f1
e7
fa
f5
ed
ed
e6
fb
0b
ff
0e
09
0e
10
0d
04
01
0b
21
1b
11
0b
18
f7
ed
f5
17
11
fe
fb
0e
fb
f9
ef
f1
ff
09
01
15
0b
00
08
1d
19
13
f0
f6
14
07
fb
f1
ff
e3
eb
0f
13
07
0a
fc
ed
f9
f2
ed
f9
f7
03
0f
02
fa
f8
08
05
10
fb
ff
0c
fb
ec
f0
fa
fd
f3
03
0e
04
fa
ec
e3
fb
fc
00
00
00
fe
14
09
01
f4
fc
fc
16
07
0d
10
0f
ed
f4
fb
e7
f7
09
fa
f8
f1
f6
e8
fb
00
f5
02
12
0d
07
01
00
f6
f0
03
0a
f5
ea
f4
ea
0d
04
eb
ef
ec
0a
f7
f1
06
f6
ee
10
0d
07
11
24
12
fd
fd
f4
f0
ef
f3
fc
f7
e6
e0
ef
18
0e
fc
e1
f3
03
06
0b
0c
02
01
0d
01
17
1c
0f
f8
e7
f0
03
ff
f9
08
0c
09
f5
dd
df
11
01
15
ef
f7
fc
04
0d
04
01
0c
01
07
13
