fe
fd
fd
01
fb
fe
fd
00
00
01
03
02
fb
f7
05
05
00
fd
01
04
ff
01
04
fb
01
03
05
02
fe
05
05
01
f5
f9
e8
e5
e7
e1
ea
d8
d6
d7
00
ec
eb
e4
dd
e1
d2
e2
eb
eb
04
03
ff
fe
fe
04
fc
f0
f0
f6
e4
d7
cd
d9
d0
d7
ce
dd
e5
ec
f6
f1
e6
e3
d4
d4
dc
d9
ef
01
fb
02
fb
03
06
e7
e0
01
f6
e5
d2
d6
dc
da
e7
d4
e4
f5
ff
02
03
00
02
e4
da
d2
e3
f3
f2
fb
00
0a
19
18
04
10
01
f0
f6
f1
e9
f2
00
02
08
05
07
06
08
07
fb
f9
ed
d9
f9
fb
f0
ed
ff
01
10
21
0c
25
0d
05
fd
01
fd
0d
11
0e
09
13
0d
ff
0a
05
f7
f0
f6
ec
e8
e6
eb
f6
04
10
08
2a
0a
0d
09
fb
03
16
19
1d
0c
19
10
0c
1c
1a
1e
11
0b
fc
f4
ee
e4
da
fb
f4
00
20
04
29
15
0a
0d
ff
02
11
0e
0b
0e
11
1a
19
1c
19
16
21
1b
03
03
ed
d2
e6
14
f1
e8
fd
10
1f
1f
0c
0a
0b
07
07
11
07
03
0c
13
1d
10
13
21
1b
17
0c
0a
e7
d2
fb
ff
f1
05
11
19
22
14
09
11
0f
0e
0e
01
fd
00
09
11
26
28
1e
20
15
16
0c
0c
e9
ba
e0
f3
f6
05
06
0f
2d
00
f8
06
08
03
02
fb
f1
f8
f5
fc
21
24
1a
17
1c
19
07
04
d0
b1
e5
e0
06
0c
ff
23
3a
13
fc
04
04
06
07
0b
07
fe
ed
0c
36
25
20
1f
1b
1c
f5
f2
c1
a0
e6
f5
19
fd
0a
24
1b
17
01
0b
13
1e
18
1b
02
fb
f5
29
32
22
1c
1f
1c
0d
fc
e0
ca
bd
fc
10
1a
11
0a
14
16
17
0f
16
1b
21
17
06
fc
ec
08
28
1e
20
1f
20
11
11
f5
de
be
ce
02
19
02
ea
15
0a
27
35
0f
10
12
14
08
f8
ef
f8
0f
26
1a
16
1e
16
13
08
f5
e4
d9
d4
04
18
fb
ef
11
12
25
28
0d
0a
fe
01
f9
f2
f8
ff
14
18
16
14
15
0d
08
f9
f7
fe
f1
db
ef
2b
09
14
11
0d
08
1d
0d
fd
00
f4
eb
e8
e0
05
18
0f
12
14
13
0b
03
fd
f3
00
f7
f3
f2
0d
12
fe
1d
06
0c
20
01
f6
f4
f1
e0
d2
d0
f3
10
10
1a
0d
0c
06
00
f6
f4
f1
f2
e6
e2
05
f8
08
1f
1c
22
1a
10
fa
e3
e3
e2
e0
db
d6
f6
0f
15
0e
04
00
02
01
fe
e8
e0
da
e9
0e
14
0d
ec
f9
22
14
0e
f7
e6
de
d7
d4
d4
cf
ed
03
07
0a
ff
05
09
fe
fb
de
e6
e6
08
1c
10
01
f2
ef
10
11
0b
03
e8
e2
e2
d1
d9
cd
e9
f9
f8
12
08
0b
0b
07
f7
f3
f2
ff
05
09
0b
15
08
08
03
02
0b
01
e7
ed
e7
e5
de
e5
e7
f1
07
0b
0c
0d
19
0c
0b
f7
e6
02
ff
e7
f8
13
00
00
03
ff
02
02
fe
fe
fb
ff
fe
f5
f7
05
08
11
16
19
1a
19
0e
03
f8
07
ff
ef
fd
fd
02
02
0d
15
07
0c
16
03
08
0e
11
08
08
0e
11
15
1f
25
19
10
11
0b
00
07
fd
19
fe
04
fe
15
1e
49
33
2e
27
17
14
28
1e
12
14
13
10
0f
16
06
0b
16
21
20
0d
e3
f4
01
fb
01
03
17
f5
1e
45
36
3c
48
44
3d
33
3f
32
29
1a
13
12
1b
1a
25
1a
02
fd
ee
08
fc
fc
fe
fc
00
03
23
34
59
55
59
53
47
27
27
39
40
3c
3d
40
2b
1f
23
28
18
23
20
00
02
03
00
fe
01
05
f2
f5
0b
18
19
0f
0e
04
10
13
3c
2d
21
18
1a
23
20
23
26
16
01
03
fe
fc
fb
01
fd
04
fe
02
01
fc
04
03
fd
fc
08
13
13
16
02
fe
fc
03
04
ff
fd
04
ff
fd
01
fb
fc
00
01
fe
fa
fc
03
fe
00
f6
f7
fc
ea
fd
03
13
1a
10
f9
f5
f7
f2
f2
fc
fb
03
04
00
ff
00
03
02
00
f1
ed
f7
f7
00
00
06
08
04
fe
03
04
fd
fe
f5
f4
f0
e5
f6
0e
0e
00
00
fb
05
09
0b
01
ee
e6
f5
06
0a
1a
20
27
2c
27
27
2c
20
10
fa
fe
f2
e7
ef
fb
12
f4
02
fb
07
15
19
f0
f7
fc
03
1e
33
3a
3b
35
31
36
3b
39
2a
27
0f
01
f7
ea
d3
f3
07
13
f8
fd
fd
07
1f
fa
e4
ff
0e
ff
0a
15
1f
19
14
14
20
27
28
1c
1c
25
1c
03
e2
ee
11
f5
eb
fb
11
e5
ee
e1
e9
fd
fd
09
04
0a
08
0e
0d
0c
12
15
14
1b
14
16
0b
10
06
f2
07
f1
f1
ef
17
e5
da
09
0c
0c
0d
10
03
0a
fb
03
07
07
12
0f
07
0f
0e
03
07
0e
0f
fd
f1
f6
fc
06
ed
e1
01
0f
08
13
09
02
0b
0b
fb
0c
0e
0b
0a
24
15
11
17
0b
06
13
14
14
fd
1a
19
f0
e2
f6
01
0b
0f
14
03
05
0a
05
fb
02
09
fb
f8
0e
14
10
14
0e
0d
0f
22
1d
09
0c
ea
ed
dd
f7
09
06
02
05
f9
00
fc
09
0b
02
fd
02
e2
e9
fe
0e
15
11
0b
10
19
ff
eb
fa
fc
eb
f8
ed
05
08
fc
f5
ef
f7
f9
02
08
fd
0b
07
e4
e1
f2
00
14
10
06
01
0c
26
12
1e
02
e9
e6
f4
09
f6
e8
e3
e4
f2
07
03
fd
09
14
08
ec
e7
f8
fc
0f
09
09
fd
07
2e
1f
19
ff
09
f1
e9
13
e8
eb
de
f7
fd
09
fa
fc
14
1a
fc
f0
fb
f5
f8
f6
fb
f2
f3
fd
0d
0c
12
0f
14
f3
de
ff
dd
e8
f1
fb
f4
f9
f3
08
12
16
ff
fc
f3
f1
ec
e4
e3
ee
da
e1
f5
fb
16
09
05
05
e3
01
02
ff
f5
f7
01
ff
00
fe
0c
08
02
f2
f2
e5
e8
e4
ea
e7
e7
e9
02
f2
08
06
ef
13
14
23
12
02
f7
fa
fb
08
08
08
04
02
f3
f2
f5
eb
eb
e7
e9
e9
ea
02
05
f3
01
12
fc
0f
0e
29
14
06
fe
f8
f3
08
05
04
fc
e2
e1
e6
f6
ed
e1
f2
ec
ef
f6
04
fb
dc
f7
15
00
11
f3
15
11
10
10
01
f9
ff
00
f1
df
dc
de
f0
f3
f4
fb
05
02
04
19
1c
0c
e9
ee
0a
f1
0c
f1
fb
03
1e
0e
0b
07
03
09
ef
ed
f7
ea
f7
fd
13
12
10
0a
14
2c
26
08
f1
0b
02
02
0d
f8
0a
17
29
25
23
14
0a
12
ff
09
06
fc
09
06
18
24
17
20
30
39
28
fb
e8
f3
eb
f2
0a
26
28
22
1a
32
2e
10
13
09
0f
09
19
13
18
11
16
1e
1c
19
19
2b
19
f5
07
05
fe
ee
00
1c
35
0f
17
27
26
12
10
13
1c
12
1f
1d
1a
17
1e
20
16
1d
17
1e
1e
01
0c
e8
05
01
ff
23
32
f3
f4
04
0e
21
23
1d
25
20
26
1a
25
20
25
22
1a
1a
17
1a
1f
08
11
e1
02
00
03
07
fe
ec
cb
ec
fb
16
15
15
26
2f
2e
2e
2b
26
13
1c
14
06
01
ff
15
26
17
f9
fb
fd
fc
15
e7
e3
dd
fe
02
09
09
03
06
02
07
0c
14
12
0c
ff
00
ea
e5
fe
01
12
fd
02
01
fe
fc
02
fe
08
ff
f4
fb
f5
fa
f9
00
04
fd
f2
e9
f2
f0
e6
d4
e8
e8
ef
f2
16
f1
03
fc
fb
03
02
fd
f1
f7
ed
f1
ec
f2
f9
0b
01
eb
f6
ea
e2
df
e7
e4
f0
f5
f3
ec
fc
01
02
04
ff
00
05
01
02
05
ff
01
01
fd
00
fd
0a
06
01
08
fd
fd
ff
ff
04
fd
04
ff
fd
01
05
02
00
03
ff
00
f3
f2
13
13
02
02
fb
ed
ea
ef
fb
1c
27
13
f1
e7
e4
e0
03
14
fd
ff
fe
fb
05
fc
ff
fc
fb
f7
fd
07
08
13
10
08
14
14
12
21
27
27
14
05
f4
e9
e1
f9
06
11
01
fb
ff
fe
09
13
0f
06
08
02
05
19
17
17
27
31
21
1f
1c
11
0e
0d
12
0e
fb
ed
f5
11
04
02
fb
f8
07
fa
e2
06
11
fa
ff
1a
1d
20
22
11
1e
20
24
20
27
14
03
02
f3
fa
09
0f
15
f3
05
03
07
0f
ed
06
f8
fe
f6
07
01
f9
01
00
01
06
12
0b
0b
08
0c
15
10
ff
0b
18
19
f7
02
14
05
f5
fd
00
fb
f5
fd
03
02
f8
fa
ee
fa
f9
fa
f0
fa
ff
fc
fa
fb
00
1f
27
28
03
fd
2b
04
f6
0b
03
00
fd
09
fd
03
02
fd
f5
fc
f0
f5
f5
f8
ff
02
ff
03
04
11
2f
1a
05
07
0f
08
0c
0d
09
03
0d
00
09
10
0c
0b
0c
03
00
fb
07
03
14
17
01
10
18
1c
32
3d
22
07
ff
14
1d
1d
12
0c
0f
0e
14
10
10
0d
03
05
fe
08
03
fd
08
0e
1a
1b
1e
37
61
4b
09
ff
07
10
20
1c
15
17
14
0c
06
fe
ff
f3
fd
0c
0b
00
f9
f4
f2
fc
0b
0a
24
41
6d
56
12
12
0e
0e
06
0e
00
f9
fa
e8
de
ce
c9
ce
e8
02
f4
ec
e1
e7
ec
e2
e0
db
f7
20
61
55
19
02
00
f2
ed
eb
e4
d0
ce
cc
c9
c7
bc
dd
fa
09
f5
e2
d8
e4
ef
e3
d1
b0
ac
d6
25
45
28
12
fb
f7
e8
c5
c2
b4
c3
c4
cf
c9
e0
0f
25
20
fc
e4
f1
f6
f4
f9
dc
d6
c7
d9
16
45
25
07
ee
f5
da
cc
b5
be
cd
d3
e3
e7
00
26
32
2b
0a
f0
ec
f4
f2
f1
ea
e0
e3
ee
11
3d
22
10
f5
11
f3
dd
d2
e1
e1
e5
f2
f2
0d
34
44
37
0a
01
f0
fe
f3
e5
e5
d9
e3
20
28
36
20
03
f8
0f
27
02
f5
fe
ea
ee
02
12
1a
3b
48
2e
04
fd
fe
fc
fc
f5
fc
fb
0d
37
47
40
23
fd
f9
19
32
21
1c
1b
fe
f9
02
0f
1e
2b
28
1c
06
08
02
06
0d
02
03
0a
19
3c
40
3f
2b
f9
00
03
31
2d
2a
23
14
14
12
11
1b
29
21
16
0b
15
12
0f
0a
0c
06
14
23
45
46
22
1c
09
ee
00
0d
26
1b
18
18
27
27
29
19
18
21
0f
1c
18
21
18
01
04
08
17
2f
38
46
2d
14
fd
ea
0d
1f
18
0d
1c
23
26
20
1c
22
0f
0b
08
10
14
19
15
12
0f
0f
21
2f
27
2f
27
11
12
05
14
30
21
0a
18
16
0d
0f
08
04
03
03
0c
10
07
19
12
16
10
11
18
28
26
2e
1e
01
16
00
19
29
29
1c
10
07
ff
04
fd
00
fb
fe
05
04
01
0d
0f
19
15
05
0d
19
18
23
1b
00
03
fb
2b
0f
17
0f
fb
f5
f9
08
ff
0b
0d
0a
06
07
0d
08
03
12
0d
f8
02
09
0c
18
24
fd
01
fd
0d
fb
e5
df
e7
e3
ed
05
fb
0e
1e
12
1a
0c
06
fa
09
06
f4
f7
f0
f6
26
1a
0e
05
fd
ff
fd
ff
df
ca
e2
dd
eb
fa
01
07
0d
03
ff
06
fb
fb
f2
ee
cf
e3
e8
01
15
04
15
04
fc
fb
fc
f7
db
d8
c9
d7
dc
ec
ed
e7
e0
d9
d3
e5
e8
f2
e8
e1
d2
c6
de
f9
ff
16
00
01
02
03
fb
fb
18
19
22
1c
17
0a
1d
0d
06
fe
1c
3f
29
fa
e8
f4
e6
e0
e8
03
03
03
ff
01
fc
ff
fe
fb
01
01
fc
ff
00
fc
05
fb
fa
f5
f4
f4
03
ff
ff
04
00
03
05
fb
fb
fe
fb
02
03
ff
fe
03
0b
07
f3
f4
06
14
13
13
14
15
05
e6
d3
e8
18
20
1d
24
04
f9
02
04
fb
02
03
fc
fe
ed
03
0c
03
fb
03
f7
ff
01
fb
fe
fb
ef
f2
fc
07
18
12
16
21
04
f8
f0
ff
01
00
00
fa
f4
16
21
14
18
10
fb
01
0f
03
fb
0c
0b
02
0c
17
22
2c
26
23
15
01
f9
0d
02
05
07
f8
12
21
22
0a
1a
10
02
0c
08
06
00
01
05
10
0c
17
1b
11
26
2a
2f
23
08
f7
03
fe
04
06
0d
15
17
16
18
10
1a
16
fc
ed
eb
f4
f9
0c
04
16
17
11
12
24
39
2f
13
18
18
fc
12
e4
e8
0f
20
1b
19
15
0d
05
f0
ec
eb
e7
e2
db
e7
eb
fb
fd
03
17
34
3a
1a
20
10
fd
20
e5
ef
13
2b
13
15
06
07
fa
f4
e3
e0
e5
d4
db
ea
ea
f8
f8
f9
08
21
27
2b
23
0c
18
f1
09
04
0a
0d
f8
ff
f5
f5
ea
f0
ec
e5
e4
e5
e6
f3
ff
fd
05
08
04
03
1f
2b
06
ef
fb
ef
05
f2
ff
f0
ee
f8
f5
ef
da
e1
e4
eb
e2
e8
fc
fb
00
05
0c
0c
04
01
1d
28
0c
ff
f6
fb
f1
f3
fb
e9
e2
f7
ef
ed
e4
e5
f7
09
f3
00
04
02
01
06
00
fd
f6
fa
2f
3e
20
f0
f2
f1
e8
ff
ed
ee
f5
f1
f0
fd
06
04
22
1c
fc
08
05
00
f4
f6
e1
d8
d2
e4
0c
29
0c
f3
00
f0
e7
ed
dc
f2
08
10
0a
15
1e
32
43
2f
04
05
03
f4
f1
e0
dd
d6
d3
d0
d9
f7
e6
dc
00
fb
ee
f2
eb
01
17
18
18
1f
25
30
32
15
f9
fd
ff
01
fd
f4
f1
f9
f1
ff
e8
e0
cb
e7
12
0c
f0
fc
05
0f
09
0f
1f
21
1b
1c
18
fa
fb
03
02
07
04
0a
01
0c
0d
08
fe
dc
c4
e0
15
11
25
04
02
01
00
05
18
19
14
1a
1d
01
0e
0e
09
0a
0c
0b
12
0d
1b
16
f7
d6
e3
dc
f2
13
14
03
f5
f7
fb
05
0a
0c
02
04
08
08
0f
11
fa
03
1d
20
1a
10
10
15
05
c9
c6
df
00
12
09
08
01
06
00
fc
fd
f2
e6
f4
f3
fc
01
00
07
1b
1b
12
0f
16
14
17
e6
b5
c8
dd
e2
16
0a
20
13
0c
0d
f5
f7
ee
e7
fc
04
0b
01
07
1c
13
08
05
02
10
0d
04
db
be
cf
eb
0b
ed
08
31
13
18
07
f3
f6
fc
fd
13
0b
02
10
17
13
0e
08
01
09
15
fd
f6
df
bb
cf
ed
fe
14
03
1e
0f
03
00
f1
00
0c
10
1a
19
0c
1d
1f
15
19
15
01
0f
04
fb
f0
cb
d2
e1
06
07
07
06
14
02
f5
f0
f4
04
fc
02
17
18
19
1f
1e
13
1e
14
11
0b
ff
fd
e8
d3
d3
05
ff
fe
ff
06
07
ff
df
e5
e9
ee
f5
01
0a
0b
18
0f
1c
18
19
1a
21
10
00
f8
f6
d9
e5
1b
f9
00
03
17
36
26
11
02
f2
f6
08
0b
10
08
14
12
15
10
10
12
0d
08
ed
d4
e6
e9
f3
29
02
05
00
0e
36
2d
0b
12
0f
03
09
05
08
05
0d
11
07
07
ff
fc
f2
ef
e2
f1
f3
f0
f4
eb
fe
fc
ff
14
0b
0d
ed
ea
f1
e2
e9
ef
eb
e7
ee
e0
ea
e0
e4
e4
dc
da
ef
0d
11
08
e9
02
fe
ff
fd
01
f3
d6
cc
b4
b0
ac
a1
b1
ba
b5
ab
90
b5
bd
ba
bf
cc
e6
ed
ed
e6
ed
03
fb
fc
05
fb
ff
01
fb
05
ec
e8
e4
de
db
ee
e5
dc
c1
cf
d4
e0
d5
d9
f7
f0
eb
fc
05
05
03
03
fe
01
04
04
03
01
04
00
03
fb
fe
fb
0c
07
02
ff
fd
00
fc
fe
fe
03
03
02
05
02
fd
ff
00
03
02
ff
04
08
1b
1b
16
1d
11
1d
2a
1d
fb
10
39
2d
0f
17
21
1a
13
0f
01
02
00
04
00
ff
00
12
12
09
12
30
3c
40
46
4f
40
15
1d
0e
04
0e
06
06
18
22
1a
21
26
11
ff
01
02
ff
f2
13
00
17
27
34
3f
4c
4e
50
3d
39
34
23
1f
16
11
07
f3
ea
f2
fc
0f
f6
ff
00
00
f9
f7
f9
17
2b
2e
20
23
2a
26
1d
19
16
0e
07
0c
0e
02
f5
f3
e0
e9
e8
db
ea
f7
13
fb
fe
07
06
27
03
fc
02
0a
06
14
08
08
0d
0b
0c
14
11
0f
04
f4
ec
eb
eb
e8
e8
f3
0d
fd
12
0c
10
15
ff
f9
f3
f1
f5
f5
f2
f7
06
06
0f
10
0b
0a
00
f7
fc
fc
e0
d9
d2
de
04
01
1e
0c
0e
29
0b
fa
ed
e1
e7
ec
f7
ee
f7
0a
0a
02
01
01
02
f6
fb
fc
db
d8
c6
dd
03
18
06
07
0d
26
fe
f2
e6
e2
ea
f5
e9
ea
ec
0e
13
0c
06
f7
ff
01
fd
fc
e7
b8
9c
c6
e3
01
00
09
1d
11
00
ec
e4
e9
ec
ee
df
dc
ee
08
12
12
00
ff
01
0f
f9
f5
f6
c9
9e
ba
ec
fb
fd
01
17
e4
fc
f7
e2
e8
e4
d9
d8
e0
ea
f2
ee
fe
09
08
07
0b
ff
fa
fc
cf
ac
c3
ef
ff
10
01
12
e4
f0
ec
de
ea
e8
e3
ea
e9
ee
da
d0
df
f4
f7
14
13
13
0d
06
f3
bc
c3
ed
fe
f3
11
f4
e8
da
e1
d8
ec
fa
f6
00
08
f7
e1
cb
db
e6
f7
08
09
02
11
12
2e
01
eb
1a
05
ef
ff
fd
dd
e1
ed
f1
00
03
16
13
0f
09
ef
d3
da
ea
fa
ff
f5
0a
14
32
45
25
24
21
f4
e9
e6
fc
e5
03
12
1b
1a
13
10
19
0e
0c
ef
e2
e3
f7
0b
00
08
10
19
24
33
35
44
1d
f4
f3
f2
fd
0c
30
27
2c
1d
11
17
13
03
fd
f5
f2
f8
02
0d
14
1a
19
1a
25
37
47
36
1b
05
f9
12
17
1c
2e
25
1c
15
1a
1a
1f
07
00
f6
fd
05
1d
23
21
0e
17
1f
1f
31
61
3b
18
04
f8
1d
1b
17
17
17
23
15
0f
22
1a
fc
f3
f3
05
1a
2e
21
18
0a
0b
17
15
14
5a
31
24
e7
03
06
18
1b
10
12
22
18
10
1c
14
10
02
00
11
2b
31
23
11
fa
03
11
10
16
44
12
11
ed
fd
f4
10
22
16
15
22
14
1a
1a
1e
22
19
15
24
20
26
17
0a
fc
05
0a
fd
06
30
1b
0c
ff
03
04
27
2f
1d
0f
1c
10
1c
1e
1f
19
18
1b
1b
14
09
11
0f
03
fc
f7
f2
02
16
0d
fa
f5
0c
37
2b
0f
06
fe
02
02
07
0a
0f
15
11
11
05
09
0a
10
12
f4
ee
f5
02
07
0a
1c
00
ee
01
34
26
00
01
fd
fb
0d
0a
08
06
03
06
f9
fe
03
03
01
fd
f5
f9
ff
f3
fc
05
ea
04
05
fe
1f
22
fb
fa
f9
09
00
04
03
02
f2
f7
f6
f3
e9
f0
fd
fd
f8
02
1a
0d
08
08
e7
01
ff
02
07
10
03
e9
ed
f4
f6
f6
f0
e8
fd
ec
f0
e6
e6
f4
ee
e6
f9
11
16
16
24
22
14
01
00
00
16
ed
fc
fc
f1
db
d9
d9
cf
d7
e0
d8
d0
be
c8
cf
e5
00
00
fb
f6
ea
e8
17
13
fb
ff
fc
03
0f
1e
15
13
fe
ff
e4
f2
f8
13
08
fa
ec
fd
fd
03
16
0f
00
01
0d
10
fc
ff
fc
01
fc
05
fd
fd
f6
0f
17
15
03
dd
00
0f
00
fb
f1
ee
e5
fc
0e
0a
f4
f6
e5
03
fb
fd
fb
00
00
04
ff
00
02
ff
05
05
fc
fe
fb
f6
ff
07
01
fe
ff
02
fb
01
05
01
ff
fc
00
02
03
01
03
04
02
f6
f3
e7
e8
eb
e8
eb
e0
dc
e1
0f
fb
f2
e8
ec
e4
e3
e9
e9
f5
fc
02
03
ff
fe
fe
01
e9
ef
f8
e8
dc
d3
e1
d9
ee
f3
09
0c
13
fc
e7
df
e2
e5
ef
f0
f5
0c
15
fd
00
01
01
0d
e3
de
16
05
fb
e7
ef
f0
f3
fa
f6
f1
f3
07
fb
f0
e4
dd
da
e4
f9
fd
f9
e6
fc
fe
09
18
0c
1d
27
1e
12
22
1d
11
0f
24
22
19
0b
15
ff
fd
00
07
f3
ef
e7
ea
f1
0d
09
fe
fd
0d
1b
2a
2a
23
10
0d
0d
ff
12
1f
15
17
14
13
03
03
0a
05
01
ff
f4
f9
fd
e7
ee
05
fb
ef
2d
1b
0f
13
0b
06
12
0b
15
15
0c
07
16
0e
11
0a
0f
0e
0c
fc
ff
f3
fa
f2
f9
fb
fd
f9
34
3b
1f
0f
06
01
0b
0f
09
0f
17
10
1d
14
11
17
10
0d
12
06
01
f0
df
01
f7
ef
ef
f7
3b
4d
24
19
15
01
0c
14
10
17
20
19
17
17
14
1b
18
07
07
08
e9
df
e1
0a
0f
f2
f0
e8
2a
2c
17
16
11
04
0c
0b
05
05
0f
0c
1b
18
1a
18
13
16
09
04
ea
c4
d0
f0
e1
f7
f4
e7
18
15
03
04
03
f9
03
04
fe
02
01
01
00
fd
0e
1e
24
10
10
10
f1
b4
ab
c9
ff
fc
fa
fe
20
0a
08
f7
04
06
0c
0c
03
03
f7
02
03
01
0d
13
1b
25
19
2e
06
d8
bd
ea
06
fe
ff
01
14
0d
0f
f6
fd
05
0c
f7
ef
ec
fc
05
0c
1b
1a
19
1d
24
42
4c
4c
3a
05
fa
1a
14
fb
f5
05
fc
fb
fa
f6
02
01
ed
e8
ee
ff
12
24
28
1f
15
0f
19
18
1d
17
22
23
1e
19
eb
02
f2
13
03
00
fe
f5
f6
f2
ea
ee
fb
0d
1c
24
28
23
17
11
05
f9
ea
e2
e0
27
2a
0f
f3
07
f9
0c
06
04
fa
f9
04
f6
ed
f9
0a
23
32
27
1f
1b
05
03
f3
ed
f5
d9
d3
00
25
12
12
0f
18
ec
fb
f2
f9
15
19
1c
0c
00
17
26
26
18
20
0a
03
f8
ee
ec
ef
e8
e0
fc
23
15
fb
0b
24
e3
ed
d7
de
06
1b
16
0d
05
1f
27
1f
09
04
f7
f3
f5
ef
ed
f7
f2
f2
f1
1a
fa
fc
15
1d
f7
e1
da
d7
ee
00
05
00
02
0b
09
ff
fc
fd
fd
07
04
fc
f9
f5
fb
e7
f5
16
18
0c
ec
e6
f4
df
f0
ee
f4
f1
fe
f8
ef
f4
f5
f6
fb
0b
10
09
08
03
02
fa
fe
e9
fc
20
10
02
ec
e6
ec
ec
e7
03
07
fd
f4
ff
ef
f4
f8
04
09
0d
0e
0e
08
0a
03
f1
fe
f8
f6
12
fb
0b
10
0a
f8
ef
06
0c
0c
03
03
08
01
03
0f
0b
18
0f
10
11
13
03
fb
ea
e7
f2
f2
e5
f3
0e
0c
fd
fb
fd
14
1b
0e
08
07
10
11
13
0f
18
15
12
08
0d
04
06
02
ed
eb
fc
f5
ea
fa
03
03
fb
e4
f3
f5
09
12
11
04
01
12
18
23
16
14
13
10
16
0d
fe
06
fa
f2
f8
fa
ea
04
fd
ff
08
e0
e9
ea
ff
04
0d
fe
0b
14
0c
0a
0b
0c
07
fa
fd
05
fc
fd
f4
01
e8
0a
ee
02
03
fc
0b
e3
e2
ec
f8
02
0d
fa
00
01
02
fe
0b
fc
f5
f4
fd
f8
13
f4
e2
e1
e0
ee
ea
fd
04
03
00
0f
1a
1c
27
28
28
18
0d
f4
f6
fa
0a
ea
f7
03
0d
f8
04
03
fe
1b
1c
f8
05
03
04
ff
02
03
f4
ef
fd
0f
10
0a
ed
ef
f7
f5
21
19
02
f9
08
08
0d
22
23
0e
03
fc
fe
02
02
ff
02
00
fb
00
03
04
fe
fc
02
ff
05
0c
f7
00
ff
fb
05
03
fc
05
fc
05
03
fd
01
04
fb
fc
00
00
0e
0a
1c
1f
23
1d
21
23
2d
2f
17
33
14
27
2b
28
2a
20
17
16
02
fc
03
00
fb
fb
fd
0c
10
0c
19
2d
2b
24
3c
44
42
3d
3e
41
2b
12
18
22
23
34
36
1d
fb
eb
05
05
01
04
0d
13
01
f6
15
1e
29
25
14
05
0b
16
06
fe
f9
f1
f7
fd
e9
ff
05
0d
07
e7
fe
02
fc
fb
05
f4
f0
fc
0b
0d
11
06
02
e8
ed
f8
f6
ee
ee
e5
ea
fc
03
03
fe
fc
da
da
0a
1d
fe
ff
16
ed
f4
f0
fc
00
fd
f3
fb
f5
f7
fa
f3
ed
db
e1
ef
02
01
02
f4
fc
e9
c6
fe
14
fe
e7
ee
f5
ee
dc
f0
04
f4
fa
fb
02
03
01
06
01
f7
fc
00
fa
00
fc
ee
ed
d1
cf
e4
09
06
e8
ee
f0
d9
e0
f3
04
f2
fe
fe
06
0b
0d
11
15
06
f9
fc
fc
01
fc
f5
e0
bb
b8
ed
04
16
0c
dd
ee
ec
ec
f8
06
fe
f4
fa
fb
fe
0a
12
17
09
f9
ec
f2
ef
f8
e9
d0
b2
bc
f6
01
07
fa
e3
0a
e9
fa
ff
0e
f8
f3
f9
03
07
0e
21
1a
fa
e9
e6
e9
e2
e9
e0
cd
b4
ad
d8
e3
06
0a
e9
e2
f3
04
06
00
02
fc
05
0d
fe
17
30
1b
06
f7
f9
f4
ec
f6
e1
ca
a0
9f
ad
f0
07
1a
e8
d5
f5
15
0e
0c
0b
09
fe
03
fd
21
2f
20
04
fb
05
04
15
1f
07
f4
c7
a1
b8
02
ff
11
14
ff
11
23
17
0f
04
09
f0
e5
e6
14
2a
26
0a
11
0a
05
0f
1c
1c
1e
00
c2
b2
00
0b
10
13
14
0d
06
05
fd
fe
fc
ec
d3
e5
11
23
2a
17
07
fb
fc
f7
0d
09
13
0d
dc
c6
f8
eb
02
09
04
e2
f0
f8
f8
f1
eb
e8
e8
f0
1d
27
29
0d
f7
f0
f2
ef
fc
fa
fb
09
09
ee
11
ea
03
f1
e5
dc
df
e3
fc
e9
e5
f3
02
0d
25
2b
13
02
f1
f5
df
ed
e6
d1
db
f3
12
da
f1
11
02
ff
d8
df
d0
da
ed
e8
fd
11
21
0d
1a
27
05
fd
e8
f3
e5
e6
e1
d2
d5
ee
08
ef
ed
03
fa
fa
df
cf
b9
b2
cc
f6
13
33
34
2b
25
21
02
eb
e6
ee
f5
f3
e1
e4
df
f6
16
fa
06
09
fa
f6
db
bd
9c
9b
c6
fc
24
32
2d
2c
23
16
00
ee
fd
05
fc
f9
ed
f2
f0
f5
26
09
03
0d
13
f3
d6
b9
99
ab
d4
f7
28
34
2b
2b
1c
0b
fe
02
f8
fd
07
02
f8
fe
01
07
14
fb
08
fc
f7
e8
bc
bb
a2
c2
e3
f2
10
25
25
24
14
15
05
08
fd
10
0f
0e
00
f3
fb
0e
0d
0b
07
15
fd
e7
df
d9
e6
e2
f0
f9
06
11
09
11
12
16
0a
04
0d
0f
07
0c
04
f7
fa
07
09
f6
ff
0f
fe
ea
eb
f9
22
fd
ee
f4
fd
00
ef
fc
01
12
11
0f
06
10
01
0f
0e
00
f3
fa
00
ee
ff
02
fb
ed
da
dc
10
00
eb
f3
f7
ea
e9
0b
0b
06
14
16
15
08
17
0d
03
0c
0a
fb
ed
06
fb
01
01
f0
ce
ce
f6
e3
de
e3
db
e3
e3
ee
e0
ed
fa
fd
00
12
16
11
0e
fc
1a
18
14
00
00
00
fd
08
07
ee
e2
e4
eb
eb
de
c9
d7
db
da
f1
f3
f8
06
08
07
17
15
00
fb
f6
fd
f4
ff
fb
fd
03
04
09
f5
f9
06
0f
19
06
07
1f
03
1a
11
07
0f
1b
1a
13
09
14
16
03
fa
00
03
fd
01
02
fc
f7
f0
e9
f8
07
0f
14
10
15
05
2e
16
13
05
15
14
0a
12
11
fb
fe
03
fe
ff
fb
fd
ff
fe
01
fc
ff
fc
01
05
05
02
07
06
fd
04
03
03
00
04
ff
01
fc
03
04
05
fe
01
04
fc
fb
fb
fd
00
f4
f4
f9
f4
f5
01
f7
f9
f7
fa
04
09
f6
f2
f9
f4
01
fa
02
03
ff
03
02
00
fb
01
01
fc
fa
ef
f3
09
ff
f1
ea
e1
dc
e1
ea
e7
e4
ea
e2
e7
e7
f7
fb
06
03
fc
ff
fd
04
00
f2
e1
e4
ee
ef
f8
fc
f7
ee
f7
fc
f9
f6
fa
ee
ee
eb
e4
e6
e6
f8
08
0d
fd
ff
f6
f0
fe
ee
e7
00
05
f6
05
f8
00
fb
00
01
07
03
12
14
08
fb
00
0c
0e
f1
f6
fa
fc
fe
03
f4
fa
f8
01
04
0b
16
13
1a
14
0a
14
12
05
08
18
25
18
12
0c
10
0a
ec
e3
ee
ef
00
0b
17
0d
19
1f
20
1a
1e
11
26
19
1a
0a
07
fb
03
0e
16
1c
13
17
16
f9
e6
cb
e9
e8
00
06
28
25
09
19
27
21
18
22
26
2e
21
15
08
fd
0b
17
22
20
13
08
0a
f9
ee
d8
ee
f1
0a
26
1d
12
09
1f
12
19
18
1d
22
2b
2a
1b
21
15
1f
1e
1e
16
13
0b
08
14
f3
d0
dc
eb
14
27
25
13
06
19
fe
f9
09
12
12
23
27
20
0b
0c
20
1b
1c
0d
06
fe
05
08
fd
e6
d7
07
14
23
2f
0c
0b
11
f4
f2
ff
05
02
11
0b
fe
de
e4
00
19
0f
fe
0b
12
06
fd
0e
f6
fc
0a
17
1f
21
fc
fa
ef
ed
e7
f3
fc
f8
f7
e2
b7
96
b8
e5
03
0b
fa
f8
03
f7
f1
03
fb
03
ed
06
17
25
ec
ed
e3
ef
ec
f5
f4
00
f2
cd
aa
a7
c7
e3
03
03
eb
ed
e7
f2
ed
04
ed
00
f6
02
0c
1a
f3
e7
e0
e5
f1
f0
fa
02
da
cc
c4
d9
d5
e5
f6
f3
dc
d7
e9
f1
fe
06
f4
0d
08
15
f0
1a
f3
eb
fa
f7
0e
fc
fd
f0
d4
ca
cf
e1
e7
e5
e5
e2
dc
f1
f7
09
0e
16
0d
2f
19
18
eb
0f
eb
fc
0d
fb
0f
f8
fc
ef
dd
d3
d2
d3
df
df
ea
e9
eb
00
12
02
0a
16
15
3d
17
13
eb
ec
ef
05
0b
ff
fa
f7
f4
fa
f1
e2
d7
d7
ed
e7
ef
f0
ff
07
18
05
fc
fc
23
3d
1d
fc
f1
f6
ea
0f
05
ef
e4
ea
f3
03
fa
de
d1
da
ea
e4
f8
02
fd
0c
01
00
f5
ff
39
25
10
0a
f5
ef
d6
fc
f5
e3
ed
eb
ed
f9
e7
d5
d8
de
e6
ec
06
05
09
00
ff
fd
f2
01
24
2a
18
00
03
0e
db
f9
ea
f4
fa
f9
f1
f4
fc
f3
f2
fd
f1
f2
09
fe
fa
07
00
05
ec
f1
1d
32
11
00
fb
13
ef
07
0b
fe
ef
fc
ff
04
16
1d
13
14
0f
0a
ff
f8
fd
f7
02
04
fd
ee
03
21
14
fd
f7
03
f8
ff
07
ff
fc
04
08
1b
26
23
25
1f
1f
16
0d
01
0a
08
10
09
12
ff
14
18
07
fe
e9
fb
ea
ee
10
10
10
20
23
1e
21
1c
27
1d
1c
1d
1a
0f
15
09
06
17
06
fe
ff
00
04
00
ff
e2
d5
03
16
22
26
19
1c
22
24
25
17
22
14
0f
1e
0b
0a
ff
01
0c
f6
f5
06
fd
fb
ff
03
ec
f2
11
20
16
13
19
10
08
03
10
11
0f
11
0a
18
0e
f6
ed
ec
f9
ed
20
fb
fd
01
fd
03
e0
13
1b
04
fc
14
14
0b
f1
f9
02
fd
f7
06
0d
05
08
fd
dc
df
e2
ed
09
e9
02
05
03
02
01
fa
f5
e0
f3
0a
23
1a
12
13
14
19
19
29
20
1e
1b
2c
fe
f9
04
05
02
0c
00
fc
00
05
05
fd
0a
10
19
1a
1c
15
20
14
1b
44
1a
25
38
55
1a
04
02
04
01
0e
fd
04
04
fd
fd
fb
fc
00
01
fc
fc
fe
02
05
fd
ff
0f
17
05
05
01
ff
01
ff
00
ff
02
03
fe
ff
04
05
fe
02
03
fe
09
04
ff
fd
04
07
01
03
22
28
08
f6
f3
09
2f
2a
1e
23
0a
05
04
02
03
ff
fb
02
fd
03
0c
02
01
01
fe
e5
ea
ff
fd
fd
02
fe
ff
04
08
22
19
15
17
f4
e7
ec
fb
01
fb
fc
f7
09
0a
f0
e7
e6
d7
c1
c4
da
de
c7
e0
e3
e2
fb
14
08
10
2d
2c
13
f5
fc
19
03
05
06
f0
02
ec
e3
d7
d0
c0
c7
d5
eb
e6
e8
f4
fa
02
03
09
f9
f6
05
10
13
1d
26
0f
11
fb
03
f9
e6
dc
cf
c9
d4
d3
d8
eb
03
0d
02
fa
f8
f6
08
08
0c
11
fe
ff
03
04
2a
3d
1d
fc
e7
fa
dc
d5
ce
c6
cf
d6
df
e3
fe
07
0c
14
11
0c
10
0d
19
20
06
02
0e
1e
3d
2c
16
fc
e9
eb
cf
c1
cf
c8
d1
e4
ea
f1
fe
00
0c
1d
21
21
11
0d
0d
13
0f
fc
0e
19
3b
1c
17
00
e0
ef
d6
ca
da
e0
df
f7
f9
fa
ff
ff
0c
13
0e
0d
f9
f5
f3
fe
12
04
00
24
43
23
12
f8
eb
e5
d3
d0
d6
e9
f1
fc
fc
07
0c
04
07
f8
f0
e0
e0
d9
dd
f2
f7
02
0f
47
57
22
f0
fb
f3
d6
c7
cc
d4
e3
f9
09
14
18
17
20
03
ea
d9
ca
d7
dd
d8
de
ee
fd
24
51
61
36
f2
f8
e3
d3
c1
c9
e5
f9
05
14
13
1a
17
18
1b
04
ee
e9
f8
ee
e7
e1
e1
ec
1b
45
52
4d
ec
fc
ec
d9
c6
ce
ee
01
fa
02
10
1d
1d
24
44
28
14
02
07
fd
f7
f0
e0
d3
ed
d2
ea
0f
dd
fc
f6
db
cb
da
f1
f2
ff
09
0c
1b
25
34
45
37
20
16
07
02
01
f2
e4
d6
c9
b0
c7
d7
f9
0a
fb
ea
d4
d2
e0
e8
f7
04
12
16
23
32
37
1d
1a
1a
08
ee
e5
ec
e2
d5
b7
b1
c7
d7
ef
02
0f
e5
d7
d5
cd
d0
e1
f6
03
16
24
2d
1f
01
08
11
05
f1
ef
e2
e2
de
c7
c0
c5
e2
eb
ea
13
f7
df
da
c0
c2
d3
eb
e7
08
1c
26
01
f6
04
08
04
ff
f3
e9
e0
df
d1
bc
ba
ce
f1
fb
09
ef
e7
e3
db
dd
d5
d9
e2
fc
0f
06
ed
ee
07
11
0d
0b
00
f5
ef
de
c7
bd
a9
da
e4
f3
f7
fc
f0
00
ff
04
e9
e0
e1
ef
fc
e6
eb
f9
0a
10
13
0e
0e
03
ea
d5
c5
be
b3
dd
e7
ff
ea
02
e4
05
1d
14
fa
f7
e8
e9
e6
e3
ec
f7
02
12
17
13
0b
02
eb
de
d3
cd
c8
e2
f1
04
fc
04
f2
08
21
12
00
fe
f4
ef
e5
e9
f4
f4
fe
08
0e
09
00
f2
e1
e8
e5
d3
e4
ee
ff
ed
f6
fe
fd
09
0b
04
0c
06
0d
01
f3
f8
00
fc
00
fe
0b
fc
f1
f2
eb
ec
ec
ec
ee
e5
fd
f1
f8
f3
f2
07
ed
f2
00
0d
0d
0e
13
0c
12
08
fe
04
0a
00
f6
f4
e5
ec
00
f9
f6
fa
fd
01
02
04
19
fb
fa
f8
fd
19
0c
18
11
0e
07
09
fd
11
0e
02
04
06
fa
f3
0c
12
fe
e8
fb
fe
fe
14
21
01
fb
02
11
17
0f
12
0a
06
fb
f5
04
0f
0b
1c
10
15
05
0f
22
fe
e8
e6
fc
fb
01
16
0e
fa
05
0f
0a
0a
13
14
0b
06
01
03
04
18
1f
20
23
27
1d
38
2f
25
f6
e7
fd
fb
fc
fe
0e
30
1a
16
10
0b
14
14
1a
22
14
20
0a
07
0c
00
fc
17
0d
03
0a
08
03
00
00
01
05
02
00
fc
fd
f6
f0
e2
f7
01
12
15
ea
0d
09
f4
e0
f5
ef
e5
ec
e9
fe
fd
05
fd
fd
01
05
03
fd
fc
05
ff
fc
00
04
00
05
04
fe
f8
fb
00
fd
04
05
fb
fe
00
05
fc
fc
fe
fc
05
fb
05
04
07
05
10
17
11
16
16
24
28
27
01
05
04
12
1f
1f
20
1b
12
08
fe
02
fc
03
00
00
03
16
13
0c
0f
26
22
11
1a
0d
05
f6
f8
e7
e6
f2
01
00
0e
27
2a
13
fd
ec
fe
04
fd
ff
f1
15
09
eb
f8
fa
01
03
06
fc
e3
f9
ec
e6
ef
fb
fd
f2
f2
0b
24
32
22
ef
08
05
02
f0
ee
e4
ef
d9
e2
f2
ee
02
03
02
02
f7
f8
00
01
0a
05
02
09
02
11
1a
0f
14
15
1c
fc
03
f2
de
de
bd
d6
f5
fc
fe
0c
13
16
17
1b
18
1d
25
1c
1e
19
12
0a
03
01
28
fe
05
00
eb
0e
c7
db
d2
dc
f7
fd
f9
01
0f
18
14
13
12
12
0e
0a
0e
0d
07
11
0f
06
1d
e6
f9
fc
df
05
d8
e2
e6
f0
f8
03
0d
11
10
0f
17
0c
0e
0d
04
09
fe
f5
08
ff
18
27
16
ee
fa
13
f7
fc
e6
de
eb
f5
01
0d
19
15
0d
0d
12
0b
04
03
02
fe
06
01
0a
ef
11
3e
15
01
07
f9
f5
ed
e4
d5
f6
05
0e
10
12
0d
07
ff
0b
ee
d9
ea
fd
02
06
05
f7
e9
0b
36
ed
de
ea
f5
ed
ea
db
f1
04
19
1b
1d
1d
08
fc
fe
ee
d9
c2
d8
f6
06
fa
fc
ef
e7
12
24
c6
c9
e6
ea
f0
d3
dc
e3
16
25
31
26
1d
03
e8
e9
e6
d2
c5
d1
ed
f6
02
04
fb
f8
0c
30
da
e4
e6
ef
e5
d6
ef
f4
19
34
23
1b
0f
f8
f3
ef
f5
d9
d8
d8
f4
03
19
15
1c
16
1e
44
ec
cb
da
03
ff
dc
f6
ff
16
2b
2b
1b
11
02
fb
00
ef
e8
ec
e3
f9
12
1b
13
13
1c
16
17
f5
d7
f6
09
f1
d7
f5
04
0f
21
2f
20
19
15
19
ff
fc
f3
ed
e9
f9
05
04
0c
02
f7
ed
05
06
d6
f2
f7
f0
ce
fc
ff
0d
01
2a
2e
2e
18
12
02
07
f6
ee
ee
fa
03
fb
f9
f2
e0
e6
ef
14
e2
f1
eb
ee
e1
f6
ed
00
0b
1c
2f
2d
22
23
15
03
ff
f8
fd
fe
f9
ff
fe
ef
f2
ee
e6
05
cf
f1
fb
e0
f4
df
e2
fd
08
15
28
31
3a
2c
1e
01
f7
f6
08
0c
fe
05
05
06
fc
f4
f8
03
c9
0e
f7
e5
ee
cc
ec
f6
11
1e
1d
26
31
2a
20
f6
ef
ff
07
05
05
05
07
04
0c
10
09
f3
da
dd
02
f2
14
e3
f2
00
08
0b
11
12
21
1f
18
f2
ec
00
02
06
0b
09
15
1a
23
0e
fa
d5
df
ec
05
12
22
f6
01
0b
fe
08
00
02
0b
04
0d
09
fa
14
06
06
0e
10
16
1f
1f
12
f9
e9
f0
f0
fa
f9
07
f5
fb
fd
fe
0a
01
10
06
17
13
18
16
12
08
08
0a
0d
18
1b
2f
28
fb
eb
17
03
f6
ef
11
ff
f1
e8
f4
fc
00
08
17
1e
24
33
21
13
10
0e
0d
09
17
2d
36
32
09
fe
f3
05
02
fd
05
fa
df
de
e0
ef
0e
07
10
22
26
2d
2f
22
21
0f
13
1e
25
35
35
47
13
1d
e2
04
fe
01
fc
df
c3
cb
cb
d6
f4
fd
fc
03
0c
0e
11
14
16
01
1d
25
24
10
1f
42
20
16
dd
01
00
ff
11
08
e0
df
e6
d0
bb
bc
ca
cb
c0
d7
df
f7
f8
fa
f8
03
15
0d
13
21
f1
fb
e7
fb
04
00
05
02
12
16
17
f5
f7
e4
f4
fd
16
09
f5
e3
df
ec
e7
e7
04
fa
e7
06
f5
fb
02
03
fb
02
02
00
f8
f5
00
03
f7
fc
fb
08
05
dc
f2
ee
e1
bf
e5
f1
fb
ea
de
db
01
fb
03
fc
fc
05
ff
ff
fc
05
fc
04
fe
fd
fb
05
ff
00
09
0b
01
05
ff
ff
fb
01
fd
03
00
fb
fc
04
fe
04
04
01
f1
f4
ea
e1
e1
de
e1
df
df
e0
fd
e7
f4
e1
dd
dd
d4
de
e9
ec
fb
02
04
fc
fb
02
00
04
fc
f1
e8
db
cd
cb
c3
c4
cb
df
e7
d7
d9
d9
ca
b5
bd
b8
c7
cf
e0
f8
04
01
fe
04
f9
ef
ef
e7
d5
d3
c2
c9
c2
c5
c8
c7
d5
d2
d8
e3
d0
d2
dc
d0
cd
c4
cb
05
fb
ff
ff
fe
01
0c
ed
d9
d8
e2
d8
df
cb
db
d5
d8
dc
d5
c9
d1
d2
d5
dd
ea
ea
f0
fa
fb
ed
e4
fd
fb
ec
04
f3
05
f4
f0
fc
fa
f8
04
fd
fa
eb
e8
dc
dc
dd
dc
e7
f1
f8
ef
e1
e8
e1
e1
00
ea
13
10
0f
19
03
fc
ff
f0
f6
00
fa
f7
ff
f8
fd
07
0a
0b
fe
11
0e
f6
e5
e3
f0
e6
05
ea
1c
2e
fc
f6
00
f5
ec
fe
02
03
00
0f
03
12
21
23
26
1e
1e
21
21
17
05
f3
fa
f6
fb
12
27
1e
fa
06
ff
fc
fe
fc
fd
06
09
06
18
17
1b
1e
2d
1f
1d
1a
0b
34
36
11
eb
ec
0e
20
0e
12
f4
04
fc
f6
f1
ff
07
15
20
1b
13
19
21
2d
2f
1e
10
02
03
19
42
10
00
14
11
16
26
00
fc
08
01
00
08
10
13
23
26
1e
12
20
25
1c
23
17
0e
0d
06
fa
16
24
17
12
16
1a
27
f5
f6
03
10
17
20
0f
1c
21
1c
08
f8
0e
13
0f
10
0c
0a
10
0b
e9
ea
07
10
15
09
23
38
0c
0d
0d
1f
21
21
0e
0b
17
07
fc
ed
fa
f0
f4
04
13
15
13
07
e3
d0
fd
21
18
fd
1a
33
07
27
12
20
2e
1a
09
14
15
02
e9
ef
ef
e9
fa
0b
10
16
17
12
e7
f3
07
1c
f1
0c
08
2f
0e
33
28
2a
38
1e
13
12
0e
fc
e8
e6
e2
f7
13
19
1a
17
05
15
06
06
09
25
13
0b
f9
fd
04
26
16
1d
25
1b
13
11
fd
eb
d9
d5
f4
10
32
24
0c
06
05
0a
03
ff
ff
18
fb
11
ed
eb
ea
0c
07
0e
19
22
0d
05
f4
ef
e1
f0
18
20
36
10
00
fd
0e
ff
f1
eb
01
05
14
fb
f3
f9
de
0e
0f
09
07
13
14
06
04
ff
00
16
28
1f
1c
07
ed
f5
05
fd
ec
06
1c
06
10
1d
f2
05
d9
0b
07
04
05
02
01
01
09
fa
0d
13
11
04
f9
ef
f0
f1
ed
ee
ed
f9
07
05
ff
00
1b
0a
e8
ff
fd
f8
f6
f9
e6
e8
f3
f7
02
02
f8
ec
e4
e5
e9
eb
dd
dc
e5
01
0a
0c
f1
05
0f
00
e1
f6
ff
ee
de
e5
dd
eb
ee
fd
fd
ed
ea
e8
eb
d9
e9
e0
e7
e6
f0
15
0f
02
0b
ec
f9
e3
de
f8
0a
f7
e4
e7
e8
f0
ec
ec
e8
e5
e8
ec
e5
d5
db
e4
f6
f5
00
24
0a
0c
07
ed
ea
e4
d8
eb
00
09
0c
0b
fa
fc
f9
00
f7
fb
f5
f8
ef
e6
de
dd
f9
07
0c
2f
10
09
01
fb
02
da
c1
e4
01
00
0f
06
07
0a
07
06
ff
0b
06
0b
ff
e4
ee
ee
f9
05
02
0e
09
e5
fd
fc
ff
f1
e8
ee
0c
ff
fb
fa
fc
fd
01
03
01
06
0e
06
0a
02
fd
00
ff
03
f1
f2
ea
fe
ff
01
03
eb
1b
11
08
ee
ec
ea
ee
f1
fe
f2
fa
04
0d
07
03
0a
fa
01
0f
ff
03
f9
fd
02
fe
00
01
fd
05
fb
f4
fd
04
0d
09
0a
0a
0c
13
16
1c
11
06
11
0e
01
10
20
0a
01
08
fb
04
00
05
01
01
17
1b
12
08
17
15
1f
0c
0b
32
1e
17
2a
37
28
23
0e
1c
1d
22
03
00
fd
fe
fc
03
fc
02
02
04
03
01
fc
02
ff
fe
fd
f7
fd
fb
fe
03
01
05
03
fb
01
fd
fd
02
fc
03
fb
02
ff
03
00
07
18
24
1f
24
06
0f
09
08
e6
0f
12
0d
f2
f9
05
00
10
13
03
01
03
03
04
fd
ff
15
11
08
f8
03
fb
db
df
e1
d2
b3
a2
b3
e8
f9
08
fc
e7
e7
e4
e7
e6
ef
fe
00
00
ff
e9
17
15
e4
d5
e0
fa
ee
f0
eb
ef
f7
02
02
fc
00
07
01
0f
14
0c
05
01
0a
00
05
02
00
f0
07
d3
c5
cf
ee
f1
fa
02
05
0b
01
0c
1c
10
14
11
00
f5
fe
f9
04
1e
1f
1a
fe
02
fd
eb
e7
cc
e3
f5
02
04
06
03
0d
09
0a
09
fd
09
17
03
03
05
fa
f5
e4
fa
2d
1d
ee
05
f8
16
ec
e8
05
05
0c
12
05
0c
10
0f
0c
08
0f
0a
10
0b
18
0e
08
04
00
13
34
12
01
09
fe
07
f5
dd
00
12
18
1c
1e
1d
10
06
fe
fa
08
0b
14
16
10
0e
0e
13
24
2a
2e
04
01
19
14
05
0b
e0
0b
19
21
22
1e
15
0f
10
04
00
06
16
10
1b
1e
20
1e
20
31
50
40
2d
24
16
1a
09
11
01
0e
1b
16
15
10
15
15
0d
0d
02
ec
f7
0d
0b
20
22
25
1f
2f
63
58
39
05
10
14
27
08
2a
14
08
16
19
23
1c
19
1a
1c
1d
fc
f8
ff
12
11
21
23
23
38
5a
4a
45
08
19
24
35
09
17
09
15
26
22
22
19
18
18
36
21
00
fe
fe
02
fe
00
0c
15
2d
5e
54
47
0a
02
21
25
1a
11
12
17
1a
13
0c
0b
11
09
11
01
f9
f9
fb
ff
03
07
04
07
0e
0a
19
30
fc
ef
12
29
11
09
06
07
0e
04
06
09
08
00
fc
f0
f3
f3
e9
fa
06
0a
fc
06
fe
fb
f6
f1
e3
15
09
30
eb
ef
fb
f4
f9
f7
fb
08
fb
f4
f4
ee
ef
e8
f5
08
03
09
08
00
0b
09
de
cd
ed
0d
0e
14
e8
f1
ee
ea
f0
f9
fc
ff
ee
f3
f0
eb
ef
e5
fc
19
08
06
ff
ff
0c
11
e1
b5
e1
08
06
ed
03
00
f8
fd
f9
02
f4
f3
e8
f9
ef
ea
fd
f9
08
04
03
05
f5
fa
0a
f5
b9
b7
ef
fe
00
d2
0d
08
13
15
fd
00
01
f5
f8
fe
f1
f2
f7
0b
13
08
fe
07
f7
f4
07
16
bf
dd
0c
17
f5
f5
f2
04
12
18
07
03
0f
09
0a
01
fb
f4
00
fd
03
fb
02
fb
ea
f9
fb
f7
bc
ea
da
ef
1e
10
f4
fe
11
13
06
10
14
15
08
0f
07
01
04
f0
fc
fb
f9
fc
ea
fe
00
02
cd
c7
e5
ff
0f
05
e9
ee
0d
07
fd
08
07
09
08
19
13
05
00
ee
f1
eb
f4
ef
f8
05
03
f4
ed
d2
f9
eb
f7
df
df
f4
f4
00
08
05
07
02
0a
15
0f
0f
0a
ff
f6
e8
f1
f5
fc
01
f3
e0
fa
0a
03
ed
f7
db
ee
f6
e8
fc
ff
ff
f9
fb
0a
13
1d
14
0c
0a
03
f9
f9
ee
ef
fc
05
f6
fe
0b
05
04
fb
e1
05
09
ed
f5
fe
01
02
0d
09
10
13
1e
17
16
05
f0
f1
f1
e6
e7
02
f8
fa
ef
fb
fb
05
fa
1b
f8
ff
fa
06
14
0c
11
1b
1f
2b
22
27
21
06
04
09
f0
db
d9
de
ec
d1
f2
fd
05
fe
df
1b
0b
f3
01
ff
fb
0f
1e
26
21
1d
16
30
27
22
16
1e
ef
f7
09
07
1e
ee
f2
05
05
05
02
f3
db
da
d2
e5
f2
ea
f0
0e
fd
0b
01
0d
03
06
0f
18
f5
f7
08
04
12
0f
ff
02
fb
ff
fe
fd
0f
1e
1b
06
1d
11
1d
18
0a
35
11
10
24
4a
16
18
fe
08
13
23
04
00
00
fe
01
fc
03
04
fd
ff
ff
02
ff
00
fd
01
06
0b
0f
10
04
03
ff
01
ff
01
ff
fd
05
fc
fc
05
00
fb
03
fb
04
03
0a
00
03
03
07
06
ff
12
13
18
19
13
04
09
05
01
04
fd
fd
fb
02
fd
05
fd
01
ee
ff
fe
05
06
03
10
16
19
1d
1d
17
2e
31
24
18
10
04
f1
ee
f1
08
0c
fe
fb
03
03
12
0a
10
02
07
fc
01
17
19
12
35
25
17
1e
16
07
05
06
0a
00
ef
e5
ec
0f
ff
00
fc
01
0f
0d
f3
07
0b
fb
01
02
17
1c
1d
1d
17
1d
18
0d
18
0f
02
09
fa
00
fc
ff
0d
ee
04
fc
0f
1b
f5
06
02
fb
f1
f8
08
06
04
11
11
13
17
15
19
0c
1a
1c
1b
05
0b
11
17
fb
fd
12
02
f4
fd
f3
02
fa
fa
01
06
0d
12
17
14
0f
06
06
16
10
13
15
1b
13
27
1e
1f
09
fe
29
f7
ef
ef
ef
f3
f8
00
02
0a
13
1a
14
1f
0a
0e
0d
14
16
1d
18
20
0d
0f
21
0f
08
05
05
f6
fa
e4
e0
f0
f6
f9
00
10
14
1d
13
1c
07
0b
0e
10
0f
11
0e
11
0a
0e
25
1b
10
f9
02
13
fe
f6
e9
fb
02
07
08
12
1c
11
14
13
0c
fc
fb
f4
f1
f1
f7
f9
03
1e
3a
19
1b
00
06
0c
08
fe
00
05
fd
08
01
03
07
03
0a
10
02
f6
ee
d6
d1
d2
d3
d0
dc
09
40
35
16
fb
03
0b
fb
03
ff
fe
f2
ef
f2
ee
ed
e3
f9
fd
ef
e1
d7
e1
d7
bd
b9
a6
ae
d1
25
22
18
fb
f4
f8
f0
fb
f6
ff
f5
f8
fa
f2
ea
eb
fc
08
f0
d3
e5
f2
ea
e4
c2
9c
85
81
e0
0f
14
15
ef
f8
f9
e5
ee
f8
07
05
01
f9
e7
eb
0f
12
f1
e4
f4
01
fc
fc
e1
c7
b4
a9
d9
04
04
18
f1
fe
ef
e6
e3
fc
03
14
0c
fe
df
e9
05
11
f6
ef
ef
f6
ec
f4
f3
e2
ec
f9
e6
1c
06
12
09
07
f4
e5
f4
05
fe
08
0a
f2
e9
f3
04
08
ed
f9
e7
ec
e7
eb
f1
db
f3
1b
05
0e
0e
e7
10
19
19
f8
fd
f6
e1
e6
ef
fc
f8
f0
13
14
e8
ee
e7
eb
f8
f0
fc
fc
06
31
1c
1f
16
01
0c
05
29
0a
fe
f0
d0
cf
d3
eb
dd
e3
01
04
f2
ee
f3
fa
01
fe
08
10
0f
29
17
19
1d
00
0d
f9
1c
1a
01
f0
e2
cc
bf
c4
c5
e4
f7
02
f9
03
0b
06
0e
13
13
1e
18
28
24
0c
20
0f
0c
09
0d
20
02
fc
f7
f3
f0
e5
e8
f7
0e
03
0e
10
13
1a
1d
1e
21
23
29
3c
3e
25
16
02
0b
0f
28
17
12
1a
12
16
18
0f
18
12
14
13
0d
21
1c
2f
2a
2d
2c
3e
3a
2b
32
21
0c
14
fd
13
35
34
26
23
22
19
1a
1d
1d
17
15
16
11
14
14
26
2b
2f
36
33
3c
36
32
1a
fd
14
07
12
2d
30
2f
20
1c
1f
17
0e
0d
06
00
07
0e
11
1d
26
2d
30
1b
28
36
2d
2e
24
fd
02
00
2a
21
26
28
22
14
12
21
1c
1a
12
03
02
18
16
1d
12
15
22
17
25
2c
2b
1e
2b
fb
00
02
13
1c
0f
05
06
0b
0b
16
06
0a
0c
0b
1a
14
09
26
20
14
14
18
1d
16
26
22
15
01
03
fd
0c
0b
fb
f2
03
09
13
16
01
16
25
1d
0e
11
1f
2a
23
1c
f4
0a
1c
20
2a
09
17
ff
03
ff
fc
f6
e8
dc
d9
e3
e3
f5
ec
fa
01
03
fd
12
1e
10
07
16
0c
0c
09
1c
11
07
fe
04
fc
02
00
02
0e
06
08
02
02
f9
0d
12
12
11
f4
ee
f1
11
f8
07
f0
e8
ee
00
fe
02
fd
03
fe
fc
fd
fd
fb
ff
fd
fb
00
04
05
ff
fb
fc
00
fe
04
fd
02
02
05
03
fe
fd
ff
fb
01
02
05
04
03
02
ff
fa
ee
f1
f6
00
ef
e3
e1
df
ec
e2
f7
fb
fc
f7
f5
f9
00
fa
05
02
05
fb
03
00
fc
f5
f4
f9
f3
ed
02
23
14
04
f0
d0
cd
c7
ca
d9
e3
fa
04
07
01
0d
04
fc
04
05
03
fb
f8
f7
f8
17
10
19
30
34
3b
36
2e
1a
10
00
eb
e7
f2
f4
11
04
f8
f2
ff
ff
fc
fe
fb
04
09
24
13
0d
20
1c
24
2a
2a
2c
23
0c
ff
f4
e6
e6
fc
fd
f7
fc
fd
e7
fe
01
1b
fd
01
02
fc
1a
15
20
19
1d
26
23
20
2b
21
1b
0e
02
00
f4
f0
f8
f3
e0
df
dc
ef
0c
15
f8
ff
17
16
2b
17
12
1c
15
28
2f
31
36
31
3f
3e
39
31
26
1e
01
01
f5
de
c6
cb
e3
e8
10
04
1b
13
25
1a
12
21
1c
28
29
30
31
40
3f
4c
48
37
20
14
08
0a
f3
e5
c1
b4
c4
e7
0d
f7
13
0a
15
16
17
1b
1c
2d
24
27
2c
34
31
42
36
24
0d
10
07
06
fe
06
db
c0
cb
e9
ff
11
10
12
27
2e
23
2d
26
1f
20
18
07
0a
15
2c
29
0d
07
08
05
0b
0b
13
ed
c3
d9
d7
f8
16
0a
11
32
16
23
25
12
00
ee
e4
e4
dd
f3
ff
f7
02
07
07
06
13
0d
0b
ee
bd
f5
fa
e8
17
14
1f
23
0c
02
00
eb
df
d7
da
e4
db
e6
e8
ef
fb
16
1a
14
16
ff
fc
e2
c4
fd
15
d3
02
12
15
04
fa
e2
d9
d1
dd
df
e2
d6
c6
dc
f6
fd
0d
17
19
0b
12
f7
e6
d7
c1
f1
ed
dd
f3
00
14
09
e9
ca
d2
d9
dd
e1
e9
cc
cf
fb
08
f4
09
13
0f
03
fb
f5
df
d5
cf
e8
f6
fa
f2
06
14
08
e5
c5
d6
e3
e3
e8
eb
de
e7
01
fa
fc
05
08
0a
fe
fa
01
f4
f5
f4
f4
1d
ef
f5
0a
f9
fc
f4
da
e6
e4
de
e4
f2
ed
fb
04
f0
f9
f6
11
0b
0b
14
08
06
06
0d
fa
0c
1c
0c
0c
25
08
0e
e8
db
de
db
eb
fb
01
0f
03
e3
e4
f5
0e
12
14
05
0d
14
13
16
0f
1e
1e
03
0a
0e
1c
12
f6
e5
da
e6
ea
ea
fd
08
ed
d7
e8
f9
11
0d
0e
06
06
0d
0b
0c
22
29
1f
11
0d
11
23
06
00
f7
e3
ea
ec
fe
fe
e9
dc
e3
fd
0d
0f
10
19
11
10
14
09
07
12
15
0c
f0
10
f8
1a
0b
0b
01
f9
fe
fb
05
fb
ed
e7
f3
fd
fd
09
09
0f
09
05
06
0b
0a
1d
18
00
03
00
f4
17
0a
13
0b
07
11
0b
f9
ea
e9
ff
fe
f5
fa
fb
fb
08
0b
02
05
0c
13
26
05
05
ee
07
0b
01
f7
fd
04
04
06
f9
fd
fa
0a
09
fa
00
09
f9
fe
06
f2
ee
fc
0f
17
14
03
ff
f2
02
0c
02
f6
f6
04
13
07
05
0f
13
11
07
0e
08
0b
fe
f9
f7
01
ed
10
19
1e
fe
d7
fd
fd
03
0e
25
25
19
1d
24
0c
10
10
15
09
0e
05
fa
f8
fb
03
fe
00
fd
11
22
39
05
e3
fd
ff
01
13
2d
50
36
2c
38
25
0e
16
1b
12
18
12
16
13
14
fe
fb
07
0e
20
15
24
ef
0d
04
fc
fe
0d
f9
1f
3c
35
4c
55
40
3c
40
48
3d
27
26
3b
30
2a
36
1f
17
09
0f
23
19
1b
fe
02
03
fc
06
01
06
15
47
56
60
5d
45
39
51
68
4f
57
51
5e
52
42
30
20
11
10
0a
00
fe
01
00
02
00
13
12
1d
19
20
20
31
1e
20
2f
3c
22
29
39
3b
29
11
01
08
0c
fd
00
ff
01
05
fc
ff
03
02
ff
03
04
00
fc
01
00
07
fb
fc
f9
01
03
00
00
fc
00
01
02
fe
05
fe
04
03
03
fb
00
05
03
f9
fb
01
0f
09
f7
00
fd
f6
dd
e9
ea
11
14
1c
29
05
f7
02
fe
fe
00
04
04
06
f3
f0
0c
10
fc
23
1f
19
16
09
03
0f
05
fb
15
1f
16
1c
26
23
11
05
f0
03
02
00
fc
f6
f5
03
ff
14
07
f9
0d
03
09
f5
f4
f8
f3
ee
ff
0e
0b
06
22
33
2b
18
f6
07
04
ff
f8
ee
e7
f7
f1
03
02
01
02
02
02
03
f8
f6
f1
04
0f
0f
0c
1a
1c
1a
28
2c
1a
fb
0e
fc
fc
f7
f0
fc
ed
f4
0d
19
22
1b
12
11
f8
01
ff
09
13
09
06
10
0f
07
22
29
3a
21
1b
02
f0
07
f0
03
07
01
1a
1f
25
15
0f
11
f5
01
01
fc
01
f1
fd
fa
f7
ff
19
35
4d
30
20
01
ec
15
00
f9
05
09
19
24
1c
15
19
02
00
f3
f9
f7
ee
f0
ef
fa
02
03
05
32
46
35
11
e9
0a
12
fc
00
18
15
17
22
23
1f
1e
08
f2
e3
d9
d4
e0
db
ea
e7
f5
ee
ff
22
4c
27
ed
fa
12
02
ea
f4
10
0c
0d
18
1b
1a
2b
14
e4
c5
cf
d7
d6
d7
e2
e3
f1
f0
fc
04
2a
19
03
05
0e
ef
db
fb
0a
0e
17
21
24
28
1f
0b
d4
bc
dc
e2
db
de
e5
e5
ec
e6
eb
00
08
06
ed
18
f7
f7
de
04
1a
0f
1f
20
2c
27
15
0c
d0
ce
ed
02
f6
f4
f8
e4
f1
f9
02
f7
f8
f2
ed
12
0c
09
f4
f8
02
05
16
1f
21
15
17
01
e0
d2
f2
19
05
f8
fb
06
0c
0d
0d
0b
04
f3
db
f3
08
03
e9
f0
00
01
02
0f
13
1c
1d
01
ee
ee
0e
1c
08
03
0f
23
17
19
19
16
0c
fb
fc
0c
f4
fd
fd
fd
0a
07
08
06
0d
15
13
05
01
08
17
1f
1a
15
1a
1b
07
1b
0e
fc
03
f2
06
16
f1
fe
0d
f0
f7
0b
01
10
0f
08
10
10
1c
1d
20
18
1b
15
12
05
08
fd
00
ef
12
0e
19
0f
f0
ea
06
e0
f0
07
0e
0f
07
00
0a
24
25
19
26
23
1e
0f
0c
0c
0f
00
f5
00
2c
12
0b
ff
ed
09
f1
e8
f5
04
0e
0c
0d
07
1c
2c
2f
22
1e
1d
11
19
05
0e
09
fd
fc
15
48
0c
eb
f1
ec
ff
f7
f2
ff
05
11
02
fe
02
1a
36
33
23
10
0e
08
0f
02
0a
00
f4
0c
25
33
0d
0a
f6
e7
0e
fb
f6
fb
07
06
f9
f7
03
13
1d
17
18
0c
01
fe
f9
04
08
01
02
10
11
1d
13
05
05
f1
15
06
f3
f5
e8
f4
f3
f9
fc
fd
09
09
07
0a
ff
03
01
04
0f
0b
0e
14
16
09
05
f6
f3
fa
fe
fa
f4
ec
d9
ee
fc
06
fd
0a
0e
11
0d
0b
04
13
16
12
13
11
16
26
20
f6
f6
f9
ef
ee
09
05
0b
e6
df
ea
f4
f8
01
02
0f
05
fe
07
09
07
0e
16
13
1d
13
14
15
f5
e8
fb
01
04
f1
fa
01
ed
de
dc
f4
f6
ea
eb
f6
f7
07
05
0e
02
0f
22
20
28
1d
12
ff
0c
ed
fe
fe
01
f5
e7
da
e3
e1
e1
e7
f6
e8
f6
fa
f9
0a
0e
15
08
1a
1a
17
15
11
07
07
1f
0b
fd
02
00
f4
15
0d
f7
dc
d3
cc
dd
f5
fd
f9
0a
1a
21
15
0f
06
e4
ef
f8
f1
f7
e0
0a
13
00
fe
02
fc
fd
0a
fc
f7
e5
df
e0
dd
d3
e1
ea
d7
e2
d3
de
da
cd
d8
ea
eb
ed
ec
0c
05
03
02
fe
fe
01
0f
1c
f3
f2
ed
ee
f3
ed
ec
1b
e9
f6
0e
1b
fd
f2
ff
fc
0e
1e
ff
fd
02
00
04
05
01
fe
ff
fe
ff
04
05
ff
00
02
07
0a
02
fd
04
00
00
02
01
02
ff
03
fb
04
fe
02
01
04
02
fc
10
0b
1a
22
1b
1c
1c
29
37
32
09
2e
24
2a
2b
1d
25
1d
0e
11
fe
fe
ff
02
05
02
fd
15
14
11
1f
28
29
0e
2a
24
25
12
12
1c
2c
2f
2c
35
2f
23
1e
23
f8
fa
04
ff
05
03
05
1c
25
0a
11
17
1d
0c
1c
1e
23
23
21
26
21
1f
30
35
2c
23
20
1a
15
04
09
fe
01
05
03
10
05
f3
ee
fd
05
05
16
0e
09
08
06
18
0d
19
15
07
fc
11
15
0f
fb
f9
0a
00
fb
04
f9
f1
f0
f4
fe
fc
fa
01
10
06
03
02
00
03
fc
05
0a
0c
02
03
05
ff
ff
09
14
11
ff
08
07
f2
f4
f5
f3
fa
ff
03
07
0a
09
10
13
0f
16
0e
14
02
09
08
fa
f1
09
14
01
fa
0b
10
f8
ed
d7
e9
f5
fb
01
0f
13
12
12
0b
1f
16
13
15
08
01
01
fa
e1
e2
f9
ff
e9
fa
09
10
f6
e6
d4
e8
f4
fa
0c
0b
05
0d
0f
09
11
0d
04
f2
e9
e1
ef
e8
dd
d3
e9
f3
e9
ee
0c
1f
ff
f7
f8
f0
f9
08
15
0f
09
10
16
0e
1a
fa
d8
d7
d1
dd
e5
df
da
e1
07
17
05
19
13
18
17
07
03
f6
ff
0e
19
17
18
1b
0c
25
18
f3
e3
dc
e6
e2
f0
ed
e3
f7
13
2b
23
05
16
1e
31
00
0b
f8
0c
1c
19
15
1b
1e
14
2e
15
f7
f9
07
07
f4
04
02
f9
0a
10
fc
ee
fb
00
13
28
14
18
12
2b
28
1c
15
1e
12
ff
fb
f7
01
0e
1c
17
fd
06
fa
02
0f
ef
d1
e4
f0
01
06
21
19
28
27
2c
29
16
0e
08
f4
e5
de
ed
ff
0a
02
08
07
0e
14
13
1c
03
d1
c9
e9
16
06
2a
0c
11
16
19
16
16
0d
01
e3
e0
d6
eb
fb
f8
ef
fa
07
1d
22
21
24
0f
d5
d3
e6
14
05
01
ed
ef
00
08
0e
07
03
01
f9
ee
e8
ed
f9
e3
f0
05
13
27
25
16
1f
0c
df
bc
e9
10
0e
0e
ee
f6
fd
fe
06
15
08
09
fb
ea
d9
e6
ef
da
df
04
1f
15
05
0a
05
f9
d0
b3
ed
fd
0f
ec
06
f0
f2
fa
fd
04
06
07
01
d9
d5
de
e6
e1
fa
0a
12
0a
04
09
06
f5
cc
c6
0b
0d
07
02
0c
f3
e9
f6
fa
01
ff
09
fb
d2
d6
e2
f1
f7
08
08
10
08
06
04
f6
ea
e5
f1
ea
ff
1e
20
1a
fc
ed
fc
f4
09
fd
03
fd
f9
f4
02
00
07
08
04
11
10
04
ff
fd
07
f1
d0
ef
00
14
01
02
f8
fd
ed
f6
01
06
fe
f5
02
13
13
10
0e
11
0e
05
fb
f4
fc
fd
05
05
e3
0a
04
f7
e6
f8
fe
ec
ef
f6
fe
f3
fb
ff
14
1b
1e
22
1c
06
09
fa
0c
04
01
f1
fc
fd
07
09
08
fb
e6
f9
f1
df
d1
dd
e0
f0
f5
f8
11
1d
20
25
20
05
fa
ff
05
fe
03
fd
ed
fc
fa
04
fe
fc
f7
0e
f2
ee
ed
e4
dc
e3
f6
f9
05
10
12
0e
00
fc
ec
f2
f4
ef
f8
f6
f9
eb
fa
fe
03
fe
ff
20
0f
18
0f
08
05
00
0e
0a
08
0d
0b
08
f8
05
f2
ed
fa
fa
03
fb
fd
e0
04
00
ff
01
ec
1b
18
1c
22
30
3a
34
1f
21
26
13
0c
0b
10
16
0d
26
1f
28
2b
30
38
04
fc
04
ff
fd
ff
02
01
03
0b
22
2c
2f
2b
35
2c
3b
55
54
51
49
4d
58
3b
32
34
11
12
03
fc
00
04
00
00
fd
07
08
28
1c
2e
23
29
25
20
3b
40
2a
35
4a
30
29
05
12
1e
22
01
ff
03
ff
