d2
1f
cc
ec
2b
e8
08
39
fa
2c
18
0f
e7
f2
c4
0f
11
0b
2e
ec
b3
29
3f
ff
dd
af
d4
b2
3e
a0
c1
1b
f7
16
2a
d4
44
05
02
2f
a9
fa
fd
c5
12
09
1c
a7
2b
17
12
28
14
11
ba
d7
f2
c9
c0
ec
12
3b
c9
09
23
b0
c8
34
e3
14
c6
fc
1b
11
10
c3
a3
9d
3d
b3
ec
fd
2b
18
cd
bf
b4
07
3d
fc
12
27
36
03
04
28
b9
e3
e7
1e
2e
f6
31
f6
21
17
c4
d5
f6
99
2d
1a
20
a0
02
da
c8
10
f6
37
a1
ad
30
0e
d9
20
09
20
ec
37
02
e0
bb
2a
01
8e
12
17
e1
36
ef
e6
0c
c5
2a
dc
81
af
ed
1c
ff
ac
3a
11
18
de
cd
15
fd
02
