fd
d1
08
00
07
f2
ed
18
05
fe
ed
0f
ce
ec
1c
08
0b
0b
ab
ea
07
15
e4
d3
cf
d8
ff
14
24
08
13
dd
11
e1
cd
ee
ff
03
03
f2
fd
fe
0d
d5
19
d8
0c
da
cc
14
00
c8
16
17
d0
11
dd
04
f3
10
ce
0e
11
0d
08
15
13
12
e0
ee
f6
f2
0b
e8
fb
bf
f6
08
e4
fb
e6
24
17
05
0d
e4
1b
e3
08
f3
fe
0d
fa
13
b0
0c
02
f7
f1
f5
0e
dd
0c
07
e9
1a
05
0a
cb
07
0e
e4
07
ed
1b
00
15
ff
0b
e5
05
f0
14
c5
cc
0f
ba
c1
cc
0b
e0
1e
51
11
d5
c6
0b
11
10
13
0e
f5
03
37
d9
ca
0e
1c
10
f9
f7
03
13
38
c0
da
26
05
cf
c0
17
0e
0d
16
ec
0d
dd
14
09
14
04
0a
ed
1f
1f
08
04
f4
f0
1e
e6
16
17
06
14
eb
f2
db
ec
f8
0f
dd
f4
15
fe
fe
13
d9
dc
dc
f4
cf
fe
1b
b2
de
d0
00
e0
06
f9
f5
fa
ef
23
05
d9
19
08
df
19
0b
06
ef
df
08
f6
f3
f9
f4
21
ed
12
08
e6
f8
e9
11
da
1a
25
13
18
da
1d
0d
13
04
dc
ee
ee
00
de
0d
21
14
ee
0e
10
0e
f8
07
ed
e9
eb
0e
12
00
f1
01
1e
c4
0d
ea
d2
15
0e
0e
05
19
ed
b4
ec
0d
10
18
04
f5
15
13
07
15
04
07
b9
15
ff
f8
0c
19
22
04
20
0f
c5
19
0d
17
c6
20
e4
ff
11
06
01
ef
18
10
03
f5
f9
26
13
fd
01
ed
b5
14
25
f1
04
1d
ee
f2
ee
e8
19
0f
f4
f3
0b
e5
07
81
0b
a0
fa
24
fa
0d
21
ee
e9
f3
fa
f7
1b
1e
d8
00
0e
1e
09
f1
0d
e4
f8
fb
ce
06
27
06
18
23
0e
fe
ed
09
08
17
fe
e5
db
dd
cb
08
ee
e5
fc
0f
0d
0c
09
0f
0b
d2
03
04
09
de
00
0e
1b
df
f0
f6
0a
19
22
00
d5
09
d9
e7
04
1f
0e
f4
15
15
0b
07
0e
ef
fc
ee
fd
e4
0b
f7
ac
f7
18
0a
08
1c
16
00
b0
fd
16
0b
00
ea
eb
15
1f
f6
29
06
de
05
00
f1
14
07
24
fe
0b
fe
17
0f
d3
f8
c4
00
02
ea
0b
da
00
24
05
ce
0f
00
ce
31
01
f8
fa
fc
10
0b
e7
f1
14
05
0b
0b
03
15
28
dc
07
18
eb
0d
f8
fd
d4
d5
06
01
fb
08
f1
f9
be
0d
28
07
12
fb
15
c3
51
21
05
bc
da
ee
ea
c6
10
f6
e5
1b
08
f6
f2
0f
08
d9
15
e0
2b
cc
18
0e
ec
01
09
06
c9
04
0f
dd
14
f2
0f
cc
fa
1c
05
e2
a1
18
2f
0c
22
9c
05
d7
10
f3
22
f0
09
ee
12
0d
a7
d9
ba
00
ff
db
21
bb
14
02
f7
c7
05
0c
ec
15
fd
0b
dd
0b
17
fc
fb
0d
c8
16
de
13
ff
ff
0f
16
0f
ba
db
0d
fc
f1
05
19
18
0e
d7
10
fd
c0
0a
d3
09
ff
0a
d5
f8
f1
0f
f9
fd
14
e3
ee
fb
0d
ea
0d
15
da
ff
05
1d
1c
09
f6
c0
ba
fc
14
e5
fd
04
19
11
f0
bd
0b
dd
fa
28
f8
fc
f4
fd
28
bc
30
16
0a
fc
06
07
16
01
f6
06
d2
ff
0a
11
0c
fa
ab
da
e9
e7
f7
c4
07
19
fc
e9
0c
09
bb
f8
fe
ed
ff
f1
fb
34
e5
ed
04
fe
0f
f9
09
fa
08
2c
00
0c
15
f7
23
02
0a
46
e6
0a
cd
fa
ee
02
15
0c
05
0b
20
c3
f7
1f
39
34
05
06
09
fc
ee
c0
f9
ea
f7
0a
0f
e6
f5
fa
16
fd
17
13
fa
ea
ee
d3
0c
fe
fb
0d
05
00
e4
25
11
2d
0f
17
c5
09
14
14
d7
cf
11
0c
0c
06
14
b7
13
d6
1c
0c
17
d7
19
12
11
06
b1
e7
28
1a
f4
0e
14
f3
a8
04
0e
ce
d5
03
da
0b
16
f8
05
0b
19
c8
03
f8
0b
b8
c2
03
d1
05
cc
f1
12
da
0b
0c
04
19
e4
0f
f7
15
ea
e9
0c
f8
0b
fb
d1
02
14
08
03
ed
10
2e
08
0b
12
de
e3
13
f0
f3
f2
d7
07
17
cb
1c
e3
08
ea
f3
fb
0b
01
0b
f6
f9
06
fd
17
06
07
d2
1f
f5
d1
10
0c
14
03
00
bb
fb
dd
ef
02
0c
d4
f3
04
9a
d3
fb
ba
d1
e9
09
19
0e
00
0a
0a
28
f3
0d
ee
0f
fb
05
05
b3
24
d6
15
ee
fd
f7
f8
f7
0d
15
be
ec
0e
e8
1c
07
12
ed
ff
0e
e0
00
ef
08
0a
0c
22
2e
ea
dc
22
de
37
2c
0a
ef
d8
1a
f3
12
0c
0b
ef
0d
e6
0b
14
e4
f6
df
08
f5
02
20
f6
01
ff
b7
ed
31
10
e3
14
07
12
ca
da
26
dc
09
0a
1e
0f
f4
ef
25
0b
0e
ee
e7
eb
19
d6
0c
ec
e3
e5
00
e2
05
ea
05
18
19
ef
fe
06
f4
0f
eb
0e
06
f8
e1
12
03
b6
e6
14
18
0f
f2
15
ba
0b
0b
1a
07
07
0f
10
05
04
06
c9
00
fd
df
e4
11
02
0e
d8
09
e6
1b
fc
c0
fd
ef
e1
0b
10
10
f7
f4
0d
f5
09
02
0e
ff
1b
00
e3
fb
10
04
f9
f6
d9
e2
f6
10
0a
f7
11
0b
09
01
05
f6
0a
d9
df
f3
11
13
03
09
0b
d1
0b
0f
cc
1c
fc
cc
08
00
c3
0b
10
ff
20
b2
f5
05
e8
ce
13
f8
d4
e0
08
12
11
07
14
e2
05
ed
10
13
ec
00
0c
fd
fe
05
f3
d1
0f
b8
f7
20
fa
04
0e
0f
12
0d
11
06
fd
a2
01
fe
07
18
f0
bc
e7
0e
17
e9
b9
a7
0e
ff
00
18
18
03
13
2c
a0
e1
02
e2
f7
eb
f1
c7
df
0e
07
16
11
08
cd
e1
f3
0e
0b
07
dc
ff
11
16
f0
fb
06
ed
03
20
06
0c
8e
ea
22
08
fc
fa
f1
09
fc
ef
1a
f6
f2
b4
c6
19
eb
fd
0c
e9
ff
aa
10
d5
d6
15
0a
f8
0f
f4
16
13
13
ff
01
f1
2c
0a
32
08
d7
d3
e0
b2
07
11
01
0c
f3
01
1a
1a
f4
f9
d9
12
fb
15
db
ec
ef
0f
0d
d9
06
e7
11
0b
03
13
0f
00
00
fa
05
32
0e
