17
10
9f
10
e9
0c
ed
ca
0d
0c
b9
22
0f
db
03
ec
e6
e7
fc
19
e4
02
18
b2
fa
f4
df
d9
eb
dc
10
0b
19
f8
15
e6
d6
e1
eb
12
19
07
0e
00
07
15
9c
fb
0f
0d
e6
f7
f8
db
0f
f4
e4
de
ff
04
04
cf
e6
0d
02
ec
00
e5
1c
fc
f8
2a
f6
0e
fb
f1
0e
f6
26
08
87
d2
07
1e
0a
dc
1c
f3
c3
0a
09
1b
1c
e1
ff
de
20
fa
14
e2
13
f4
03
10
df
da
e8
dd
18
e8
15
11
03
a2
f7
fd
26
15
19
f0
eb
f3
16
0d
17
b6
d6
1d
12
e2
a5
09
15
0c
e9
10
1d
24
16
d1
ec
13
06
d6
05
0d
2f
0e
5a
ff
0c
0c
f7
fa
19
f2
df
da
e4
fa
2b
dc
dc
01
c8
0f
12
0e
02
d7
f2
1b
17
fe
03
e5
1b
f7
da
11
fe
49
e2
07
0d
1a
0f
ef
e2
14
0a
3f
0b
f4
f4
d5
f1
00
e5
25
db
cd
13
e4
f5
ff
07
21
0f
22
06
19
d8
0a
da
c9
17
d0
f2
dc
f1
ca
1a
f8
2f
fa
ee
1a
e5
f5
99
f0
fc
10
3d
1c
bb
f6
e1
13
04
fa
cf
de
eb
e1
eb
1c
f8
0e
14
e2
1f
02
0b
fb
17
09
31
d1
09
fc
e9
17
13
0d
ec
28
be
02
fd
14
0b
0e
f2
fd
e0
25
0d
36
ff
0a
0e
2e
eb
2b
f1
f6
d7
1d
14
be
eb
1a
e2
0c
cf
e4
01
0b
a0
ba
29
05
ff
18
fb
13
01
ca
e7
23
fe
0b
1b
03
e6
f1
96
be
fd
e5
f7
d1
0b
fc
13
12
ef
10
0e
f3
1c
ff
12
07
db
31
11
1b
f8
1e
0b
15
ef
04
0f
03
fe
01
20
04
f3
c5
0e
ee
00
00
e0
f3
18
09
20
19
10
f4
06
20
b6
bb
02
fa
f0
eb
f0
2f
20
17
13
f7
f3
11
ee
1f
e7
fe
22
fc
0f
f9
f0
f0
07
f7
1f
1a
e4
fb
ee
01
b5
1b
c0
ca
ea
dd
1a
d5
f5
f5
f7
da
e4
23
04
06
b7
19
ec
1f
e9
c8
fa
fe
33
fd
28
1e
1a
2e
06
f3
0a
ce
07
0e
ff
ea
0d
01
fb
04
0a
0a
16
12
d1
d0
f5
f6
08
ff
12
0b
08
db
25
ee
07
07
fc
f9
ee
af
0b
a7
f3
06
05
20
f5
e1
14
ea
01
13
ef
04
1b
07
16
e6
e2
cc
d7
f2
0a
03
f0
c9
09
1b
e4
13
f0
12
fb
2b
13
ec
d8
25
14
09
e6
13
19
04
e8
0f
0c
24
20
e8
0d
07
bb
03
02
0c
a3
3d
fc
97
14
dd
0f
06
13
f1
19
be
81
09
fb
cc
fd
fc
f1
0e
1a
d1
0c
fc
fe
0d
08
00
15
d6
1d
06
ba
17
c7
1f
08
c4
c3
13
d0
27
04
f6
f3
38
ef
d7
ef
1d
08
0d
f9
0a
11
15
ff
12
f6
0f
b7
06
0c
31
e0
15
eb
18
1b
05
f4
19
32
06
ec
e8
0e
cc
d8
fc
1b
09
0e
dc
b6
0e
fb
ff
dd
c1
1b
1a
0d
01
ee
f2
e5
25
26
09
0c
d8
ef
c7
14
19
f4
07
11
08
02
c5
19
b9
cc
0d
e1
1d
04
f8
f8
04
1a
13
13
fd
ef
12
e2
15
0e
fe
19
13
f0
0f
05
e0
bb
16
58
d1
d3
3e
08
02
fd
b5
25
00
0a
08
ff
0f
d5
25
0c
10
0d
e0
0a
03
10
cf
f7
22
28
e3
e0
bd
19
e2
ff
fb
0b
e5
fc
e3
88
10
11
0c
31
11
fa
e4
ce
0f
10
02
0a
ee
d9
04
11
ea
e9
f9
9a
d3
1d
0e
f1
08
09
e1
0b
01
18
03
e7
0c
12
24
b4
eb
0d
2a
f0
0c
01
fe
1d
01
f0
24
08
b4
2e
fe
04
01
05
25
ff
f7
16
1e
fa
05
32
24
a2
ee
0a
fb
f6
fc
0d
0e
07
11
df
05
02
ed
be
e1
f0
c6
22
19
11
0f
0f
d8
33
ef
11
1d
e5
1a
f7
fe
0e
29
11
05
c7
08
e8
a2
fd
dc
10
1b
9a
fe
10
fe
09
01
09
08
e5
07
f1
07
eb
00
f6
e5
03
b0
11
db
d0
15
e3
0f
eb
21
09
0e
cc
18
e0
03
f9
fe
23
e8
10
02
04
fe
f0
ef
ae
12
19
17
ed
13
ff
15
d2
e6
f8
10
e0
9e
de
0f
1e
39
fe
0e
1b
f7
f6
e4
02
cd
0b
b9
1b
fb
13
ff
1f
99
b8
fa
f1
00
f5
ee
17
cb
1c
0d
14
f2
d2
16
d2
e6
eb
db
04
06
0e
b2
1b
1e
fe
16
e8
ce
f2
cd
00
12
fb
06
fa
1e
df
1b
f7
00
31
12
29
10
0a
f6
fb
21
cc
01
de
06
14
f9
2f
ec
c3
2b
29
dd
29
ea
0a
1c
0f
f2
fa
0f
fc
f9
e1
18
0a
d6
0f
e1
10
02
01
0b
09
02
07
f6
ef
ff
0c
f4
eb
09
27
04
10
29
c2
1d
df
27
12
3a
0b
17
c1
04
e9
0a
20
1a
15
e3
f6
d4
c9
08
cc
07
cb
e5
ca
3d
cb
e8
eb
b4
fe
c6
d8
06
08
09
0d
fa
e6
09
d8
da
0a
fa
e0
f0
0f
ec
ec
08
d1
14
11
08
09
10
e3
09
03
f9
05
08
ff
19
2c
fd
b2
1a
ab
ca
11
02
fb
fd
fe
2d
d1
e8
e6
0b
10
03
17
0f
2a
1c
cf
06
dc
13
e6
02
d8
0a
e1
17
0c
f0
f2
dd
06
fe
17
06
0d
f1
fd
11
15
07
16
cc
f4
0c
07
f7
f6
04
0d
9a
09
ff
05
fc
e0
0c
08
e3
10
00
0e
c1
02
b2
0e
06
0e
0c
10
05
fd
cf
e4
fe
b3
18
06
12
19
fd
05
13
0b
f7
c2
0f
03
17
11
0e
16
ea
10
14
ab
d7
0a
07
b3
fb
e7
13
f9
0e
fe
c5
d4
10
0d
e8
f5
02
0c
fa
1b
b1
de
ff
02
f3
f7
00
d7
10
24
10
fd
0a
19
db
0a
0a
93
d3
0a
e0
12
fa
23
de
1c
01
12
e8
1b
d4
f5
11
11
a3
fb
ed
8f
f8
0f
f5
fd
25
06
e2
fa
11
03
08
14
08
14
e4
0f
0c
f3
0c
0d
03
ec
f6
f4
2f
03
ff
c1
14
f1
0a
0d
1a
21
e5
d4
b8
0d
bc
f6
e5
05
0b
f4
ea
0c
09
18
02
d3
27
f9
01
cc
02
26
09
14
c6
97
11
cf
1c
0a
eb
15
1d
17
14
18
db
f0
b4
f6
13
0c
f0
03
ea
f8
97
