02
fc
fb
03
03
ff
01
05
fb
03
02
fb
0a
08
03
00
03
00
02
fe
04
fc
fe
03
04
00
01
00
fe
01
fe
fe
05
01
11
13
0c
0a
0e
0a
04
08
00
fb
01
02
17
1d
1e
17
0d
09
04
03
01
fb
ff
03
fd
f7
fd
0d
19
0e
0a
ff
03
06
0a
0a
17
07
03
07
11
11
0a
0b
25
18
fb
f6
00
fb
04
fc
01
f7
0f
fd
0f
04
01
0c
15
14
11
08
f5
f6
05
03
13
0f
17
1e
25
18
09
01
14
01
02
ff
fa
01
fd
ec
ef
03
fa
06
12
17
18
07
08
00
09
0b
08
03
12
0f
12
2c
31
21
1a
0e
ff
02
00
f9
dc
e1
f1
01
0b
18
1b
16
0e
f9
fb
f0
f6
fd
f8
fc
fb
13
11
12
39
27
18
17
04
fd
0d
e1
f0
08
f4
02
10
12
0a
0d
09
f6
f7
f6
f5
fd
fc
fd
f3
ee
02
0b
20
23
1e
0d
03
04
13
ef
e9
04
00
09
12
16
1e
09
f0
e6
f0
06
02
09
07
f7
f9
06
0c
07
01
11
23
16
fa
fe
19
07
fb
0d
0c
15
1e
24
13
06
e7
db
e2
fb
02
fa
ff
ee
fa
00
f3
fa
09
22
21
14
f7
05
07
fe
fd
f3
02
0f
1b
1b
13
02
dc
c1
c9
e8
ee
f2
ec
ea
ef
fa
ee
fe
13
1d
0e
ea
fc
05
fa
ec
09
f8
fc
0a
22
2f
1d
02
e6
d0
da
f3
f9
f1
f0
f7
fa
f9
f8
f8
1b
0d
05
e3
09
fd
0e
e5
fa
f4
01
13
27
2e
1e
0b
fa
f2
f6
09
10
06
ff
fd
f2
08
01
04
1b
05
13
f4
01
0d
0a
04
ef
f2
00
1f
27
1e
12
07
fc
f8
eb
0c
0b
0c
05
00
00
10
0a
1a
1e
fb
f9
ed
fd
0b
04
f9
ea
00
0a
16
13
1d
12
0e
fd
ee
f1
05
09
fe
00
0b
0b
14
17
14
11
f9
ed
ed
11
06
fa
f3
f0
0c
0f
19
13
13
15
0f
fb
f5
f2
f6
fe
0b
07
09
0a
0c
17
0a
00
f8
de
fa
10
03
ff
f3
ef
02
0b
0b
0e
0f
16
16
11
03
f2
f0
06
0d
fd
05
02
05
0a
08
f8
02
f5
ec
f0
00
ea
ef
e3
ec
fb
f1
fc
02
04
0e
10
02
f8
01
11
01
fd
01
03
f7
fd
f5
f3
07
e8
ea
05
f8
fd
f0
e0
e9
ef
e7
ee
fc
06
08
05
03
fd
00
10
03
fa
ff
0b
f8
f7
fb
09
08
ec
e6
01
02
f3
fd
f8
f4
eb
e5
f5
f7
06
fb
0e
10
09
fb
f8
f4
fe
ff
fe
ff
f3
f7
0e
00
fb
f5
f9
e9
f1
fa
f5
e8
f0
e8
ff
00
ff
0c
14
0c
12
01
ea
e7
fa
f5
f5
f8
f7
ff
09
f7
f4
f7
fd
fd
00
f8
ec
f0
ee
ee
f8
05
08
0c
1f
16
0b
07
ec
f2
fd
f8
f3
f8
fe
f4
f9
ff
f4
04
fa
f6
f8
f5
f0
f0
f3
f1
fa
07
02
06
13
17
11
02
ff
04
00
00
01
03
07
04
02
04
00
02
fc
f6
fa
04
fd
ea
e4
ed
ee
fb
03
01
0a
07
06
0a
14
0e
0a
09
ff
ff
f6
04
fa
06
0f
03
ff
ff
02
11
0b
fd
e9
de
f6
f6
fb
f9
01
08
0b
0e
14
07
06
0a
fd
04
00
0a
f6
0d
0d
04
04
fb
0f
ff
00
01
e7
e2
e8
fb
02
06
00
05
03
08
0d
ff
01
09
fa
f2
fe
f9
f1
f2
f7
05
04
fc
ef
0b
0d
e9
f6
f0
ed
06
03
01
f1
06
0a
10
01
0e
17
0a
00
1e
2a
26
11
f7
f7
00
ff
fc
03
ff
f9
ea
db
dc
ec
fc
f9
0b
07
07
ee
f2
02
0e
0b
f7
f8
00
f2
e4
ea
01
00
fc
ff
01
fe
fd
ff
0a
fe
02
fd
01
07
0d
02
08
ed
fc
f1
f0
f1
f6
fd
f2
f1
fd
fe
01
fd
02
01
ff
fd
fd
ff
fd
00
fb
fb
fd
03
fc
ff
03
fe
04
02
02
ff
01
fd
04
02
03
ff
02
00
00
fb
02
fc
fc
01
00
fb
fd
f9
f8
fe
f6
f1
f2
f8
fb
fc
00
ff
fb
fe
fb
03
05
fb
02
fe
01
05
fc
02
04
f9
ee
00
f4
f7
17
03
e4
de
e3
ea
f6
fa
05
10
14
0e
04
03
09
ff
04
03
fc
05
01
02
fd
ff
08
07
16
24
2c
2b
0d
0b
f0
f2
03
e7
e5
ed
e4
f4
f9
ff
fe
07
07
fb
ff
fb
fe
f0
f8
f6
ff
1f
2a
16
25
2d
28
25
0c
0b
09
00
0c
0a
08
02
02
07
0b
0e
16
08
fd
02
fe
fe
0a
f4
ed
f6
07
fc
06
25
25
1d
14
04
fb
0b
11
0c
05
0d
0a
10
09
07
19
18
01
00
06
05
f3
ed
f9
00
09
12
1b
24
1a
10
10
00
fc
fa
fe
fb
06
0b
04
09
04
0e
1a
15
07
01
05
e5
f4
fc
12
09
12
25
1c
11
0b
04
fc
fb
f5
fd
ee
f8
01
0d
06
13
08
01
1f
15
0b
fd
f1
f0
fc
01
17
12
19
20
17
12
08
03
01
f7
ef
f1
f7
fd
09
0c
fc
00
01
ff
09
05
06
fa
f4
0e
f8
00
16
18
1a
18
11
0b
07
fd
f2
ed
f2
f7
fe
fe
fe
f3
f3
fe
ff
f8
fe
fc
05
f3
f7
09
fc
0b
0a
0b
0e
1d
08
00
fe
03
02
f4
ea
f1
fa
02
fa
fb
e9
dc
df
ee
fc
05
fd
f1
ee
e5
ea
03
f8
fd
fd
04
03
ff
04
21
1a
0e
ff
fe
08
07
f6
ee
e6
da
c9
dd
ef
03
f3
f8
f6
ef
fb
f9
f7
f7
fb
fd
fd
0c
20
2b
23
0a
f7
f7
03
05
02
01
fb
e7
d9
c7
dc
00
f0
05
ef
e9
f1
ef
f2
eb
01
f7
fc
03
18
20
19
05
f3
fb
08
03
0b
07
fd
f2
eb
ec
e6
01
f2
0f
fd
e2
da
d9
d2
ed
f7
eb
e8
f8
fa
ff
05
05
01
01
02
f9
f4
02
f6
e7
ed
e8
f4
09
f9
05
03
fe
e6
de
c4
e3
d5
e3
e2
e7
f1
08
0e
fd
02
ff
f1
ef
f9
fd
fe
ef
06
0f
12
0a
0c
f3
07
fc
ff
e6
cc
d7
ca
d5
d7
dd
f0
00
0b
fd
fc
fe
fc
fb
fb
fd
02
09
12
15
19
1c
0d
ff
00
f4
29
ef
e7
eb
e6
e1
d8
d5
da
e5
f0
eb
f9
05
04
10
08
04
0e
03
0c
05
02
f6
10
00
fc
00
22
18
01
00
ea
dc
e8
df
e0
cf
dc
e9
f7
0c
06
03
17
10
0d
00
10
0f
f8
eb
04
04
ef
15
14
1a
13
0d
ff
f8
f4
fd
ef
e3
e9
e9
fa
0d
12
0c
10
0a
11
0a
0e
00
fd
0a
fb
03
ea
0f
0d
1a
20
15
06
10
11
0a
08
f7
f8
f8
05
0f
13
12
08
0c
13
1a
16
f8
03
04
02
01
f5
09
03
14
10
17
21
25
22
0c
0b
06
03
04
09
09
0c
12
01
15
1c
15
15
07
02
16
fc
fa
fb
05
19
14
04
0f
15
1c
15
13
0d
02
01
04
fd
03
07
07
0d
14
11
20
1e
0d
fc
07
fa
01
05
13
2d
1a
0f
11
0f
19
0e
0f
14
14
08
07
03
0b
0c
07
06
15
1b
28
26
0f
01
0a
fb
fc
fd
f6
17
fc
f1
0b
10
0e
16
0b
0e
16
0c
0e
06
0c
0d
12
04
05
0c
22
17
14
07
ff
00
fd
ff
0b
0a
ed
fc
11
0d
07
0c
13
05
18
1e
19
11
10
0b
03
00
09
10
1d
14
18
06
05
fe
02
fb
00
05
03
03
ec
f6
ef
f1
ff
ef
f2
e7
f4
f7
f1
f2
f7
e0
f5
06
fd
01
00
02
00
05
04
fb
fd
fe
03
03
f8
fa
f6
dd
de
dd
cb
da
ef
0e
f4
d7
e9
ec
e6
f6
f1
f1
01
fd
fd
04
fe
fe
02
fc
02
03
ff
fe
fe
ff
fe
fe
02
00
0b
08
fc
fd
fb
fe
01
05
04
fd
fd
04
00
01
02
04
fb
03
04
fe
05
04
09
13
06
11
07
0d
f6
f1
18
12
ff
f9
f4
fd
fd
01
03
fd
ff
fe
fc
01
00
f7
00
13
21
0d
14
1c
2b
21
15
f8
10
03
f7
fb
fc
fc
fd
09
08
11
0d
0a
04
01
04
03
f6
f9
15
04
01
fa
ef
fb
01
07
00
ff
04
09
0f
03
f8
fb
f0
02
10
f9
09
05
06
03
05
f7
eb
f2
03
02
03
04
ef
f6
fe
fb
fc
f5
fd
fb
fd
0c
09
02
08
06
0a
12
0d
03
fa
0a
fb
00
f0
03
f7
f5
f2
f1
ee
f5
f9
fd
f8
02
fe
ff
02
0b
0a
0b
09
08
08
05
06
12
0d
0f
ff
f2
0e
fc
ff
f2
ea
ee
f3
f0
ed
f4
fc
fb
fe
05
0a
06
06
0c
0c
ff
01
fe
0c
20
0a
08
05
e8
0e
f4
01
f9
f9
ec
f0
f5
f2
04
f7
fc
ff
fc
08
05
01
03
fe
fa
fc
f7
16
1f
0c
02
06
fe
09
f1
f7
e5
f1
df
e7
ee
f0
fd
fb
01
01
fe
fb
fb
fe
fa
f8
fb
e5
e8
0d
15
f7
f4
fe
fc
f7
05
f5
e8
ef
e8
e2
f4
f5
fa
03
05
03
02
ff
f7
f8
f5
ef
ee
de
de
00
f9
ef
f2
f8
fa
f1
0c
ff
02
04
f2
ef
f6
f6
02
0a
fe
eb
ec
ec
f3
f2
e7
ed
e8
e2
e9
00
0d
fd
f0
f8
f3
f8
06
fb
02
0a
f9
f6
f8
fe
fd
08
f7
e0
e6
f2
f3
f2
f8
f6
f7
ec
f4
ec
0a
ed
e4
03
f7
f3
fa
03
01
08
f5
fa
f9
f8
ff
fc
ef
e4
e3
e9
f0
f6
00
00
fd
05
fc
ee
f2
eb
ed
01
ff
f7
00
06
03
ff
0f
08
fc
03
f9
fc
f6
ed
f0
f1
fd
04
09
03
11
07
09
f6
f1
fa
12
00
f9
ee
12
10
03
07
0e
0e
06
05
06
ff
f7
f3
ff
06
03
07
0c
17
15
0d
01
05
18
1d
0b
01
fd
ec
0f
16
07
0c
0c
1a
16
13
09
0c
ff
f3
fe
10
0b
09
0b
10
0a
03
f8
09
25
2d
16
f8
f9
f4
0a
00
0f
10
07
0d
0e
0f
1b
11
01
04
12
19
19
12
12
10
07
02
ee
f5
31
2d
16
00
f6
03
01
fc
07
0a
06
17
1f
1f
1c
08
00
00
15
1a
16
0b
09
ff
07
ff
f1
e9
24
11
20
fe
fb
f0
03
09
08
15
1d
16
1a
21
11
0a
ff
0f
19
12
06
09
0b
02
01
fa
f8
ff
0e
0c
1d
01
07
08
09
13
06
0a
0a
0c
08
17
0d
02
03
0e
0d
07
ff
0a
0d
07
ff
06
07
fc
04
0b
0f
00
0f
1c
16
10
16
fa
00
10
04
00
0a
01
01
05
04
04
08
0e
0d
05
00
07
0c
0d
16
09
03
ff
03
0d
0d
10
0b
00
01
0d
04
01
fc
07
05
fd
fb
01
09
01
03
01
0f
0e
13
12
09
05
fd
03
ff
09
15
05
f5
f4
00
fc
fe
01
f9
00
fa
f5
fd
04
00
f9
00
05
08
0c
13
20
0a
e2
01
01
fc
06
0c
06
fa
f0
ed
f9
f6
f2
f6
f8
eb
f5
f5
ef
f0
f2
fb
03
0d
0d
0e
17
04
e8
ff
00
fe
f8
f3
ef
f0
ee
f2
f3
ef
e9
ef
f0
ea
e7
f4
f2
eb
fe
02
04
00
10
10
0c
10
04
fd
00
fc
09
f9
05
03
f8
f1
ea
ed
e6
f7
ec
f6
e9
f1
fb
f4
09
15
13
1a
1d
10
f7
09
0a
03
01
fe
fb
ff
19
21
20
0b
04
ea
f3
04
13
0a
fc
f6
03
00
f7
00
0b
00
00
11
20
00
fe
02
04
03
04
02
fa
f1
0b
0a
04
02
04
0b
04
f8
01
ff
03
fb
00
ff
01
ee
ef
ed
04
fe
00
01
01
05
fc
00
00
fb
05
01
fb
fb
02
fc
08
00
fe
fc
02
05
fb
fc
03
03
fe
fe
05
01
04
fd
03
04
fc
00
fe
02
0d
0b
09
10
08
13
1a
16
01
25
12
0d
1c
12
1b
09
0d
0a
00
04
05
04
fb
fc
01
0a
0b
10
17
11
10
13
13
20
0f
0d
1a
21
16
13
1f
16
0b
11
10
0f
05
f8
03
00
fb
02
05
0e
fe
fa
13
0f
13
21
0b
fd
05
0d
04
07
03
0d
1b
1c
08
0c
05
11
fe
f2
ff
fc
00
ff
12
ef
ff
05
07
fc
0a
10
0a
fe
00
fb
05
01
13
18
1a
1a
14
01
ee
ef
e9
e9
ff
06
fd
03
15
ef
ff
f9
f4
fe
04
f5
fc
f4
fd
fc
f8
fe
03
11
15
15
13
05
f5
f3
fc
f4
09
03
fc
fb
ea
e9
e4
e5
f2
f8
ed
ed
fe
06
09
00
00
08
08
07
09
00
f7
f4
f1
04
03
0b
f2
0e
05
f9
f1
e6
d9
de
eb
f7
f6
ff
07
0e
11
0b
0d
08
ff
f1
f5
fe
ef
f4
f4
ee
ff
f6
f0
08
03
fa
fb
ea
e6
ef
fc
06
08
06
0c
09
0a
0d
fc
f0
e8
e6
e7
f4
ea
ef
e2
ef
ee
e4
fe
0d
00
f5
f9
fa
f4
f2
07
07
0c
07
06
06
05
fd
f0
e3
e1
dc
eb
ec
e4
e7
e0
e4
da
e7
f2
eb
f9
fa
f2
fb
03
0b
0f
0a
09
f9
05
03
f7
fb
f0
e6
e3
e8
ec
f4
eb
ef
e6
f0
ec
df
f0
e8
fd
f5
df
02
10
19
0e
04
fb
06
fb
f7
f9
fc
fb
e9
eb
ee
f9
fd
03
f8
ef
fe
10
04
06
04
00
f6
e4
1a
14
13
14
08
03
00
f9
05
02
f4
fa
f0
f5
f4
04
01
fe
fa
f7
08
1b
12
ec
06
14
f6
ff
22
0a
09
03
08
07
fb
fa
00
f9
f8
03
f8
f8
f7
02
06
fd
02
07
09
0e
0a
09
13
0a
f5
fa
1f
f6
f0
fe
ff
f5
f9
01
04
f5
07
09
05
ff
f6
03
fa
f8
fd
09
12
0b
13
21
11
06
f7
f9
f9
e2
e7
fb
fa
f6
f0
ec
fe
0b
17
19
0b
05
fb
00
f4
f4
fb
fd
05
0e
21
01
10
fc
f9
09
fb
eb
f4
ef
f2
f1
f0
eb
fb
0a
17
2c
0e
0b
fe
fc
f3
f6
03
03
08
0d
25
1e
11
02
f7
fb
08
f1
f0
eb
e9
f5
e2
ef
01
14
23
1e
17
07
00
ff
fa
04
07
05
05
08
1e
12
18
07
fb
fc
04
f8
e8
e9
ea
ed
eb
fd
04
18
1f
18
08
00
00
03
fd
fc
f6
fe
ff
fe
1c
fb
18
09
ff
05
f2
f2
e2
ef
f3
ec
fd
09
10
19
17
0d
0c
05
09
01
0b
02
fd
04
0d
03
24
16
0f
00
fb
0c
f6
ea
e8
ed
eb
ec
f6
0e
1f
1a
17
12
0b
0d
0b
16
18
14
11
0f
11
13
1f
18
04
0a
04
fb
07
fc
ed
f7
f1
f7
02
0d
18
13
12
16
0c
0e
11
14
14
13
05
0f
07
03
08
0d
f9
0a
0b
03
0d
04
07
ff
f9
fd
f8
f5
f9
04
01
08
06
09
07
0e
00
0d
03
fc
05
f8
f8
f0
02
03
02
07
fb
07
ff
ec
eb
f2
f2
e8
e7
fa
f7
f7
fd
05
fd
02
0f
11
0f
02
fa
f5
f6
fb
fe
02
fc
ff
ea
f9
f5
e1
d0
de
e2
dd
e9
e5
e0
ee
fe
fb
f2
0e
0c
06
f9
eb
f3
02
0f
0d
fd
04
fe
fe
fa
f1
e4
e0
d1
c5
cc
e0
da
e9
ea
f8
fe
02
09
ff
03
08
03
f2
f1
0c
02
08
04
00
02
fd
f9
f9
f8
fb
fa
f0
e9
e7
ef
f0
e4
fd
08
ff
0b
11
0f
09
12
1b
24
08
00
fd
fb
fb
05
03
05
fb
f8
00
01
05
05
f1
f8
fc
fb
00
f4
fc
fd
03
06
fc
fb
08
ff
04
fb
ff
02
05
ff
fd
fe
00
01
03
ff
00
ff
fe
02
fe
04
f4
fc
fe
fb
05
05
04
fd
01
03
00
fd
02
fe
fd
fd
00
00
fb
fd
f4
ef
f4
f0
f8
f8
f3
f2
fd
ed
df
dd
f4
04
fc
f3
eb
f2
02
04
01
fc
01
00
fe
fe
f7
f7
e9
e3
f3
01
09
07
ed
f3
05
08
fd
fd
eb
06
0e
0c
03
f9
0f
01
05
01
03
fc
03
ec
ed
03
fb
04
fe
e7
fd
17
fe
ef
f2
fb
03
f6
ea
ed
e2
e7
fa
06
07
0c
fb
00
02
08
12
f1
0b
09
f6
00
0b
07
00
04
fe
f5
f0
f3
08
0e
11
23
19
0e
0e
09
ea
e1
e8
01
02
ff
1d
f2
f0
09
00
07
07
0e
15
ff
f1
d1
cb
d8
f2
10
26
25
1c
1d
21
29
01
e1
eb
05
03
0d
f4
f6
f0
04
fb
09
fe
0d
ff
f4
f5
d6
c2
c4
f1
1c
2a
1f
1d
1a
11
08
ef
f2
f3
11
01
19
f5
fb
05
0e
08
06
f6
04
04
03
f4
dc
c8
d9
08
34
33
28
1e
14
09
f8
f5
d4
f3
13
13
14
13
ff
08
04
f4
fc
f9
0d
0e
0d
fc
da
bc
de
1a
3e
32
1d
09
01
f7
ec
d1
c4
e7
f4
fc
0a
0d
f5
ff
08
f1
f9
08
09
03
02
fa
c6
9a
e2
3a
33
24
0e
fc
f0
f6
e4
df
df
d9
ff
03
18
13
07
fa
00
ec
ef
0e
06
00
00
e3
b0
aa
04
39
3e
20
07
f8
f6
f3
d8
e5
fb
f8
04
03
1c
08
00
f9
03
f8
f6
0a
07
01
ee
ce
c2
d9
18
31
26
10
f6
ed
fc
f4
dd
e4
f9
f8
0d
08
0e
05
f5
fb
03
02
04
01
fb
f5
ef
e2
e0
f1
0a
20
1e
08
ea
f3
07
fe
e7
03
03
fe
10
04
0d
1a
f6
03
02
05
f3
f7
ed
f3
ed
e3
e8
fd
06
09
15
00
f8
f7
07
0e
01
11
0d
0e
00
05
15
1b
fe
01
17
05
01
fb
f9
fd
fb
f8
f6
02
ff
09
0c
05
05
fe
0d
0b
f9
05
07
01
06
04
0c
24
08
03
0e
06
05
fd
01
fd
03
ff
07
07
09
0b
07
ff
07
0c
11
ff
f6
f4
f1
1b
02
00
0f
21
0a
09
06
05
09
04
07
fe
06
ff
03
00
13
01
fa
08
17
0a
13
f0
eb
02
02
14
ff
03
05
1e
fc
07
04
05
13
fe
fb
00
03
07
f5
f9
fd
ff
fa
05
00
02
04
f3
f5
0d
29
17
09
ff
ff
1b
03
fc
f7
ef
0f
0d
0e
f6
fa
02
f9
f8
fc
f9
01
04
f4
f9
fc
f1
03
16
20
f6
05
0e
0b
0f
19
fa
f2
fd
18
0d
11
fd
02
fc
fb
02
00
03
0e
ed
f8
02
0d
f9
f6
05
12
fb
04
04
06
0f
23
09
e4
fe
12
08
08
09
08
07
02
03
04
06
0b
04
02
10
0d
04
02
0b
fd
01
0f
10
0f
07
28
0e
01
ff
09
0e
08
0a
0c
00
05
f7
fe
fe
0a
fe
05
06
0e
08
0d
12
fa
1b
ff
07
06
02
fb
03
1f
15
01
03
08
01
08
ff
0d
ff
08
01
04
ff
01
03
0f
14
fd
07
fd
0d
07
05
00
11
e0
ee
0e
1c
1a
fb
fb
fc
03
0a
12
02
fe
00
01
08
f7
f5
01
f7
e8
e5
f9
08
fd
fe
02
0b
f4
fc
02
08
04
f7
f4
e4
fc
05
0f
01
f6
01
02
ff
d9
e0
f1
ee
de
e9
05
04
fc
ff
02
ef
0f
1c
0c
f1
ef
f5
f0
ec
f5
11
21
06
fe
05
03
ec
d7
d7
ce
de
f2
e9
05
09
fb
03
fd
01
05
02
0c
08
08
f8
e1
df
ed
f7
e1
ec
ec
de
dd
d1
dc
ca
e4
ef
e5
f0
0a
05
ff
05
fc
fb
03
09
0c
10
08
06
05
05
04
09
0c
e8
f6
f2
f7
f7
e4
e5
ff
06
11
fb
05
03
ff
04
fe
ff
fc
01
00
04
03
ff
ff
fc
fe
fb
fc
03
02
00
04
00
04
04
01
fc
fd
04
ff
fc
fd
fd
ff
05
00
fe
02
f6
fb
fc
f5
fa
f5
f5
f6
01
fc
f6
f3
fb
f7
ef
f3
ed
fb
02
04
02
02
05
00
fe
f9
f8
f9
f7
f5
ee
f1
ec
e8
eb
ea
f3
08
0e
13
0b
ee
f1
f6
ef
ea
fa
fb
ff
00
02
03
0e
f9
e9
eb
ed
e2
d1
d7
d7
e6
e2
ee
fb
04
09
15
1e
27
18
07
ff
03
f6
f9
f5
fb
02
08
17
00
fa
f9
f7
f3
e1
df
e4
eb
f5
f6
f4
fd
12
16
1d
27
13
0d
01
f3
eb
e6
f6
f2
02
02
0d
01
fc
0a
0d
09
f4
f3
e3
e1
fd
f2
ec
f5
fe
0a
12
1d
0d
11
00
01
f6
0f
f0
f2
fe
0e
f9
16
02
0a
13
03
02
fd
f4
f7
f3
f6
eb
de
e3
fa
0a
10
14
17
06
0d
f5
01
f6
ed
02
1f
0c
26
13
0d
14
0e
02
06
03
f8
01
f6
e4
da
db
ef
0c
21
23
13
17
09
f6
ef
f9
ec
f6
0c
20
2a
16
0b
0e
10
0c
18
0b
05
09
f8
e4
d6
df
01
1f
22
1d
0c
17
fb
e6
fa
ff
fd
0f
0c
16
21
06
08
0e
08
12
12
08
14
09
f8
e7
e6
ef
0b
1c
28
22
13
06
fd
f1
0d
10
10
08
08
26
1b
fc
03
06
07
0e
0a
0a
05
fd
f4
ea
f2
fe
1d
25
27
1e
0b
fa
f0
ed
f9
fd
1c
0d
0c
19
1d
05
07
09
0d
05
fe
fa
ff
f7
f3
f9
fa
05
10
1e
1e
0e
fa
f4
e1
e5
de
f8
0d
04
0e
09
15
fc
ff
fd
fc
eb
ed
ed
fa
11
05
fc
03
0f
14
18
15
05
f7
f5
ee
07
01
08
20
03
0b
1e
06
f3
f6
f1
ee
ea
ed
f6
fc
06
06
0b
0b
08
10
16
f9
f8
fc
f8
f3
00
0b
17
04
03
0b
1c
fc
06
f5
e6
e2
f0
ea
f8
fe
0e
14
10
11
08
13
02
05
f4
f6
fe
fe
03
06
fa
ff
0e
0b
18
fd
03
ed
e4
dd
e7
f2
f9
03
07
10
18
13
09
0a
05
fb
f9
fb
03
0e
04
f4
06
0c
09
0f
11
04
ec
de
e5
df
e9
f3
f8
01
14
14
16
05
fd
fd
fb
04
fe
03
f8
00
04
f6
01
06
05
0b
0c
f6
fd
f3
ed
f4
f5
ee
f4
0d
14
14
0a
f7
f1
f1
f7
f5
f3
f5
f2
01
08
fc
08
fd
f7
0a
11
08
f9
fb
f8
fc
03
01
04
10
0c
11
fe
f0
ec
f8
f1
ef
f9
ef
e5
f1
f8
0a
01
0a
03
02
0c
24
03
ff
04
02
0b
0d
03
fc
01
08
f4
f6
f6
f3
e9
ec
f2
e7
ed
ec
fc
fa
05
0b
02
01
0c
25
0c
f2
02
13
12
03
fd
01
0d
00
f6
f6
f9
f9
f6
fb
f8
fa
f7
fb
f2
e8
ff
fc
02
16
0d
1c
09
09
10
0c
11
08
0c
0d
09
fe
f7
00
fb
f7
f4
fe
06
09
01
fd
e9
ea
ff
fe
06
08
0c
f7
0e
19
1c
18
0f
01
01
06
02
01
f5
f9
fd
f1
f9
0b
07
09
01
f9
f0
f8
0a
03
fc
01
12
e0
f4
00
16
18
fb
04
fa
05
0c
06
02
02
0a
02
ff
06
00
06
f9
f4
e9
0b
0d
00
fc
ff
02
fa
ed
fc
15
02
f4
fc
fc
03
0b
09
0e
0b
07
fe
03
01
f6
fa
fe
fb
e5
0d
09
ff
04
fb
f1
fe
03
f1
fe
fc
f6
01
03
05
03
04
0e
03
01
fc
f6
e2
dc
dc
e1
e8
e9
fb
02
01
04
fd
ff
fc
f2
e2
ec
f5
f8
f7
fc
f4
e2
ee
e0
e7
ef
f8
f6
ea
e3
e6
f1
01
ff
06
01
00
03
00
02
01
0a
17
04
ff
01
00
00
f4
fd
0a
fa
01
0d
18
02
fd
f4
f7
fd
06
fd
02
ff
fe
02
fb
00
fb
02
fc
fd
fe
01
fc
fe
fe
f7
ff
fe
fe
04
03
04
00
fe
fd
fe
03
fe
01
fd
04
ff
03
02
fc
ff
f7
ed
ed
f2
ee
fa
f1
f5
f6
05
e6
ef
e8
ea
ef
e5
ef
ed
f2
05
05
00
fc
02
04
f7
ec
ed
f9
f3
f4
e7
ea
de
dc
d9
da
dd
e4
e8
f9
04
fa
fe
eb
ee
ea
ff
f7
01
04
00
00
f9
f2
f4
f4
dc
d3
cb
c8
c4
d3
be
bc
bf
dc
e2
ec
fd
ff
fd
fa
04
04
10
09
ff
02
fe
07
08
12
03
e9
db
d8
d4
cc
e6
f4
ee
ec
f5
f3
f0
08
04
ff
02
0a
10
10
1c
1f
24
0d
fe
fb
f0
fb
fb
f9
f4
ec
f5
f8
fa
16
13
0b
00
f3
f6
00
fd
f3
fd
f5
ec
e5
f5
0b
1a
07
ff
f8
10
0e
fb
fa
f7
f7
01
0e
14
13
12
15
0e
0b
06
16
07
06
04
fa
f7
ff
f7
12
12
04
fd
11
14
12
f4
ee
09
fc
0a
0c
0d
04
15
0f
08
0f
0d
11
04
ff
06
f8
f8
03
10
1a
12
0a
f1
0b
01
0a
fe
fa
07
04
0c
09
02
08
0f
01
06
0c
0e
0a
11
05
fe
02
ff
05
18
23
1c
0f
14
11
00
05
fe
07
17
04
07
09
f6
fc
08
00
06
06
0c
0d
01
01
0f
10
10
1c
12
27
22
18
12
09
08
15
06
0a
13
0a
0d
05
f8
fa
f8
f4
fe
fa
0d
00
fe
00
12
0f
18
11
0c
18
0b
16
1a
f5
1a
1d
13
0b
13
11
12
0c
07
08
09
fe
ff
05
04
fd
f6
02
08
07
16
0c
11
16
20
12
01
09
12
1a
14
1e
0c
14
12
04
07
06
04
01
02
05
02
fd
fe
04
0b
05
08
0b
fc
0e
1c
0c
ec
0a
08
13
0d
0f
06
0c
0f
12
14
16
09
13
04
08
fa
fa
ff
03
10
07
fc
f9
f5
13
07
f6
f1
04
13
13
08
fd
fd
03
14
0e
12
13
0f
0c
06
0d
03
0b
08
10
04
00
fb
f0
f0
f6
ea
f3
f3
05
ee
09
f1
f6
fe
ff
08
07
12
10
0b
07
06
0e
00
10
0c
fa
fb
fd
0b
00
e7
e4
0f
eb
0e
06
fa
f8
ef
e7
f4
fd
fd
09
0d
fe
13
0d
fb
0c
06
17
01
f3
f9
f8
fe
fe
ec
dc
f1
f1
fd
09
01
f2
e1
e7
f0
fc
f6
f8
ed
fd
07
05
fe
04
08
0f
f9
f5
ff
fe
fd
f5
fb
da
fd
f6
0d
08
12
f1
e9
e3
f1
f1
eb
e8
f5
f6
ef
f4
f2
fa
fd
06
f4
f9
f6
f9
ff
ed
de
db
0e
f1
f5
13
19
f1
e4
e5
ee
ee
ec
eb
e7
e9
f3
ee
e9
fa
01
04
fc
00
02
fc
fa
f5
f1
e2
f7
ea
05
01
11
f1
ef
f0
f7
f4
f8
e7
ee
ef
eb
f4
f7
fe
05
06
f7
02
01
02
f9
fe
f1
03
eb
f5
f6
16
09
f4
f9
fe
fb
02
f9
ed
e8
f2
f3
f1
f2
fd
09
01
f0
f5
f2
f9
f9
f0
f8
f4
e1
00
f7
01
02
01
0f
f7
fc
05
ff
f2
f5
fe
f9
f4
04
04
00
f6
eb
f2
f3
f4
fc
02
00
01
fe
fd
03
04
f5
12
10
0b
08
0f
05
01
02
09
fc
02
06
03
fb
f4
f0
eb
f1
f5
02
0a
05
03
f0
01
02
04
12
1b
1f
1e
1d
14
0e
00
0c
12
04
0e
06
08
02
ee
ee
03
13
fe
01
02
e2
ef
f5
00
03
fc
05
07
17
1e
11
14
0d
15
2e
2f
18
0f
14
14
1a
0b
15
17
10
0c
f2
ef
ef
fc
fa
ff
04
02
04
fe
01
08
15
28
28
36
32
29
20
33
32
13
1b
2c
24
10
1a
1e
1c
15
0e
07
03
02
fc
04
fc
04
f4
04
11
11
0d
0a
1e
0b
11
0f
1f
11
1a
1b
1a
15
15
1d
19
0d
01
01
04
03
fc
ff
04
03
ff
05
01
fe
fe
01
00
01
ff
fe
ff
ff
04
ff
03
fd
03
fc
fb
fd
05
00
fe
fb
04
fe
fe
fb
06
03
02
03
01
03
fc
02
0b
08
f8
05
12
10
13
16
1f
0d
08
fb
01
05
fc
04
05
fd
ff
0c
11
ff
0b
07
01
fc
fe
fb
fa
f0
ec
e9
f8
12
23
14
09
0e
0e
15
ff
fc
04
fd
fb
01
f3
11
1e
0d
02
05
fc
f9
f6
fc
04
ff
06
fb
0d
1b
30
11
1f
18
0b
20
1d
06
14
fb
00
08
e8
f8
00
0f
07
fd
f9
f2
ee
f2
f4
f7
f2
fd
02
0d
0c
08
06
10
0f
12
13
0a
20
16
fd
05
ed
08
0a
14
17
0b
f6
f0
e8
ee
eb
ec
ef
f2
fa
05
09
18
18
02
02
f4
0b
18
23
14
03
fc
00
05
0d
11
08
fd
fe
fc
e8
e5
e0
f2
fc
04
0e
09
16
1e
1e
19
10
0b
0f
1a
0c
09
05
07
00
fe
e9
eb
fe
fb
f1
f5
ed
ea
fa
07
05
16
14
22
26
1a
1b
11
12
1a
1b
13
0a
18
17
11
fa
ff
e9
f2
f8
f4
f9
ea
f0
01
14
07
0a
14
1f
1d
21
1b
1d
17
19
17
1d
0d
07
0e
0c
0b
05
06
e1
f5
02
f0
eb
f4
ff
0b
12
0e
0c
06
06
11
ff
11
16
0a
12
1b
21
22
01
f9
0b
06
05
03
eb
f7
f5
fa
f3
f8
fc
0a
0d
12
08
fb
01
e7
fb
f6
ff
f9
08
16
1e
07
1c
f1
10
0a
1d
00
ea
e6
f1
07
fb
fe
fc
0d
09
12
11
f4
eb
f1
f4
e6
f2
fa
01
14
21
0e
30
fa
04
fc
0f
f8
ee
f3
f9
01
fa
02
fc
03
fc
10
06
fd
ec
f4
f2
f1
ef
f4
ff
18
fa
ed
13
f1
f1
00
06
f7
f9
fd
f9
f2
f7
ff
fe
fe
0a
0f
0b
ff
fd
ed
f0
ed
e6
f4
04
09
f9
e9
f5
f8
05
02
fd
f0
fa
01
00
f4
f5
fd
fd
ff
0d
0b
01
03
f5
fc
f6
eb
f4
fb
ff
fb
f5
ef
ee
fd
08
01
ec
e9
07
18
06
fe
f4
f1
f7
f5
06
01
fe
04
f9
fa
02
f8
fb
e5
f0
fe
fe
ee
e8
f8
f1
09
f7
f2
0c
1d
10
04
05
f7
ff
fb
f7
ee
fb
04
0b
06
02
eb
e2
d8
e8
ec
e4
de
e7
f4
01
02
e8
f6
fd
11
0a
12
09
fb
fb
fa
f0
f2
f4
12
15
21
0f
f3
e6
c8
d0
e1
e0
d7
f6
02
10
06
f5
e5
f1
0c
1b
13
18
01
05
f5
ea
ea
f8
1b
27
2c
1b
f1
d8
c6
d7
df
e3
e8
f9
e6
f1
1c
ff
e1
f1
0a
0d
0c
16
09
06
f4
ef
ec
ff
0c
14
21
16
e6
cd
ca
da
e6
ef
e1
ed
f3
fd
0b
ec
e9
f0
0d
09
10
0b
13
15
00
f9
04
01
0b
02
10
ef
d3
cb
cf
db
e6
ed
ea
f4
ff
f8
f8
f5
e9
ed
ee
04
05
00
03
08
0c
10
0d
fe
fe
f8
fd
de
d3
d4
da
e6
ec
e5
ef
07
01
f1
fe
fd
f5
ef
e9
f1
fc
f9
05
0d
12
1d
11
0a
fd
f5
e9
db
dc
d6
de
e4
f1
f9
f9
f4
fe
00
05
f8
0b
06
05
f4
fa
f8
f3
fa
03
08
0a
02
fd
ee
dc
da
da
e3
e4
f0
f4
fe
f4
ed
01
fb
05
14
1a
2b
1d
00
02
f9
ee
08
04
12
1c
0b
07
ff
ee
eb
e1
eb
e1
ed
ee
fe
ec
f4
01
00
03
12
03
02
0b
0a
19
0e
15
1c
1c
1d
1d
16
16
22
0f
f8
08
0e
07
fe
fe
00
00
fe
00
04
02
ff
0c
01
00
00
20
25
36
37
3b
30
46
36
1d
2b
23
0d
0f
14
15
14
0b
04
00
fc
fd
fc
01
05
04
f3
ea
09
11
13
14
25
21
1d
18
2a
1e
21
0f
0e
04
07
05
00
f8
fb
03
05
03
03
fb
00
01
ff
fb
fc
05
fd
fc
fb
04
09
04
fc
fb
ff
fc
fd
05
fb
fd
fd
fe
fe
04
ff
fe
04
03
fe
fc
06
03
13
0b
06
05
0a
06
0e
0d
00
1e
06
10
1b
1a
24
14
12
0c
fe
05
fc
03
fd
02
04
12
17
0e
12
17
07
00
09
18
09
03
07
19
17
08
0b
0f
0b
11
17
1e
03
f8
05
fd
05
ff
06
10
f7
0e
15
0e
17
0a
06
00
13
19
15
12
12
06
07
06
f6
fc
04
15
12
fe
fc
05
04
03
0e
f7
18
14
0b
f6
0f
05
09
08
0e
0e
17
07
ff
f8
f3
02
02
f6
fd
00
f0
04
0d
14
00
fe
0e
f6
13
10
10
07
04
fc
f0
f5
03
06
08
fe
f6
f1
ef
f8
f9
fb
fa
ff
fe
04
10
0a
01
05
01
06
0e
02
02
02
f1
f5
f3
f7
01
f3
f8
f2
f4
f2
fd
f6
02
05
f9
f1
f3
f8
f7
02
02
18
08
0f
11
fa
01
04
e5
f3
f4
ea
ef
ec
f0
f6
f1
f6
07
06
07
fb
f5
ff
f5
f2
f9
04
0d
0f
ff
05
0d
ff
02
0e
01
f7
f6
f1
f0
f7
fc
01
fb
04
05
07
01
00
05
fe
eb
ec
02
06
05
06
fe
0c
18
06
07
0a
09
fd
ff
f9
fe
05
13
08
07
03
ff
fa
fb
09
11
0c
fc
f0
02
14
0a
09
0b
06
19
04
fe
07
10
10
10
03
fc
14
18
04
00
fd
03
04
00
05
16
0b
ff
e4
fa
20
12
14
10
15
13
05
04
18
13
16
12
08
00
15
0e
04
f7
ff
07
0d
0d
00
0c
0c
0c
e8
fd
20
08
0a
07
0a
0d
05
04
0f
1b
16
08
08
f4
f7
12
06
0c
0b
16
01
04
01
0c
13
15
f3
f8
18
05
09
15
0a
0e
11
0e
ff
03
03
00
01
e5
eb
01
07
07
0c
09
0a
03
07
0f
18
11
f5
e9
f0
fa
0e
20
00
f2
0b
04
f9
ff
01
00
f9
e2
f5
0a
02
fe
02
05
0c
09
10
0a
19
0b
fd
f3
f5
03
07
13
fb
e9
03
fa
ff
fb
00
f4
f2
ef
ff
14
07
f5
f2
05
0d
08
00
0e
07
04
fe
e0
fc
0a
02
0c
fd
02
08
0a
07
fb
02
f7
ee
fb
07
0d
04
fa
fa
07
10
ff
00
04
ff
fe
e7
df
f6
02
06
fd
02
06
0a
fe
ff
f5
eb
f3
01
07
0f
0f
fc
fa
07
05
0a
fc
00
06
08
09
f6
fb
05
13
07
06
fc
ff
fe
e6
ea
f6
fa
fd
ff
07
16
0d
fe
01
0d
0b
0b
04
f6
f4
f8
f3
f3
08
01
02
19
fb
f8
05
f6
f5
f8
fa
07
fb
fb
08
0d
07
ff
07
10
01
09
03
ed
ee
e4
ef
01
fe
01
05
09
df
e0
f9
f5
fc
0a
f8
ff
08
02
03
0a
0d
0b
09
00
00
fe
fe
e4
e6
df
e5
e7
04
00
02
00
e9
eb
f3
fd
fe
02
f6
f4
07
03
07
09
0d
0b
0c
02
07
05
f8
ec
da
da
ed
02
14
01
04
08
e9
eb
fb
0c
ff
fa
f4
f9
fa
fb
02
fc
0d
13
04
07
ff
f5
e5
dc
de
d8
e5
03
08
04
fc
fd
02
e6
06
0f
09
fc
eb
f5
f1
f3
fc
fe
08
12
fd
f1
ec
df
e2
d7
e6
e4
ec
f8
02
fb
04
fd
09
08
03
0f
04
f6
f5
f6
fe
f7
f8
03
06
07
f4
e5
e1
ed
f6
ea
df
db
e5
f9
fd
fc
02
ff
f3
07
01
fe
02
01
0a
fd
f2
f9
02
fe
fd
fb
f1
f3
fc
08
01
eb
ef
e6
fa
fb
fb
02
04
03
fb
fe
e0
e4
f0
fd
06
08
fc
05
fa
03
fb
fe
fb
02
04
15
01
f9
00
02
ff
09
fc
fe
05
02
fe
01
0d
18
02
fa
04
09
0e
ff
fb
0f
0d
fe
04
1a
0a
03
0e
0c
00
10
01
ff
03
fe
fd
ff
fd
fd
fd
00
02
fd
04
fb
04
fd
07
02
03
07
fe
ff
ff
fb
04
03
03
05
01
fd
fe
03
00
fb
00
00
ff
05
09
0a
0d
0b
06
0f
0e
06
fd
1c
1a
1a
06
0b
16
0a
0e
0a
00
05
00
fc
fc
fe
06
01
0f
0b
0c
0e
1d
1f
2a
29
19
0d
0e
19
1e
1c
17
09
18
11
0f
13
0c
0b
05
fe
04
00
0f
01
f9
09
16
12
1a
23
16
20
1c
11
01
08
0a
fd
00
fb
ee
f7
fd
0b
0a
f4
f8
03
02
08
18
00
03
11
1a
04
18
1f
19
12
02
fc
fd
fd
0b
fd
f4
00
fc
f7
f2
f3
f2
04
11
18
fb
03
10
0d
18
0a
05
07
fc
fe
f6
ed
f2
f1
f8
ff
01
fd
00
fc
05
07
13
09
08
02
12
09
00
14
ff
0f
0e
00
02
04
fb
fb
f9
f4
f5
f2
f8
fe
fc
f5
f9
00
f7
00
08
0c
0f
11
fe
14
fc
11
f7
0f
21
05
00
0b
ff
f9
00
04
f9
ff
08
fb
f5
f2
f7
f4
f8
04
0e
07
05
08
fc
10
04
13
ff
10
16
04
ff
0d
fa
ff
0e
04
0a
08
05
07
f9
fd
fd
fa
01
fd
0f
13
ef
f6
0a
08
ff
0a
05
20
11
0b
f8
08
06
fd
02
fc
fa
fb
06
ff
03
00
fd
fe
05
05
1a
19
ff
0b
14
02
fe
15
08
07
07
fb
00
02
04
fa
00
f3
e6
f1
06
00
fe
0e
0c
04
0e
0f
0f
0f
03
ed
0f
07
06
06
fe
fe
04
f4
02
01
fd
f5
e9
e0
d5
02
19
f7
ef
f8
02
09
04
06
04
0b
12
0f
09
15
06
03
fb
f3
f3
f5
f2
f5
eb
f1
e1
dd
f9
19
1a
f3
ed
f1
f6
00
05
09
f6
f3
25
26
15
19
0c
fc
fc
f4
e3
e7
e4
e2
e9
e8
e4
f6
11
1b
0f
f8
f4
f5
fa
f9
00
f8
f0
fc
19
1c
1a
0e
0a
f6
01
f3
f6
e6
ed
e9
ec
ea
f2
10
22
22
17
f2
f2
f6
f0
ee
f0
f4
f2
f8
15
13
26
10
02
01
12
f6
fd
f7
03
f6
ea
f6
fe
19
27
2b
12
fe
f5
ea
fb
fb
ed
f5
f7
ff
1e
0d
fb
13
fc
07
14
13
08
0a
02
05
f6
07
0e
22
26
1b
11
fe
01
fa
01
ff
e9
fd
00
16
1e
15
13
12
02
06
0c
15
13
09
0a
07
04
0c
1e
23
20
1c
0c
ff
05
06
05
fd
f0
ef
02
14
19
1c
09
10
fe
0d
06
08
0d
0a
03
04
03
15
12
08
0e
0c
05
07
15
11
0b
fa
f7
ec
fc
09
1c
1e
0b
10
02
ef
fd
fd
0a
07
02
06
0b
0f
0d
02
03
08
05
10
13
1e
14
ff
fc
fb
0c
0d
0d
22
12
07
05
f4
00
0b
0d
fe
00
11
05
08
01
01
00
0b
06
05
03
0c
0c
02
09
09
00
fe
ff
14
10
02
01
13
19
22
0b
f9
01
0c
ff
fc
fc
fe
07
0c
0c
00
06
11
0a
0d
05
ff
02
03
f9
11
01
fd
05
07
17
12
1b
19
0c
00
01
01
ff
06
07
09
07
02
02
02
02
0a
f4
f2
03
f2
f3
0a
f3
f9
03
01
20
ff
16
09
01
fb
fe
08
06
08
07
07
fe
01
03
ff
fc
ff
fa
f8
09
f6
f6
fd
03
00
02
fc
03
0c
f4
f0
f2
ee
ed
f9
fa
fd
fe
fe
01
fa
03
fa
e9
fd
f8
01
fe
f2
07
08
05
fe
02
02
fe
fb
f3
f7
03
f7
f6
fd
ff
02
00
e9
e8
f1
f5
f2
e2
f7
ed
dc
d8
ee
01
fb
09
02
fe
01
fe
f7
f2
df
db
e6
f2
f6
fb
f7
da
dc
da
dd
e9
f9
fa
f3
de
e3
e2
f9
f8
ff
04
02
ff
ff
04
02
08
0b
15
04
08
02
10
05
ea
e6
ef
f9
fe
f7
f2
f5
f9
f2
f2
02
03
01
fc
fc
00
ff
00
00
fd
00
03
04
05
fc
fe
fd
02
fd
09
08
03
01
fe
01
01
00
fe
fd
ff
fe
ff
02
03
fe
fb
05
00
02
01
fe
00
fa
fe
06
07
f1
f2
09
10
08
f2
f8
04
fd
0a
0a
05
03
00
fd
00
03
fc
fd
04
fc
02
02
06
15
12
0d
00
fe
f8
0f
1b
19
09
f8
fe
01
05
0a
0a
06
fd
03
fd
fb
13
07
00
fd
fc
fe
07
12
10
0b
0d
08
fe
f9
06
06
00
f5
e2
03
0e
0c
01
05
fd
04
00
fc
11
fc
f0
04
13
fb
fd
06
0c
09
07
fe
07
06
0c
05
01
05
fd
f5
ff
fc
05
07
0e
fc
05
fd
0b
06
06
18
11
0c
0a
08
fa
f7
08
fc
02
ff
06
f4
fb
02
08
0c
0b
01
09
0b
01
f9
04
12
f8
05
01
09
0c
0f
06
02
0d
07
07
01
fe
06
00
00
f8
08
08
06
0d
0e
0d
19
03
07
05
14
06
05
03
fa
00
05
ff
04
1b
12
15
10
09
04
03
05
08
07
08
0a
13
12
04
03
00
02
00
19
f8
ff
f8
fe
04
0b
fa
0e
13
17
1c
17
0e
0e
0a
0d
0f
10
0a
fa
0a
1a
03
00
15
0e
ff
0f
fb
01
03
fd
f6
04
f9
ff
05
05
fe
fe
07
f5
f5
07
09
05
fc
0b
14
17
0f
11
27
16
03
05
06
ed
f8
e9
fd
fe
f8
eb
f4
eb
dc
dc
f6
ee
f3
fb
02
f6
f9
07
0e
12
06
05
28
1d
01
07
f7
ef
f0
eb
f2
f4
df
d3
d7
d7
d1
ef
0d
f5
f5
f8
f3
f2
f8
06
10
10
12
19
17
11
05
06
ec
e7
db
dd
db
e2
d6
cf
d2
d1
ea
12
12
02
f7
f2
f6
f7
f8
02
f6
f1
13
21
14
1b
fa
04
05
ee
d1
d8
da
d6
d8
d8
e2
ec
08
24
13
08
fc
f2
f3
f4
ff
03
ed
ec
06
0e
19
11
04
f6
fa
f9
df
dc
e7
e7
e7
e6
fc
0d
27
22
0e
ff
f7
f5
f9
fc
ff
fb
ee
ed
00
08
1f
0a
03
fc
fc
fa
f0
f6
02
f8
f0
fe
0f
20
20
23
0f
fb
f1
f8
fe
fa
f3
f4
e2
ec
08
00
01
0a
00
00
07
0b
10
02
06
0c
01
14
19
2b
27
16
0c
fd
f9
04
08
fb
e5
ec
e7
fa
05
08
06
0f
fe
fa
02
17
14
09
0e
08
13
23
28
25
1a
0b
fe
03
06
02
01
fb
f5
f0
fe
01
17
12
15
16
fc
02
f9
0e
18
12
0f
18
15
23
20
11
0f
f4
f8
04
08
04
04
02
ff
f2
fd
0e
23
1d
1f
12
f9
f4
f6
05
19
0c
0a
10
10
1c
12
03
f7
f9
fa
02
01
0d
03
fe
03
05
0d
16
19
1e
15
04
fd
ef
01
0c
10
08
0f
1d
11
09
04
02
fc
06
fb
fd
fb
ff
ff
fb
07
0e
04
16
0a
17
0b
fc
fd
06
11
18
12
fe
0d
19
02
04
fb
fd
fc
0c
06
ef
f6
fd
fd
ff
06
07
08
0f
01
0f
fd
fd
f9
fe
06
fe
19
1d
11
03
04
05
00
07
05
05
fb
f3
f7
fe
f8
01
08
fd
04
02
0b
0e
ed
00
03
fc
17
ef
12
04
f9
f6
fc
03
ff
0c
0d
0e
fe
01
0b
fa
f2
00
04
fd
0b
fe
f2
00
ee
02
fd
fd
03
eb
ed
ee
f3
e9
fb
06
f7
04
0b
05
05
ff
00
fa
ea
01
03
f4
eb
e3
f6
07
06
fd
00
fd
f5
17
f7
f3
fb
fc
fc
02
07
07
03
fb
fa
03
f8
01
ef
ed
fa
e2
e8
f3
00
04
04
02
fe
fd
02
01
ec
e1
e4
02
05
11
0b
07
ea
e6
e5
e6
f1
f8
00
f7
e9
eb
f4
03
fb
01
fe
ff
fe
fd
02
01
05
0c
06
02
04
11
16
1c
f8
f7
1d
15
06
00
00
fc
fa
f6
f1
02
fe
fd
01
01
fe
01
fb
00
03
03
fe
04
04
fd
fe
02
01
fd
fe
02
fd
04
05
fd
fb
01
00
fd
04
00
03
fc
05
fb
05
ff
05
06
fc
03
03
fd
03
04
08
07
00
15
0f
12
11
14
15
10
07
06
fd
fd
fe
02
fd
fd
fe
11
13
fd
04
0e
fc
f5
f9
fb
f4
fa
f4
f3
ec
e6
f7
04
02
0c
09
0b
fa
f9
05
fb
04
fd
07
0f
16
00
ff
f9
f1
f0
eb
e4
f1
f2
e9
e4
e1
f7
f5
f1
fb
0c
0b
0b
09
06
01
04
fe
ff
00
06
ee
f8
f1
f1
df
e9
f0
ec
f4
f5
e9
e4
dd
f2
f7
fb
00
04
fe
11
07
04
15
f8
03
ff
07
0c
ee
ed
e8
eb
e7
ee
f0
f4
ea
ef
ef
f6
f2
f8
ff
06
10
0a
06
fa
07
fc
fa
fa
00
ec
00
f6
ef
f5
f1
f4
f1
ef
f7
f8
e8
ea
f9
fe
03
01
12
14
15
12
11
04
fe
11
05
fb
00
e4
02
ec
e8
e7
f0
f8
e7
ec
f6
f4
f3
fe
02
11
15
15
24
16
1a
22
17
10
fd
09
f8
05
14
f6
01
f0
e8
e0
ee
ee
e7
eb
ed
fa
0a
12
0f
0c
1e
22
22
17
11
14
0e
17
1e
08
09
0e
fd
fb
f9
f0
e4
e1
e9
e6
e3
f6
07
07
0c
18
0d
0f
12
0c
0c
05
08
07
03
06
2d
1f
03
ed
f9
00
fa
ed
eb
e9
e1
ee
f7
03
0e
0c
12
0a
12
10
03
f4
f5
f6
fc
05
f9
09
1f
0b
14
f8
fc
04
0e
f7
e4
e4
f1
fe
f0
f6
06
0a
07
09
09
ff
fb
f2
f8
f6
fb
02
fe
13
2d
18
2a
0c
00
f1
0b
f8
ee
ef
06
03
fb
05
fb
07
03
05
07
f8
ef
fd
02
fb
fa
0a
0d
12
fe
01
15
08
0c
ff
ef
f9
f9
f1
0a
03
ff
09
04
02
0d
0b
0d
03
f6
f8
f5
fc
f9
f8
0b
f7
f4
e5
f3
01
08
e7
eb
ec
fc
05
05
f9
fb
07
08
06
01
12
08
fe
fc
f7
f9
f4
f9
fb
fd
f3
fe
e5
00
02
0a
ff
df
e7
07
12
0a
07
07
0b
0c
09
0c
01
fa
ed
fd
fe
02
f3
f0
f6
e1
ef
fb
e9
df
f8
f4
f5
de
e9
f4
0c
09
04
0d
0d
18
13
04
f6
e7
e7
f8
00
f9
e8
f0
e9
f3
e7
f5
eb
f1
f4
fc
f5
dc
f6
f5
0b
17
06
0f
15
17
06
ff
e5
f1
f7
f8
00
fb
f7
01
f8
f2
f0
fc
ed
02
ff
11
f8
e0
ed
01
05
18
16
18
16
11
01
ef
df
ec
f4
f4
04
fd
fb
fe
f0
fa
ee
02
02
fe
f5
0d
15
f0
e7
fa
02
11
0b
0c
06
0d
f7
ec
ec
eb
f5
f5
02
f6
01
fb
f0
fc
0c
09
0b
f5
00
02
06
fa
e7
f9
0e
0d
0b
0e
ff
0c
01
f3
e9
ec
f5
f5
07
f9
ff
fb
f3
f7
00
09
13
fe
07
0a
ed
f8
f2
fc
05
15
09
ff
0b
01
fc
fc
f7
f4
fa
f5
fb
04
01
06
f4
f9
0f
16
08
0b
05
0a
f9
f7
06
03
04
0b
09
06
0e
05
00
06
02
08
04
fd
05
05
01
f6
f0
e9
10
0e
0c
09
07
04
00
e5
fc
00
08
02
f9
03
02
08
08
15
0d
08
0d
09
00
fe
f5
ee
f0
f9
12
13
06
08
03
04
04
f1
f4
ea
ef
e3
ec
f7
02
0b
0b
14
16
10
0c
ff
05
fe
f9
f7
fa
ff
0c
0b
ef
fa
01
04
02
05
01
db
db
e0
ed
f5
f4
f5
fa
01
02
04
05
0a
0f
06
20
19
13
1a
0b
0e
fd
fd
01
04
fe
01
13
0e
06
fd
0a
0f
13
07
0c
20
0b
11
0c
16
1d
14
19
20
0a
0f
0e
03
fd
01
ff
00
03
00
03
fa
f1
08
0a
06
0e
11
0e
0f
00
14
12
14
07
16
0d
fa
f4
fa
f7
fe
00
05
ff
01
04
05
fc
04
00
fb
fd
fd
02
fe
03
00
fa
fb
05
00
02
05
00
00
00
05
02
01
02
02
02
ff
00
04
00
03
01
fc
f8
fc
fb
f8
f5
f3
f6
ff
f7
ed
e8
fd
01
fa
00
f2
fa
fc
03
fb
05
03
04
01
f9
ff
fd
f8
f4
f1
ec
e8
ef
e9
e5
e7
fa
fb
08
0d
02
f7
f6
f3
f4
fb
fe
fd
05
fe
fb
0c
00
03
ec
e8
e5
d6
dc
d3
ce
dc
d9
eb
f5
ff
05
0b
05
03
01
01
ef
ef
f2
ea
fd
04
03
13
0d
f0
e4
f0
f2
e3
d7
da
e8
f3
ee
f1
fe
06
05
0c
ff
00
fe
06
00
05
02
ff
fe
fe
05
0e
00
e8
f8
f5
ea
e2
e5
f0
fb
fd
f4
f8
f1
fb
fa
ee
ef
fa
f9
03
fb
fb
13
02
07
03
0d
14
07
f6
05
01
ef
f1
f8
ff
01
f9
fb
f5
f4
f7
fa
ff
07
03
f9
fd
01
ff
0b
0b
f2
ff
12
0c
04
f1
f8
02
07
fc
00
0a
03
fd
fe
fa
fe
0b
08
0a
15
0a
00
f9
04
fe
02
0d
f3
f8
10
0a
fe
f1
06
07
0c
fd
06
02
03
02
fb
fc
07
06
13
10
0b
0a
f8
fe
01
0d
1e
12
0e
0b
0a
fe
f8
f8
07
10
08
01
04
01
00
08
fd
fe
12
0d
17
10
04
fb
02
08
0d
0e
1c
12
13
0c
08
16
fe
12
07
09
0e
0d
0e
12
03
04
f9
f9
0a
03
00
fd
00
fd
0b
06
f8
0b
24
1c
0c
10
0e
18
04
1b
17
15
14
0b
10
12
06
00
f1
f7
04
01
f9
f4
e9
f1
fc
03
fd
f8
14
10
1c
00
0b
09
05
12
20
1b
1f
1f
19
16
0f
fb
f6
01
04
06
f9
f1
f6
02
fe
02
06
f5
12
28
17
0a
0e
1a
04
09
19
1a
26
1e
22
14
11
01
07
0d
0f
02
fd
fc
fd
0f
03
03
fb
03
0a
11
fd
05
0a
25
0d
f9
12
13
19
28
25
1e
10
0b
07
1e
11
01
07
f8
00
0a
09
0a
15
0d
ed
eb
f8
05
05
22
11
f5
f9
02
08
17
21
1c
11
03
02
13
14
05
0b
fe
f7
fd
0b
11
1d
07
e7
17
f4
08
05
07
0c
e7
e6
f4
ee
f0
01
0d
ff
06
0a
10
15
0d
09
fb
f7
f7
01
08
15
07
e7
e5
f6
00
0a
04
fd
f7
ed
ec
eb
db
e1
e4
e7
ea
ff
0a
0d
0a
04
f2
e2
f5
00
fb
fa
02
e4
f1
fb
07
fe
0d
f7
01
e6
e7
df
da
d0
d8
dd
e3
f6
06
01
04
f4
e9
e5
ec
f9
f6
fb
f5
eb
0f
0e
03
03
0c
f0
f5
e3
e4
e8
e7
e1
dd
df
e9
fe
ff
ff
03
f9
e8
e8
e9
f2
f3
f6
01
0d
03
16
fc
fe
02
f2
eb
ec
ef
ea
ed
f2
f8
00
f9
02
fa
09
0d
0b
fa
f7
ef
f3
00
01
03
0b
fb
08
01
fb
f8
f5
ff
07
f8
01
f9
f9
fb
0d
07
04
03
0c
05
f9
f9
f8
fb
0b
f9
01
05
03
f1
fa
09
fd
f0
fa
13
04
fb
fc
f9
03
04
0b
09
ff
10
01
fc
ff
fa
00
01
ff
f9
03
08
fe
02
fc
00
fc
f8
0c
23
09
fe
00
f6
06
0e
06
05
02
02
04
f6
ee
ee
02
fa
f3
f9
02
f8
f1
18
02
fc
fb
0a
0c
06
02
03
03
06
05
0f
12
07
0d
03
f6
e5
f4
f9
0a
fc
07
02
03
fb
f2
ff
01
03
04
f0
0f
18
15
03
0b
0d
1c
0f
15
10
13
06
06
11
17
26
18
10
1e
27
1f
1b
f9
ff
01
00
02
fb
ff
ed
ed
fb
fe
01
09
07
04
0b
0d
05
0f
0b
13
0c
0d
03
04
04
eb
e8
04
01
fb
ff
04
fd
01
0b
13
01
fa
ff
03
09
04
03
10
fb
f8
fc
0a
ff
f9
fe
09
0f
0c
fb
04
04
02
04
fb
05
00
fd
03
02
fe
04
05
fc
01
05
08
02
04
00
05
01
04
05
01
fe
04
fd
03
fd
02
03
05
fd
00
01
08
0a
09
08
08
0d
04
05
07
f3
fd
04
03
18
10
18
12
0e
05
02
01
fb
04
00
fd
02
f2
ff
0f
11
0f
1a
10
1a
2e
18
01
17
15
0e
13
08
06
17
16
16
16
07
f9
fd
05
00
fd
f4
f8
f5
10
24
16
14
0d
0c
10
0d
0b
08
0a
08
ff
07
09
f5
09
05
0d
09
ef
05
04
fc
06
f3
f3
13
1a
15
0e
18
07
0d
02
02
00
06
f7
02
fd
fc
fd
ff
f7
fa
fa
f6
fc
0e
18
fe
00
06
fd
18
fd
04
0e
03
fd
fd
00
0d
05
02
01
03
fc
fa
07
04
fa
f1
01
09
09
13
0d
05
01
fb
06
13
eb
f8
02
00
09
04
00
07
fc
0a
08
02
02
02
fd
fd
ef
f5
fe
0a
12
fa
0d
ff
f7
f5
04
1a
fa
f7
f5
fe
f9
fd
03
04
07
06
08
00
f7
fa
fd
ff
05
f7
ee
01
08
fc
0c
ee
f3
ee
00
21
fb
f4
fb
fe
fa
05
02
fd
08
fd
f8
fd
f2
ee
fe
ff
07
fd
f2
ef
f9
0a
05
f2
f3
fe
09
11
09
f8
fb
fa
01
fd
00
05
08
06
fc
f8
f4
f1
00
fe
fd
fb
fd
f0
ef
fe
e3
ee
fb
e5
03
02
0a
06
fc
fb
fb
00
02
00
ff
02
f2
f3
f0
fb
f6
f8
f4
f2
05
f6
ee
ed
f0
ec
db
ee
00
04
0a
ff
03
00
08
fc
ff
02
01
0b
f3
01
f4
fa
fd
03
ff
fe
05
00
fc
fd
e9
01
e7
f5
f5
0e
0d
02
05
00
00
00
fb
fd
fc
06
02
07
07
fb
fd
fd
0b
08
12
18
fd
e1
ed
fe
eb
e9
f9
fd
ff
fa
f9
fc
fa
ff
01
f9
12
11
12
12
00
ff
07
fd
02
06
0b
11
01
f9
14
f5
f8
e2
0a
e7
f0
06
f6
fc
ff
ff
06
04
0e
12
10
0e
01
06
ff
fc
02
04
fc
f5
09
0a
09
f8
fd
df
01
f0
f7
fe
ff
05
fb
fa
04
0c
19
1a
10
0f
02
ff
10
07
03
ff
fc
fa
15
f6
10
fc
06
08
ff
f3
05
0d
ff
ff
0a
0d
12
0e
13
10
fe
05
03
0c
0c
fc
07
07
06
01
26
13
03
04
fa
fe
02
f2
01
fd
06
09
04
02
02
09
19
0b
00
00
fd
00
01
00
06
00
03
f6
1c
0a
ee
fd
01
fa
0b
f7
f7
02
0a
05
ff
fe
00
0c
11
04
00
fd
08
04
fd
00
02
03
05
f2
1e
fe
11
fa
e6
ec
fa
02
00
02
05
01
02
0b
07
06
0a
0c
07
04
01
01
fd
ff
05
08
0a
ed
02
09
fe
04
ed
fd
0a
01
00
fe
10
06
07
11
07
00
05
0d
0a
03
fc
03
fd
00
08
01
0d
04
04
06
f6
fc
10
11
0f
fd
ef
fe
0b
0a
09
0c
0a
0e
13
17
06
05
0e
05
09
fa
f5
00
06
ff
f6
e8
f9
ff
09
15
0f
0e
fc
f1
f8
fc
07
0c
08
06
10
01
ff
ff
02
03
fd
00
00
f4
fa
fd
fb
e2
fa
ff
01
17
11
ff
01
ef
f3
ff
f9
f5
f6
f8
00
01
ff
02
05
16
10
09
07
0f
0d
ff
f3
de
01
05
fd
f9
f7
fc
ea
f7
fd
f6
ed
f2
f6
fa
f9
fc
05
12
03
08
07
0b
01
03
0a
06
0a
fc
fd
03
fe
0d
e5
ed
0b
11
12
08
06
0e
0f
0f
13
1b
0a
0d
14
07
0f
11
00
ed
ee
f0
09
ff
fe
fd
01
05
05
20
28
1a
1a
12
11
1e
1c
1e
17
21
10
12
1b
0d
fd
0d
0a
04
12
0e
fa
fe
00
fe
fc
fb
04
f2
e8
f9
01
00
f9
f9
03
0b
f2
18
18
06
f8
08
0d
05
fd
fd
f9
03
fd
01
04
03
ff
fb
03
00
fc
fe
fc
fc
fe
03
01
f1
f4
03
01
00
fe
fc
00
04
01
fd
fc
fd
02
03
fe
01
fc
ff
fd
fc
ff
eb
f7
fc
00
ee
ee
eb
ee
f2
fb
12
0e
f7
ff
f2
fc
fa
f9
05
fe
05
01
02
03
04
01
f1
f4
f7
ed
fa
09
0e
04
f6
d3
d3
da
e7
e7
f1
ee
f6
fb
fe
fe
ff
04
fc
02
03
fe
0a
07
04
fa
fc
01
f6
fb
f8
f4
00
f5
d9
ca
d0
db
dc
e9
ec
ef
fa
07
06
04
00
fb
00
01
11
fe
06
0f
0e
09
18
12
0a
0f
0a
03
f0
df
d2
c7
cc
da
e6
f6
e9
f5
fd
17
18
0d
fb
02
0c
19
25
0f
11
0d
12
05
0a
14
0f
0b
01
f6
e1
d1
d3
dd
dd
f7
f8
01
07
19
14
fd
fb
fa
ee
2c
16
ed
02
0b
09
0a
09
0e
0d
11
0e
08
06
fa
e1
bd
c8
ed
e2
f9
00
0e
0c
0a
00
0c
0b
26
1b
e9
0a
fe
ff
fe
06
02
0e
1e
12
13
0b
f8
e0
ce
d0
e2
e5
fd
fa
fd
0a
07
fb
11
fc
0f
13
03
0a
fe
06
ff
0c
03
09
11
18
16
0c
fb
f6
e1
d1
da
eb
e8
f0
f8
0b
05
04
0c
fd
18
09
08
11
08
05
0c
17
05
0a
16
20
1f
14
08
fd
ed
e1
d7
e3
e2
eb
01
1b
16
06
06
09
1f
00
1f
21
12
17
11
16
0a
fb
11
23
1d
17
03
02
f8
e8
db
eb
ef
f4
03
0f
16
11
06
12
15
10
24
21
18
11
0d
08
fc
fc
0a
1b
17
08
0a
0c
04
f9
ea
f5
e8
e7
eb
02
18
0a
09
10
06
1b
1a
08
08
09
f7
ed
ee
e7
fe
16
1a
0f
13
11
01
f1
ee
e8
ee
ea
fd
07
20
f1
0a
08
08
11
06
00
fe
f9
ea
ee
e9
e7
01
0f
0d
11
14
13
f6
f1
f1
f3
f4
f5
01
0b
13
f3
05
19
16
09
ee
eb
eb
e8
e5
ed
f4
fe
07
09
0c
0d
0c
0f
fd
ef
ec
f2
05
f1
03
26
0d
f2
fa
f6
1a
f9
e6
ec
ee
e9
ea
e7
f0
fd
0c
16
0d
08
10
06
02
03
f3
ec
f8
ed
f6
f9
14
0f
03
03
13
0c
ec
f7
f8
f0
e9
f3
fe
05
0e
07
06
0c
00
03
fa
00
04
fd
fd
ed
ea
fa
14
fb
07
08
15
0b
f1
e9
e3
ec
ec
f9
04
09
0d
ff
fd
fa
08
fc
ff
09
04
fc
f3
f7
07
0b
17
0d
0a
17
01
06
07
f2
dd
dd
e9
06
00
f8
fb
fe
04
f9
02
05
04
0d
02
00
f7
e6
04
18
19
f6
11
0a
fa
0a
f8
e5
e2
e0
ea
0b
f4
fd
ff
f9
00
ff
09
ff
09
08
fb
05
fb
f0
06
11
0c
ff
04
fa
07
ff
e6
e1
f5
eb
ea
fb
fd
fe
02
0c
ff
04
01
f5
01
0d
0a
fc
ff
09
09
0e
00
fa
13
fc
fa
f4
ef
e5
f2
f4
f3
fa
f7
00
ff
0a
04
05
fb
f4
01
06
00
fc
00
ff
03
f6
02
ff
08
03
08
fb
f9
f2
f3
f5
f5
fa
ff
00
06
0f
09
fc
ef
f6
fa
07
ff
08
05
fd
03
e8
f9
03
00
f6
fb
f2
f9
ec
ea
f0
f3
f0
05
06
0d
0c
10
02
fe
01
02
05
0d
0e
03
03
fe
ee
02
01
fe
03
f4
0a
0e
eb
e3
e0
da
ee
f7
f3
f9
08
0c
06
f8
fb
09
04
02
fa
08
fe
09
09
fc
fc
04
ff
fa
08
02
ef
e7
ea
e0
ef
ea
fb
04
14
05
06
fe
00
00
00
f8
e8
ec
ea
02
03
04
00
00
02
09
ff
f9
fe
12
0c
1a
14
05
03
0d
21
0a
06
14
0e
0b
11
13
16
20
15
fb
02
04
05
00
05
ff
00
01
02
0a
0e
09
1b
06
0c
0e
25
18
1c
1d
25
14
21
1b
1a
0c
01
fd
02
fc
fc
fc
02
fc
fe
00
fd
05
02
fe
ff
fe
10
0c
01
fc
05
fb
fd
fe
fc
fe
03
01
04
fb
fd
04
05
ff
02
fd
00
01
ff
00
07
00
0c
0a
08
0e
13
fe
f2
03
1c
1c
2a
1a
0c
0e
fc
02
ff
01
fc
00
02
f8
02
0b
ff
07
f3
ed
f0
fb
f4
0f
0a
f8
f7
03
f7
11
08
08
22
15
00
fe
fc
fc
ff
fb
05
f8
fe
fc
fc
f8
e5
df
e2
ec
fa
0f
11
f7
f1
00
00
f5
f6
fb
fe
fa
0c
f3
eb
01
04
05
0f
03
fe
ea
e1
e2
ea
eb
eb
f3
07
1a
04
f9
ee
f7
f3
f6
f4
f8
06
0d
f6
f2
dd
f1
ff
ff
11
f9
f8
f0
e6
e5
db
d7
ea
ff
0b
0e
05
0b
f6
ee
ed
f1
ed
ed
f8
0a
07
ed
f9
f8
ff
f4
01
ed
ec
ec
e5
e0
d2
dd
ec
0f
10
13
07
fe
ee
ea
ee
f4
01
02
03
02
12
06
fc
f8
fb
e9
f8
eb
da
e3
e6
db
de
f0
09
17
17
10
13
00
f2
f8
fa
f5
04
08
06
0b
14
0f
f8
e7
01
ef
fd
f3
e6
da
e4
d6
e2
ed
04
07
07
14
17
f8
e8
ec
f5
f3
fb
07
01
fe
03
0b
f5
ee
f6
fd
f8
dc
e6
d9
dc
dc
de
ef
fe
0c
10
1b
13
f2
d5
eb
fc
fa
fd
ff
f1
f8
08
07
f5
09
f5
fd
eb
dd
ea
d5
cb
d9
e8
f4
fe
0c
15
1e
00
e4
e3
f9
f1
ee
fe
f3
ee
e8
02
0b
eb
fa
f4
f0
eb
e7
e3
db
d8
e5
e8
f6
0d
16
27
16
f1
e0
f6
02
00
00
f2
ef
d8
df
d7
d8
e5
f9
01
f9
f6
e1
e6
da
db
df
f8
06
13
22
1d
0a
f0
ef
f7
03
08
ff
f7
e5
e7
e4
cf
d1
e2
f9
0d
f5
f5
e7
e1
e4
db
f2
05
16
1b
11
09
f4
ef
f5
00
04
06
08
07
fa
f0
d8
cc
ca
d0
f3
02
fe
f0
f5
e1
e5
d8
f2
10
1c
10
ff
f8
f3
f2
fe
0f
08
0b
0e
10
fc
ed
e5
e0
dd
df
f0
04
f8
06
ec
e1
e2
e7
03
10
0e
0e
07
fe
ea
f1
f5
0c
16
15
04
0b
01
f2
eb
d9
e4
e7
f2
fe
f5
ef
ec
ee
ea
ef
fe
1e
12
0b
09
01
e9
f7
ff
0a
13
1e
0b
07
e3
e7
eb
df
da
c9
ed
fe
ff
fe
eb
ea
f8
f3
09
15
11
13
02
f8
f4
15
14
0d
14
1b
04
fa
e9
f6
f6
ee
d8
df
d8
f5
06
04
ed
f2
f4
f9
0d
13
0a
02
f7
f6
f9
22
18
11
13
0a
fc
ee
f5
ee
ef
e9
dd
e4
ec
01
f0
0e
0b
ff
fc
01
00
02
fa
fa
f4
f0
fd
21
16
17
01
ff
fa
e4
e6
e3
f5
fb
e8
e6
fc
fd
0c
13
04
0a
f8
fd
f5
f3
f8
e8
e6
f1
fd
1d
1c
0e
11
04
f6
d9
e4
e8
fa
fe
fa
f4
03
04
eb
f2
f6
f4
06
f6
f6
f9
ee
d9
e1
f6
fd
0c
0c
11
01
ff
ef
f2
ee
02
f7
f9
fd
f6
02
fe
fe
e5
fa
e3
ed
f5
f2
f2
f2
ed
ed
f3
f9
06
0c
0a
0d
00
fa
fe
fc
f8
f8
f4
03
0b
00
ff
ff
ef
04
ed
ef
00
f9
f7
ef
f2
ed
fe
fc
06
09
03
09
00
00
08
02
ea
fa
f0
fd
11
fc
ff
00
ee
f6
f0
ff
fa
fa
f3
ed
fb
f2
f7
fa
f6
03
08
0f
08
ee
f4
dd
f5
0e
f8
fe
ff
04
00
03
07
f0
ed
ff
fa
f6
f5
fc
fd
03
03
09
fd
fe
fc
04
06
f2
f5
fb
02
08
07
fb
f9
fc
02
fe
00
06
00
17
11
09
09
0c
05
02
03
fd
09
1b
19
0c
fb
fd
0b
f4
f6
fe
06
ff
00
fe
02
fb
fd
05
fd
fc
0a
07
00
fa
02
08
08
f3
fe
10
03
fc
f8
f8
ff
fa
f5
f9
fd
fb
05
02
02
fc
ff
04
04
ff
02
00
fb
03
00
fe
fe
08
0c
02
03
fb
ff
02
fc
fc
fe
00
05
fb
fe
fe
ff
ff
02
02
fd
05
0b
12
0a
10
06
0c
0e
06
ed
fa
21
18
11
14
14
0e
07
0a
fe
00
04
04
00
fe
02
ff
12
0c
11
0b
1a
1b
1e
25
0f
fc
1a
12
0e
0b
00
06
0e
17
10
0c
0f
08
fe
fb
fd
fb
f8
ef
f1
08
07
06
fe
0f
07
13
fe
07
0f
0e
10
00
f5
f8
ee
fe
0e
12
04
f6
08
fb
fe
01
f2
e6
03
10
05
fd
01
fe
fd
f7
fb
f3
fa
fd
03
0c
06
f9
fc
f6
03
fa
f9
f3
fa
0e
03
ff
f1
f5
1d
0e
0b
03
07
fe
fc
f0
f2
ee
f2
01
04
07
09
05
ff
f4
f6
ff
fe
03
0b
0d
fe
02
01
15
20
12
0f
01
f5
fc
f5
fe
f4
f4
f7
f9
06
05
fd
05
04
0d
0a
f8
fa
f4
f3
09
01
0f
0d
17
18
0d
11
f9
f3
f7
f9
06
05
00
f9
fd
02
f8
03
0c
0f
13
12
00
09
0c
fd
03
1c
03
0f
0e
12
0b
04
00
06
0e
05
0e
01
08
01
01
fe
f4
ec
06
02
0f
0d
07
ee
ee
ef
f1
0b
08
05
09
05
01
fc
f5
fe
07
01
04
07
0f
06
ff
fb
e5
eb
04
13
11
08
08
f0
dd
eb
12
08
02
10
00
ef
08
fa
f7
f2
f7
fc
09
07
09
ff
ee
ec
f5
f6
fa
09
0d
15
04
fa
f4
f2
07
13
07
04
fb
f5
fa
f6
07
04
03
02
08
0a
fd
f6
ed
ec
f4
ed
03
0a
06
0a
08
fb
f2
e8
f6
05
08
fc
ef
f2
ed
fb
fc
02
05
02
0a
0a
00
ef
ef
ee
fd
f3
fc
01
07
13
05
11
f3
e1
fe
fa
fd
08
e7
e8
fa
05
ef
00
06
0d
0c
ff
f6
f0
f9
f7
f6
07
03
f9
07
0a
0d
1e
08
02
14
f1
ff
03
ed
e5
fc
04
07
00
02
08
14
05
f8
f6
ff
fe
06
0d
07
fe
06
0c
08
0c
1d
19
0b
f5
00
f9
00
e6
fb
07
0a
07
04
0e
09
01
fd
0b
0b
06
11
10
1b
11
13
13
0a
04
11
0e
09
05
fd
fe
f6
e8
04
07
13
06
06
06
0d
f7
fc
14
16
12
12
17
1a
07
15
08
05
03
20
16
07
00
fc
0b
05
f6
04
02
05
07
04
03
00
f9
0c
15
13
0e
08
06
06
fe
10
07
fa
08
25
17
0b
08
fc
ff
0e
07
f9
fa
09
fd
fc
f4
ee
04
11
16
13
0b
05
0c
01
f5
05
fa
00
06
11
18
1a
fe
04
00
0a
08
fc
f8
0b
fe
02
fd
02
07
09
16
03
fc
fd
f0
f8
f7
00
03
01
e9
fa
0a
04
05
09
09
0d
0a
fd
ee
06
03
00
0e
0b
0a
09
0b
f6
ea
e6
ea
f2
ff
00
f8
f6
f6
e8
fc
f7
f5
06
13
17
02
02
f4
fe
0d
04
11
13
0d
05
f8
ef
f0
ec
f3
f6
f6
f1
fb
01
f6
ee
05
03
f8
02
10
ff
04
05
04
07
0b
0b
0c
05
07
fb
e9
f2
fc
f8
f0
fd
f2
f3
01
f1
f7
f1
eb
03
04
fe
f1
f4
f7
fe
0c
18
0b
fe
f7
00
00
f5
f5
fa
00
fb
f2
fb
f9
00
f5
ec
ea
ee
e3
fb
05
02
fb
fa
04
0c
15
11
00
f7
eb
f8
fc
f9
00
07
06
fd
e7
e4
f3
f7
fb
f1
f3
0f
07
00
fe
04
f4
02
14
0c
05
fe
f6
ef
08
0c
01
09
14
05
05
e8
d4
d6
df
df
de
df
e5
06
03
03
01
01
fb
fb
fc
ff
08
06
0b
fc
fc
f3
f2
03
0c
0e
fa
f9
f8
e9
f0
fc
00
fb
ff
03
01
fc
ff
04
05
05
06
0f
fb
fe
01
05
fd
f6
f8
0c
fe
09
0a
05
0a
fd
01
07
07
0f
00
05
00
03
fe
05
fd
03
fd
04
fb
02
02
fb
fd
ff
08
06
fd
f9
fb
ff
02
fc
fd
01
01
ff
fc
02
05
03
fb
04
00
05
00
08
10
12
0b
0b
0c
01
0f
08
eb
f6
06
17
22
1f
22
17
14
0b
01
03
fc
05
02
fd
ff
12
19
0b
13
18
0f
fe
04
19
08
f6
04
01
fd
0b
0a
0f
11
1d
20
17
04
02
00
fe
02
04
f5
06
fa
13
11
1c
24
0a
0f
16
0a
07
17
0a
17
11
11
02
f8
09
10
07
fd
fc
fd
fc
fe
01
f0
0e
1b
0a
06
01
0c
04
0d
0f
05
fe
02
fa
03
04
03
f4
ee
eb
f7
f8
f1
fb
f9
01
fe
fd
f9
f8
1a
05
03
10
10
0c
08
08
0c
09
03
f7
e9
e8
ee
f1
f2
d9
dc
df
e8
f0
fb
f7
01
03
0d
14
12
fe
ff
04
0a
0f
09
12
0a
06
05
02
00
fc
f4
ee
ef
ea
dd
d2
e2
eb
fb
ff
04
10
17
13
0a
f6
00
ff
06
08
0b
0c
0b
0f
06
0d
08
03
fc
f2
e6
e5
d5
da
e3
dc
f1
f4
eb
09
05
0e
12
02
05
06
0d
0a
04
07
0c
0b
03
09
08
04
ff
f9
f4
f6
ed
d9
de
df
f3
fc
0c
17
01
08
12
02
05
11
0b
0e
04
00
06
fc
07
01
05
07
04
04
0c
02
f8
f5
ec
ef
f4
0d
0f
08
fc
10
05
05
08
0d
02
0b
00
f7
fb
01
f8
f5
ff
fd
01
08
0c
ff
0b
06
e6
f3
e1
0a
14
04
15
13
02
fd
05
0e
11
02
f5
fb
00
03
ff
00
05
10
0f
0b
15
07
0b
07
f1
e3
eb
03
fd
01
0d
fa
03
0f
04
03
01
f6
f2
f5
f5
f0
02
0a
0f
13
16
07
0c
0c
18
1a
f4
e7
ee
05
eb
05
05
fd
09
0b
09
03
ff
f0
fa
f2
e9
f7
0a
13
1c
11
12
14
06
0d
0d
15
f6
e8
e4
ee
f9
08
fd
01
01
03
01
fa
f2
fb
fe
fb
fc
09
03
0c
08
0a
17
18
10
10
10
03
ef
ed
e6
f1
fb
03
df
fb
fb
f9
06
fa
f5
f4
ff
0a
02
fe
03
10
f9
06
0a
17
1b
11
16
05
f4
fa
ec
e8
0b
0c
f5
fd
04
02
0b
07
08
03
06
0b
12
0c
f8
fc
f2
fc
02
08
0c
04
0c
f8
fa
f4
de
f0
fe
06
f6
05
f5
f5
f9
05
12
05
0a
12
13
02
f4
ef
fe
06
04
10
09
fe
01
ff
f9
fd
f9
e1
0d
00
04
0a
f8
f2
f4
00
04
fc
11
10
08
fc
ef
ea
f3
09
00
0f
0c
ff
fa
ec
db
f2
07
e6
f4
0d
fc
f6
f7
fb
ee
f6
fd
fe
ff
05
05
f0
f1
ee
ff
02
0b
18
04
03
ef
e7
eb
e9
f1
f0
01
04
f3
f2
f3
f6
f7
00
f6
f4
fb
f4
f6
f1
00
fd
ff
05
fd
07
f9
f5
f5
f2
fa
06
f1
fc
00
fe
f9
f7
f6
f5
fb
fb
ef
ed
f0
fd
fe
03
ff
05
11
06
03
fc
f7
ee
ee
e0
e8
ec
e0
00
fd
05
fd
fa
f4
f9
fa
fd
ea
e7
ed
f5
03
fb
ff
09
0d
06
f7
f3
f3
e8
f1
ea
ee
f6
fb
07
fd
01
00
03
04
0a
10
10
f8
ea
e9
f3
eb
fc
00
04
f8
ff
03
f5
f7
ef
f9
00
05
ff
f6
fe
03
fb
10
18
2f
24
1c
14
05
fc
02
ff
f6
06
ff
0e
11
03
f6
f4
01
f1
fc
ff
f0
f3
fc
fc
fc
04
12
fa
18
21
08
0d
12
15
21
13
11
0e
09
fe
0c
06
04
12
10
07
f2
f0
fa
f9
f6
00
fd
05
ff
04
02
05
16
26
28
30
2b
1e
1e
22
34
15
23
2b
21
14
20
1c
1a
1c
16
fd
ff
02
00
02
05
04
f6
f2
09
0f
0c
11
17
0e
0b
0d
1d
20
22
18
1c
19
10
19
17
0b
01
fe
fd
04
05
05
fe
04
01
05
05
03
fc
05
05
00
fd
fe
fe
ff
01
ff
00
fd
fd
03
04
fe
fd
02
fb
04
01
05
fe
04
04
01
00
fd
00
02
04
01
fd
ff
09
0d
05
fb
ff
04
fa
01
02
ff
01
05
04
00
fb
02
fd
0c
00
fb
f4
f0
f0
e7
e3
e6
e9
fd
1c
2c
25
1c
1c
11
12
06
06
0a
fa
ff
00
fe
ff
00
fa
0a
13
0c
09
0c
1a
0b
0f
f7
01
fa
00
16
11
06
0b
fb
0c
00
fa
f7
0f
f9
04
fc
01
04
f9
0a
00
0d
0f
12
1a
10
0e
17
14
06
04
17
06
02
0a
02
07
05
00
ed
02
0b
0d
00
02
01
f4
07
f9
11
09
fd
fd
05
0e
1b
0e
06
02
0b
10
05
0b
04
09
f8
fe
f9
f6
0b
10
01
ff
fe
f1
f2
f5
ff
f7
f6
fe
03
02
0b
05
09
08
0b
0b
06
ff
02
00
f9
ff
09
08
23
17
06
02
f9
e5
ef
f3
03
f7
f3
fa
f6
fa
0b
07
05
11
0c
05
03
f8
07
0c
09
0d
11
0e
1a
0d
0d
00
f5
ea
e3
ea
03
f8
f2
02
05
04
07
04
fe
ff
03
01
fe
fd
fa
00
06
0e
09
06
0b
05
fd
f4
f6
d0
e4
f4
00
ff
ff
0d
04
0e
05
04
f9
f8
ff
f0
e9
e9
e2
eb
f8
03
f2
01
11
0d
02
ed
fa
e9
f4
f5
f5
fa
01
16
01
04
07
05
02
06
f8
f9
f6
f6
ec
e3
e5
e4
cc
df
02
0e
03
f4
ef
ef
fa
fb
f6
ef
f4
04
f9
06
08
10
1b
1a
0c
06
0b
14
ff
f7
ed
da
be
cc
ea
14
0d
02
f0
f0
ec
ec
f6
f3
f3
00
07
17
1a
16
1a
15
0a
08
05
13
01
03
f5
e5
d6
cb
ed
0d
0b
16
ee
f2
f7
e7
ea
e4
f6
02
02
04
0c
13
10
0f
0a
0a
0a
09
02
01
f9
ea
eb
f4
fd
0a
f9
0b
02
ef
f0
d8
d1
e0
e8
eb
eb
f9
fc
0b
06
0a
f8
fb
00
00
fd
00
fa
fd
f2
fd
00
f6
f3
09
06
12
f2
dc
b9
cc
ba
bc
c7
e0
f5
08
07
ff
f0
f7
03
02
09
0b
09
02
04
06
fd
0b
f4
f3
02
0a
fc
ef
e5
cf
c3
a6
a7
ad
c0
dd
e1
e8
ed
f6
00
0b
0a
0b
0c
05
09
17
e9
ee
fa
fc
0e
01
1c
04
f2
ec
e0
c9
a9
92
94
9f
b9
e5
f2
ef
00
02
08
07
10
02
f7
f2
db
e7
f3
f7
01
08
30
21
04
ff
f4
f6
e6
cb
bc
b0
d0
f6
ff
01
fb
f9
09
05
10
ff
e3
ea
dc
e9
fa
fb
ee
05
26
1c
18
13
0a
06
07
07
f3
ef
f3
f9
ff
05
f9
0b
0b
03
0f
f8
fc
fd
f6
ef
f3
fb
f7
f7
11
17
19
18
0f
1f
27
20
1b
10
0d
0a
ff
07
08
0c
06
00
01
02
fc
05
f9
f8
06
ff
07
f5
fb
17
19
13
22
20
1f
1e
18
17
11
06
03
f9
f8
fd
fd
06
06
f9
f1
ef
e4
f5
fd
06
fe
fe
08
12
05
fb
01
10
0a
14
0e
0e
07
03
fb
ff
02
02
07
0e
01
f9
07
e3
e6
fc
04
ff
04
0f
18
0d
0d
03
fe
08
fd
06
0c
0d
0a
0b
07
0d
0b
06
fa
02
f5
f2
f6
ed
ee
15
ff
03
fd
fc
0c
03
0a
0e
23
1d
10
0d
fd
f5
fd
f2
fe
0a
06
ef
d8
ea
eb
de
f8
e6
f7
15
ff
fe
fb
0b
0f
05
26
2e
29
15
16
19
ff
09
0b
ff
00
00
f8
db
dc
e8
e7
f3
f3
ff
03
03
fe
05
04
01
0d
12
16
12
06
00
0f
19
18
05
05
0a
11
07
10
0f
fd
04
09
0c
0f
fb
ff
02
fc
01
fb
fd
04
fd
f1
ec
eb
e6
e3
e6
ec
ea
f2
0b
13
0f
f1
f0
f1
ef
f9
f6
fb
ff
01
01
fd
00
fb
ff
01
03
01
04
02
04
03
04
01
03
ff
0f
03
01
ff
00
fd
fd
04
fc
fb
02
fb
01
01
fc
fb
00
fc
05
ff
0f
09
06
04
10
08
01
fe
02
1a
09
08
11
0f
15
09
09
09
05
ff
fe
fe
fe
00
02
07
16
12
17
12
13
17
20
17
11
18
1d
25
1f
16
16
15
16
13
12
12
0b
fe
fb
02
01
03
01
0a
fd
ff
19
06
fa
00
fa
f7
f2
0b
09
10
10
07
0c
20
06
0d
0a
12
09
f2
02
ff
03
fd
13
ef
f0
0b
0c
fe
07
04
fa
00
fa
08
fd
03
05
02
ff
0a
02
fd
fe
02
f8
f0
fb
0e
ff
ff
07
fa
ff
02
03
06
0e
ff
01
f4
ff
04
0b
15
1a
06
f5
f2
f3
f0
fc
07
fb
fc
0d
14
05
03
f6
f4
e8
f1
03
16
02
f0
fa
f4
e8
e8
f6
0c
1c
ff
ec
ed
da
e6
ed
ec
fa
fa
fe
10
05
08
ee
e4
e9
f0
ff
0e
fb
02
ff
f1
e8
f0
03
0d
12
14
f5
e5
e5
ed
eb
df
e7
ef
07
07
02
0a
f4
e8
f2
fb
fe
01
f9
06
02
ea
e1
f4
13
19
0e
0e
e3
e2
dd
dd
de
d7
ce
d2
f1
f9
fd
06
0b
f8
f6
f9
f3
06
04
fa
eb
df
e0
f3
0d
1e
16
00
da
ca
ce
dd
e9
e6
e3
db
02
0f
ff
00
0d
e0
e4
ec
f3
04
fc
f7
e8
d8
d3
f6
16
25
1a
f8
d9
ce
ce
f1
f7
f6
03
02
00
0d
04
07
ef
f5
ed
e9
e1
ea
fe
f7
e4
cd
cc
fb
19
21
0a
db
d0
db
ee
0a
13
01
f2
f8
cf
03
fb
02
ed
16
ee
ea
da
ef
fb
ea
e8
dc
e8
0a
1b
16
02
ea
df
f2
03
1b
20
f9
05
1b
f6
19
0a
02
04
17
ee
f2
e8
eb
f2
f6
ef
ec
04
14
11
12
0c
f2
00
11
12
1e
15
19
23
17
02
1b
00
01
05
1c
eb
fc
03
fe
08
04
ff
0d
1b
1b
17
07
09
f8
0e
15
12
1d
1e
0e
19
0d
1b
14
02
fd
11
20
f2
fe
0c
15
14
0e
0c
1a
25
26
18
07
04
01
0f
12
05
0f
0d
08
0e
10
fe
16
02
02
0d
08
ff
13
22
24
19
15
05
11
0e
19
13
0b
09
0b
01
06
0a
13
06
07
0a
1f
16
08
fe
f9
0c
02
00
1b
25
0e
0c
07
03
06
01
0e
12
06
02
f8
00
fa
07
13
08
10
21
3d
1a
fa
fe
fc
fb
07
12
0e
fd
02
ff
ff
ef
f4
0d
10
09
0b
04
fd
02
f3
06
0f
01
13
24
41
32
2a
05
f7
0b
0c
0b
02
fe
fc
f8
f8
f3
01
0d
09
08
12
10
07
fe
ed
f7
02
fd
00
fb
25
1e
13
fb
f0
03
f8
fa
fa
f8
f4
f4
f8
f4
0c
0f
09
08
10
11
01
01
e5
f1
f4
f6
f2
ea
f3
13
06
06
00
f4
f8
fb
05
f1
eb
ec
fc
05
08
0a
fe
11
0c
15
fb
f5
e7
e9
ed
e7
e1
e0
fe
12
03
05
01
f3
f9
f6
f6
f1
e8
f3
ed
fd
fe
ff
ff
fa
ff
09
f6
f3
f7
f6
ff
ef
dd
df
f4
f6
06
02
00
0a
f6
f7
f1
ea
e7
e2
ec
ea
f7
08
03
02
03
02
fa
fa
f2
ea
eb
f5
dd
d5
ed
09
01
fb
00
00
e9
ed
ec
e4
e1
db
fb
e4
e9
fa
ef
f8
f5
ec
f6
fa
f2
ec
f6
ee
ee
03
13
05
fd
01
ff
fd
01
ff
f5
f1
f1
e7
f5
ef
fe
db
e0
e3
e8
dc
eb
e1
d7
fa
ef
f3
0c
06
02
09
fb
fd
ff
00
01
fc
f1
f6
f9
ee
06
0d
02
df
e8
d7
e1
d5
d4
de
d0
dc
ea
ef
f3
05
fb
05
05
00
fb
ff
00
03
01
f7
fe
fe
f8
08
04
f1
ea
d9
f2
03
fc
fa
fe
fb
02
05
ff
ff
fc
fe
fe
00
fb
05
05
fc
03
fd
05
00
02
fd
03
ff
04
02
03
fe
02
fd
04
03
fb
fb
02
00
04
04
ff
fd
ff
04
02
07
08
09
11
0b
07
07
0f
0e
0c
fe
1d
14
17
15
17
1f
11
0f
07
05
01
fb
fd
04
01
00
f7
08
13
18
17
12
0b
15
1b
10
1b
24
29
1a
0d
14
10
13
16
1c
18
07
fa
00
03
02
fd
fa
fb
fe
fc
08
fb
ff
11
fc
05
fd
10
0d
10
0e
00
01
00
ed
0d
10
1a
06
f0
02
03
fb
fb
f8
ea
fa
fc
03
04
06
16
0a
07
0a
0d
11
07
12
16
08
14
11
03
0a
0e
fc
f8
08
1c
05
fe
09
f4
fd
f2
f6
f9
f6
f6
fc
f1
f9
01
0c
06
0a
0e
05
04
0f
13
0f
10
0d
0f
0c
12
03
08
05
f4
fd
ea
ea
f2
f4
e6
e8
f0
f5
f6
f3
f9
f8
f1
e7
ec
ef
f8
04
10
03
0c
00
0c
04
ef
04
ec
ef
d9
df
ef
f9
f4
f8
00
f6
f7
f3
f6
ec
eb
ec
ed
e9
f8
04
02
00
08
0a
10
19
e7
00
f8
e7
d9
ef
ff
f3
05
04
fd
ff
07
fe
fd
f1
f8
f3
f6
f8
ff
f4
02
f8
02
13
08
f0
f0
06
0a
ed
e8
f8
04
fe
fd
00
f7
fb
01
fa
f9
f6
03
fe
fe
03
03
f9
ff
fe
fd
f4
e6
f2
fc
f0
ff
f5
00
05
09
01
ff
01
00
fd
fc
fb
fb
f3
02
05
04
fe
04
fa
05
01
d9
ef
ed
f0
12
ef
fa
f2
02
0c
11
05
08
ff
f6
fe
f4
ff
fa
fe
f5
fa
06
fb
03
03
0c
0e
01
04
f1
02
fa
fa
f8
f5
06
11
19
0c
07
00
08
09
06
f6
f1
fc
ff
f9
f8
01
0f
13
10
2b
05
df
ea
0e
00
f7
ef
e6
00
0d
09
10
0e
02
04
10
05
fd
02
fc
fc
ff
f9
03
05
11
11
0b
0d
f6
0c
05
f8
03
fe
ee
05
0c
0a
0c
08
0b
12
09
05
05
07
04
f8
f5
f0
ef
f6
00
05
0b
29
15
05
03
fb
1c
0d
ec
fb
f6
02
08
0f
06
06
0e
0c
0d
05
00
f4
ef
f1
ef
f3
f5
f4
0a
2a
fc
12
f4
f7
04
fc
df
ef
f8
02
05
01
00
09
0a
08
12
10
0c
ff
f3
ee
ed
fa
fb
fe
00
44
29
06
ff
f8
fb
ec
f1
ee
f1
f5
fd
03
fa
01
09
07
1c
0d
04
fd
fc
f3
fb
0a
ff
00
04
1e
f7
ff
ee
00
f8
e6
f0
ea
f5
f6
fd
05
fe
01
09
0d
14
13
07
fc
fd
f2
f6
00
03
0a
18
20
f4
22
07
e9
00
e6
f6
f0
f6
04
06
07
0a
0e
02
0c
11
12
11
0f
08
fc
00
0b
0a
0b
fc
1f
1d
14
fc
0b
05
fa
fd
ef
f7
0c
09
0d
13
0f
13
09
0c
16
0e
08
0b
07
12
09
0b
00
f2
f3
19
fe
0a
04
f4
04
08
01
02
0e
0a
16
0d
0e
05
11
0d
07
06
06
0b
07
12
0b
0b
0a
ef
f6
1d
fe
0f
0b
f8
0d
06
0a
07
05
0e
11
0d
0c
03
05
fe
01
fb
01
0c
16
09
05
02
00
ed
00
f7
fa
fe
05
0e
ff
02
fb
f1
ec
01
04
ff
fb
ff
fd
03
03
0c
05
0d
0e
03
f7
f8
ee
e9
ff
fb
02
fd
04
08
ed
e8
d8
de
df
ea
f9
ea
f6
f2
ed
f7
f8
f9
f1
03
01
f3
f1
ea
f9
0d
10
09
ff
fd
01
f5
f2
f1
ed
ee
e9
e2
e5
e4
e6
eb
ef
ef
f5
eb
e9
ec
df
e3
d9
e8
fa
fe
01
0a
03
00
fe
04
01
08
08
fb
e8
ef
d5
de
f3
e9
e1
e1
ef
f7
e7
e6
d8
dd
db
e5
fb
fb
ff
fb
04
fd
ff
02
01
f8
f9
f6
f9
fb
f1
e4
f5
f8
f1
e6
f8
f7
f3
f3
ee
fe
f4
ed
00
04
fd
fe
04
fc
fd
02
fd
fd
fb
03
01
fe
fb
00
fb
ff
05
07
ff
fd
fe
05
04
01
fb
00
03
fe
05
01
03
02
05
ff
05
06
08
07
0a
0d
09
07
0a
0f
11
fc
0f
1b
12
11
0e
19
08
0a
0d
03
00
01
01
02
fc
fe
13
17
0a
10
0b
18
1f
1e
1b
17
06
01
07
0b
04
0d
06
0a
12
1a
1c
12
0b
fd
fd
fe
fd
f7
16
f7
fe
09
00
09
10
0a
0d
0b
10
0d
08
0a
01
00
fc
f4
fd
fe
03
07
fb
fc
fc
ff
ff
f7
f5
08
01
04
f9
01
07
03
03
fa
fe
ff
f7
02
00
fa
f9
fe
ef
ef
e8
e2
ef
fe
0e
fd
00
ff
fd
0d
f7
02
00
07
03
01
fa
f5
fb
f4
ff
07
03
08
04
fe
f7
f4
ee
ef
ec
04
06
fb
f6
02
fe
05
01
02
02
ff
fe
fd
fa
02
00
ff
06
0d
0d
0f
10
01
09
fe
e5
eb
e5
f3
fd
02
05
0a
0d
0e
06
08
00
fb
00
07
0e
04
04
0d
17
16
18
14
0e
07
0c
02
f0
ee
e9
f2
00
1a
0b
0c
04
08
04
fe
fb
09
0b
14
0d
0a
05
16
18
16
0f
08
0f
0e
ff
fe
fa
ea
eb
ec
fd
03
05
fe
fe
fd
08
fb
01
03
07
0a
05
02
01
05
05
05
ff
fb
06
10
05
05
f9
f1
f0
f4
0f
05
08
09
fe
f4
0e
fd
ff
05
05
fc
fb
ee
fa
f6
ed
f2
f5
03
06
0a
00
01
04
fe
e8
ef
01
0c
13
02
f4
e9
f5
fb
08
07
fb
f4
fd
f5
f7
e3
e2
e5
ef
fc
fd
07
02
fe
0f
1f
f8
f1
f0
00
05
fa
f5
e6
eb
ff
f8
fa
03
f4
02
f7
e5
d9
e6
f2
f5
fd
fa
fe
f5
02
0e
1f
08
e7
05
f8
00
06
f3
e9
ed
03
f1
f7
02
10
0a
fd
f9
ec
f5
f5
f4
fc
fb
f0
f8
08
0e
16
09
f9
0b
fb
fb
03
ea
ea
03
04
00
f2
02
0f
13
09
00
04
05
f8
f0
fb
f9
00
04
03
0c
15
16
22
11
f7
f8
f9
f8
fb
0e
05
0a
f9
fd
02
01
04
05
01
0a
fa
f6
02
ff
05
06
00
0a
1c
1b
02
11
03
00
02
f1
f0
07
07
0b
01
05
05
03
fa
f6
fe
03
03
03
ff
f8
ff
08
01
0a
17
1e
14
0d
ff
fc
fb
ea
fb
fe
00
fd
04
09
08
00
ff
f9
fb
02
01
fe
fe
05
fd
01
04
08
0e
21
0d
0a
0e
fc
f9
f3
f6
f6
f6
ff
03
0c
07
fc
fe
fb
f8
01
06
05
09
05
f9
f6
05
14
06
1a
15
0e
fe
09
fc
f9
fd
f3
f2
fa
05
04
0e
0b
02
ff
00
fb
00
01
f9
f7
f7
f6
07
06
f9
02
0a
03
fe
14
03
04
02
ff
f5
06
03
02
0a
06
0b
03
fc
f9
f3
ec
f1
f6
f4
ee
fb
f2
ed
f3
05
f3
fe
06
10
14
09
ff
01
fd
fb
fc
0a
0c
0d
06
01
f8
f5
fc
f9
f7
e9
eb
fb
f3
f3
fa
16
01
f8
fc
04
02
fd
0d
0c
09
06
0c
0e
04
0b
05
03
fc
05
00
f8
eb
ed
f9
fa
e8
f0
fa
f0
06
fc
00
ef
ec
f5
fb
14
11
04
06
fe
09
0d
0b
fb
fd
ff
fb
f8
f8
f2
f6
00
eb
f5
f3
e6
04
02
fd
01
f3
ff
06
fe
f5
f6
f5
fc
f2
07
04
01
0a
05
05
02
f9
fc
f8
f2
f5
13
07
04
fe
fb
05
f4
0f
04
f4
f2
f6
fd
00
09
0a
09
07
06
07
fe
04
f1
f1
fe
f9
f7
e8
f7
09
00
04
01
ff
02
fb
e8
e5
e9
02
0d
13
09
04
02
04
0d
00
0c
ff
0b
0d
f8
05
02
fc
02
09
fd
ff
fe
05
03
01
0c
14
0c
05
08
06
0e
ff
00
14
13
19
10
0f
0f
0a
00
06
ff
0c
00
02
04
05
00
ff
05
03
02
03
00
02
05
04
04
fe
00
00
f3
fd
ff
ff
fc
fd
00
01
03
02
03
00
fd
fb
fd
fc
03
fd
02
f8
f6
f4
f5
f1
fb
f0
e9
ec
04
df
ef
f1
fd
f4
e9
f5
f3
fa
00
01
01
02
05
00
01
f6
ea
fa
fc
ed
fa
09
01
12
14
0a
1e
07
ff
11
fe
f1
0b
13
00
f0
fe
00
00
fd
fd
04
ea
f4
f5
10
0a
0e
0c
03
0e
17
0c
00
11
14
16
08
08
0c
0b
18
1f
16
fe
f2
0d
00
02
02
f6
07
10
10
0d
16
11
0d
1b
0e
13
16
17
0e
15
11
12
15
17
1c
1a
0d
20
0c
00
0d
05
fb
02
13
19
fe
01
10
05
02
02
01
0b
02
0a
fe
16
0e
07
07
0f
12
11
1d
1d
24
12
1a
04
11
03
fa
11
10
0b
ff
fe
07
ef
f2
fc
f6
fc
fe
f5
eb
e0
ee
f0
f2
06
18
14
20
1a
15
fa
03
f5
fe
1f
1d
02
07
ff
fd
ee
fd
f3
f3
fa
f2
f0
e9
e7
f0
ee
f1
03
04
04
13
1f
11
f8
ea
03
0c
16
0b
00
00
f9
fa
f1
f8
f8
00
f2
f2
f2
ed
f4
f5
ff
02
00
fe
f9
17
1a
05
fd
f0
0a
ff
02
05
fe
fa
fc
f4
ee
f6
fe
fa
f2
f5
f7
f9
fb
03
0f
0f
00
fa
ef
0c
02
f6
fe
fd
f9
04
04
01
fd
00
f6
ed
ee
f1
04
ff
f6
f3
fc
05
01
06
02
02
f3
ef
f6
f9
ff
ef
f6
ef
f0
03
05
ff
f8
02
fb
f9
f8
00
06
f3
f8
fa
03
fb
f9
0b
fb
f3
e9
e4
f9
04
1e
ec
03
f9
f9
ff
ee
f8
01
02
fd
f9
07
0c
1d
15
01
00
08
fe
fb
fd
fe
fb
eb
e7
06
f6
ec
e6
05
f7
f9
fb
ea
00
00
f6
08
04
09
0f
17
14
0a
11
08
03
ff
02
07
04
f6
fd
fb
02
01
fc
0b
02
ed
04
f6
05
09
fe
06
ff
01
03
18
0f
14
15
0e
05
fb
01
fb
f8
f7
f5
f0
0a
fa
f3
02
0e
18
10
05
03
0c
ff
03
fc
f9
fa
0d
0f
1b
19
0c
02
f7
06
f8
04
02
01
f7
12
1f
0f
f5
02
14
11
04
05
0a
09
05
fd
f9
f8
04
0a
13
16
09
05
00
0c
01
0a
07
0f
0f
1c
0a
fd
02
02
1a
0e
14
08
06
0e
06
fd
f0
fc
fc
08
03
07
02
04
0c
13
08
15
10
13
f9
01
f8
f7
f1
fe
0d
1c
19
13
16
06
fb
fa
f8
f6
06
08
ff
06
0e
09
0d
0b
0c
13
05
15
10
f9
f0
0f
f6
ea
fd
18
12
19
0f
00
fe
03
fe
03
f6
fd
03
0a
08
0d
12
04
09
10
0f
15
f4
f9
08
fd
fd
fc
00
16
14
02
06
0b
0a
0c
06
00
00
fa
03
06
0e
12
0b
fd
14
13
0c
08
f1
ed
02
f3
03
05
0b
0c
09
f4
fa
01
0a
09
00
0a
06
02
07
04
08
07
0d
0e
0e
09
19
14
ee
ec
f2
fe
fa
04
06
0c
02
ee
e7
f6
f7
fe
fe
0c
fd
fc
01
fe
ff
03
0a
16
0e
14
0c
05
fa
f7
f5
fe
ff
00
0f
25
08
e9
e6
f2
fc
06
02
07
fb
07
03
fc
fe
f9
0c
0f
0e
10
00
02
e6
f8
f0
03
05
05
ff
0f
ef
e7
ea
e7
f5
04
fd
04
04
03
0c
00
00
ef
f9
fd
fa
02
05
fe
f9
10
fd
01
03
03
03
f4
f3
e1
ed
e7
ec
f7
fd
01
fe
06
fe
04
fd
ee
f5
e2
e8
ea
00
0c
fd
00
04
02
fc
04
00
00
ee
de
df
e2
ee
db
e4
f0
f0
df
d0
e6
e9
e8
f1
e2
e0
e6
e2
e9
ef
ff
fb
fd
03
ff
ff
fc
fc
fc
f6
f8
f5
f2
dd
e9
f1
e7
e2
eb
ea
eb
e7
e6
f1
ef
f2
f4
fc
fc
04
fb
03
00
01
04
01
05
03
ff
fe
02
fb
04
fa
fe
01
ff
fd
02
fd
fc
ff
fd
04
01
02
05
04
03
02
01
05
fd
01
fd
fd
01
f8
ff
f7
01
f9
f2
ee
ee
0b
00
fe
f4
fc
02
fb
fe
02
fe
fe
01
ff
00
04
f7
f3
fe
fc
f7
ff
17
10
09
15
11
10
0d
05
03
0a
07
05
05
f5
00
fb
fc
04
03
fd
ff
0f
14
14
03
09
0e
13
23
26
1e
21
19
1f
21
10
09
fd
f3
f4
f6
e0
e4
f6
04
04
04
fb
04
0e
14
02
05
22
1f
12
28
2b
23
15
0e
12
17
0e
0b
0d
07
fd
ff
f8
f0
f7
07
0f
03
fb
fd
0f
19
0a
0d
0a
05
06
0b
20
15
15
13
08
0e
0c
11
0f
0c
0b
02
09
fc
fd
0f
13
ff
fd
11
fc
0e
11
12
0f
05
06
0f
14
0f
0b
07
0c
07
11
0b
12
0f
0c
05
06
06
13
22
1b
05
fb
0e
fe
15
21
13
0c
09
0d
0e
00
08
fc
fe
06
05
0a
0b
0a
08
0d
00
0b
05
04
25
17
06
fd
02
fb
0d
1b
10
02
02
05
fd
f9
eb
f1
f0
f6
f7
f1
f9
fe
f1
f2
f5
04
fc
ef
01
06
fe
02
02
0f
ff
1e
08
fe
01
f9
e6
e1
dd
dc
db
dd
e9
ec
e5
e2
ea
e7
f1
fb
ef
e5
f7
ff
fe
03
02
0f
0e
0f
ff
f0
ef
ea
e3
d9
d2
e1
e2
e0
e3
f5
ef
e5
dc
de
ec
ec
db
e4
f2
fd
ff
fe
ff
fe
01
01
ec
eb
e9
e5
e1
e5
ec
fb
f5
fc
02
ff
00
f8
f7
ea
e1
e8
dc
ef
e7
02
f9
05
f9
ef
05
f6
e4
ea
ef
ed
eb
08
0f
1a
12
08
06
09
05
03
08
ff
f6
ee
e2
f1
e9
00
ff
10
f7
ee
01
f5
eb
ec
fe
fc
06
16
17
0f
10
0b
f9
02
00
08
ff
03
09
fd
ed
ef
f6
07
03
0a
fe
fc
0d
f8
f0
ff
02
01
01
08
03
fe
04
11
03
fb
f7
07
05
07
07
ff
fc
f7
f4
07
0a
0e
ff
06
13
fa
f7
06
ec
ea
e9
f1
f1
ec
f7
02
06
01
f7
00
02
0c
04
fb
05
0e
fb
11
09
02
01
08
14
fc
02
f8
e8
d7
d7
db
d1
dd
ec
fb
fd
fd
fc
0c
09
08
01
01
fe
0c
02
12
09
05
02
0a
1c
0b
03
fd
ea
e8
e7
dc
d4
cd
e2
f6
04
fc
06
0c
08
fc
01
f3
ee
fc
1a
08
0d
06
02
06
19
0d
08
00
01
07
00
f5
ef
e2
f1
02
03
08
01
05
0f
07
09
fd
fb
0c
11
fc
09
fb
01
14
04
05
00
08
fe
08
0f
0f
16
11
18
16
08
10
0a
02
01
07
0c
ff
ff
04
01
11
0d
04
02
13
09
fa
01
06
0b
0d
11
12
23
17
16
0f
0e
0b
07
0f
08
0c
06
08
04
fe
f8
0e
00
07
12
12
09
f2
ef
fa
07
0c
03
16
13
14
0d
0a
0f
03
04
09
0c
04
00
01
16
12
0d
0c
00
06
0c
0c
05
f9
ef
e9
fa
08
06
08
0d
04
fe
0c
08
04
04
08
17
10
00
03
12
16
09
03
00
00
fe
13
11
11
0f
fb
fb
04
0c
11
0e
02
05
08
0a
fd
02
07
ff
03
01
04
0b
14
03
0f
05
00
00
fc
10
15
0d
0b
11
15
12
08
0a
06
09
10
03
fc
09
0b
f8
f2
fc
0f
0c
0d
0e
fe
04
fd
fe
08
0c
fd
03
0f
17
0d
18
15
12
11
0a
09
fe
03
04
08
01
f7
ec
fd
fa
00
fb
fb
fe
00
04
00
03
fd
fc
f5
f4
f2
f7
fa
f4
f9
fd
f9
fa
fd
f6
fc
fc
f8
f8
02
fd
fb
fe
fb
ff
02
fc
fb
fe
fe
02
fb
fe
ff
00
fd
f7
f8
f5
f2
fa
fd
ff
02
fe
00
04
05
02
fd
03
05
00
04
fc
01
fd
ff
fd
fb
00
04
00
fb
fd
02
00
fe
fd
fe
fb
01
02
fd
fb
01
04
ff
00
01
fd
fe
fc
05
04
00
01
f6
fe
f9
f8
fa
f2
f0
f0
05
f1
e2
ea
fa
fb
f0
fa
02
02
04
02
01
fe
fd
03
ff
03
f1
f6
fe
f8
f0
ed
ee
f5
ed
e5
ea
fb
f0
f5
fe
0e
1b
08
ff
fc
fc
f7
fc
03
fd
fc
15
ec
e6
09
fa
ed
f2
ed
fa
f4
f0
e6
e7
f1
f2
fe
fb
09
05
00
12
0f
07
0e
fa
01
fb
0b
15
08
10
14
02
ef
f3
f5
fb
ff
fd
fe
fa
01
06
fb
08
08
00
f9
00
f5
00
00
f5
f7
04
04
19
fd
08
0e
06
04
f9
f5
f7
f7
0a
03
08
13
12
0b
fe
fa
f7
f2
ee
ee
f5
f9
f3
ff
02
03
08
09
05
0c
08
03
02
03
02
07
fd
00
fa
fe
0a
0c
fc
01
fa
f6
da
e5
e3
ee
01
03
01
04
f9
0e
19
0e
0c
01
02
09
ff
f5
ee
ed
ea
f6
ff
15
08
ff
fa
d8
d1
d7
df
e5
f8
fe
eb
f2
0c
12
10
04
04
0a
f8
fd
f2
e3
ee
e9
eb
02
0f
18
14
03
ee
d7
c8
ce
d2
eb
f6
fb
f8
f5
0c
02
04
09
fe
01
ef
e2
d7
de
f1
f5
01
18
26
26
18
fd
e9
d2
cc
cf
cc
e2
ea
ed
f9
fa
fe
13
00
f9
f3
ed
e1
df
df
f6
f5
0a
0e
19
2a
1f
05
f9
d9
d8
ce
d6
d2
e7
eb
ff
f0
f7
f6
19
02
f6
e6
e8
ed
f3
ff
0a
11
0f
19
13
16
06
f7
e4
e4
e5
da
e3
d7
e2
e9
f3
fe
f8
fd
ff
ea
fb
fd
04
07
0b
1f
17
25
16
15
0e
06
f9
e8
e8
f4
f0
ee
f6
11
f7
e2
e6
14
f9
fd
fd
ee
f9
07
01
0f
17
13
08
14
13
0e
0e
06
f8
f1
f1
fb
00
fc
ff
fb
fc
ee
fb
fa
00
ee
00
f3
01
f5
01
11
07
f7
f1
fd
07
0e
0c
08
04
f4
ff
06
13
fd
00
00
08
ef
fa
fc
00
0f
08
ff
f6
fa
01
0b
f8
f0
ee
f2
02
12
14
0d
fc
fd
fe
15
1d
1f
17
fd
f5
09
00
09
03
11
f9
f5
e9
f9
0c
08
0a
ea
ed
ff
0c
0f
09
01
f7
fe
03
10
12
09
13
17
f1
f3
f4
ff
07
16
f6
f6
ec
f4
0d
0f
f9
e9
e8
fd
1b
11
ff
fc
fc
fa
fe
06
0e
0a
17
0d
e9
eb
ed
ec
04
10
01
f6
fa
ff
14
09
01
ec
f2
02
0c
fc
f9
fb
05
03
fa
0c
15
0f
06
f3
e3
ea
09
0d
e9
f8
16
fd
fe
05
08
fc
f7
ef
ec
f0
f6
fe
ff
01
02
04
09
08
0d
fe
f0
eb
f0
f5
10
04
f5
ff
16
02
f8
08
fd
f6
fa
ec
ee
e6
f6
00
00
07
0b
11
01
0e
02
f3
ec
ef
f0
ff
08
0a
1c
19
11
01
04
02
f9
ef
ec
e9
e9
ef
f2
02
0c
04
0d
0f
06
fe
f5
f7
e9
ed
fa
fa
00
0c
12
0a
1c
0b
09
09
fa
f1
f1
f3
f7
ea
f9
fd
fc
fe
00
0d
0d
04
03
00
ea
e9
f6
0a
00
fb
01
02
10
05
02
02
00
f7
fd
04
02
ff
06
fc
f9
ee
f8
0e
0f
10
07
eb
df
ec
f1
19
05
fd
01
04
06
14
ff
11
11
0b
0e
08
08
00
05
05
f2
f9
f9
0e
04
fd
06
fb
fd
f9
09
04
ff
01
ff
0d
f0
01
0a
17
13
18
0f
02
fc
ff
08
f6
e6
e3
f0
08
00
f5
f8
05
11
fa
f9
fa
fd
02
03
01
01
fa
ee
ea
f1
e8
db
eb
f2
de
d0
e2
e6
f4
f1
fd
df
d4
e0
eb
f7
02
fc
fd
05
05
05
02
03
01
ff
ee
f1
f2
ed
e0
e9
e7
eb
e3
ee
e7
f2
e9
f2
02
01
fe
01
fd
05
fd
04
fc
ff
ff
03
ff
fe
fb
fc
fc
ff
02
02
0d
0f
fd
02
ff
fe
00
02
ff
04
ff
fe
ff
fc
03
01
fc
03
fc
fb
03
07
1c
14
09
07
0c
08
2b
36
35
37
2c
2c
21
1f
1a
09
09
0d
fd
05
04
fd
fe
00
fc
0d
14
0d
16
14
fa
ed
e9
fd
f2
06
16
21
36
2c
2e
2e
1d
15
1d
24
10
02
ff
fb
02
fe
ff
0a
08
ff
00
0e
08
fb
f8
f0
f2
07
15
1c
16
15
21
26
28
17
01
07
19
16
13
03
03
fa
f8
10
08
06
fc
f4
04
0d
07
01
fb
08
ff
18
0b
02
0e
04
05
12
0c
11
04
1b
12
03
fc
fc
08
fd
f4
12
03
fd
03
0b
05
02
fc
05
05
0b
0c
11
13
0f
0a
08
12
12
08
04
03
04
fd
05
f9
f0
f8
0d
f4
f9
fe
fd
03
06
07
05
12
11
0d
15
17
1a
16
14
10
0b
1d
3c
1e
07
01
05
f3
ee
f3
fe
ea
f9
03
0b
0c
0a
07
09
16
12
19
0f
14
14
25
13
10
08
0c
1e
23
08
02
01
fb
f4
ee
e7
ea
f4
02
fe
fe
07
08
09
0c
fc
ed
ed
f1
f0
f7
fc
fd
f7
ee
f3
10
fd
fb
00
e7
fd
fd
e6
ed
01
03
f8
fe
05
05
fc
e7
d7
be
b9
b6
bd
c8
cc
d9
de
e8
f9
0b
0a
03
ff
eb
00
f3
e8
ed
f5
fa
fe
fd
ff
06
f9
e2
d7
c4
c2
ac
a7
be
b3
b5
bc
cb
f0
0b
11
f9
f6
f1
ef
ea
f6
f2
f4
fc
03
02
f8
03
f9
ec
ef
00
f0
e1
d0
ba
b9
b9
b6
c2
e2
0b
13
fb
f8
f9
e9
f1
fa
0c
ff
05
f9
05
03
fd
fc
05
06
09
0a
09
ee
e4
d1
c7
c3
cb
e4
ff
0f
fe
ff
f5
ed
00
fc
0f
06
02
fd
f7
fc
fa
fd
07
0e
0b
0a
05
13
12
fc
f3
ea
f2
d9
e7
f7
09
05
fc
ea
09
f9
01
04
07
05
00
f4
fa
f5
09
0c
11
08
14
17
22
0f
0d
08
00
dd
e8
f4
0b
05
fd
ea
f9
f2
f2
f9
ff
02
01
f7
fb
fd
02
09
06
03
14
13
15
1c
0e
04
fd
f3
fb
f8
ff
06
02
ff
f5
ea
e1
fc
f7
f9
fd
02
fb
ff
08
05
fb
fb
00
0d
0a
14
12
01
00
ed
e4
f8
04
07
f9
1b
f8
ee
ed
fc
fd
f2
f2
f9
f4
f9
06
07
f3
f9
fc
08
06
0f
0c
fb
05
ed
e5
e2
fc
03
ff
18
02
f3
f0
fa
01
fc
ed
ec
de
ec
05
06
fd
ff
ff
04
0a
16
ff
ff
05
f0
e5
e9
01
fe
03
20
08
fa
f9
ed
fe
fd
f6
f4
ed
e8
03
10
0a
ff
06
06
10
12
03
12
16
07
ef
f2
05
fc
fe
16
0c
ff
f6
f7
05
11
03
00
f4
f2
04
13
0d
0b
10
10
12
03
0e
13
0e
13
ee
02
00
f7
fc
10
21
09
01
06
03
05
07
02
fd
03
0a
0f
11
03
0c
0e
10
0b
08
ff
02
04
f8
fd
00
f5
f5
06
16
10
01
01
02
f9
05
fd
04
fa
03
07
0b
07
05
0a
10
06
06
00
ef
f8
07
03
00
fb
01
0e
11
0b
1a
fd
f8
fe
09
00
05
03
07
08
06
08
0a
06
05
01
f0
e9
ee
fc
12
fc
03
fe
0c
13
12
0e
13
1b
06
10
09
fc
07
06
0b
0f
10
16
05
f9
01
fc
f0
ef
f3
f3
07
fb
fd
03
0f
16
0a
08
1d
28
2a
2a
11
18
24
17
fe
08
fb
f2
f6
0e
15
16
1c
0b
0d
fe
fd
00
04
fe
04
fb
fd
04
04
01
f9
fa
fd
fc
fc
ff
03
f7
f1
e9
f7
0b
0d
0b
0b
0c
fc
fc
fc
03
fe
00
05
fc
fd
04
fe
01
02
fb
f6
00
fc
f9
f9
ff
f4
f8
fb
f2
fa
f4
f0
02
fe
02
02
00
00
ff
fe
03
04
02
03
03
05
fe
fd
ff
0a
07
00
02
03
04
fe
01
fc
01
fd
01
05
ff
02
ff
00
fe
01
fc
fe
ff
17
09
05
05
0c
fe
02
09
0a
fa
ff
06
19
20
24
11
13
0c
fd
03
03
00
00
05
01
00
08
0a
17
0d
0d
02
00
13
11
13
19
0a
fd
11
12
0a
0d
09
1f
0c
fc
fa
fc
fb
03
fb
ef
fc
0e
0f
0c
0c
01
0d
13
19
10
08
0e
ff
06
00
03
ff
05
19
13
1c
10
02
10
fe
01
06
ed
f8
04
fc
f7
0b
06
0a
17
16
18
07
09
00
fc
07
fa
f8
0a
10
0d
1e
23
18
12
15
01
05
f2
f2
f7
f0
fd
0d
10
1c
1a
0d
06
f5
fd
f2
00
f7
e5
f0
f8
fb
fc
16
31
20
0f
0e
03
fe
0b
db
00
08
fe
0d
17
14
fc
fe
f9
e0
df
e9
e9
f0
dd
e0
e5
e8
f7
11
20
19
12
0b
fb
f7
14
f1
fe
0a
ef
03
11
15
09
fa
e2
d2
d7
e1
ee
f8
ef
e2
e6
01
0e
07
10
13
21
12
06
ee
13
12
0d
07
fd
09
12
14
05
f0
df
d9
de
ec
fa
f1
e8
ea
00
07
07
0a
05
1d
17
10
02
0a
07
0b
0f
eb
f4
05
1c
18
04
fb
e2
d0
e2
ec
00
f3
f4
03
13
11
0f
11
0f
1d
fc
e5
ff
f8
f6
fb
07
e4
ec
0a
1a
26
1e
05
e4
db
e4
fe
fb
fd
fb
0f
0d
04
10
04
1b
ec
e0
e4
02
15
04
fc
fa
f3
f5
04
17
2f
20
11
00
e8
f4
08
06
fa
fc
06
05
11
0c
12
14
f7
f1
f2
ff
0f
f9
02
ed
f2
fa
07
12
17
25
19
0e
f9
f4
00
08
fc
01
05
12
1e
14
0f
26
fc
e7
eb
fb
07
05
fa
e4
03
03
00
0a
0f
0b
0a
09
fe
e7
07
03
f8
0d
10
1a
13
0d
09
06
f3
dd
f6
03
00
fb
ed
ed
0f
08
0a
0f
02
05
10
0a
fd
04
0b
ff
06
07
08
06
0a
0e
fb
03
f4
db
f9
05
00
01
03
f8
08
0d
10
0a
fb
fb
12
14
08
10
0b
06
fe
f4
fd
fa
fa
05
06
ef
f8
eb
f6
f8
03
f3
fd
e6
ff
00
fc
fc
ef
fd
05
16
10
0b
0b
09
f4
f5
fb
f5
f5
f4
f9
f8
02
e3
f3
03
04
f4
f7
f3
f2
00
fd
f8
ec
ec
06
0f
0a
09
0b
0d
fb
fa
f9
f8
01
f7
01
fd
05
ee
e9
f6
01
f7
fe
f8
ed
ed
ec
f3
f3
03
0a
28
1a
12
03
03
f8
03
fb
f8
fe
f9
fa
06
02
fc
ed
f0
e9
f1
ff
e8
e1
ef
e3
ed
fd
11
1c
24
19
18
0a
f4
f6
f9
f8
f8
fa
f4
00
01
f6
f0
f8
02
fd
fc
f6
d1
d9
e5
e6
f1
04
13
14
16
10
10
0c
f9
01
0b
f8
fb
fd
fc
ee
ee
ff
fa
f5
fa
fc
05
f3
e4
d6
e4
e8
f7
06
05
1a
1c
1d
17
12
02
11
08
00
05
07
0b
f6
e8
02
15
04
f1
f4
00
f1
06
ea
e0
e5
ef
f5
fc
02
0e
07
0c
12
11
0b
fd
01
f3
fd
f7
e9
e6
02
1c
fc
01
02
07
fe
0d
f1
e2
d7
e8
eb
ea
e4
f6
02
11
10
0f
09
09
f8
e9
f1
f5
f4
e4
02
15
ff
fb
fc
fc
07
f8
ee
df
d7
cf
e4
ed
f7
f9
01
16
04
0e
f8
f2
ef
e4
f2
ff
f6
db
fb
02
01
02
ff
f5
ff
e3
dd
f1
db
d4
da
ee
f5
ea
f4
01
0e
00
05
fe
f7
e5
ee
01
fb
f7
f6
fe
03
02
fe
02
00
ed
df
dc
d0
de
de
dd
ed
ee
db
c8
da
e5
f0
ef
da
e1
f5
ed
f2
fc
fc
fd
02
fd
03
fe
05
02
0e
02
00
ff
f7
e2
e4
ed
fa
e5
e0
ea
f9
f1
f8
fe
fd
04
0f
fd
fd
01
04
01
fb
05
00
fe
fd
03
04
fe
fc
00
fc
06
07
fd
ff
fe
05
fd
05
03
00
ff
02
fd
fe
01
fd
01
ff
05
fb
03
fd
f5
f4
f6
fc
fe
04
02
01
fe
f3
f3
fb
f1
f4
f8
fd
02
ff
fd
fd
05
ff
01
01
00
0f
0c
fd
f8
fe
f4
fe
fd
ee
04
fb
f4
f0
ef
ee
fd
02
f7
f6
f2
f4
06
03
fe
00
03
05
00
05
05
fa
fc
f8
fd
01
04
01
00
fb
07
07
05
08
09
fe
09
06
f7
ef
f8
0b
19
fc
fe
03
fb
0a
fd
f9
06
0b
fc
fe
f1
f9
fe
fe
04
12
11
20
15
0c
02
09
08
fb
10
09
fb
f0
fc
00
fc
11
06
01
06
09
05
fe
fb
f9
00
05
06
09
07
0a
0f
0b
0d
03
11
02
f8
02
f8
f2
01
11
0b
1a
18
16
0e
fc
ff
04
03
03
0a
0b
03
fb
f1
fe
01
11
01
07
0d
04
04
fd
0b
f7
03
21
18
26
02
0a
0d
fd
01
01
0a
12
12
0b
01
f6
f2
fb
0f
11
ff
fa
fd
fd
06
fc
fe
f7
17
11
10
11
fb
06
f3
02
f8
04
06
0e
14
0d
04
f9
fb
07
11
10
0c
01
0c
0a
0d
04
08
fd
0f
02
0e
0d
f8
fa
ed
f3
f4
02
fb
08
0c
0b
05
f2
fe
0f
18
0d
0b
04
0d
17
10
1d
05
02
0d
07
1a
13
f3
f1
f7
f9
f0
f0
fb
04
05
10
00
ef
fd
0f
12
0a
06
0a
11
04
07
0f
10
fc
0d
0b
12
10
f7
f5
fd
f4
ef
f7
06
0f
07
00
ea
e2
f0
02
0a
fc
fa
f9
f8
f8
fa
fd
1a
ec
06
0f
ff
04
f0
f3
fd
fe
fe
fe
06
0a
06
fe
eb
f0
ea
04
08
fb
f1
ec
f1
ed
f6
fa
0b
ed
fc
0f
12
09
f4
fc
08
06
06
00
06
0b
00
f8
01
ec
f3
fb
06
f2
ed
e5
e5
ed
04
04
07
07
0e
10
15
07
fd
0e
fe
0b
04
00
0b
fd
f4
f4
06
f9
e6
f3
f8
ed
ef
ea
f2
fe
13
07
0b
04
0f
0b
1d
0a
02
0d
ff
ff
f8
00
f7
f9
f9
f7
fb
f9
ec
f5
04
f6
fc
05
ff
0b
24
ff
13
0e
09
00
10
16
08
fe
fc
f5
f7
ee
f6
f1
ff
01
ff
fe
f4
05
04
0c
08
14
05
05
17
fc
13
09
03
05
18
13
10
04
f9
fb
f3
ed
f7
04
ff
fc
f4
f0
fe
0c
0f
05
0d
0d
07
04
0d
07
16
0f
0f
03
0f
11
01
09
02
fe
fc
f3
f6
fa
f8
f6
f4
f8
08
0d
0e
02
06
08
0d
02
0d
ff
0a
07
00
17
0f
1a
06
09
02
00
01
f6
eb
f7
f9
04
06
fc
06
09
02
fd
0a
05
06
02
f7
f5
0b
fe
02
0a
08
0e
09
10
05
01
07
02
fa
fd
0b
10
fd
fd
03
05
fc
fd
fc
f9
f8
fb
f2
f7
fa
04
f3
04
0a
09
03
ff
ff
06
09
00
f9
0c
07
12
04
00
fd
ff
f6
f4
f8
f9
02
f4
f5
01
09
07
f9
ff
04
01
f6
fe
07
0a
0f
05
05
11
12
10
04
04
03
02
f3
02
ec
f2
00
f8
ef
fa
09
fe
02
fb
18
16
18
12
13
0c
0b
12
1d
1b
0b
07
00
06
04
fd
02
f5
f0
f3
f2
f0
00
00
f7
fc
fb
fe
11
1e
15
17
12
0b
0a
0b
04
05
05
10
0f
0d
00
05
0d
fe
ec
f5
fc
ef
fc
ec
ee
03
ff
03
f7
15
11
07
0c
05
f8
fc
fe
00
08
01
f6
fb
0a
06
0d
ff
f2
f2
01
fa
09
f8
05
fc
04
00
00
f1
e6
e8
f3
f2
f1
ee
fb
fa
02
05
ec
ff
07
fe
f6
0a
f7
f6
fd
02
fe
0b
ff
fd
05
03
03
04
11
1a
12
03
04
03
f7
f7
04
1d
04
f1
0e
1b
ff
f9
f8
f9
ff
07
03
05
00
00
03
03
03
03
fc
03
fb
ff
fe
fb
ff
04
fc
00
fa
fd
fd
fb
fe
03
fb
fb
fc
fd
04
ff
fe
00
fc
04
02
fd
00
01
02
0b
0b
06
03
0a
11
09
06
0b
0c
0c
0a
06
07
06
03
00
02
fd
fd
02
fd
fb
00
02
03
0b
08
0b
0a
08
09
10
0d
16
07
1c
20
27
1f
17
07
00
03
0a
03
fc
02
01
02
fc
fc
02
fd
f1
f5
f6
f7
f7
f5
fc
04
1a
19
16
18
12
19
0f
e5
e9
f0
f5
01
02
f5
05
fd
f9
e7
ff
fa
e8
f4
f9
f0
f0
f3
fc
fd
03
10
13
0d
14
13
04
f8
f1
f2
eb
d6
e0
f0
fc
04
01
fb
f1
eb
eb
f8
f2
07
04
10
0d
01
12
15
0b
13
0c
0e
10
fd
02
fd
f5
de
d7
eb
fa
00
fa
0b
e2
ec
fc
03
06
07
03
0f
12
11
12
13
10
12
06
09
10
0e
0a
05
ec
f4
e3
f7
fb
04
f6
01
fb
f4
04
0a
0e
06
06
14
15
09
0a
0c
16
14
0a
01
11
0f
05
f9
ec
03
e5
f4
e9
01
08
00
f4
e7
f9
05
fe
07
10
0c
0a
fc
f7
08
0f
11
03
02
05
0a
0b
f3
f5
f8
f4
ee
ed
06
01
f9
f8
05
08
04
15
10
10
0f
02
fa
f1
e6
00
01
01
0b
06
04
02
fa
f4
f5
fb
f3
02
00
03
00
f0
01
14
0c
09
0c
17
05
04
f8
dc
d4
f3
fa
05
08
04
0b
10
05
00
fe
00
f3
fd
08
01
02
e6
f2
0e
15
0a
07
08
03
f8
da
cf
cd
eb
fb
f7
fd
f9
0e
0e
14
12
0f
f6
fc
fc
01
08
00
ef
04
f9
16
fb
09
0d
f7
f0
d8
d1
db
ec
fc
f3
e8
ee
04
06
16
20
1c
f6
f9
03
05
07
0a
ef
09
fa
08
fa
fc
00
f8
eb
e4
de
ee
f8
f9
e3
e0
f8
fd
06
07
16
12
f8
e9
01
05
f1
09
f5
fe
10
04
03
f4
f3
e9
e7
eb
e6
f5
07
f3
e0
e2
f1
09
04
0a
06
12
02
f7
10
04
f4
ed
ef
f2
09
fe
01
f5
f3
ec
e5
ea
ee
f2
f5
e4
df
ea
f5
0a
0e
f3
f5
02
02
fa
0a
06
f3
ed
eb
e4
00
f0
fb
fa
f2
f3
f1
e7
de
ee
ea
da
e0
e2
f2
03
03
f2
f1
fa
fa
01
06
ff
f3
f2
f2
e5
f1
f3
f4
f1
f9
fd
f2
e4
e3
dd
e1
de
ed
f7
fa
fc
f5
03
ec
fb
1c
01
f0
07
fd
f0
e0
e1
e3
ef
ff
06
08
03
fe
f1
d8
db
e6
f2
fc
01
fd
03
0a
0b
f2
f1
0d
f4
e7
05
00
07
e9
e6
e4
fc
05
ff
13
11
14
08
f4
f1
f4
0b
0e
02
03
16
0a
0f
f4
f5
0f
fa
f8
04
fc
0f
00
f4
04
fe
f9
06
0e
1c
24
26
12
0a
0a
12
15
fd
06
06
09
01
fd
f9
18
0e
ff
ff
00
0f
15
fa
0b
09
03
15
12
1e
20
20
1a
1a
18
22
0c
07
ff
09
00
02
04
16
10
04
02
02
f8
03
04
fe
0e
11
03
1c
15
18
16
19
15
16
14
20
15
0a
02
ff
ff
01
fb
f6
03
fa
08
fc
03
f2
ea
f6
fd
0d
0a
05
0a
0d
0e
10
07
16
0f
03
12
00
01
01
04
ff
ee
f0
f9
f5
fd
fc
ff
03
eb
06
1d
09
00
07
11
0b
fe
01
f9
f8
fe
0b
12
0c
fb
0f
04
f5
f6
16
0e
fe
ff
fe
fc
fa
10
12
08
f4
03
08
0d
eb
f6
01
f8
ef
e2
eb
f9
fe
05
13
21
1d
f8
05
0b
07
fd
03
fe
ff
00
01
ff
0e
1f
2b
26
ff
fd
0c
0b
07
0d
27
23
40
44
20
15
1b
04
ff
05
04
00
04
fe
02
05
ff
03
0d
05
0a
06
08
03
10
0d
16
18
12
1d
21
16
11
10
1b
16
fe
fe
fd
03
05
ff
fd
00
fe
01
01
fc
03
01
fd
ff
08
00
11
06
fe
ff
fb
fd
ff
fd
01
04
05
04
fb
ff
fe
fe
00
04
01
ff
0b
12
0f
07
0b
09
13
07
f4
12
1e
19
09
15
1c
0c
0a
08
02
fd
04
fc
01
04
03
12
12
14
13
10
1b
17
1d
12
0d
04
19
16
0a
0e
0b
03
0b
13
11
16
0c
ff
fd
fe
fc
04
f5
10
0a
fc
01
f8
fd
0a
fd
00
ff
11
0a
05
03
fc
ff
ff
ec
07
0b
08
0b
ef
08
05
fc
fa
ec
ea
f3
f6
f9
f4
f4
f9
fd
f5
fc
00
02
fb
fc
0d
0d
0b
02
f5
f6
0b
fa
f2
fc
0f
03
fe
04
00
f7
f4
ee
f0
f5
f2
fb
f1
f1
f6
fb
fd
00
0a
0f
13
0f
12
05
16
0a
07
11
0d
03
f3
0e
f9
f6
e0
e8
ed
ea
dd
ef
f3
ef
ec
fb
ff
fd
06
fd
08
fe
f9
0a
06
08
16
0b
0a
02
e7
11
ed
df
db
d9
da
dd
dc
ea
f8
f6
f8
ff
05
09
05
05
02
f6
08
00
fa
0e
1b
03
0e
12
fd
08
fb
e1
cf
d1
d7
db
e7
f6
fc
05
12
01
02
01
10
04
fd
fa
fd
ef
f9
0f
07
00
fe
ff
f7
04
0c
e2
cf
db
e9
e2
f8
08
09
0f
13
02
fe
01
ff
f8
f8
f7
fb
e3
f0
1f
fe
f6
ef
fb
ff
f7
01
f9
f6
fe
f5
ee
01
07
07
1a
01
fa
fc
fb
f2
e7
ed
f1
f8
e1
f9
0e
07
f6
e9
ff
02
09
01
fe
05
03
00
f5
f7
00
fc
0d
f7
f0
e8
f5
ed
eb
fc
fb
05
f8
00
10
1b
ef
eb
02
ff
04
08
0a
fa
07
06
fe
fe
ff
08
06
01
f9
ee
ee
f5
eb
fe
fc
05
04
02
07
00
eb
eb
17
04
f7
0a
09
f7
07
0e
11
02
0a
01
0c
10
03
fd
f4
f8
f4
fd
00
04
0f
0a
fb
f5
f8
1c
08
fa
fd
12
10
07
0d
12
0b
0e
0a
14
0e
10
03
fd
03
f2
f5
f3
fb
fd
05
03
09
1e
26
0f
03
f5
03
18
14
09
00
0f
13
09
14
11
19
13
01
08
0b
01
fa
f7
f9
fc
ef
ed
0d
23
fc
1e
01
f8
fe
10
fa
08
08
04
05
09
14
22
1c
0c
0c
09
07
02
fc
fc
fa
08
01
fa
ff
3b
1c
19
05
f3
fe
fe
f2
01
ff
fa
07
12
12
0e
06
06
13
0f
02
f7
f8
f9
fc
04
ff
f3
fa
21
02
1a
f8
00
f2
f5
02
fe
05
07
0f
16
0e
01
05
01
11
15
0b
03
ff
01
01
09
07
04
10
25
f6
28
03
01
03
f5
07
ff
05
0c
0b
0a
12
0b
0c
0b
0e
19
0f
05
06
0b
13
10
1e
1a
03
2c
22
1c
03
0b
14
01
0d
03
00
06
10
08
06
0f
0a
ff
0b
16
08
09
14
13
11
16
13
14
11
2a
17
05
0e
01
10
12
17
08
00
0c
14
15
09
00
07
06
0f
0b
04
12
12
09
17
17
1b
0c
11
12
1f
ff
0b
08
0b
1a
0f
10
0a
05
09
0b
09
f6
00
fb
f5
fd
05
fb
07
0a
0d
10
01
07
08
06
f9
fd
03
02
02
08
02
04
00
ee
06
01
f9
f1
f7
e8
e8
ec
f2
f1
f8
0a
0a
fc
06
00
fe
01
01
fb
02
03
fd
e7
f9
f5
ef
e6
ef
07
fc
ed
e1
df
e4
e4
e5
e5
f5
f4
f3
f6
f1
fd
0d
15
0b
04
fe
ff
0c
ee
f4
ed
eb
e0
e4
e0
de
ef
ef
f7
ed
e6
e4
e3
fb
05
0c
fd
02
11
08
0a
06
fe
fc
00
01
0e
23
14
13
0b
07
f8
f9
0f
1d
0e
11
09
02
fc
05
0d
19
fb
f4
0e
01
f5
fd
04
02
05
00
03
fc
fb
08
08
09
0c
0f
18
10
10
19
0b
18
0e
1d
09
ff
ec
fb
fd
ff
01
05
05
fc
ff
05
fe
03
fc
00
ff
05
02
05
00
fc
ff
05
05
01
ff
04
fe
fd
03
00
03
00
02
fc
fc
04
00
03
00
03
00
f4
fc
fb
fd
f8
05
00
0b
10
f5
01
fb
e6
e7
e8
f0
f9
fd
04
01
02
03
03
fe
f7
0b
08
f9
f0
f8
f5
f5
ed
e8
fe
02
f2
d8
dc
dd
e2
e2
e0
e8
e4
e2
03
07
05
03
fe
fc
f3
06
08
f5
e2
f1
f5
fd
01
01
fa
ff
ff
fc
f7
03
f3
eb
02
f6
ec
e9
fc
0d
1a
fd
02
00
f6
01
f8
f3
f3
fe
f2
ff
ff
0f
0f
09
07
09
03
08
07
05
02
f8
fe
ff
03
0c
07
fa
fe
fb
f9
13
e9
e3
e8
f1
f4
fe
12
19
11
10
08
05
05
00
08
fe
07
00
04
f6
f8
f4
01
fb
fd
fe
f7
ed
e2
ee
f7
f5
02
07
03
ff
fd
0a
07
fe
00
f5
01
03
02
0c
0d
02
00
f4
03
f7
04
f0
f5
f1
f3
ff
00
ff
09
ff
03
03
fb
00
07
01
05
04
fe
04
07
02
0e
0b
06
06
fa
f8
12
fb
0e
00
fd
03
ff
fd
02
04
fd
fa
fa
f8
05
0b
0d
0b
0d
04
0a
0b
05
00
11
0e
f8
fc
f5
fd
13
0d
f3
07
ff
06
fe
01
00
f7
ff
fb
fe
01
15
0e
1b
0d
0c
04
ff
06
0b
0c
f6
07
fd
fd
09
09
eb
09
09
07
04
fa
f4
00
fd
f5
f5
01
0f
15
0e
07
07
03
01
08
0a
12
0a
fa
f6
01
f5
f5
ec
f9
13
03
05
f7
02
fb
f9
f5
f3
fa
01
06
01
01
02
07
07
ff
fe
0f
0b
ee
fd
f9
f0
f2
f9
fc
10
fc
f7
ef
fd
fc
fb
fb
f7
f1
e4
e9
fc
10
0a
01
05
05
f9
fb
04
f4
03
f7
f3
f8
14
02
04
04
f7
f7
ff
f4
00
f6
ff
ec
db
e3
05
12
0c
0d
0b
09
03
03
02
0d
05
f6
d8
f4
17
08
0a
0d
fc
f2
f1
f3
fb
03
ff
f3
d9
ec
06
0f
15
0b
0d
05
10
03
10
0b
fc
06
e3
f8
20
12
04
05
01
f8
f8
f2
fb
00
f6
e9
de
f0
05
0f
11
0c
05
09
18
ff
14
16
f8
00
fa
02
0f
0f
06
00
03
f8
f8
f4
02
fb
f6
eb
f3
08
10
09
1b
07
04
fe
ff
fd
12
1c
fb
07
f8
00
0a
06
09
0d
0b
0b
05
f9
00
fa
ee
fa
09
1a
0c
08
01
f2
fe
f8
ef
f8
fe
1a
f3
05
f1
0a
03
06
13
0e
08
0b
0b
07
fc
ef
ef
08
12
0e
0e
0b
f5
f4
f9
f2
e8
f0
f0
f0
02
02
0c
1c
06
10
06
07
07
ff
04
03
0a
fb
fd
07
0a
0b
16
0a
fd
fc
f4
e6
e8
e9
09
fc
04
0c
12
24
13
18
ff
fa
06
fd
fb
fb
f9
01
01
09
0f
07
07
01
fd
02
f0
ea
f8
fe
04
03
02
0c
06
0a
fe
fe
ff
f4
fa
f0
f8
fd
fc
00
05
11
11
0b
ff
02
ff
fd
fb
fe
02
0b
15
ff
fc
fe
10
07
ea
f5
fe
fc
fd
fa
f4
fe
03
11
17
15
0e
0b
04
06
01
fc
13
12
0e
0c
13
07
02
fb
11
11
f2
f9
01
fe
0c
04
08
0d
0f
18
1b
15
08
08
02
00
fa
09
05
0c
26
15
03
01
00
02
fa
0b
02
04
00
06
06
06
ff
00
0d
11
0f
07
fb
01
0a
fa
02
f8
12
1e
1e
01
fd
01
fd
00
0f
f9
0f
1d
0b
fa
ed
f6
02
02
f4
f7
ea
df
d9
eb
ff
10
0c
10
15
21
10
0e
0c
03
03
05
fb
02
1c
2e
29
fa
ef
e9
f9
02
18
05
fd
ef
e3
e0
ec
f7
0d
05
fb
0a
1c
fc
02
01
03
fb
ff
05
fc
e8
01
fe
05
f4
ed
f7
00
db
e7
e6
ea
e4
fa
ff
fb
fc
fa
ec
ff
03
fd
fb
fb
04
00
ff
fe
00
02
01
04
04
02
01
f2
f4
fe
fc
03
fc
fd
03
fb
ff
04
02
04
05
04
fe
fe
fe
02
ff
fe
fd
ef
ed
ee
f3
f1
f3
f0
ef
ef
e7
ec
e6
e6
f5
e3
ef
f0
f9
fc
fb
fc
fe
ff
fe
fa
f1
f0
f6
f1
e9
e7
e9
db
d5
d5
d4
d4
f2
03
08
00
f0
f6
e9
e7
dd
f4
ed
00
ff
ff
fe
fa
ed
f3
e9
d3
cd
c9
c5
bf
da
db
ba
bf
e4
ec
0b
10
0c
07
05
13
09
00
f7
f6
fd
fd
02
f6
12
f9
e2
d5
da
ce
c3
bd
c6
b4
b2
c1
da
ea
f5
01
ff
f9
14
1d
16
0f
ff
ff
f0
04
fb
f1
04
ec
ed
e0
eb
e1
df
e2
e6
e0
da
d9
d3
e6
f1
e8
eb
f7
01
0a
09
01
f3
f3
f6
fd
fd
15
15
f8
f4
f4
f0
fc
08
01
01
f7
00
f7
f0
eb
f4
f9
fa
04
06
02
03
03
f8
00
01
03
0d
1d
18
fd
fd
01
04
14
16
0e
0b
0b
11
0e
04
00
03
fc
f7
05
f4
ee
fd
0b
06
12
0a
f3
fc
0a
06
fd
fe
fe
02
0f
0d
0b
14
0c
09
07
08
0f
03
05
ff
fc
fa
07
04
1a
15
f1
fc
0f
05
0e
ec
f2
02
0d
05
08
17
19
1c
1e
16
12
14
11
0b
0a
02
f9
00
15
0e
06
0f
08
18
0b
fa
00
06
f7
00
10
10
0d
1a
10
0a
0e
07
fe
0e
0b
f9
03
03
05
05
07
04
0d
2d
1e
10
10
e8
01
03
f8
02
0e
0d
17
0f
ff
00
00
ef
f2
07
0b
fc
f7
f4
fd
00
10
00
03
14
10
0d
02
f9
02
f4
02
10
18
0e
11
fe
00
f3
f0
fd
04
0a
02
00
fb
ef
f7
fa
08
0a
f5
1c
2c
16
eb
04
fa
f6
fe
06
13
17
09
ff
0a
09
07
0a
10
0b
02
fb
fc
f7
02
07
04
f8
06
14
1c
f7
08
02
f9
07
0b
09
0e
1f
22
13
11
14
16
0f
0d
0e
03
0c
ff
05
13
00
01
fc
05
ef
ff
fe
0b
06
f0
0a
0d
13
1b
1f
31
2e
27
30
20
0a
04
0d
03
10
11
01
04
0d
0a
04
f6
e4
22
08
02
03
f8
f2
f5
05
11
15
35
32
35
30
37
1d
08
03
f6
0a
0f
04
0b
0e
05
01
f6
d9
06
11
fd
ff
ff
f6
e5
f7
03
0e
10
0f
1b
20
23
1c
0a
0b
fd
03
03
fe
06
09
fc
f2
e4
dd
fe
ff
14
02
07
e9
e8
eb
ed
eb
ef
ea
ec
fc
f8
01
fb
f9
03
01
ee
f8
05
ff
f6
fc
d3
db
08
f7
fd
fc
19
e5
db
db
d7
cb
d0
d2
cb
d7
d6
dc
e8
ee
fd
03
fa
02
06
03
ec
f5
ee
ee
05
f4
00
f1
08
f1
e0
d8
d2
c4
cb
d2
ca
d2
db
ed
fb
f3
03
02
f6
fa
01
0a
fc
08
07
0d
fb
09
fc
13
0c
f7
e5
e4
d9
d4
d7
db
db
e6
eb
ec
f4
f6
01
f6
f5
f3
fd
0a
ff
fc
06
0e
e7
03
fb
04
0a
08
f8
e1
ee
e7
f2
e9
ee
fe
f8
ef
f0
e9
f4
ec
e7
ec
f3
f9
fa
08
19
0d
13
fb
03
fd
09
1e
08
fc
0c
0e
08
f5
0c
08
fd
f1
fa
e9
f0
ee
e1
e6
ee
ea
04
14
24
10
13
04
fb
03
04
1b
1f
11
16
1a
12
09
15
16
04
fd
fe
f2
f7
fc
f4
fa
08
10
11
18
10
ed
f6
fc
ff
fc
0d
01
27
36
11
19
15
15
1a
1e
11
0f
08
0d
16
13
16
22
24
22
24
25
28
fc
00
01
05
05
fc
07
02
19
22
10
05
16
1e
1c
28
33
2c
20
33
28
15
28
2f
27
16
0e
1b
00
fd
fe
fc
ff
05
fc
fa
f3
09
08
07
fd
13
13
11
06
15
15
09
05
07
01
02
fd
01
0a
04
fe
00
01
05
fe
03
05
ff
ff
03
fc
01
ff
fb
03
ff
08
0a
08
fe
02
fc
00
fd
fe
00
01
04
00
03
fc
fd
01
05
02
01
fd
01
01
fb
f8
fb
09
04
05
03
0d
08
08
fa
fb
01
fa
00
03
fb
04
01
fe
ff
ff
fc
04
fe
f8
f6
f9
fb
02
04
0d
10
0b
ff
12
11
0b
fa
f0
f9
fb
f5
fa
01
ff
fe
fc
fb
00
13
fe
ec
fc
f8
02
09
0e
0d
0e
1c
1e
06
0c
11
10
08
fb
ef
e6
ee
f1
f8
04
fa
04
00
ff
1a
fe
fc
ff
12
1b
1c
1b
19
23
1f
16
15
1d
1e
0d
13
07
f8
e9
e2
e1
e8
fd
12
f6
04
00
18
09
fb
ec
fa
f7
e7
e3
f3
fb
f9
03
07
12
0f
09
10
14
18
0d
04
f1
f4
08
f4
ea
03
11
f6
fb
f2
de
f1
ea
e2
e8
f8
f9
04
11
15
12
1c
11
18
0b
0a
06
fc
f5
ea
e8
f7
fc
ff
07
ed
f0
f4
e9
e9
e8
e7
ea
f0
02
0f
15
19
15
12
09
12
0c
03
0a
0a
fb
de
e0
fa
f7
09
fb
ed
fe
01
f0
ef
e5
ef
f5
00
fb
07
04
0c
0c
16
17
0b
09
00
08
0b
f8
ed
df
03
08
fc
f7
ff
08
fa
e7
ee
ed
01
fa
0c
f6
f4
00
f9
09
0a
0f
08
11
02
f8
07
0f
f5
fa
f8
ec
f8
f8
f7
04
e8
e7
ff
f4
00
fc
04
fd
f3
f4
ff
fd
07
05
12
10
0a
ff
0a
19
ef
ee
eb
f4
f4
fe
ed
f5
fa
f7
fa
f4
03
f5
f1
f9
e1
fd
02
0a
fa
05
13
11
10
0d
0c
08
f4
0c
07
07
f7
f3
f8
f7
fe
ef
fb
00
fe
fb
fd
ec
e5
f6
0e
09
f5
fe
08
12
0d
0b
fb
fb
f2
f6
f1
fb
10
fa
e7
02
f7
ea
f7
00
07
03
f7
f0
f0
02
10
fa
f7
fa
fd
ff
02
02
fb
e8
e1
f3
f1
04
f8
fa
e2
ff
ec
e1
f5
fb
fa
f4
ef
f0
f6
06
0e
04
f7
f0
f5
ef
f3
f9
ea
e7
e7
ec
07
05
f3
0e
ec
f0
f5
fa
03
07
04
05
f5
fd
ff
0d
07
f0
f3
ee
f3
e7
f0
f1
ed
ee
f6
f3
f9
0b
fc
02
0a
fc
01
fb
fb
ff
02
0b
0e
11
0a
0e
f8
eb
f6
ea
e9
df
e3
f3
f5
fb
05
fd
03
09
fd
0e
f2
0a
fd
fc
f9
fa
09
04
0b
0c
0b
0d
f8
f2
ec
f2
e4
ee
e8
e5
ed
ef
f9
02
04
0c
12
06
ec
01
fc
f9
fa
f7
03
02
07
fe
f7
f4
f0
f2
f3
fa
f4
f4
ec
f0
00
f8
f6
06
ff
1c
0c
04
f8
fd
fb
f6
f9
fd
fb
f4
fd
ea
f3
fa
fb
01
fc
02
0e
07
02
fa
09
08
ff
0f
13
0f
fb
06
00
09
0f
ff
04
02
fc
f7
f6
f5
fc
01
08
05
0f
12
1c
1d
13
07
0e
12
0c
1b
10
06
0b
1d
2b
30
19
04
0c
0f
00
01
fb
fc
fe
0e
19
10
1a
13
1e
19
0f
08
0e
13
1a
12
19
02
0c
08
1c
26
0f
1c
15
0e
0f
12
0e
08
0f
1b
21
15
11
12
13
02
0a
fb
09
17
12
01
f8
01
03
fe
19
18
fa
11
00
ff
10
13
11
16
13
1d
18
1e
18
18
09
00
03
0b
1b
19
18
01
ff
fe
fd
05
05
00
f7
ef
f7
f7
07
07
09
09
12
13
05
0c
13
12
09
fd
01
0e
0c
0c
18
12
11
ff
02
ff
0f
ea
db
f9
09
03
11
0c
fa
ff
0d
11
0a
ff
12
17
0a
1c
17
10
fc
06
ff
09
03
05
02
04
03
12
06
03
07
06
07
ff
15
15
19
1a
18
01
19
18
0d
0a
0e
0c
09
06
06
f7
fe
01
fe
01
05
fc
ee
f2
e9
f6
fc
ff
08
14
09
f8
0f
0d
00
fa
07
07
02
03
fa
fb
fb
00
05
03
00
fb
ff
05
fc
ff
ff
01
fe
fc
01
ff
02
06
08
02
05
05
fe
05
fb
fd
03
00
ff
fc
ff
01
03
fe
03
ff
fc
00
12
0f
03
02
06
f6
f9
fb
00
09
fd
f8
fd
0f
12
06
07
09
fc
ff
fe
04
02
01
06
01
fd
0e
16
0d
1f
25
25
25
10
24
38
37
2c
16
10
04
13
11
07
07
0b
0e
04
05
05
ff
0b
ff
fb
f9
06
fb
ec
07
03
f9
f5
03
0c
15
14
ff
f8
fc
e3
fa
06
16
06
f4
f3
03
02
fb
03
ef
f9
0d
0f
00
0d
09
0a
07
11
07
10
fe
0f
05
ff
06
fd
fe
f7
05
fd
f9
07
18
ff
05
0a
fc
08
13
10
12
0a
07
f7
f8
10
0b
0e
06
0c
fc
f4
fa
f8
0d
02
07
0d
11
0f
1b
ff
0a
f3
07
09
0d
0c
fe
ff
f9
f2
f0
fa
fc
f0
f6
f2
e8
e9
f9
fc
f6
ff
f7
fe
0c
f7
0d
03
18
09
01
06
10
06
07
fb
fb
f4
f2
fa
f8
ed
ea
e4
f1
fd
04
fb
fb
f7
ed
e8
04
01
10
fc
24
f7
ff
13
0f
10
0c
f9
f8
f4
f4
f6
fa
f7
ef
eb
fa
fb
06
01
f7
ef
f6
e8
f4
05
ff
08
19
0a
0d
08
14
0c
02
fd
ff
f4
f4
f5
f3
fb
f6
f6
00
04
01
fd
fd
f3
ee
f3
f7
07
0c
0a
0b
0e
f2
07
05
0c
04
05
fe
00
fc
f0
fb
08
0c
fe
0a
09
05
f7
fc
f8
f6
f9
eb
04
1d
0b
fe
f2
02
10
05
01
07
09
02
f9
f3
fc
09
21
1a
06
fa
fb
01
fd
fb
fe
fd
06
02
09
1f
fd
14
0b
0b
f9
f9
e7
fe
fe
fc
f6
fa
09
1d
24
0c
03
ff
fd
fe
03
04
0d
05
25
20
0b
16
00
0b
15
0b
eb
f4
e5
df
f1
f3
f4
07
19
1a
17
10
08
00
06
0a
0e
0e
0e
10
19
20
28
12
07
fb
0d
09
eb
f2
ed
e2
f6
f4
fc
0a
19
19
1b
0e
0b
fe
04
0f
06
12
0e
07
03
10
24
10
08
fd
fe
06
e3
f3
fe
f5
01
06
00
16
1a
20
24
13
0d
02
07
0d
fc
08
09
03
f7
07
11
11
00
fa
fc
09
ee
f3
03
07
0c
0a
0a
11
10
15
19
0c
0b
01
0a
0d
ff
06
fc
fd
00
1c
2b
0b
01
f6
fd
fd
00
04
0e
0c
06
06
04
12
05
01
02
02
05
fc
03
fa
09
05
03
07
1e
1e
1a
f1
01
fb
01
fd
0c
04
05
10
02
06
04
f9
03
fd
f4
f8
05
fe
00
fa
ff
05
02
11
1c
1c
17
0c
06
0c
ff
03
14
fe
03
0a
06
0b
05
00
f3
fc
fb
fe
08
06
00
fb
f7
fd
03
0b
0e
10
11
10
02
ee
0b
0e
0d
fb
0e
11
07
02
03
fe
ff
ff
f8
05
ff
07
02
fb
fe
01
ff
08
0d
fb
10
fc
08
ff
02
10
13
08
0f
0d
0a
0d
fe
fb
01
03
04
04
02
02
f8
f6
03
f6
fa
0d
ff
f7
06
00
03
fb
0a
0a
0b
15
12
10
06
09
04
00
00
ff
fb
f9
fb
fa
f4
fd
00
02
00
f8
fd
f1
f2
fa
00
02
fe
ea
fe
ee
01
fc
fc
02
fc
fe
08
0a
fb
fe
02
f4
f2
fb
ff
07
04
ee
e1
f2
f5
01
01
fd
fc
e3
d6
e4
e7
e3
e9
f9
f1
05
ff
fb
ff
f6
f3
eb
eb
f3
f4
01
fc
f3
f7
0b
0a
fb
fd
03
fd
05
e9
e7
f2
de
d7
e8
f4
f8
f5
f2
f5
ef
e6
e8
e8
e5
f0
f1
02
09
fa
fb
05
fc
04
fd
02
f7
ee
e8
e8
e4
f3
eb
f7
e7
d8
e8
d4
cd
db
d4
e2
ed
ea
df
e7
ef
f3
01
fd
fd
04
02
02
03
0a
12
ff
f8
fd
fa
f5
f7
ef
f8
e4
f8
05
f5
ed
ef
fb
ff
fd
0d
fb
01
fb
03
05
03
ff
05
ff
fd
fe
00
00
fd
fc
01
04
fd
0a
02
ff
fe
00
05
03
fc
03
fd
01
03
fe
05
fb
02
05
fb
fa
f6
fb
fb
fd
f6
f8
f4
e3
f7
0e
fd
fb
f6
f0
e9
e4
fb
fc
00
fe
02
fb
fb
05
fe
fd
fc
f7
eb
fa
ed
f1
00
ff
f6
0e
0b
ff
05
0c
ff
fd
ec
f3
f7
f1
f7
06
0b
ff
ff
00
05
18
06
f5
ff
fb
ff
f9
fc
06
ff
19
0b
fe
17
01
fa
fd
01
03
ff
f7
ff
04
0a
f6
03
fd
01
18
1a
01
fd
09
12
13
14
16
10
18
17
13
1e
1e
0f
08
0c
04
07
fc
fa
05
0c
04
fa
04
03
16
0e
fc
0b
11
20
0e
0d
fc
06
1d
14
12
0d
10
04
fc
fa
08
09
06
fc
fc
01
f6
f8
fe
08
05
14
0d
0f
16
07
07
04
06
00
0e
08
05
08
f7
f5
ec
f8
02
fb
fc
04
07
ff
06
f9
fb
15
fa
1a
1c
17
10
09
02
fe
f1
ef
01
fe
01
ff
f3
ef
f1
f9
f5
f4
00
07
fa
00
12
fe
ee
06
00
1f
0d
09
07
0a
f7
fa
f5
f9
09
0b
05
04
fd
f5
00
07
02
00
11
16
02
1c
29
12
0b
06
0e
10
16
08
10
05
04
fa
f7
ff
11
1f
21
0a
05
04
05
09
0d
0b
12
14
03
26
3b
f9
0b
09
11
1d
15
0e
07
06
fd
05
0b
12
16
22
14
0d
fc
06
08
0e
0b
ff
00
fe
f4
0d
31
01
11
06
14
11
1a
08
05
05
00
01
fe
03
12
10
0c
07
f8
fd
04
07
f9
e2
e9
e5
eb
03
38
0a
00
0f
0d
08
fd
fd
f5
00
fe
f6
f9
f5
06
0c
07
09
02
fc
02
03
fa
e9
e0
e5
e2
f5
10
10
0f
08
13
fc
dc
da
e3
e8
eb
ef
dd
e9
f1
ff
08
08
05
04
02
f6
f6
f2
e2
db
e9
f2
0f
04
08
0b
0d
ef
e1
be
c5
cf
e5
e2
db
df
f3
04
16
11
05
02
f8
f1
eb
f2
e7
f0
ee
f3
10
f6
0e
0d
17
ef
e8
d3
ce
d6
e0
de
d7
e7
00
0f
20
12
fa
f1
f5
fd
f7
fd
fc
fc
ff
08
1e
0d
0b
07
16
05
f2
eb
e2
e1
e4
e9
e5
e7
f8
14
1a
0f
fd
f6
01
0b
08
0d
13
0d
0a
0c
22
10
ff
0f
12
0e
09
00
fb
f5
00
fe
f1
f4
00
0c
0f
0d
09
07
03
12
10
18
08
09
03
0f
10
09
07
06
0a
22
14
13
12
09
11
10
06
ff
f9
07
08
0f
0a
06
06
15
13
09
0d
03
0b
fd
ff
08
05
03
fc
19
15
13
10
15
1e
10
0e
f7
f8
0c
0a
08
0a
10
0b
04
03
01
07
08
06
09
08
01
01
02
f4
0c
06
01
13
16
12
05
ff
fa
f3
fa
fa
07
05
0b
0a
ff
03
00
09
0b
fb
f6
00
06
02
fc
fb
03
ff
fa
05
08
fb
fa
fb
ff
f7
02
07
00
01
0d
07
06
05
04
08
f9
f8
fd
ef
fe
04
0d
fc
f9
09
09
fc
fe
f9
f8
f9
09
f7
fa
ff
01
01
0e
07
0c
0a
fc
fb
ff
f7
09
0e
f9
03
ff
0f
04
12
05
ff
fb
ef
03
02
02
fd
08
04
05
04
07
01
11
07
ef
f3
ff
09
11
16
ff
fc
00
06
1c
f5
f9
0a
fe
04
0c
05
0a
08
0c
0e
03
f4
f3
fd
0a
04
03
00
fa
fe
09
01
fe
fe
02
0b
f6
fd
03
10
0f
1c
1c
10
0c
1b
15
05
f7
f9
06
0c
17
05
fb
06
02
01
04
05
01
02
fb
fc
fc
ea
e3
f3
fd
02
f8
00
05
f7
f8
e1
ef
fb
07
0a
04
f7
ec
ec
00
05
0d
fe
fb
02
00
02
fe
08
19
06
02
02
06
f9
f0
f5
11
f1
f1
fd
0d
fb
0c
00
f4
e9
02
fb
fe
fd
04
ff
04
fb
02
fe
00
fd
05
04
fc
fd
05
04
fd
01
04
fe
fd
03
03
fb
03
01
04
fc
fe
fd
fe
fd
ff
01
02
fd
ff
0b
05
ff
fe
fc
fa
ff
ff
0b
13
17
11
02
fc
fc
fe
fc
06
fe
02
05
01
04
02
02
01
f6
fc
fe
fb
0c
1c
1a
13
25
1c
16
11
0a
f4
ef
ec
f2
f7
fb
ff
00
03
04
fc
01
03
15
0c
fa
06
08
13
20
13
1a
1f
1e
1b
0d
04
fd
f8
eb
ee
e9
ea
f0
f3
fc
fe
fd
03
fd
09
12
12
12
04
00
04
12
08
0c
10
16
1d
07
07
03
f9
f6
f0
e2
e6
e5
dd
f7
0b
0f
03
fe
fd
1f
15
17
08
02
01
00
f6
01
03
06
0d
14
14
0b
f8
ff
f3
e6
ed
e5
ea
f4
fc
fe
fa
05
0e
08
1a
18
08
fb
fa
f7
05
0b
02
04
12
12
0c
0a
06
0c
f2
f2
f0
ea
f1
ee
f3
f5
fa
fc
21
03
18
1f
00
09
ff
01
0d
07
06
08
0b
0e
08
07
0c
05
fb
f7
ee
ed
e4
e3
ef
fd
f2
f1
14
0a
0d
23
07
ff
08
08
00
09
ee
fb
ff
0b
0f
0f
1f
0f
05
f4
e7
ee
e2
df
f8
02
00
0d
0f
09
07
1a
0d
04
03
f6
e7
da
da
ea
fa
0f
17
1d
22
0b
ff
f0
e5
e9
e8
e5
fa
02
fa
08
04
07
0b
08
f6
ff
ea
d5
cf
dd
e2
e9
02
0b
13
19
11
0c
00
f1
ef
e4
df
d9
02
06
04
08
02
05
09
f6
e2
e3
ce
d0
de
f6
05
f7
02
09
09
03
05
08
fa
fd
e6
de
dd
d8
fd
fa
03
05
00
f7
f9
f1
e0
d6
e6
f7
ff
04
0a
fc
f6
03
fe
ff
02
fa
f4
ee
e5
d7
d5
e7
08
f6
08
09
fe
08
01
e0
d8
f1
fd
0e
0e
08
05
ed
f7
03
fd
01
04
fd
ea
e5
ea
d8
de
de
00
06
fe
f6
0a
0f
02
ec
df
f3
03
0b
0b
0e
fb
f3
f5
fa
f8
04
fb
f8
f9
ec
f9
f0
f5
f6
f4
0c
03
fc
06
18
f7
f0
e0
f8
07
10
0b
05
02
ec
fc
01
fe
01
fe
f8
f6
f2
fe
f9
08
07
fc
13
0c
ff
07
26
02
fa
f7
02
ff
04
10
06
f9
ee
fd
f9
f5
fc
ed
f1
f9
f1
07
02
11
22
16
18
17
03
0d
21
04
ff
ff
f0
ed
f9
f6
e3
e7
f8
08
fb
f1
f1
f4
f6
04
f3
fa
04
10
16
28
28
19
0e
00
1a
0c
fe
04
f4
ec
f3
f0
e9
f0
f5
08
fa
fa
fc
fb
02
01
02
07
0e
15
0c
26
21
1f
08
16
02
0d
fd
f7
ef
f5
f4
fd
fc
f4
01
0a
09
05
f6
04
07
0e
04
02
10
1a
10
1f
11
0d
fe
fd
fb
0c
f9
e8
f8
fb
fc
08
04
04
0b
09
12
02
f6
fb
0a
0a
08
07
12
10
10
1a
10
08
02
11
17
18
fd
f0
f9
fa
fa
fc
07
01
02
0c
04
04
fe
fc
0b
04
03
01
12
0a
0e
0e
0a
02
03
10
19
13
01
ff
02
00
ff
05
04
07
04
03
0b
ff
f9
fe
fc
00
09
00
0d
05
0d
09
01
fe
05
01
18
0f
03
03
fd
07
ff
0e
0b
0e
08
06
08
05
fe
f9
f8
ef
f1
f1
f7
08
0d
01
0c
fe
03
01
13
0a
27
12
0e
03
0a
03
0f
10
09
08
0d
07
f6
08
f1
e4
d6
df
eb
03
0d
11
0c
00
04
05
05
fa
20
12
15
1b
29
14
0e
0d
26
0f
0d
fe
04
15
01
fc
f5
f1
f3
f5
01
03
04
04
fc
ff
fe
ff
f1
f6
f9
09
22
16
14
04
02
14
0f
0d
0c
13
09
05
06
f9
00
fe
02
0c
03
04
fd
03
fc
05
04
09
12
08
0c
02
12
03
fd
0c
00
05
01
04
ff
0b
03
01
fc
fe
ff
fe
ff
01
03
ff
ff
02
fb
fb
04
03
02
04
fb
02
ff
fe
06
02
03
fc
05
04
03
02
02
fe
05
04
ff
03
05
02
05
05
f9
f9
f1
f0
f2
fc
ef
ec
e9
f4
fd
ea
f6
f2
e5
f0
e5
f1
ef
f9
fb
fd
fd
fd
fb
fc
fb
ed
e7
fa
f0
ec
f6
04
00
fd
09
fc
02
e9
f0
ee
de
e6
f0
f5
f1
f1
00
01
ff
03
05
fb
f4
f4
eb
14
04
12
09
f2
0c
17
09
f6
0e
06
0b
fe
ec
f3
fb
f2
f5
e6
fa
fc
03
00
fc
05
f3
05
0f
0e
07
09
01
fd
05
0b
09
0d
01
05
ff
06
f9
f5
f5
ef
fb
ee
fb
fc
f4
07
02
ff
f2
06
11
f9
fa
02
00
ff
09
06
01
01
05
08
0b
03
02
01
fe
f1
f4
01
fc
f8
00
15
fd
0a
06
01
08
fc
fd
00
0a
09
05
fd
f6
05
01
0a
04
01
fd
fb
f8
00
fb
03
fd
f2
08
01
fb
f6
fd
02
12
0b
06
fe
05
f8
f9
fd
fb
07
0a
01
ff
01
fa
fc
fb
f7
fd
f9
07
06
0d
07
f2
f5
08
04
09
04
fb
f7
00
f5
f8
fb
fe
03
fd
fb
fd
fd
fa
fb
f8
ff
f9
f6
ef
04
00
f4
f5
f9
07
fd
f4
02
f9
00
fa
fc
fa
fd
02
fb
fb
01
08
fd
01
06
00
00
fe
f9
e7
db
f0
f4
fc
f5
fb
0c
ec
01
05
02
ff
fb
f3
f4
fb
fa
f2
f9
00
03
02
01
04
f4
f9
f4
ec
00
e2
f3
f5
ec
ee
f4
ed
ff
03
03
09
ff
ff
f9
f7
e3
e4
f4
09
11
02
07
00
f7
fc
ea
db
f6
e3
ea
f8
f1
f4
e7
f5
fd
06
02
00
00
06
f8
fa
f8
f7
f4
01
03
06
0b
06
05
fa
f8
ec
f0
f0
f3
f6
f1
f0
ed
ff
f8
ff
04
04
00
07
00
04
08
03
f4
05
09
0a
11
06
07
00
01
04
fe
0e
09
f7
fe
e6
f6
05
f6
ff
0f
06
01
f8
fb
02
ff
fa
fa
05
0e
09
0b
0d
0b
08
f2
f8
07
05
07
f3
0d
f4
06
0f
05
07
00
01
f8
03
05
0b
00
fb
05
0b
0c
04
11
0e
10
0a
fb
fa
00
2d
11
f7
05
04
03
0a
0e
03
0b
03
ff
0a
0f
0c
0a
fa
03
05
0b
11
0b
07
0a
0a
08
03
13
19
11
03
0a
1a
0d
06
fe
02
0d
0c
0d
13
08
0a
0d
ff
00
04
05
0d
09
fa
ff
00
f3
e1
0a
03
04
ec
fe
0a
1e
07
06
0f
11
0e
05
0c
0a
0e
0d
00
04
05
ff
06
09
fe
00
f9
ff
f2
06
f8
15
fe
ea
fa
1b
0c
11
06
0c
06
fe
0b
0d
08
01
09
08
07
07
09
08
02
04
ff
f9
f5
f8
0d
06
00
f3
01
21
08
05
ff
fb
f9
08
f7
03
fb
00
ff
03
05
06
07
07
07
04
01
03
01
09
0e
fa
f9
17
10
09
f7
f9
ea
f0
f9
f6
fa
f6
fa
ff
fd
04
00
06
04
01
05
04
10
12
08
f5
f7
fe
ff
06
0e
0d
f9
ed
ea
f0
fc
f3
f6
04
fb
ff
f8
fe
02
00
0d
07
08
0e
14
0a
0e
f9
f2
02
04
05
10
15
fc
f7
f5
fd
fa
f3
02
06
f4
f8
04
01
fe
0b
1a
0c
11
14
0e
0e
0b
fc
ee
02
ff
05
f7
0b
13
fc
04
0d
04
fc
03
fd
f6
fc
08
00
0c
12
12
00
0f
17
1c
1e
0c
14
04
fc
05
fb
0b
eb
03
12
0a
01
01
fc
0d
05
00
06
01
03
fd
f7
fe
00
08
0a
fe
00
e8
09
07
fd
fd
03
fe
08
20
25
1e
08
00
fb
04
04
fd
fc
07
04
02
fc
f3
e9
fd
00
f9
fe
09
fa
00
fd
fc
04
05
ff
f1
f1
f7
03
00
fa
ef
00
fe
f1
fd
0c
fc
eb
fa
02
fc
f8
f7
f1
fb
04
fc
fc
01
fb
04
04
fc
ff
00
03
ff
fb
04
ff
01
01
01
08
fe
fe
fd
fb
ff
02
00
ff
ff
fd
05
04
fb
fe
fe
02
fd
fc
02
f9
ff
fd
01
09
0b
12
15
15
0e
03
fe
f8
01
fb
fb
fe
00
05
02
00
fc
ff
03
08
01
f7
fc
ff
fb
f8
fd
f1
fd
0a
fb
fa
01
f8
f7
fb
f9
fa
f7
01
05
04
ff
00
fd
02
11
0c
03
e7
f5
ff
f8
fb
ff
f1
f6
ef
e3
f0
f6
fb
f1
fb
08
fa
fb
fb
05
14
0b
ff
04
f9
15
09
f7
f3
fd
f9
f5
fc
fa
f8
07
fe
f8
fa
00
02
09
02
f3
f3
fc
04
0f
08
0b
fb
fe
02
05
fe
ee
fe
fe
f4
ef
01
fa
05
08
0e
02
01
fe
fd
fa
fb
fe
03
09
00
fd
0b
fa
fb
04
fc
01
f6
e8
e4
f5
fa
f9
02
10
12
16
17
14
0d
01
08
03
fe
f8
ff
ff
01
f9
07
07
05
fe
ff
f5
dd
df
ec
fe
fb
0b
04
0d
06
14
15
15
07
0b
04
fd
f7
f1
f0
fd
01
f9
03
ff
07
fb
11
e4
e7
dd
ec
0f
fd
f9
fe
06
09
0d
0f
0d
06
0d
10
0e
00
f1
f5
fa
fd
07
ff
10
12
fa
ee
ed
02
fb
fc
09
fe
fd
06
11
0a
0b
0e
10
14
10
1b
13
06
f3
f8
01
04
11
1b
16
fc
fa
f2
fe
03
12
07
08
08
0c
0d
0d
06
0d
13
21
1a
16
0a
0e
fe
f7
f8
ff
04
07
16
22
02
f6
fb
03
fe
18
0c
0e
08
05
f6
ff
fe
07
17
1a
12
fd
08
04
fb
01
07
14
0f
14
1a
28
0b
f6
f5
fd
0f
1c
17
0b
05
f7
f3
f5
f5
fd
0c
04
f6
ed
00
06
09
04
03
fc
08
fb
03
18
13
09
09
02
15
14
03
fc
fd
f6
fb
ec
f5
f2
f7
00
f4
e7
f7
04
fe
05
f9
00
f6
f4
f7
08
0d
07
00
f8
10
04
f1
f3
fc
fc
fb
f6
ee
ed
f5
fc
f7
f8
04
09
05
0b
06
fa
00
00
f0
0c
01
01
fc
e0
f2
0a
f8
fd
f7
ff
07
fb
ed
ef
fa
f6
f0
f9
f9
0a
03
03
01
fc
f8
01
f0
f4
10
fa
f6
ed
fe
07
f6
f3
f6
f9
f7
03
f8
04
ff
f6
ea
f1
f9
fc
fd
03
f8
ff
fa
00
ec
02
0f
04
fa
e9
0d
05
f6
ff
f6
fc
fc
06
04
02
fc
f9
fa
f9
f4
fc
fe
05
f9
fb
f3
05
f5
09
16
0d
00
f4
f5
00
fb
08
02
02
02
09
0e
02
fb
fe
fa
fe
f9
fc
08
06
fe
0b
09
0a
f9
04
11
02
1c
02
ec
f2
fa
04
03
03
fd
03
fb
05
04
01
fd
fd
01
02
07
0c
fe
11
16
1e
0f
07
04
03
12
fe
e9
f4
0b
08
fa
06
fa
f8
f2
f7
fd
f2
01
fe
05
03
0e
01
fe
07
1b
1e
1d
0e
0c
02
e7
ec
ea
0b
14
19
0c
fb
fa
f4
ec
f2
f9
f8
01
fd
00
0a
fc
06
05
fb
0e
20
14
fb
04
03
ff
ed
01
0d
13
1c
0c
ff
05
f5
f5
f8
fd
00
00
fa
01
06
f0
04
f6
02
1d
2e
0c
11
fd
00
fd
f5
fe
05
16
00
fe
0c
08
06
04
fe
02
fc
03
08
05
f2
f1
fe
f4
14
29
28
12
0d
01
ff
fc
ea
f3
e5
e8
e5
ea
f5
fc
0a
0a
0a
04
03
02
f4
fe
01
10
01
fa
00
19
10
eb
f8
fb
ff
fd
0c
04
da
e1
ef
f3
fb
f4
f7
00
10
0e
0d
14
1c
19
0d
20
17
17
0a
0e
1e
02
fa
01
04
01
fc
00
f7
f9
f2
fb
0d
0c
15
1f
20
29
27
14
2b
29
2b
23
33
2a
28
1b
12
fa
05
00
01
00
05
ff
f4
ea
0a
08
0b
0f
16
14
0e
09
1b
17
11
01
1a
0b
fa
01
09
f3
fd
05
fb
ff
ff
fb
03
fd
04
ff
05
fd
fb
ff
fd
03
0d
0a
fe
fd
fc
fe
03
03
fd
04
ff
03
fc
05
02
ff
04
fe
fb
ff
fe
fd
f4
01
01
fe
03
f0
f7
ff
07
f7
e4
f4
16
0e
07
19
05
fa
fe
fd
01
02
fc
fd
fb
00
06
fd
00
fd
f5
e9
e3
f2
ee
e9
e4
f0
e8
fd
fe
10
0b
05
1f
02
fb
f8
fc
03
fd
fd
f4
fb
0f
fd
fe
00
ee
e6
f9
04
06
ea
0a
09
02
0d
0a
06
21
11
fc
f9
fb
06
14
fc
fe
04
f6
0f
0c
ff
f4
ef
e1
dd
e4
f7
f9
fe
fe
00
00
fa
07
ff
04
07
04
08
16
07
f7
0a
fc
01
ed
06
fa
0e
fd
ff
f3
f9
02
f9
fe
07
05
05
07
0b
01
03
f7
f6
fc
0f
0c
f7
07
16
ff
0c
fd
fa
ff
00
f3
fa
08
11
06
03
08
0a
02
09
05
08
00
fe
04
01
0a
15
17
fb
07
04
04
19
01
fc
f0
e5
e2
f0
f9
0a
06
02
ff
09
11
04
06
0b
03
fb
01
f6
f9
0b
0c
f4
fb
04
02
fa
04
0e
f7
e7
de
ee
f5
f9
f3
01
00
01
0e
11
11
0b
03
fe
fd
03
ff
f4
05
0a
f7
fa
11
0f
0f
ff
f2
e2
ee
f5
fe
f7
ed
01
04
0a
17
05
ff
07
08
03
02
fb
03
01
05
07
ff
11
0c
01
19
18
00
f0
ee
ea
ef
e8
df
f0
08
0f
06
03
fc
ff
02
01
f8
ed
01
f9
06
20
0f
0a
16
fd
15
22
0c
04
01
f2
ed
e0
f3
01
0f
0d
09
0a
fb
0b
06
f3
ed
eb
f7
f7
ea
01
0c
0a
0b
07
0f
0b
01
fe
f2
f3
e9
df
01
12
15
18
16
16
08
fa
04
ee
f0
dd
fa
f6
d6
03
09
10
e9
09
0e
0b
01
ff
f2
f1
ec
f0
17
19
1a
16
0a
0b
0d
0d
08
fd
f9
f4
e8
e0
d4
f3
f6
fb
12
0e
fd
05
fc
fd
ec
ee
f2
05
0e
13
18
0d
06
13
0c
12
0c
05
09
00
ef
e1
e0
ea
d8
f8
11
0a
fb
f4
ff
f6
e8
e3
eb
f7
10
11
1c
02
02
09
08
10
0e
0f
10
04
f6
e4
db
ea
e9
f0
0b
0d
f2
f7
0e
01
e9
e1
f1
e9
fc
07
13
0e
06
0e
0b
15
17
0e
0e
e1
dd
dd
d1
d4
e2
f1
05
0e
fb
f7
08
fd
ed
eb
e7
f7
f7
00
06
08
03
0c
0f
1a
11
03
f1
e4
e3
e3
d6
de
f8
ea
f3
04
06
04
02
fe
f4
ef
f6
f0
f6
08
0c
0a
09
10
12
0e
05
f6
e2
e3
df
d2
d8
e7
19
ec
f5
f6
02
07
01
0e
02
f1
fb
f5
f0
f4
fc
fb
09
14
0c
12
08
f0
db
da
d2
d8
e1
f8
fd
ed
fc
fe
ee
f7
08
05
fd
f8
fe
f4
f3
ee
ee
fd
04
04
0f
0d
fa
de
d7
e2
d9
e4
e3
ea
0c
05
f1
fb
f2
f8
f9
ff
f9
fd
02
fa
f7
f5
fc
f9
ff
0f
11
06
f1
d8
dd
d9
e1
da
e1
e7
eb
fb
f0
02
f8
f3
fe
f4
fa
02
00
03
08
0a
0b
00
01
0a
02
fa
e1
e3
d5
da
e5
f2
e6
f0
f7
03
04
01
08
0d
0f
0f
0a
0f
00
fe
0b
08
fc
02
03
ff
f0
e6
e6
e0
d4
d7
e6
f0
f9
f4
f4
fc
fd
fb
1c
1f
23
31
23
23
10
09
0d
08
03
0f
07
fd
fa
ee
dd
db
e8
df
f9
08
fb
f1
fc
fd
00
00
0f
0c
30
45
14
1a
23
23
24
1d
16
17
fc
fc
ff
ec
ed
f6
fe
fa
0b
1c
16
fd
ff
03
02
02
02
02
0c
19
29
11
0a
05
17
21
1f
2b
1d
1f
2e
1f
1a
17
13
04
05
fb
00
04
01
fb
fc
01
04
01
09
1f
fb
f7
f7
fb
12
07
02
0c
f3
ed
f0
04
04
fa
02
fb
fa
04
fd
00
fe
03
03
01
00
02
03
fb
02
02
02
01
03
03
08
01
05
03
04
fc
01
03
fe
02
fc
03
fc
02
02
01
03
02
fd
03
03
03
04
00
01
0a
0d
0b
0c
13
08
22
13
13
10
0e
0b
ff
06
06
00
fb
fc
02
fd
fd
04
06
0c
0d
0b
0d
0d
0c
0e
07
04
11
12
28
26
20
28
18
1b
18
12
12
01
f9
01
00
fd
fb
02
08
00
ee
f0
f2
ee
05
fc
f6
fd
00
f7
01
fd
fc
0c
11
fb
12
0e
07
12
fb
06
fb
05
f6
ff
f4
ea
f3
ee
ee
f2
f6
f7
fc
fb
f9
ff
01
0d
10
0b
11
0f
07
fe
0f
06
0c
19
08
fe
fd
0a
ee
ec
e8
ed
e7
e6
ed
f9
02
fd
f8
fc
fe
01
02
09
11
19
24
18
17
0f
13
19
0f
01
07
fb
ea
e0
e5
de
ef
e7
ef
f9
fd
ff
fc
fa
02
ff
06
0f
11
14
0a
11
15
16
1b
0b
11
01
f8
e8
e0
cd
d7
db
ed
fd
f9
05
07
06
fe
0d
0c
0f
09
16
07
0f
0e
1f
10
ff
06
ff
1a
03
fb
f6
f5
d8
e0
ed
03
fc
02
05
05
04
04
03
09
08
0f
09
09
07
09
05
0c
0b
03
06
0d
00
01
fa
fc
e0
e9
fc
0b
04
06
07
07
04
ff
fe
00
ff
fc
fe
f8
f9
01
fa
0b
14
17
0d
ed
f5
fa
f4
ed
f8
05
0e
0e
09
05
13
10
0b
05
02
f7
f1
e8
f1
f9
f9
fe
f0
fb
0d
13
0b
f2
f0
fb
f4
fa
0c
14
19
0b
00
04
06
ff
ff
ff
ff
ed
ea
e3
ed
fb
eb
ea
e9
eb
04
14
1d
0b
f5
f8
f1
21
09
10
11
0f
03
0b
03
00
fc
f9
fa
ef
e5
ea
f0
f7
ec
ed
d7
d9
e9
fe
13
ff
0f
f9
f4
22
00
04
05
0a
ff
05
f2
f9
f2
f3
f5
f6
de
ef
f8
f8
ee
e3
db
d7
e3
f9
11
07
10
f8
f4
06
f4
f7
02
fc
fa
ef
fb
f6
f7
fe
0a
fb
f2
f2
f6
ea
e2
e3
dc
d7
ee
f8
11
0d
06
f5
ed
ee
e4
ef
f7
f8
f2
f6
f6
fa
08
11
0e
f8
f5
f7
f5
e0
de
d5
da
df
f4
07
fe
07
f9
fa
f8
f8
dc
ed
e3
eb
ea
f2
fd
13
17
1f
16
fa
fc
ec
ed
e9
e3
ec
ee
e8
f6
13
09
0b
00
fc
f7
0c
e5
ea
e4
de
e2
f5
06
0e
17
15
10
f9
f9
ea
ed
f7
f5
fa
fd
f8
00
09
06
1c
06
fd
f4
fd
fc
e7
ee
ee
f4
f7
fd
02
0f
15
02
02
f8
fa
f7
fa
00
05
fb
fa
0e
11
f5
1c
06
01
06
ef
fc
eb
f8
f5
f6
04
04
01
05
08
fd
04
09
00
0a
ff
0b
05
14
0b
0b
25
1b
0d
04
f5
03
fa
ff
f6
07
01
05
08
0f
0f
13
0a
ff
0d
08
0a
1a
17
1c
1a
20
1c
18
1e
15
0c
07
fa
fe
0a
09
08
04
0f
05
08
09
0b
0a
0d
14
11
09
19
1e
18
28
20
1c
22
24
18
20
fa
0d
f8
03
18
1e
18
0c
0c
04
0b
02
0f
08
08
0d
0b
09
19
1e
17
1a
12
0a
21
18
12
0b
00
fe
fe
01
06
19
07
04
03
0a
06
07
05
16
0c
0c
0f
16
0f
11
1b
19
0d
15
1f
1c
0c
20
03
01
02
05
f8
e6
dd
f6
ea
04
12
07
0b
11
13
0e
0d
0f
0d
20
18
0e
05
fd
00
13
0b
08
00
fe
03
fe
06
dc
d3
fc
f4
fd
04
f9
01
0f
11
08
0c
17
1e
11
12
03
06
14
11
1b
05
04
00
02
03
03
02
fa
f7
ec
ea
e9
ec
f4
0e
03
02
f3
fb
0b
04
02
03
fc
f7
02
11
fe
f8
00
01
03
ff
05
fd
01
01
fb
fc
ff
fa
f8
01
fb
f9
ec
f0
ea
e2
e3
e1
e6
e3
ef
00
fb
05
01
01
ff
fc
fc
05
03
fc
00
00
fd
02
ff
02
fb
05
05
ff
fe
fc
01
00
ff
00
ff
03
04
fc
fd
fd
00
ff
ff
fc
02
01
fd
04
ff
ff
01
01
00
fe
fe
fd
fd
04
03
02
fc
02
05
fe
02
fb
03
ff
fc
00
00
fe
05
00
04
fc
fc
fd
00
ff
ff
fd
fc
00
fd
04
fc
00
fd
fd
05
ff
ff
04
04
05
fc
05
fd
00
04
fa
04
fb
00
02
03
fc
02
fc
fb
fa
01
fd
01
ff
04
fc
01
03
fe
fd
fd
03
01
fb
00
fc
00
ff
fb
00
03
03
fb
03
fd
00
fe
02
00
fa
03
fc
03
fd
fe
03
03
fb
04
ff
02
03
fe
02
fa
fa
ff
01
fa
fe
fc
02
03
03
02
01
ff
fe
fb
04
fa
fc
00
fc
fd
fc
ff
fe
04
04
fc
00
03
02
00
01
03
ff
01
f9
00
01
ff
fb
fe
fd
fd
fd
02
03
02
01
04
f9
fd
fc
03
fc
fc
03
05
fe
ff
02
01
fe
01
f9
ff
fe
f9
00
fe
fc
02
ff
fb
fd
01
fa
00
04
ff
05
fb
01
02
fd
fc
00
00
03
00
03
fb
02
fb
04
00
fb
02
fa
fa
fb
fb
fb
00
fc
03
fd
ff
fc
05
fc
02
ff
04
fb
03
ff
ff
fa
fa
fb
fd
fb
fa
02
03
fe
fd
f9
00
ff
fa
ff
04
ff
06
01
fd
ff
fe
ff
02
fc
02
02
02
00
fa
fd
ff
fa
fb
01
f9
fa
02
00
ff
00
fe
fe
06
02
01
00
fd
fc
03
05
04
00
fc
01
00
02
ff
fe
fe
03
fb
fe
fb
fb
fa
fb
fe
fd
04
ff
06
fe
ff
00
00
fd
03
fd
fc
00
fb
fc
02
fa
04
fa
f9
fe
03
ff
03
00
03
fa
fa
ff
fc
fa
03
fe
fd
04
00
04
ff
05
fe
01
fe
01
01
fd
fd
fd
02
fd
ff
fb
ff
fe
f9
fe
fa
ff
02
01
03
05
fb
02
02
02
fb
fe
fd
fe
fe
fb
03
ff
02
fe
01
01
02
fb
03
fb
fe
01
fe
fe
02
01
fc
05
fe
fb
fe
ff
03
02
fd
fb
ff
03
fa
fe
fd
fa
fd
fc
fc
03
fb
03
fc
00
fc
03
fc
fb
fd
04
fc
01
fc
fd
fd
ff
01
01
03
ff
01
03
00
fd
02
ff
fc
fa
ff
01
fe
ff
00
00
03
fe
f9
01
fb
fc
fe
ff
04
fc
ff
fe
00
00
02
fd
03
fd
fc
ff
02
f9
fd
fd
02
fa
01
fa
03
fb
fd
fa
04
fb
fe
fe
fe
03
fe
fa
fb
ff
ff
ff
f9
fb
00
ff
fb
fa
02
00
00
fc
fa
01
fc
00
03
01
03
01
02
03
01
ff
fa
03
fd
fb
03
03
03
01
fc
ff
fe
fa
fb
03
03
fa
04
fe
00
02
fd
04
fc
02
fc
fb
fc
01
04
01
02
01
03
01
fd
01
01
01
00
fe
fe
fc
01
ff
03
fd
fb
01
03
fe
03
fb
05
ff
fe
02
fb
fe
00
f9
02
03
03
fc
02
00
01
00
02
03
02
fa
03
00
03
fb
01
fc
fb
00
01
01
00
04
03
fe
fb
00
fd
03
fb
f9
01
01
fd
fe
03
00
fb
fb
fb
fe
01
fb
fd
fe
fb
ff
fe
03
fc
00
00
fa
02
fd
00
fb
00
ff
ff
fb
02
ff
02
01
ff
fa
01
00
fb
fc
03
04
fd
01
fd
fb
05
01
fd
fb
03
00
fa
04
fb
fa
fb
fc
fa
ff
01
ff
05
fc
fe
fc
ff
fc
fe
00
03
fc
fd
03
ff
02
03
ff
04
fd
04
01
03
fc
01
fc
ff
ff
fe
00
01
03
05
00
06
02
05
fd
ff
fd
01
04
03
02
01
01
fe
fc
01
04
fd
05
ff
fe
04
02
03
06
03
02
fd
05
fe
04
ff
03
fb
fe
01
02
fe
fc
04
fe
fe
fc
05
05
01
04
fd
02
03
04
fb
02
01
ff
02
fe
fd
05
03
01
fc
ff
ff
00
fc
fc
05
02
ff
01
fc
03
ff
01
04
06
04
05
fb
00
00
fb
04
00
05
ff
fb
fe
00
05
fd
fb
fd
00
fe
03
ff
fa
fd
f7
09
0e
05
05
0f
0b
e9
f6
13
0d
1f
05
0b
06
fd
ff
05
04
04
03
01
04
04
fe
05
01
f3
f0
fb
fd
eb
fc
05
1a
13
0d
08
08
21
3c
2e
1a
01
ff
02
04
03
04
18
09
ff
ff
ff
ee
d7
e1
dd
dc
e3
f7
f9
fd
06
fd
04
09
f6
00
f5
04
f7
ec
f1
02
fd
02
12
00
16
1b
0e
01
17
00
03
fa
fb
05
02
04
06
04
f7
ff
fc
f7
f4
f9
eb
d7
07
1b
02
fe
19
1a
1f
1d
1e
17
03
fd
fb
fd
02
02
00
07
ff
05
f9
fa
eb
fd
ff
05
02
f9
08
10
05
f0
e2
fc
02
05
1b
1b
10
05
fa
f8
01
ff
f9
0a
0a
08
f1
e5
e3
fe
f8
fa
f8
f7
00
11
fe
e6
eb
eb
06
fe
0c
05
05
fa
f5
ee
ef
f9
03
0c
0d
03
ea
ec
e5
ee
f8
f6
eb
f7
fa
04
00
eb
ec
06
0e
0c
15
01
fa
f1
f8
e7
f9
0c
0e
12
0a
00
f4
ef
ea
f1
ef
e9
e9
05
01
f5
f8
ee
eb
f7
f4
0c
03
f6
f0
ec
fd
fc
ff
0f
19
26
17
02
fd
f2
eb
ed
e1
ef
e9
ee
eb
eb
f4
00
ee
eb
ee
f6
f9
f9
f4
eb
03
0b
03
12
1e
1b
13
0c
06
f3
e4
de
e1
e8
d1
dd
ed
0a
f4
f0
e8
de
e7
f6
f0
01
ff
fa
06
0c
11
1c
25
18
11
0b
0c
00
fa
e7
de
ca
ca
dd
0d
03
fd
fa
ee
e2
eb
ee
fb
fe
05
09
ff
0a
0d
20
21
24
1b
1b
0a
ff
ff
fc
df
e4
e2
d7
dd
ed
0f
f9
ec
eb
ee
eb
fb
fd
fe
fb
ff
ff
10
13
20
21
20
10
0a
fc
f3
f1
fb
ed
dc
e1
e4
f9
f9
ff
f4
ed
f2
f1
de
e7
f8
fe
f8
fb
03
19
13
0f
0c
01
f0
f2
e4
e4
e1
f4
ef
f6
ec
01
f6
fd
12
fc
f9
e2
d1
cd
e8
fd
ff
07
05
19
20
0c
09
f3
e2
e3
e4
e6
df
ff
fc
07
fd
f2
0b
0c
16
fb
f4
e1
c2
ce
f5
12
0b
09
06
03
0e
03
03
eb
ec
e6
ef
f3
ea
f5
0a
01
fb
ed
00
07
01
eb
e6
df
bd
e0
00
0c
09
ff
03
ff
fb
ef
fc
f2
f4
f2
03
01
fc
f9
f8
ef
f1
ef
ea
05
f8
e7
da
d4
d5
e6
06
1c
10
fe
fc
03
f2
f0
f2
f9
05
03
10
02
f7
e2
e0
fe
f4
0c
09
ed
f2
04
de
c6
e1
ff
0b
0d
09
f6
f2
ea
ec
fa
03
fc
01
07
0b
fc
f6
ec
f0
08
f8
0d
02
0d
00
0c
f9
d6
ec
01
0a
08
0a
fa
f4
f3
fa
f7
02
fb
05
fe
05
f5
f5
f7
ef
02
00
02
0b
1e
0a
03
f4
e4
eb
f7
03
03
ff
f8
fb
f9
f4
fc
ff
05
01
fd
fb
01
fa
e8
e4
04
f9
fe
0e
04
0d
08
fa
04
f7
f5
fa
f2
f9
f6
f9
05
fe
04
03
0d
0d
07
0b
12
00
ef
ec
0a
07
fc
05
fc
fe
fd
fc
02
f0
f4
f5
fb
f9
f5
ff
0b
fb
02
0c
16
23
1b
17
0d
fc
f7
f9
09
11
04
01
04
fd
f8
f6
f3
e6
ee
f8
ee
f4
f3
ed
ea
f5
06
0e
0d
19
21
0c
f6
f5
fa
ef
0a
ff
fb
03
fe
02
f9
e7
e6
e2
e4
ee
ea
da
cf
cd
e4
fc
f9
f8
06
0a
fc
00
e2
ee
f8
eb
f9
fd
fc
05
01
fd
06
17
03
f5
f8
f2
fc
f3
f3
f4
e5
ff
f6
00
0d
0d
f2
f3
ea
e9
f4
fd
fe
05
ff
01
fb
05
ff
fa
f3
ea
f6
f2
f9
f5
08
06
f0
10
1a
03
01
0b
0d
fd
fe
ff
00
04
ff
00
04
fb
fe
03
ff
fb
01
ff
04
01
fe
00
02
03
04
07
00
01
03
02
ff
fc
fe
04
00
05
fd
fd
fb
fd
04
ff
fe
05
07
07
10
09
10
07
0f
11
0a
f2
03
1f
1a
11
0f
16
08
0a
0a
ff
01
fd
fc
03
05
06
14
14
08
0d
13
16
1f
23
26
12
0d
1c
14
09
06
07
fb
07
0b
10
15
14
0c
fc
fc
fb
03
fe
08
ee
fc
0a
01
fb
00
f8
06
fe
08
11
09
0d
00
f3
e8
dd
ef
f6
ff
fb
01
09
00
00
ff
00
f2
05
02
0a
fd
fc
fd
f8
03
07
06
06
0c
08
0a
fa
f2
eb
e3
f2
f4
e5
f3
04
11
fd
fd
0a
f8
07
fd
fd
f1
fb
f5
f0
f3
fe
03
04
08
08
0a
00
00
fd
f2
eb
f7
f3
03
0a
0a
fc
f7
fe
0a
06
ee
f1
f5
e7
f1
fb
01
ff
f7
fb
09
0e
16
15
06
03
09
f9
f3
ef
f0
f1
0b
00
f6
0d
08
08
ef
f3
ec
e9
f5
00
ff
02
05
01
ff
0d
0c
16
1a
12
15
07
f0
f8
02
f2
0b
e9
07
09
f9
04
e9
ec
f1
ff
0a
0f
08
fb
fe
fd
f6
ff
01
0c
18
0f
0d
09
fa
f3
f4
fa
fd
09
04
f8
05
0f
f4
fd
02
0f
15
0e
fc
fb
fc
ee
f5
fa
fd
10
1c
19
0c
03
fe
ed
dd
f5
13
04
00
fb
06
fd
11
0d
0e
07
0e
ff
fb
f5
f5
f0
e8
fb
04
14
15
15
12
0f
08
ec
eb
ea
10
07
fc
0a
f1
f9
06
0d
11
14
08
ff
fd
f5
f1
ee
f2
f6
fe
0a
10
1e
11
14
01
f5
ed
e2
ff
fa
fe
0d
f0
0c
09
0b
0a
07
fe
ff
f7
f7
f0
ee
ee
fe
07
05
09
0f
12
12
16
14
ee
e5
13
fa
fb
fb
f5
11
06
09
ff
04
f8
ff
f9
e9
f3
ed
fb
04
08
09
09
04
0d
10
11
11
fb
02
0f
f5
fa
f5
ff
fe
06
09
0f
0d
fb
f8
03
fc
