00000b64
fffff52d
00000ff7
00000e68
00000f32
fffff9da
fffffb26
00000123
fffffa7d
fffff7db
fffffb5b
00000ba1
00001513
fffffcec
000003ca
00000640
000009be
fffff1b9
fffff8eb
00000fc8
00000e02
0000087a
00000978
fffffc6d
fffff42d
0000057f
00000603
000006e6
00001592
00001ce9
fffff870
000017ba
fffff2e1
00000ec8
ffffff3b
fffffd8f
fffffcd2
0000068b
0000030a
00000cf5
ffffff8b
000003aa
0000032c
00000dab
fffff796
00000f7f
00000fb7
0000132b
00000aa4
fffff8f8
fffffbb5
000004b5
000013ed
00000daa
00001954
fffffb61
000003ce
fffff2b3
00000652
00000901
00000da6
ffffea8f
fffffd37
000003fb
fffffacb
00000b6e
00000972
fffffd92
00000d74
00000f45
00000156
fffffa17
000009f3
00000b3f
fffff5aa
000017c7
fffff4e1
fffff69b
000020e8
0000013a
00001eba
00000bef
ffffef11
00000514
fffffb3b
0000038b
00001179
00000ebe
0000052a
00002c79
000003f1
fffff5c8
00000c78
0000016f
00000588
000010bc
000004c1
00000791
fffff67a
fffff8b0
000008ba
00001273
fffffdec
fffffb1a
00000a27
00000f6c
fffff819
ffffeb8f
ffffffa5
000006ee
00000684
fffffc15
00000948
fffffe56
00000cc3
00000a7a
fffffd16
00001e28
ffffffe0
00000056
0000006d
fffffeaf
00000177
00000826
000017d9
00000a50
00000d73
000009d1
