00001653
fffff29a
00001f77
00000186
fffff7b3
fffffa06
000008b2
00000b61
0000013d
000020d0
00000833
ffffeeba
fffffdbf
0000104b
00000125
0000063c
00000982
fffffc50
00000cf7
000006ec
0000067c
00001630
ffffe051
000029d0
fffffebb
fffffe64
00000d53
000004fc
000015ba
fffffede
00001161
fffffeb2
000018b5
fffffab8
ffffe215
00000f82
fffffcda
000010f9
00002bf8
ffffface
00000daf
fffff67a
fffffd36
fffff4d7
00000d69
ffffefce
00000957
ffffefba
fffffd13
0000183e
0000123c
000008a9
000003d4
00000edb
ffffeebe
fffffacb
fffffe58
00000d1f
000000b0
fffff437
0000001c
00001066
00002dd6
00000e4b
fffffe2d
fffffde3
fffff665
00000501
00000683
fffffc44
000009bd
000014aa
ffffdf95
0000237f
0000154f
00000895
00001cb6
ffffffdc
00000abe
00001646
00000a93
00001ddf
fffffd22
00001fa2
0000185c
fffff8dd
00000611
000010c2
0000024b
00001334
fffff239
000006b2
00001806
00003564
00000dc1
fffffec4
00001552
00001518
000002cf
0000090e
fffff67a
fffffc4b
00000117
ffffe361
fffff570
00002222
00001f39
fffffcf1
00001bf0
ffffec22
ffffffd1
fffff845
fffff787
000009e7
ffffec74
fffffcd0
00000939
00000bac
ffffeffc
fffffec9
00000d78
fffff699
00000bd4
ffffe9af
00000ec3
00000410
00000973
000000d4
