00
03
fc
04
fe
fc
02
04
03
fd
ff
ff
fb
f3
0a
0a
fc
01
fd
fd
03
00
02
03
02
05
01
00
fb
fd
05
04
02
00
e9
e6
ec
f1
ea
e8
de
eb
00
e6
f8
e8
d7
e1
db
da
e4
f1
00
01
03
ff
04
ff
00
ef
e8
f7
e6
de
f5
07
e4
ed
de
d5
d9
da
d9
e7
ea
e6
e8
ea
e1
d5
01
08
05
fd
fb
fb
eb
e1
de
e9
ea
e2
e7
ed
f6
f8
e3
dd
dd
d5
d7
e6
ea
e3
e8
09
26
1e
1c
17
0b
01
fc
f0
e7
e4
e6
df
e8
f0
ec
f3
ea
f6
f9
f2
f3
f5
f4
fb
f8
f0
f9
f1
f8
0c
2c
2f
fa
14
05
03
e9
e8
ec
db
e2
f1
06
05
02
15
14
08
0a
01
0c
14
04
fe
00
f7
f5
f6
ff
28
ff
0a
03
f1
03
ef
f8
fa
ee
fd
06
0b
04
0e
0d
0c
15
16
16
16
0f
13
04
fe
02
04
f3
12
fe
e8
fc
ea
0c
ed
ef
f8
ff
f8
0b
0c
0e
16
07
10
0f
12
15
10
0c
0d
0c
10
0d
0b
1b
0c
09
ef
0f
f2
fc
f3
ea
f7
ff
00
11
1f
16
0d
04
0b
04
04
05
03
0c
0f
09
14
02
26
36
22
0a
ff
ee
f2
ed
e9
dc
03
fa
01
09
1b
18
17
0c
06
ec
e4
f8
01
08
11
05
ff
fb
14
11
e3
f0
e5
f1
f6
e8
d6
eb
0c
15
11
1e
22
1a
14
12
dd
da
e5
ee
03
0c
04
ff
fe
f6
f9
ec
c4
d6
e7
f7
e8
cc
cb
e9
13
22
20
26
13
0b
01
ef
d8
de
ee
fe
fb
ff
05
03
09
fd
f2
e6
d1
f5
ec
01
ef
d9
dd
f5
0d
13
14
18
06
fe
0b
e8
e8
e3
ed
ff
02
04
15
19
2a
28
17
18
fa
07
e6
fe
06
e4
e5
09
0c
11
1c
0d
04
14
15
03
f4
f0
fc
01
06
0f
25
2a
2a
2f
0b
00
1b
36
1f
fc
f8
e1
f4
1a
11
20
28
0f
0a
1e
23
16
05
fc
ff
0b
22
1e
25
17
07
0a
ec
f2
18
37
1e
f1
f3
e4
0a
25
1a
19
19
20
17
19
14
0b
fe
f3
0b
23
2e
24
14
f9
f3
ea
e7
e9
14
34
24
f2
ed
e2
fe
08
12
14
1c
21
10
19
0e
15
00
01
23
30
30
13
01
ff
ff
f2
ee
e5
2f
3f
21
fc
e7
ff
e9
fc
10
16
21
22
26
26
1f
17
0d
14
2d
27
27
12
f8
04
ff
f2
e8
fa
29
19
05
f9
f3
f8
e1
fc
0c
17
29
1a
1a
1e
1b
15
11
1d
1d
14
0c
05
fe
fc
f8
f6
03
11
08
00
03
f6
e5
fd
db
f5
07
11
0b
04
fc
00
00
00
0a
0e
0b
ff
fb
f8
fa
00
fb
01
f8
fd
ff
11
fe
03
08
0c
e9
fd
01
f9
00
f1
ea
ee
f7
02
00
f6
fa
f6
f2
e4
f3
f3
fb
01
fa
04
06
fc
f1
fb
ff
fb
f6
f9
f9
ea
ef
f5
fd
fb
fc
ff
03
f8
f4
f2
f1
e8
ee
f7
09
0d
11
12
f8
fe
06
f5
ee
fa
fb
f1
e7
eb
ee
fa
f7
ff
0b
16
0d
03
f9
f4
f2
f1
f8
fb
18
1f
1e
2b
01
e6
02
fd
fb
e6
e8
e8
db
e6
fb
06
fd
02
04
09
01
09
fb
04
f7
01
0c
1e
2f
34
2e
1d
0b
e1
fb
03
02
f5
dd
d7
ee
e2
f9
00
00
02
08
00
02
fa
03
08
06
15
1c
28
2e
2e
32
21
1b
f3
03
04
fc
01
06
f6
02
f9
f0
dd
e3
04
f6
e9
f2
05
08
07
05
fd
fc
0f
15
00
09
ea
15
10
fe
fd
fc
01
0d
24
14
15
02
02
0d
14
0e
18
11
15
02
f8
f7
f1
ef
05
fa
ee
05
f9
fa
05
02
01
fb
04
01
ec
eb
04
03
f9
fa
ef
00
00
dc
fd
03
fa
e8
00
07
0d
f3
ef
e0
fb
03
fc
01
ff
fc
00
02
04
05
01
fe
05
fd
fb
ff
0c
0c
08
08
05
fc
04
01
03
00
fd
ff
fe
01
04
03
fc
04
fc
fc
ff
07
17
18
17
1d
23
26
36
21
0a
31
34
35
29
1f
28
25
17
13
fe
01
00
ff
01
00
06
08
17
10
24
31
40
49
52
53
3d
22
1b
33
2e
35
3d
41
3a
30
2c
34
18
fd
04
ff
05
fc
f4
19
19
f6
25
1d
28
46
3d
35
3a
3e
24
2a
22
25
27
2b
1d
24
20
1e
1f
fc
10
fb
fd
f2
dc
f2
ef
f8
09
fa
04
12
1b
0e
fe
fd
05
10
15
13
19
0c
06
0b
fa
ff
f0
05
1c
19
fe
fe
0c
f2
e8
e8
ee
f2
00
ff
0d
fc
fa
03
fe
f8
fe
0a
15
14
0f
0b
ff
fc
07
0e
22
16
02
f2
fe
e2
dd
ea
ec
ff
fa
0b
06
0b
0d
0c
15
17
11
12
09
02
01
f7
f6
f0
18
1d
0d
0f
01
ee
01
e3
d9
d6
f0
fd
07
0e
19
20
22
1d
2a
18
11
02
fd
f6
f0
f0
e7
d6
f7
02
f3
08
0a
12
05
f2
d4
eb
f9
f9
12
0c
1b
1e
18
1f
1e
06
f9
e3
d1
dc
e1
d0
ca
cb
d2
e6
ee
fa
01
fc
00
00
f1
fe
09
0f
1c
15
17
24
10
0c
11
f1
cb
c3
c2
c0
c9
c0
bf
c1
e5
00
f7
f9
00
fc
05
0a
01
18
1f
18
18
0d
13
10
fe
fc
00
da
c9
cd
d7
cf
d3
c8
c2
dd
01
1b
1e
ed
ff
06
fe
00
14
18
1c
0c
03
f9
ef
e3
d9
f5
f8
d7
e0
f6
fd
ea
e1
e7
df
f7
07
11
01
f5
f7
f7
fd
0d
10
00
00
ef
f5
ec
e1
dc
d3
f9
09
f5
f5
0b
04
f6
e9
e4
e3
ef
f4
ff
05
1d
0a
fd
01
18
f5
e7
ea
f0
e9
ea
f0
e6
eb
14
14
0a
fa
fb
f9
00
f2
f8
00
0b
1c
ff
0f
1d
18
ef
f2
0f
d9
dc
f6
f8
fa
02
0c
fb
01
1d
19
0c
03
ec
f9
f5
08
0e
17
15
22
1c
25
1e
19
ee
dd
06
e0
ed
00
f9
fc
fb
0b
03
0a
20
1a
06
fc
f3
05
0d
13
1e
03
0e
30
3e
01
17
fb
f2
ef
0a
ea
f7
fc
e9
e6
f5
0b
1b
0f
14
15
f1
ef
f5
05
10
0b
14
0c
0c
2e
4c
18
0a
03
f1
fd
0e
ef
ff
fd
e9
e4
f1
0c
18
0b
0d
fa
f0
e9
ff
0f
14
0d
0e
11
05
1e
4c
1e
10
02
f1
f1
fb
04
f9
03
fe
f3
f1
02
00
08
08
00
f1
fb
17
0e
0c
0a
06
12
14
2c
62
15
11
0c
f6
06
f1
fe
ea
f5
04
0d
10
0c
12
1d
19
09
08
0d
12
08
0d
0d
0d
22
1b
25
50
11
09
fc
f1
07
01
0a
ff
f9
07
15
13
1a
19
1e
20
16
17
11
07
19
16
0e
0f
1b
17
22
40
11
0d
05
01
ff
0d
10
01
fd
05
0d
17
21
1a
22
2c
2c
1e
1b
10
14
14
09
05
0e
0e
1e
35
26
fc
07
01
07
18
1f
16
f7
fe
09
12
0f
02
0f
10
0e
15
0c
02
ff
fc
05
f5
f9
ff
02
18
ff
fa
05
03
fe
f8
11
17
fc
eb
f0
f2
ed
ef
f6
ed
f6
f7
fc
f1
f5
fe
08
03
13
17
22
17
0d
00
03
04
f5
e2
e4
fc
ef
ec
ef
f1
eb
e7
fa
f6
fd
09
fa
0c
12
10
0f
10
0b
1f
3c
15
0e
fd
fe
02
10
0c
fa
ef
fb
f6
01
0b
03
06
21
1c
1f
28
2d
30
27
33
24
37
1f
20
32
0a
0f
04
02
fb
05
11
ff
f5
fd
06
13
35
33
44
52
4f
64
4f
4c
4a
44
4a
49
37
35
24
14
f9
fb
fd
01
03
05
02
fe
f9
fa
fd
02
12
15
18
1b
1f
38
1f
20
1f
2d
1c
0e
16
19
fc
00
01
fc
05
fd
00
ff
fc
fd
fc
03
02
01
04
01
fd
ef
f6
01
ff
fd
03
02
01
01
00
03
02
05
04
01
fe
fd
01
01
00
04
fb
e7
ea
e1
ea
ed
dc
d2
df
f3
e7
e2
e0
e6
e5
e2
e6
e9
e8
01
fd
03
00
03
02
fc
f2
ec
f7
eb
d8
d4
d5
c9
c0
b4
b4
b6
d0
e9
f0
e3
ed
ec
e4
e9
e3
f7
ff
01
04
03
01
06
ec
ef
fc
d6
c1
bc
ca
bd
b4
a3
9a
a7
c2
de
e4
f4
f1
de
df
d9
df
e4
e6
f0
fc
00
0f
0a
17
09
02
ec
db
e5
df
de
dc
da
d7
c9
cf
df
d7
e7
f6
f4
02
03
03
f3
dc
ec
e8
fb
fe
10
22
0f
1e
0f
05
fb
fc
ed
f3
f0
e4
e5
f1
eb
e0
ee
eb
f3
00
15
16
0b
dc
d3
f0
03
06
06
38
22
11
19
05
0e
0a
0a
06
ff
08
ff
fd
f9
fb
01
f5
fe
02
01
ff
fd
de
fb
ec
05
17
0c
31
1f
06
0d
fb
ff
0e
08
0e
10
1d
12
03
0c
0e
00
07
0a
ff
f4
f1
f7
ef
07
f0
ea
0d
0a
17
15
07
05
09
05
0b
0b
0c
0e
10
0f
0d
fb
09
0f
03
fa
ef
ec
ea
e5
ee
ef
df
07
25
0b
12
0b
03
0c
0a
0d
09
05
13
15
13
12
22
15
13
13
06
f9
eb
ed
e2
d9
da
d5
fa
02
17
05
12
f9
00
fe
fd
03
00
06
0f
19
ff
00
25
1e
1e
0f
ff
fa
ee
ed
d6
cd
f2
e2
0b
00
01
2b
1f
fe
fa
fe
fb
02
07
12
17
0b
ec
08
2b
25
1f
15
ff
fd
e9
ee
cd
c1
f1
fd
1c
ff
1d
30
0f
0f
f0
04
0a
12
11
13
0c
f5
ed
1a
2c
26
23
19
00
f4
ee
f2
e7
d7
05
0d
24
07
15
28
0d
1d
07
1b
1c
1b
17
0c
fc
ec
ff
22
1d
26
2a
19
03
02
0b
fc
dd
e1
10
0f
12
eb
1c
1e
2c
22
09
11
19
15
12
07
f8
f9
07
20
24
31
2e
17
11
12
0d
0c
f7
ed
0b
0c
11
f4
14
1d
23
12
09
0c
12
19
0f
0f
11
0a
04
1b
2b
36
2c
13
05
12
15
1a
fe
e3
e7
19
0c
17
0d
17
fd
ff
f8
00
14
12
08
09
04
10
19
24
29
2c
17
09
f9
07
17
12
f8
ec
e4
f5
ec
fe
10
0b
ef
f7
e3
e6
f3
f4
ed
ed
ed
f4
1a
20
24
0b
06
f2
e6
f4
08
fb
f6
e3
f2
f1
e5
16
0a
1e
03
ee
cc
c2
cc
d5
d4
d1
d4
ce
f7
0e
06
fd
f7
ea
e5
f0
fc
ec
d5
c5
e5
0e
10
0e
0b
18
19
f6
cb
c2
ca
c7
c0
ba
be
b4
e1
f4
f4
f9
f5
ed
ef
f4
f6
db
d1
d0
f9
fb
16
04
f5
14
1b
fe
e4
df
d3
ce
c8
ca
c6
c9
df
ed
f6
0b
01
f2
f7
f5
f6
eb
e5
f9
00
0b
0c
09
06
0d
0a
fc
01
f9
eb
f6
f1
ef
e4
e6
e4
f0
02
0a
f8
fe
fe
f8
f9
e6
e3
04
09
ea
02
05
11
08
0b
05
1a
12
10
10
0a
0d
ff
f1
e7
f7
fe
01
fd
fe
fb
01
ef
f4
ed
11
14
03
04
fc
fc
fb
fc
00
21
29
27
16
05
03
fe
f7
ee
f7
f7
f4
07
01
01
f2
f9
fd
f9
11
0d
19
ff
04
00
06
16
24
37
35
24
09
05
07
00
f2
f0
f8
f4
f3
0b
f8
f5
01
1c
12
07
f3
fb
08
02
fb
fd
0c
f8
12
31
16
22
2e
23
0a
0e
12
14
0c
fe
00
01
06
06
13
19
07
05
f2
fe
f9
04
02
ff
fb
05
1a
20
40
30
30
36
38
1e
12
26
33
30
33
39
2b
1d
16
1e
16
10
14
00
fc
fd
ff
fb
05
05
0b
10
08
08
0d
0c
17
00
01
14
2d
24
21
27
28
23
1d
2b
1c
1a
04
04
00
05
00
fc
01
01
fe
03
04
fd
04
03
01
03
fe
02
07
0a
02
02
00
03
02
fd
fe
02
00
ff
fb
04
ff
01
00
01
01
f8
fb
01
fc
f9
f0
eb
ea
f3
09
12
18
08
fa
f8
f9
ee
f3
ee
03
05
fe
fd
03
03
04
fe
f6
f2
f5
f7
fa
eb
df
e1
f2
fd
fb
07
08
fb
f2
d9
da
e6
e6
e8
0b
0b
fe
ff
fb
fd
15
fa
f2
03
f8
f4
e7
eb
d7
d4
e1
fa
e2
f3
fa
e0
de
d8
d8
d7
e5
e9
f2
01
f2
01
00
06
21
0a
00
0c
fe
e9
f4
fa
fb
f7
0d
14
16
10
06
f9
fc
fd
03
ea
de
cf
d8
fa
12
f2
ff
fe
2b
15
1c
1a
06
f7
ec
ed
e8
fa
0c
08
10
14
12
05
ff
01
00
03
fa
e4
e9
f7
f1
eb
ff
16
f7
30
1c
10
06
f6
fc
00
0b
0b
0d
0c
03
09
03
00
03
0a
0a
02
f5
f8
e8
0e
09
f4
00
22
17
46
50
22
10
0b
08
12
14
0a
13
13
00
f6
fb
fa
12
13
10
10
00
f5
e6
f3
0f
f5
fa
2c
24
53
5f
27
1e
27
19
1f
20
21
28
25
0d
fb
ff
0a
1b
22
0c
fd
06
ea
dc
02
19
1c
09
2f
0f
4d
4f
31
2b
29
2a
28
1c
17
0d
01
fc
01
01
10
12
0f
06
fe
fe
f1
e0
04
36
0d
05
2c
13
1c
24
23
2f
1b
1c
14
0d
00
e4
d8
f7
03
07
13
14
12
fe
04
fd
eb
d8
f9
15
19
09
f5
f5
01
10
11
12
10
00
f8
ed
db
cb
df
07
0d
05
00
ff
08
08
00
09
05
03
06
13
13
05
04
fe
e4
f1
f3
db
e5
da
de
c3
c5
c1
f2
1e
15
06
02
01
06
0c
11
09
16
29
37
2a
2e
0a
01
0f
e4
be
bf
b4
be
c3
cb
c1
cd
d9
09
1d
19
14
00
fb
f5
fe
f8
fd
08
20
3e
42
1d
00
f6
0b
db
bb
a4
a2
a2
b8
ca
d3
eb
ff
17
1c
10
08
fe
f7
f5
f1
ef
f0
f0
fb
16
33
1f
fe
f5
05
e4
c1
af
b6
bb
ce
e3
e6
fc
10
2d
2b
11
f8
e9
ea
e5
de
ec
ec
ec
ef
f5
13
25
fc
f4
0a
04
d9
c1
cc
e4
f2
0f
07
0c
21
32
29
0c
fd
ed
e4
e8
de
f1
ec
f2
fa
01
29
1a
04
f9
05
08
e6
cb
d7
f3
0c
16
0f
1e
32
37
22
fc
f1
e4
e3
e5
dd
e1
ee
fa
00
0d
2a
22
fe
0f
02
0e
ec
e1
de
f8
0b
1b
13
1a
1d
21
0b
f7
ec
ee
e9
ec
e9
e1
f4
fc
fa
09
22
11
08
03
f5
0f
fe
e7
eb
f9
fc
15
16
02
0e
18
04
fe
fc
fb
f4
f6
ea
ee
00
05
f3
0d
33
14
fd
fc
ec
10
0d
ec
07
17
02
0c
0b
02
07
ff
00
00
f4
f5
f8
03
0a
04
09
09
09
01
1b
05
05
1d
0b
19
01
ff
13
19
08
03
03
fb
f9
04
0c
01
03
01
0e
1b
0f
0d
05
04
05
07
f2
fd
06
08
06
0a
0d
24
26
25
11
0b
09
01
07
0b
17
13
08
0a
0f
14
17
15
08
fb
02
0a
ed
fb
02
01
f1
de
fe
03
0f
16
11
11
08
10
19
18
11
16
13
10
10
13
16
12
0b
0a
00
ff
f8
fd
fc
03
10
dd
e7
ec
fe
f5
00
05
01
0c
18
0a
0d
0d
00
f2
fc
08
f3
ee
db
f2
14
28
15
fe
fb
01
ee
ea
e0
cf
e9
e5
ea
e6
e1
ed
f3
e7
ee
fb
f3
e9
d3
cf
dc
d0
c6
ce
e4
00
0f
02
ff
05
fd
f1
d8
d7
dd
fb
04
f5
d7
d3
d2
ce
ce
d8
d8
d1
d8
da
e6
df
e1
05
f4
02
00
ff
fd
03
02
03
1c
17
14
19
0e
fe
1d
14
04
1c
0f
25
35
0e
f2
fe
f5
f0
ec
02
04
ff
04
02
fb
05
02
fc
03
03
03
fb
fd
ff
03
00
05
fa
fb
fd
03
fc
ff
02
fd
fd
ff
03
fb
02
04
03
00
fb
02
ff
05
03
ef
f1
13
18
14
23
2c
1f
f9
eb
ed
0e
20
1c
02
f1
e7
ed
fc
fc
fc
ff
04
fd
ff
0e
0b
0c
05
08
01
f5
00
12
fe
f7
fa
df
e1
f8
fc
08
0a
17
20
04
f5
f4
02
02
02
01
ec
07
03
1c
0e
0e
0d
fb
08
11
04
f7
0b
fb
fd
0e
1a
21
2c
25
1e
27
0b
f3
0d
ff
02
0c
ff
09
17
0e
ff
19
1e
11
12
16
16
11
0e
19
21
22
1d
18
15
11
23
16
28
19
03
10
fe
04
f0
0a
16
f6
05
09
0a
13
11
0c
0c
16
1a
27
26
2f
2b
28
22
0d
05
07
0b
24
0e
13
fd
10
e5
e9
fd
fe
ff
02
0a
0b
02
01
06
0f
14
1a
18
17
0b
0c
0a
07
10
25
1d
14
03
fa
fa
0b
df
f2
0c
1b
09
02
06
10
02
02
06
05
08
11
10
12
08
02
f1
f1
f8
16
1e
0b
20
03
13
e2
f9
04
10
18
0a
0d
06
14
06
00
02
fd
fb
fa
05
06
0b
03
01
02
fb
f7
15
1f
1c
14
f4
ee
00
fb
11
02
08
0b
13
0d
fb
e5
ed
f5
e4
e0
f8
fc
08
14
15
ff
f7
01
03
00
fb
ed
f7
ec
ec
ff
05
f6
ff
0e
04
fd
ef
ed
f0
ef
d5
d3
d6
fa
0a
0f
08
f8
f8
08
0d
dd
da
ef
fa
ed
df
f8
ed
ed
fe
0b
09
0d
04
fc
0e
03
dd
d0
df
fa
03
05
01
ed
fb
08
1d
e4
f2
f3
f8
f1
d7
e2
d7
f5
0b
14
06
0d
11
14
25
19
ec
df
f2
fd
09
0f
06
fa
08
33
4c
f4
da
e2
fe
f9
d9
da
e7
04
1c
1b
14
1c
18
1b
27
10
ea
fb
03
0a
17
0c
00
fc
0f
36
1f
ef
c8
e6
07
03
ec
e5
fa
08
0b
13
10
19
16
27
26
10
ff
00
07
1a
0b
08
f0
01
02
09
15
f7
c0
e2
04
11
14
f5
06
ff
f5
0a
1a
1f
1d
2a
31
13
11
05
0c
05
fa
ff
ff
fe
0a
16
07
ef
e0
de
ea
15
0f
f9
fc
f4
f6
0b
19
19
1e
29
21
09
ff
04
01
04
08
01
0b
00
0a
22
0c
e5
c7
e3
01
10
0c
02
fb
ef
ec
0b
0f
0b
08
0b
fd
f4
e3
ea
09
17
05
12
0b
12
0e
1d
fb
c8
cd
d2
ec
0a
0c
0c
fb
00
02
f5
fe
00
fd
fd
f8
eb
df
f6
14
14
0a
0b
08
0f
0f
0e
ea
bf
c4
e2
f8
ed
f8
28
09
26
11
fc
f5
f8
fa
f1
f2
e5
ed
06
14
1d
1b
0e
14
26
19
0a
e5
b6
ce
e9
fd
19
07
1f
10
20
15
0b
fc
05
fd
f7
f8
f5
04
16
0f
19
1c
08
1f
1d
11
03
d2
cb
d8
fd
fa
05
08
10
0a
fe
02
07
00
f8
01
0b
13
1d
1d
22
0f
16
0f
19
14
0c
1c
f7
c2
d6
03
02
f6
fd
08
09
f5
e2
f4
ff
fa
fa
09
1a
20
29
21
28
1d
1e
18
22
1a
1d
1a
0b
d4
e5
14
06
03
fb
1a
31
0a
f5
f9
ff
09
13
1a
28
1f
2d
29
25
20
27
2d
1e
19
16
f4
02
e6
f5
f2
00
01
fd
07
2c
12
f6
fc
05
15
19
24
30
2c
2e
2c
29
2c
0d
11
09
04
f6
fc
00
d5
e6
e7
00
03
03
11
f6
f8
f7
0a
0e
04
0a
1d
0b
05
0c
fb
fe
f5
ec
f0
f1
ea
df
f6
03
f0
ef
ed
05
02
fb
01
f5
fe
f6
f7
f7
f3
d8
e1
e6
e8
e1
ce
d1
cd
d0
c4
cb
d4
cc
d4
ed
ec
02
03
05
fe
02
fd
01
f9
f8
f9
f1
eb
eb
dc
fd
f5
ce
cc
e4
e9
d3
d6
db
ed
e5
dd
e5
fb
fb
fd
fb
04
02
fb
02
02
02
fc
fd
fc
fc
05
fc
fb
fe
08
04
05
03
fe
fe
ff
fe
02
00
fe
ff
fc
00
01
02
04
05
ff
03
f0
f2
00
02
f2
0a
02
03
f5
f6
1f
18
e4
dd
e2
e2
e6
ed
02
fe
01
04
fb
ff
fb
0f
f7
f6
e8
ec
0a
0f
02
fb
f6
eb
e6
df
ee
fc
04
f0
f0
ed
e6
ec
fd
05
01
02
fc
02
e7
05
ff
e5
ec
e6
f8
0c
0c
11
0d
0f
0e
0d
10
16
0c
0c
05
15
14
07
05
19
1c
05
ff
f5
e0
dc
d9
e4
f2
00
f5
03
0c
19
0b
04
07
0f
19
25
1d
14
09
09
0c
16
2c
27
02
00
04
01
ee
ec
e9
ee
f8
03
11
19
11
09
03
f9
03
06
1f
21
1f
16
14
0c
11
16
15
2e
13
17
fe
0d
16
ec
05
1a
16
1b
19
0b
ff
ee
f6
e9
e6
ee
ec
f1
f4
fb
fe
01
12
12
1d
20
19
09
04
14
06
fc
0f
29
28
1f
22
0d
08
07
ef
ef
e5
d8
df
ef
f7
fa
f2
03
10
10
23
31
0f
09
1b
10
10
0f
07
1b
19
13
0b
15
12
07
fd
f4
eb
ee
fd
04
01
0e
11
03
08
26
2e
20
05
f4
0c
06
0f
05
0f
22
02
01
02
0c
04
07
00
fa
e4
e2
00
0c
09
0d
14
12
0f
1c
31
2d
0d
f8
0c
f6
1b
10
17
13
fd
fe
02
04
03
00
04
f5
ed
eb
ff
07
0d
08
08
0a
0a
13
44
35
30
f3
fc
08
0d
0b
04
03
fb
f7
f4
fe
f8
f7
fb
f3
dc
d8
f4
f3
f9
f9
dd
e9
ea
fe
2e
48
2d
ef
fb
0f
08
fd
ee
f4
f1
eb
f6
f9
02
15
21
08
dc
df
e0
e5
e7
f0
eb
e1
db
d5
10
36
43
00
02
17
1e
f2
df
f2
f7
f9
01
15
1a
30
37
07
e4
e3
de
ea
f5
ef
f0
f9
07
11
30
43
4f
1c
0f
01
0c
ea
ea
ff
08
16
0d
15
1f
32
2a
0d
f5
ea
f0
f8
03
f9
f5
fd
14
2f
43
31
3b
1e
12
f4
13
0a
03
09
0e
19
1e
20
20
1a
16
0b
01
06
01
08
09
fd
f3
09
0a
20
4c
36
3f
17
eb
ea
eb
14
fd
11
10
0e
0a
15
09
0a
17
09
10
1a
13
18
0f
0c
0d
1a
1d
27
2c
3f
3f
1a
05
e6
0c
0b
0e
18
1b
06
03
03
03
0b
01
0b
06
0c
13
10
11
02
15
1b
19
1c
1e
34
21
2c
ea
e8
fe
04
1b
1e
13
13
08
fe
ff
04
0f
15
0a
11
15
0b
05
01
0b
0b
19
1d
35
1b
fb
0f
f5
0a
11
03
19
13
17
13
11
0d
11
12
15
19
17
1b
0e
0d
00
ef
05
0d
15
12
13
13
19
05
03
0e
1b
0e
20
1b
09
0c
0d
11
15
23
25
1a
11
10
04
fb
f8
f5
02
10
16
05
f6
ff
00
f7
f9
f9
0c
0e
0e
fd
fb
05
05
0c
11
1e
18
1b
11
0c
04
06
fb
01
07
0f
1a
18
fa
01
25
01
f8
f8
0c
08
03
f0
fb
ff
07
07
09
18
16
21
0f
0b
08
03
05
0b
07
0f
14
09
01
00
14
04
03
00
05
06
14
f4
fc
f8
0d
14
19
18
13
0f
14
15
12
ff
05
0b
0a
11
01
01
f0
10
f7
fd
02
fc
f8
f9
eb
d8
e9
ef
fb
0e
fd
0a
13
1a
1e
19
12
06
07
f7
f3
f1
f3
f4
09
18
0b
05
01
02
f1
0e
06
d1
de
e0
c6
d6
e8
ea
e3
ee
ec
06
fe
f6
e1
d9
c6
d1
ea
f9
04
07
0c
fb
04
02
05
f6
ef
eb
cf
ae
b2
b4
c4
c7
cf
c6
a0
c4
c8
c8
ca
d7
d3
d0
e3
ec
f1
02
00
04
00
fb
02
02
04
05
f4
f3
eb
e8
e7
f5
ec
fc
c1
d5
e5
e8
d7
d7
e0
d8
df
ea
01
00
ff
fe
ff
fc
01
ff
04
04
04
04
ff
02
ff
fc
f5
f0
01
04
fd
01
fe
03
fe
fc
00
fd
01
fb
03
05
fd
fe
fd
fc
f9
ee
e3
e0
e2
df
e5
e3
dd
d2
e2
df
e1
e2
d5
e3
dd
da
f3
f7
fd
fe
03
03
ff
03
f1
f0
e9
ed
ea
d0
c5
b2
ae
9d
a0
b7
b2
bf
dc
e4
f3
fe
f0
de
ea
e6
e5
00
ff
fb
ff
01
04
e6
05
10
0d
fc
ec
ea
f8
f2
f9
de
ec
fe
ee
ff
0a
0b
21
21
0c
07
0a
04
ea
ff
04
0d
16
11
01
fe
fe
03
f2
f7
00
0b
0f
ff
03
0d
0a
0a
08
04
f5
fc
fd
f8
28
2d
20
fe
03
04
de
0e
f0
0f
fe
06
00
09
08
1a
14
09
ff
fc
07
ff
fc
f4
f5
ec
e9
f0
09
37
24
06
03
14
13
04
f1
08
08
08
1e
1e
23
23
1e
11
15
13
19
12
0d
11
0c
fa
f5
07
2e
40
2c
0b
05
20
f9
05
ee
05
0c
18
2d
21
21
19
14
12
12
1b
1d
1b
13
15
13
0d
00
1b
2f
51
26
05
e9
00
fa
00
f3
0d
14
1e
25
24
16
19
11
0d
0e
0a
07
01
16
14
1b
1a
19
1c
4e
72
42
1f
05
19
05
fb
fc
01
1d
1f
24
1d
0b
11
0b
02
fe
f3
f2
00
05
0e
1d
25
26
2a
4a
7a
5a
2a
07
07
fb
07
14
07
13
1f
19
19
15
10
14
12
0b
03
fd
ee
03
09
11
14
19
1c
3e
7f
5f
1d
00
fc
26
15
2d
0f
15
1b
1d
1e
22
22
26
24
28
23
12
16
13
00
fb
e6
ec
ea
01
5c
58
0f
06
04
1b
2e
21
1b
1a
18
17
19
22
1f
16
22
29
2f
21
10
0f
04
fa
dc
d2
bc
a4
01
30
01
fc
ff
16
21
20
1b
0d
0f
05
0f
11
15
0e
1d
22
1f
1c
15
1b
11
11
f0
da
c1
ab
dd
eb
e3
14
12
1d
1d
17
fd
ed
e1
e9
f8
01
00
03
13
19
19
18
1b
1c
0d
fd
f9
ef
d8
ca
d8
d6
e9
11
15
08
0d
fb
d6
da
d1
dc
e2
ec
f5
08
0e
07
16
10
19
16
0e
fa
f9
ff
f8
de
c9
e0
e7
fa
15
09
05
f9
d2
d6
d7
d3
cb
cd
d4
05
0b
fd
10
0c
13
0b
fc
f8
f2
f8
fe
f2
b8
cd
e7
05
15
fb
0a
07
f4
f6
e7
df
d2
bf
d2
eb
fc
f6
0d
18
12
05
01
fe
f6
f5
04
02
b2
e3
dc
0c
10
0e
1c
0b
0b
0c
f6
ec
e6
da
e3
e2
f7
04
16
0f
00
f9
03
03
fc
f8
f4
ef
b7
f5
ea
f1
06
08
19
09
19
0b
f2
fa
ec
dd
d7
e3
f1
ff
09
fa
f9
01
04
ff
fa
f6
fe
fb
d5
da
f0
00
ed
f9
14
fe
0d
07
fa
01
f5
de
da
e1
f2
fc
fb
fc
fd
f8
fd
fb
f7
04
07
f3
00
da
ff
fc
fd
fc
fb
06
fb
0a
04
04
f1
ed
e7
f3
fe
01
07
02
f8
ee
f7
ff
04
06
f7
ee
f5
df
01
f6
fc
fc
fc
0f
e5
f5
fd
f6
f1
f7
09
0a
0d
0a
03
03
fd
f7
f8
f7
fb
0d
0e
03
fc
03
f9
ff
fb
0f
2d
2e
05
fd
fe
02
06
0a
0a
ff
0b
0d
09
0d
03
f7
fa
05
f9
f7
09
03
f8
00
fd
fc
02
16
37
42
27
31
2e
26
26
2e
26
1a
26
1b
1d
22
10
0c
14
18
05
0b
0d
eb
ce
e9
03
03
03
03
25
3f
45
40
4e
5d
70
7c
73
75
6b
59
5f
5d
57
51
4f
32
37
3f
37
30
f0
f2
03
ff
fe
ff
ed
e9
f7
00
14
16
23
2b
3d
38
44
41
48
46
3c
42
34
28
2a
25
11
12
03
00
00
05
fc
fd
fb
0a
13
07
04
0e
0f
23
13
0b
25
10
fe
02
1b
08
09
fb
18
17
12
fc
00
fc
02
04
02
fd
fb
fc
fc
02
fe
ff
00
01
fc
f5
f8
0b
0b
00
00
fd
fd
fb
02
02
04
02
fb
05
04
03
03
03
fd
f8
f4
e3
ec
f2
ed
e4
e3
d2
d6
04
16
0f
f5
d2
d8
dd
df
ef
ff
fd
fc
05
fe
fe
00
fc
f5
e6
e1
d7
db
e8
fe
e5
ec
09
09
f8
0f
1c
03
f2
ee
ea
d7
d7
dc
08
0b
fd
fd
01
fe
12
09
fc
0d
09
09
15
12
11
15
26
1a
13
18
15
0a
f9
01
01
e9
d3
c8
e1
02
ef
03
fd
08
11
18
fc
23
30
1e
10
11
20
1d
25
23
1c
1a
15
03
10
05
fa
ec
df
d0
ec
f3
e5
e8
05
01
11
24
19
38
24
17
09
13
0c
02
fc
00
04
12
1c
0a
0b
0b
0c
0b
0e
f9
eb
e7
f1
ea
ff
16
00
23
29
26
1f
00
04
0b
0b
fc
f6
fa
06
07
0b
03
0f
0a
12
0c
fd
f2
fa
ea
04
f0
fe
1a
03
26
3a
2b
13
ff
fd
06
03
ff
03
05
13
0b
0e
10
0c
13
0b
fc
0b
e9
dc
fc
fe
f5
f8
11
05
1f
35
1a
03
02
f9
02
10
08
12
14
17
15
0a
15
11
10
00
fc
08
f6
e8
14
0b
0c
00
01
12
17
21
13
01
02
00
06
fa
f4
f3
f2
02
13
15
09
00
00
fd
ff
09
f1
f5
09
f3
11
fc
03
17
1b
04
03
f4
e7
eb
e0
d1
cb
c9
d6
f3
07
03
fc
f2
f2
e8
e5
e7
e5
f8
1a
04
19
ff
fc
0f
10
ee
dc
cb
c2
b9
b5
bf
c2
c7
d2
f9
07
fa
eb
f0
f7
e1
ce
c7
ce
dc
0b
f8
0d
07
ef
fa
ee
cd
bb
9e
aa
b2
bc
d2
cb
de
eb
ff
04
f6
ed
f0
fc
ed
d6
c6
c1
d7
f6
1b
05
09
f3
f6
e3
bf
a9
a3
af
d2
e0
e0
ea
f6
0d
1b
08
fb
00
03
fe
fb
ee
e0
e0
ed
0f
2f
f4
1a
fc
f1
e9
df
bf
cf
e1
f7
fb
f0
f2
0b
1e
27
18
03
04
09
01
f6
f6
f2
f9
00
07
32
11
19
0c
0d
f1
fe
07
10
01
0b
00
fa
fd
16
25
2b
15
03
fa
00
09
fb
01
ff
09
1f
25
3c
22
03
12
1d
17
1b
22
2c
0b
01
0a
02
fa
0c
2e
2b
05
fc
02
03
12
12
15
16
1f
2c
2c
4a
23
04
1c
1f
2e
32
22
2e
12
06
02
fb
ed
ff
10
12
11
0b
0f
0f
19
12
12
0b
15
12
20
3b
26
f6
15
10
3d
2d
2b
22
11
01
03
f9
ee
f3
01
0b
0f
19
19
19
1c
0f
18
0a
0b
22
20
24
1a
0b
f4
f6
27
22
29
25
17
10
0d
05
fc
f1
03
08
12
21
26
1d
10
11
05
f4
01
14
30
36
1a
fe
e9
fe
2f
1d
14
29
1f
1d
10
04
05
f7
f0
03
0e
22
1d
24
11
0b
fc
f5
02
0f
1e
24
0f
0e
06
24
2b
18
13
17
10
0d
fc
f9
f6
fd
f5
04
0c
11
12
17
17
04
fc
ef
01
17
26
19
fb
0f
0a
19
1d
1a
1e
17
10
07
fa
f5
f6
ea
ef
00
01
02
0c
0b
17
0a
f7
f3
02
1d
0d
f9
fd
01
05
19
17
17
1a
17
0f
fb
02
03
01
fe
fe
fa
08
06
0e
0c
02
00
f3
ee
01
0e
06
1a
fe
fe
fc
0c
23
11
ff
0b
08
05
0d
05
09
0b
0d
0e
f8
f7
04
ed
ea
f3
ef
ed
f9
24
19
15
01
fe
01
06
f1
fb
e6
f5
01
07
1b
11
18
12
03
f0
db
df
d7
d5
e0
e6
ce
d2
f6
fe
09
0b
00
05
fb
04
f3
ec
e7
e6
f3
e9
e2
f3
e9
cc
d3
d8
e0
e6
e6
e8
ee
f2
d6
d7
ef
ff
01
02
04
01
03
fd
03
00
05
fd
02
02
02
f6
fa
f9
fc
ec
fa
fe
f0
ef
f5
fa
f5
e3
03
04
fe
ff
05
02
fc
01
02
02
fc
fe
04
fc
fe
ff
05
fc
ff
00
fb
ff
fd
ff
01
05
fc
fc
04
02
fe
ff
fd
05
fc
04
fc
fc
ff
fd
fe
01
ff
f8
08
0d
0b
f9
14
0f
0f
fa
f8
f6
f6
fb
00
fb
03
fd
00
00
fc
04
08
06
f5
f4
f2
e5
e0
cd
cd
dd
f5
e7
e4
ed
f5
f8
f1
f2
fe
ff
fb
08
0f
ff
00
00
fe
0f
0c
f4
d7
d5
d0
d1
cc
c3
d6
d9
ea
f0
f5
ed
f0
eb
e9
f9
fa
06
f9
f3
0f
07
ff
fc
fa
04
0b
dd
cb
c6
c2
b5
c7
cd
d7
dd
e5
f2
04
f9
f7
ed
f1
e8
e7
e7
ef
f8
10
19
f4
04
00
f8
ed
d7
e5
e0
e8
e2
eb
ea
dd
e6
f6
ff
f0
ee
f3
ea
e9
f9
00
fb
e6
ec
19
02
e7
fc
fe
09
02
f4
19
11
0b
05
ee
fa
fc
fa
ed
ef
eb
ea
f0
f8
05
fe
19
0e
fd
f9
02
fd
f2
fe
09
19
14
00
16
25
13
06
0d
0c
09
03
01
ed
eb
fb
06
1b
10
14
1d
1c
20
18
0e
fa
f7
0e
21
20
22
0a
19
15
1a
13
12
0f
19
21
1a
17
14
1e
24
23
14
18
19
20
3f
3b
12
13
1c
07
1f
15
29
17
15
0e
10
0d
18
19
23
32
3b
31
1e
21
29
1b
14
0a
11
13
29
4d
49
2d
22
11
16
26
28
28
1a
11
18
14
27
28
35
3f
50
44
28
22
16
1a
0e
0e
0f
16
1d
4a
45
48
20
05
1d
28
22
1c
14
16
1f
15
20
1e
21
27
40
34
0d
fd
05
0b
fb
fd
02
0c
0f
2c
3a
44
0e
06
27
20
13
09
02
04
11
11
06
00
f4
ef
f1
f1
e7
e1
f5
fd
ee
f0
f0
01
01
0c
15
2e
02
03
14
2a
04
e3
f0
f2
f7
f6
f3
eb
e1
cf
c6
d2
d9
db
ea
ed
e5
f3
f4
05
07
12
0d
18
17
07
0d
2b
f0
d6
e9
e1
e7
ee
ed
f9
dc
d7
da
dc
d8
db
ea
ee
ef
f1
f5
0c
19
22
07
23
19
0a
f9
1c
ef
dd
e5
e4
eb
e7
f0
f4
ef
e6
e2
db
e1
e3
f5
fd
ef
fb
02
03
18
24
04
22
14
0f
f1
fd
ea
e4
e0
e4
ed
f6
f3
fa
ef
f3
eb
dd
ec
f4
f6
ed
f5
fd
03
fc
09
0e
f6
2e
1b
03
f6
ed
ef
f2
f4
f1
e7
eb
02
f9
01
f2
f2
ee
ea
f8
fa
f0
f1
fe
fb
fd
0b
1f
1d
29
19
14
fb
08
e4
f2
f7
ef
f7
fa
f4
fc
fd
f8
f7
f6
f7
f7
04
fb
f0
f1
f6
fc
03
12
fe
1a
1d
f8
1c
1c
e3
00
f7
f9
fd
05
06
04
f9
0b
0c
02
05
ff
fe
f5
f2
f1
f3
f6
f7
0a
08
19
15
fe
09
0b
e5
fc
08
06
06
0c
06
04
0d
15
15
0b
0a
fe
fc
f8
fc
e9
ef
f5
f3
ee
ea
08
04
00
00
e0
f2
fc
10
1d
08
00
04
06
06
11
0b
0b
07
00
02
f7
f7
f0
f0
f2
f2
ff
f4
1a
00
fc
f5
ea
e3
f8
1b
23
18
0f
0e
fe
03
0f
0f
17
16
06
0b
08
01
e6
e2
e5
e2
f3
f0
0e
04
fb
05
e3
d6
fd
14
17
12
0b
10
13
12
0d
07
0a
14
0f
13
f6
f9
dc
d8
de
e7
f2
f7
ee
fd
00
04
ff
f2
06
0a
f6
ef
04
01
07
06
16
16
1b
18
04
07
01
04
e8
e8
d9
d9
fb
e5
eb
04
fc
fd
e1
17
11
ea
ed
f2
ff
fe
ea
02
fb
fd
fa
07
0d
16
0d
0d
f1
f3
00
f3
05
f5
04
fd
03
00
fd
f8
df
e3
dc
ea
f4
fb
f8
06
fa
08
fe
10
05
07
0c
22
fc
fc
12
fe
e6
02
04
fd
fd
04
00
ff
15
14
ff
fc
03
0a
1a
03
ff
33
0f
06
05
23
12
08
fc
0b
12
1c
ff
fb
03
fb
fc
ff
fd
00
05
01
03
fd
01
ff
fe
00
12
11
08
02
01
ff
03
fd
01
00
fd
00
01
fc
00
01
03
04
01
fb
00
02
18
17
1f
1f
1c
08
0b
06
0a
16
05
09
21
21
26
1d
19
0e
05
ff
02
fe
fe
fe
04
f5
05
0d
15
21
3f
51
58
56
55
42
48
45
26
1a
12
13
1e
28
1f
1c
2a
0c
01
02
02
fd
02
ff
08
29
3c
44
29
3d
40
32
2c
22
16
0f
10
08
0a
0c
f8
f8
02
09
07
fa
00
04
00
f8
1c
04
16
4d
39
24
34
28
28
1b
1a
20
16
0f
12
0e
08
0b
0e
fe
f2
e9
df
e9
02
1b
03
03
24
16
35
1e
17
0f
0d
08
08
10
14
0c
0e
19
17
0c
07
14
10
05
fa
fc
f5
f2
00
1b
fe
12
e0
06
23
fa
ff
02
04
17
08
08
09
05
06
14
0e
ff
fb
f6
fd
fa
f1
f4
f4
0a
02
13
02
fc
f8
05
3f
13
fb
01
09
f9
f8
f7
fb
0d
0f
15
fc
ec
ee
e8
f7
00
f6
e3
e8
e3
0a
0f
ee
f3
f4
0c
3c
0f
03
07
fb
fa
f8
f9
f8
10
0e
06
fe
f2
e6
f7
f2
f8
f5
da
c6
e6
06
16
fa
db
f4
0e
24
14
0c
09
03
01
03
f7
f8
04
11
18
03
f1
ef
f6
fd
f9
fe
e1
b8
cc
f8
e7
fa
e6
e3
05
0e
0d
12
fe
f9
f4
00
fa
f9
fa
03
00
f5
f9
f7
ff
00
04
f9
ec
b5
ad
d3
e9
ff
e1
d1
f9
03
10
f9
f2
fc
fc
ef
f4
f2
ee
01
05
f9
ed
fd
07
0f
0b
17
08
eb
c7
e3
e9
fa
ee
d6
ea
fc
f9
e4
e6
ef
fc
f0
f5
f4
07
15
0f
12
02
01
08
07
18
21
32
35
0a
f3
fa
09
f5
d7
f2
d9
dc
d9
d7
f0
fa
f4
f7
0d
24
20
29
27
12
06
03
00
00
05
1f
28
29
31
23
ec
f5
d6
03
dc
e2
ec
e5
f0
f3
fc
12
1c
28
2f
32
2d
0e
fe
fc
f1
ef
f6
f6
fc
30
49
25
e6
ef
ed
0b
ef
01
03
f7
f8
fa
01
17
22
33
47
34
36
0b
f4
fb
ea
ed
ed
e8
f8
38
3e
27
f9
f9
1c
18
05
02
08
fc
f8
03
10
21
27
37
3d
24
27
0a
00
fb
e9
fc
fd
01
0c
4c
45
1a
fe
f7
1e
1c
fe
f3
f6
07
00
fc
0e
1b
2a
35
29
1d
1a
ff
fb
fd
f9
03
06
02
02
3d
24
fa
ee
02
ff
13
f0
f7
f4
03
f9
fb
fa
06
1e
20
18
15
16
13
15
08
ff
08
0b
0d
12
3e
0c
1b
06
de
e5
fb
f1
04
fa
08
ef
02
04
fe
0c
16
0f
1d
28
1c
16
0e
0f
0e
1d
13
ff
20
28
14
fe
eb
f3
03
07
ff
0d
1b
03
00
05
01
03
0a
19
1d
1a
1a
21
21
25
18
0c
09
06
02
20
f8
0b
17
2b
18
ff
08
15
14
11
12
0b
06
0a
16
15
15
14
25
2e
26
17
02
0a
0a
ff
fe
f1
fc
07
0e
1e
29
11
17
10
0b
0a
0e
0c
0b
03
08
05
04
0a
14
22
19
18
12
00
fa
f6
fb
e9
fd
fc
01
1d
00
00
f7
f5
f9
07
02
f1
fe
03
05
02
05
04
0f
2f
31
28
25
1f
13
06
fe
f4
02
02
05
02
d6
d9
cc
e1
ea
f4
f5
fe
00
02
f9
05
04
14
11
20
21
18
23
12
18
11
2a
17
03
fc
fe
1f
e4
d8
e5
00
fd
f7
f3
01
fd
0b
0a
11
06
f9
02
03
fe
13
00
e6
e1
e2
0f
08
02
fc
fd
00
19
20
18
19
21
19
19
12
00
09
fe
02
f3
f1
02
ff
e9
07
08
f5
04
13
03
fb
fc
fd
04
ff
01
f1
ef
04
0c
fc
f8
e9
fb
0b
d4
07
09
fc
e7
f8
00
0f
0a
ff
f2
01
01
04
fd
fd
fd
02
02
fc
fb
ff
04
fc
fd
02
fc
04
06
07
fe
fd
04
fc
ff
fe
fd
03
05
ff
ff
fe
04
03
04
ff
00
fe
03
01
fb
02
ff
04
fe
fd
ff
02
fa
00
fe
fd
fe
f8
ff
fc
01
01
04
fc
03
04
ff
00
03
05
fe
06
06
12
15
04
f6
fa
e5
df
d7
d6
d9
e1
e7
f0
ea
ec
fc
04
07
ff
fe
fd
04
00
08
17
e6
ee
05
1e
1f
1d
10
13
0f
f7
f2
ee
f7
f6
f7
01
02
17
1c
27
1e
12
fd
fb
f2
ef
ea
e3
e2
02
0b
fe
10
0b
15
12
00
fd
03
ff
01
07
f7
f0
f8
01
ff
11
1a
0e
fe
fb
fe
f4
f6
e4
dd
ed
05
09
0b
1c
2e
21
1a
0f
0c
0a
1d
12
0e
17
0f
0a
eb
00
43
21
fe
04
f2
0d
e3
ed
e8
ee
fe
09
09
17
1c
27
34
3c
3a
38
34
2f
25
1a
17
08
f2
00
16
f6
fc
fd
e2
03
ea
ea
e7
f5
f8
0c
13
1e
1f
25
34
43
4c
46
2f
29
1d
13
17
08
f7
ee
f3
e6
0a
0b
fa
ef
f9
e7
ed
f2
f3
12
0e
0e
12
0f
22
30
28
28
15
0e
0d
02
0f
f9
fb
fe
e4
f3
0c
fe
e5
f2
ff
e7
f3
fc
fd
10
0c
0f
0a
0f
0e
fc
f0
f5
f9
00
fa
fb
f0
e8
08
0d
f4
ff
f1
f6
ea
eb
f8
f3
04
11
0c
15
0e
0c
10
02
e1
cf
c4
da
eb
fa
f2
f4
ee
e8
07
11
0c
14
ff
fc
f1
e1
e8
00
0e
19
11
11
fe
fe
fa
e6
e1
d7
d4
ef
f7
fc
00
01
05
f6
fe
1d
12
35
f9
fc
e7
f0
fc
0f
0c
10
fc
fb
f6
ef
e6
d4
ef
f3
fa
f7
03
0b
15
06
05
ef
fa
f1
e4
14
e7
01
fa
ed
09
06
02
f4
02
f5
f5
f2
e8
ea
05
ff
f7
f3
f4
ff
05
0a
fc
f0
de
d5
de
04
01
11
ef
d9
f9
fe
ee
fc
fd
f7
f1
f6
ef
f7
03
fc
f7
f6
ee
f1
f0
fd
f5
e7
e7
e0
e0
08
16
11
ef
c2
e8
f8
fd
fe
ff
fb
00
fb
fd
fb
fc
ea
ee
ee
ed
ee
e3
f2
f5
d9
de
ed
e1
02
10
f9
ec
d5
fa
f7
fe
f0
ef
f4
fa
0e
0f
13
f6
e9
e5
ed
ee
e6
e2
e5
ea
ed
df
dd
f5
04
13
fb
e3
d6
f9
fc
03
fe
ec
ec
fd
10
13
07
e9
e0
ef
ed
f6
eb
e5
e9
e9
f7
df
ea
07
01
15
12
e7
d8
e5
04
fb
02
fa
f7
fc
15
03
e9
d9
e2
ef
ec
f6
f3
fc
f9
f8
09
03
08
05
fc
08
f1
fb
fe
db
ff
f6
03
0a
08
fa
fd
f1
ee
e7
e6
f4
f6
fd
0a
11
10
08
1c
ff
06
12
0e
04
ff
08
09
f4
0d
14
0f
09
02
f3
ef
eb
fa
ff
00
09
0f
0e
0b
18
11
18
20
11
0b
07
fe
ff
f2
f9
08
fa
06
07
0f
10
02
0a
fb
06
09
0d
15
0f
1b
08
09
0d
12
15
1e
2d
1a
11
13
07
f4
f1
02
04
04
ff
14
17
1b
13
12
1b
26
21
1b
15
17
0d
11
03
09
06
1e
22
2c
13
e0
07
04
02
f1
07
00
03
06
0f
23
21
23
23
26
1e
1e
15
1b
0f
07
0d
0f
1a
2d
36
42
26
df
02
04
ff
f0
e5
d9
f8
f2
03
1c
22
1c
20
24
26
17
20
1a
1e
23
1d
24
1d
1f
2d
3f
0a
fb
fe
fe
05
0b
09
ed
fd
0b
08
14
18
17
24
24
23
19
25
29
24
1b
22
2f
36
27
35
30
13
0e
ff
00
04
fd
09
ff
08
12
0e
0b
25
2d
3d
43
49
50
2d
30
23
20
18
2d
28
1c
1d
12
fd
01
ff
fc
fe
05
04
f6
f2
f4
eb
ee
07
0c
13
07
e7
13
fa
fc
ed
fd
00
0b
11
09
ed
00
fc
fb
fd
03
03
ff
04
fc
01
03
00
fe
04
05
ff
10
0b
fb
fc
00
01
fc
01
fd
fb
03
02
ff
05
03
05
fd
01
fe
fc
fe
06
11
18
0d
0f
1d
0c
10
17
07
00
e9
04
24
1e
1c
29
1c
17
00
fe
02
fd
fb
fc
06
f6
0b
0e
0d
18
0f
00
0d
14
15
1a
22
28
19
1b
20
2f
24
28
31
28
f9
f6
fe
02
fc
01
03
06
15
f5
12
07
f1
ee
f2
e8
e7
f6
fa
ff
fd
fe
12
20
12
22
2f
34
16
f8
15
04
fb
f8
f7
ef
0b
f2
ec
ed
df
dc
e4
d7
dc
e1
e5
ee
f5
f8
fd
0c
07
1c
27
43
1e
00
ef
06
ff
fc
03
eb
e4
e3
de
e1
ea
f0
f3
e2
e0
df
f2
f3
f4
fb
01
0e
0e
0d
1d
3c
2d
0b
1c
1b
02
f1
04
df
ea
f0
dd
ec
e7
f1
ee
f0
f4
eb
f6
f3
ea
fe
fc
0b
0c
07
13
2a
38
1e
1b
19
fe
f1
fe
e3
dd
e4
db
f1
f9
09
03
01
f5
ef
fa
ee
f8
07
0c
07
0c
13
0e
16
26
29
1d
17
ef
0d
09
e9
d7
e1
e0
fd
06
01
fc
ff
fc
f0
ec
e4
e8
f7
f8
fc
08
10
fb
05
1a
24
02
ec
06
16
0a
d9
cc
c8
da
fb
06
fd
f5
07
fd
f1
ea
ea
e3
df
e4
de
ec
f8
ef
fe
1c
28
0d
1f
06
19
fc
da
d5
c8
d5
02
16
18
0b
10
0a
06
f3
01
ec
de
c8
c9
cf
da
df
e4
0f
3a
13
f8
06
fd
0c
e0
df
d6
eb
08
14
20
18
10
13
0c
fb
06
07
ec
dd
cd
c4
d1
d0
de
e4
11
f5
fd
02
0a
13
fc
e5
e7
08
1a
1c
14
1c
1d
18
03
f9
13
11
f8
ea
d7
d2
d9
ce
d4
d4
db
dc
f1
05
0f
14
fc
fe
0e
13
18
12
14
19
13
05
f7
04
1e
15
0c
f9
fa
0c
04
f7
e4
d2
cb
c2
e4
13
13
13
10
0e
19
10
0e
12
19
0d
09
fc
ef
0a
19
1b
04
f9
0a
11
08
0b
f1
de
cf
c5
ec
12
15
2a
10
f7
fc
09
13
14
0e
0c
07
f9
00
15
12
11
ff
ff
09
11
0d
02
f8
d5
d8
cb
de
f1
fe
f2
fb
df
ee
f9
03
0b
06
fd
08
eb
03
1f
1a
09
f9
06
0e
0e
02
fc
e6
d8
cd
c3
de
fe
fb
fc
e7
f1
f7
f8
f6
fa
fc
02
fa
f3
0e
2e
1a
03
03
0e
01
fe
f4
ed
e1
e3
d2
da
df
f6
f9
fe
f3
f8
ec
f9
ef
f3
f5
ea
f0
13
23
27
14
05
04
05
f9
f4
e7
d8
d4
e2
e1
f9
fc
12
f1
01
e8
e7
e4
ed
ed
e4
e5
ef
10
1e
1f
2a
18
03
02
00
fa
ef
e8
d3
da
ee
e0
e6
00
04
f3
f4
e4
db
dc
de
da
e7
f5
02
1b
20
11
1e
16
11
0f
07
f6
eb
e7
e4
e4
f1
f7
f8
12
06
f7
da
f6
f6
e8
de
e6
f8
fa
0d
14
16
19
20
1a
15
12
0c
fe
05
01
f7
e7
f5
fb
f4
fe
0b
0b
db
f2
0a
f1
d4
de
f8
f9
fc
fb
03
0b
12
18
14
12
12
12
09
04
f0
e8
ef
f9
17
00
02
fb
e8
e3
00
0b
f4
e2
f4
04
01
fe
06
ff
0c
11
1a
14
0b
13
0e
fa
df
dd
e1
f1
1f
fc
fd
03
fb
d9
e3
0b
fb
ef
f4
07
fe
fd
ff
ff
fa
03
f0
01
0c
0e
f8
f0
f1
f1
e4
f2
01
fd
03
01
ee
00
0d
db
db
d6
d4
e9
ec
f0
eb
e7
e7
e7
e1
e8
f5
e2
ee
00
12
0c
01
fb
fb
fc
00
00
00
f9
ec
f3
e0
c6
cd
d1
d8
d7
d5
dd
c8
df
e0
d6
cc
ce
e7
f3
fa
ee
fd
02
05
04
03
05
02
05
0a
0f
f4
f6
f2
f1
fc
01
f2
0a
ce
df
e5
f4
e2
ec
01
ec
f0
09
04
03
fe
00
05
00
04
04
fd
ff
00
fd
ff
fc
00
fe
0c
08
0a
09
04
ff
01
01
fe
fe
00
01
00
04
01
01
03
04
fd
fe
fc
00
05
01
fa
f7
ef
f1
f7
04
04
0e
26
0b
ed
eb
f1
f7
01
02
02
00
fd
fd
fb
ff
fe
11
07
f8
ef
f1
ee
fe
f8
fc
09
10
03
f6
f3
e6
ef
d7
dc
f0
ef
01
07
03
fb
05
fc
03
17
07
e0
08
f8
07
22
1c
10
22
35
36
2d
1b
0f
ff
e7
e4
e9
cf
d1
d0
e8
fa
f6
fd
04
0a
19
15
fe
0d
0b
0d
1d
22
14
1e
14
1d
13
10
0a
08
05
f7
ef
e2
dc
ca
cb
dd
ef
fb
01
03
08
1b
19
1f
1e
0f
14
0c
14
14
0e
20
1e
1e
1a
0e
0c
01
f0
eb
e8
ce
c7
ce
db
e9
03
12
0c
31
17
1f
1a
12
18
11
13
0b
0c
1d
25
1b
28
1f
2b
0e
ff
0c
f6
c5
b2
ac
cd
e4
04
1f
1e
36
0f
11
13
0c
07
0c
0c
07
09
12
27
2d
2a
2e
21
1f
10
00
f6
d7
b9
c0
d1
df
fa
1d
05
0a
ff
fb
fe
fe
02
fb
02
fc
ef
f7
22
38
32
28
22
1b
0d
04
01
dc
a8
a4
c8
e9
0d
1e
0b
0e
fe
fa
f0
ec
ed
f3
ec
dd
df
ed
1c
39
3a
2f
23
24
1a
fe
02
e1
bc
ad
be
f0
08
15
18
0b
e5
f2
ed
db
da
da
cd
cf
c6
db
02
1a
2c
28
20
1d
25
15
12
f4
bf
b6
c5
ff
0b
0e
1b
0c
e4
d9
d3
c9
d5
db
de
ee
da
d1
de
f6
03
0f
1e
1b
27
26
24
ff
d5
be
c6
fc
07
0c
14
02
f4
d6
d9
e0
ea
f9
06
fd
e6
ce
d0
e5
f4
05
10
0e
0d
05
14
03
f4
e5
ca
fd
f2
fd
18
fd
f3
ec
f3
f1
01
00
0a
fc
e8
dd
e5
e6
fa
06
06
00
ef
00
fb
f2
00
f0
f4
0c
ee
ff
0e
ee
fb
fd
09
14
fc
04
fe
f3
f4
e3
ed
ec
fd
10
12
05
06
07
fb
f6
00
f5
2c
12
f3
01
fd
f6
17
23
17
12
fe
f3
f9
ea
e0
dd
e4
f8
fe
10
0a
09
0c
00
00
fa
04
fe
20
1b
0d
0a
1b
04
31
26
19
12
ff
fd
f6
f1
e1
e1
dd
f4
06
11
0b
05
fd
00
03
f3
f9
f9
14
18
04
14
0a
13
27
0f
04
fc
f9
ef
f4
e8
e7
e2
e5
00
07
13
0b
06
f4
f2
00
f6
f7
1c
22
19
16
13
09
17
14
11
00
fb
f6
f1
fb
f1
f0
f3
01
05
06
0d
0b
07
f9
fe
0b
ef
f5
2d
2d
23
f7
24
f4
09
19
0f
fd
fb
f5
f5
02
11
18
11
0d
ff
ff
09
f4
fe
fc
f5
f0
f4
02
1e
1e
18
04
1d
f9
18
1a
0b
02
f9
f7
01
0b
1c
19
18
15
ff
fc
f3
eb
f6
f0
f5
ea
ed
06
0c
15
00
f3
10
18
17
07
01
fd
f0
f8
f9
08
14
19
0c
0a
fd
00
f1
f4
fb
ee
f6
ee
fd
16
12
1c
04
f6
09
16
0c
f0
fb
00
02
0c
10
12
0f
0e
0b
09
09
0c
ff
f8
fe
f8
f8
00
f7
0b
01
ee
03
ff
01
f9
fe
f9
f5
03
17
ff
0f
15
12
09
03
02
ff
f7
f9
fb
f2
ee
f4
fa
ee
0a
01
fc
05
05
ff
06
12
35
23
17
0e
01
fe
00
07
0c
0a
0a
ff
f2
02
e3
da
e2
f3
fc
f9
18
13
02
03
fe
ff
e9
f3
16
25
17
1b
31
1c
04
0f
1b
09
07
f8
ef
f3
f9
fa
fe
fc
f5
f5
02
05
04
01
04
ff
fc
0c
f9
fe
0b
2b
30
2e
2a
1c
17
2b
37
2b
34
2d
31
2b
15
07
0f
06
fc
00
fd
fe
fc
01
00
02
11
12
0e
10
21
14
15
03
03
25
32
1c
22
31
21
17
01
03
01
12
fc
fc
02
00
fc
fe
03
04
01
04
02
fe
01
fb
fc
ff
09
0c
f8
f7
fd
fe
00
05
01
00
fe
00
02
00
02
fc
fe
fe
03
fe
04
07
14
1d
1a
14
22
21
30
27
f2
f9
fc
17
31
25
28
29
1f
11
fc
02
04
01
fd
fc
02
10
1d
0c
21
31
1e
0c
29
29
22
11
17
08
00
02
0c
13
1e
1e
22
20
02
f1
00
03
fc
fb
ee
12
f8
18
14
15
13
05
06
0b
04
03
0a
fd
01
0d
0a
02
01
fc
01
0e
08
f2
ff
fd
04
0c
04
1b
29
13
f7
04
11
00
fb
fb
fe
fe
fb
f3
f6
ff
f4
f5
ff
f2
f8
f6
ed
ea
00
12
01
fc
f9
ff
13
00
01
fe
0c
00
01
01
05
01
01
01
f7
00
f6
fd
ee
ef
e2
ea
ee
ea
ea
f3
04
e8
11
25
02
f9
04
00
05
09
0b
0a
0d
0c
0a
16
1d
19
11
09
ff
08
f8
f6
e3
e9
e4
fc
00
fe
04
1c
05
fd
06
09
06
16
0f
09
14
1b
16
23
23
22
18
0e
06
01
fb
ff
f6
d7
f3
f7
f2
08
ff
14
18
0b
11
13
13
1c
0f
0a
15
11
19
19
18
0d
12
00
fc
ff
07
f8
f3
e6
f9
08
01
19
f7
14
19
16
1a
12
13
0a
06
fb
00
0f
14
13
09
08
04
11
12
02
08
fe
e3
c3
e6
07
0b
15
09
06
12
0a
07
09
01
08
fc
fa
f7
06
0c
fd
09
0d
10
12
1a
0e
16
00
cd
a2
c4
00
08
17
1c
16
05
07
07
1c
15
13
0f
0e
0b
19
11
fe
0a
15
12
0d
1e
26
28
20
f1
a1
bd
02
02
11
21
19
13
21
1e
28
1b
0f
06
01
f9
fd
01
0b
1c
18
0d
08
14
27
4f
5f
4c
da
ba
fc
f9
0a
1d
17
28
1b
28
1d
09
01
fa
f8
e3
e9
f1
14
24
10
10
0a
0f
1d
36
4b
3e
e6
b2
e1
ea
08
18
02
07
1b
18
06
fe
fa
ff
04
fa
f3
f7
07
0c
0e
1c
24
17
17
1b
29
1d
f7
c1
e2
f2
16
e5
e7
f2
01
03
16
06
05
12
0a
01
f6
fb
08
fb
15
11
1e
22
21
26
1b
fb
f5
bf
e5
10
11
01
ca
ee
fc
05
28
29
1c
10
12
f9
ea
f4
08
0f
10
0b
0c
13
05
0a
01
ee
df
b7
e7
05
11
f4
cb
d8
e9
ee
14
1e
1b
14
10
05
f2
fa
00
06
0f
09
0a
0a
fb
08
05
f7
ea
dc
f6
15
11
12
d9
d4
e5
e9
f9
08
12
12
0a
fb
eb
f3
00
04
08
0e
04
fa
f7
f8
e9
d6
e7
fe
e1
f3
1f
f3
e7
df
03
00
f8
ed
fa
ff
06
05
f3
05
fc
05
02
fd
02
f5
f3
f4
ec
e0
c8
d2
eb
fd
17
e2
d6
df
f4
f7
00
f0
f2
fb
f6
0e
13
18
0e
02
f8
f0
e9
ed
f3
e3
e7
ec
d5
e7
f6
f5
fa
da
d7
da
ea
f7
fb
f8
f8
fa
00
1a
18
15
16
07
f5
ea
e7
e5
df
e1
d6
d7
d5
db
00
f3
fd
e1
dc
d5
ea
f5
f8
f3
f6
05
07
13
1c
17
18
08
f7
e0
de
dd
e1
e1
dd
db
e9
e6
08
02
05
e9
e1
dc
e5
f2
02
fe
f5
fa
ff
0c
1c
17
14
0d
fb
f2
e4
d8
db
e7
e7
e6
de
db
fe
01
ff
02
fb
0b
11
08
0c
09
fa
0b
11
0b
0d
07
11
12
fa
ed
ed
f0
e8
e7
f2
dd
dc
ee
04
04
02
ec
f3
08
25
0a
13
1a
14
13
16
08
0b
0b
02
ff
fc
05
06
0e
0d
eb
e9
f4
f6
f7
fb
ff
fb
01
0a
03
07
16
2c
33
2f
27
16
1b
28
32
21
1e
30
2b
24
17
1c
18
1c
11
04
04
fe
02
00
ff
ff
0e
15
0f
0c
18
15
16
fa
03
18
35
25
2c
32
32
24
1d
27
24
1b
ff
01
04
01
04
01
01
03
02
05
02
04
fe
fc
03
02
02
fe
00
fb
fb
ff
ff
fc
ff
fb
fe
fb
fe
05
fe
02
fb
fb
04
03
01
01
01
f9
fb
fd
f8
14
17
ff
f2
fc
dd
e2
fa
01
ff
00
01
0b
00
02
02
fe
01
03
fb
08
15
ef
fb
fa
e3
df
d7
d9
e6
e7
e4
ea
e0
d4
e5
e4
fb
0a
01
f4
f4
f3
00
fc
02
fd
14
04
04
e5
ef
ed
c8
cb
c1
a0
a9
bc
b3
b6
be
c5
d7
d3
d9
ed
f7
10
ef
e5
f0
02
fc
fd
13
ef
f3
d5
d6
cd
d0
dc
e2
e8
f8
fb
05
ff
fe
fa
fd
0b
17
12
10
13
f6
f7
13
fc
04
02
07
fa
ee
e7
df
db
d1
db
e1
f0
fc
07
0c
0b
00
06
0f
1a
1f
1d
08
09
08
01
fc
ef
fe
ef
e6
f0
e6
ed
de
dd
dd
ce
d9
ec
f0
f5
ff
08
02
0d
16
1d
1f
19
0d
20
0d
13
00
f3
fb
db
da
de
e2
e9
e0
de
e2
e4
e6
ea
f3
fd
02
0e
0e
12
16
18
10
17
09
25
19
fe
07
f3
1b
e2
dd
e9
e5
e7
f0
e2
ec
f9
fa
fb
04
14
05
03
0f
14
1a
11
01
10
0a
07
28
14
18
18
f8
e3
e2
df
d5
d6
e2
ec
f7
fd
0f
0f
0d
1b
09
05
05
0c
03
0a
fb
01
03
10
1b
01
0d
e3
f6
f7
de
cf
d9
bb
cb
f1
0c
0f
19
1c
21
1c
1d
0f
02
fc
00
02
fb
fa
0d
14
0b
e2
f0
f8
fb
f4
db
ba
c1
cb
de
06
1a
17
14
10
1c
35
3d
23
06
fc
02
f1
01
03
0e
26
27
e8
0f
04
fc
f3
dd
c2
c6
dd
f8
0b
0a
1c
08
07
1e
3a
43
27
06
10
00
04
0a
19
1f
47
2b
dc
df
e1
08
06
dd
d1
d4
ca
e7
fc
0e
0e
f9
05
25
31
2c
27
0b
05
00
01
ff
01
07
ff
d7
c1
c5
ee
ec
13
ec
da
d8
d0
ce
dd
fe
fd
fc
08
27
2f
2d
26
08
01
eb
df
d8
dc
ce
c8
c9
d5
cb
eb
e9
13
03
e1
e7
ce
cf
ea
fe
05
ff
02
1b
2b
2a
0d
ff
f2
eb
dd
ce
c8
cc
c6
d3
dc
cf
df
f0
1a
09
e2
d7
e5
e2
f4
0c
05
02
08
03
13
14
fb
03
e9
e0
c9
cd
d6
d2
d8
d7
be
cb
e7
fb
02
ed
e8
db
e5
e0
fd
0d
11
08
00
04
06
0c
fb
f8
eb
d9
de
e8
e7
e2
d8
cb
b6
d8
07
ed
f5
e7
d7
d7
df
e8
ec
ff
0d
07
fe
f8
fd
03
f9
f2
ef
f2
e7
e8
de
e1
cb
c8
cc
fc
0c
13
ed
e9
d2
d6
ec
e9
f1
f6
04
ff
ef
f2
f4
f8
f5
f8
f2
f8
f9
fa
ee
e3
d5
d4
ea
fd
07
04
07
dd
cc
dd
f2
fd
01
fb
f6
04
f5
f9
f5
f8
fb
f9
ff
fc
f5
fb
fc
e5
ca
d8
ef
01
08
10
ed
da
f5
00
15
18
10
04
07
07
fe
f9
fd
00
02
f8
fe
fb
f4
fe
f5
d7
cc
db
f3
e0
07
08
04
dd
fd
02
14
15
0a
09
02
04
0e
0d
15
1c
10
11
0e
03
f0
eb
e1
d3
f0
ee
04
ff
08
ff
00
de
ea
dd
f2
f7
f8
16
11
07
0d
1f
21
1c
20
2c
1f
08
f4
e4
d6
d7
ef
fc
fd
02
01
03
fd
fa
d7
c5
d7
db
f0
00
0d
08
07
0a
ff
fc
09
12
02
16
09
ed
e0
e3
f4
e9
ed
f6
05
02
fc
1a
e3
d7
e4
f0
eb
f0
f4
ea
ee
e7
e5
f7
f5
05
19
0f
04
02
eb
ff
f8
e7
f7
f3
fd
fb
fb
05
14
20
17
16
10
06
00
fc
01
0c
fa
0f
f9
05
1b
11
02
fd
ef
ee
fb
ff
eb
00
00
fc
fb
03
02
ed
ec
03
05
fa
fb
ea
0a
0a
cf
06
0b
02
f4
f7
f4
ed
e2
e9
fc
fe
fe
04
fd
fd
05
fb
fc
04
fe
fe
02
01
03
fd
03
06
03
fc
04
00
04
fb
05
fc
04
03
04
02
fc
02
02
01
fc
05
05
fb
00
01
03
04
fd
fa
fe
08
fb
03
1d
05
10
16
04
0d
15
1e
ff
fb
00
04
ff
ff
00
02
03
0b
fe
fb
0d
e4
d5
df
f3
f0
f6
e9
fc
0c
0f
0a
10
03
fb
fd
0f
08
f5
04
fb
02
01
17
01
08
14
00
f6
04
f7
00
11
12
0c
16
19
1b
1a
21
24
23
01
f6
ee
00
06
18
fc
ff
0e
10
1a
0b
10
04
09
08
03
0a
0c
05
03
00
0f
09
16
1a
12
fb
05
04
01
fd
00
0f
10
03
04
07
16
08
05
04
01
ef
f3
ff
03
f8
07
01
09
09
0a
15
17
18
17
1c
06
12
10
18
01
02
13
f4
f8
f8
f0
fd
ee
e3
ea
f9
fe
01
13
10
0a
0b
0f
1a
11
19
10
1a
12
28
18
07
06
05
19
f1
f5
01
02
f9
e9
e6
ee
f5
00
03
0e
1e
11
13
0d
11
11
12
0d
14
16
10
17
04
13
fb
f3
f8
fc
ff
fe
f7
ee
f9
f9
07
01
ff
03
14
13
12
11
0a
11
17
19
1a
18
10
06
04
03
f4
ee
f8
01
0d
ee
f1
fd
05
fb
09
f6
fc
0d
11
10
05
01
fd
fe
0d
10
1b
29
44
37
08
fd
f8
eb
06
19
04
f2
f2
f1
01
f9
f4
f8
fa
1a
1d
07
02
fc
f5
e8
fd
07
0e
29
56
52
2f
f5
f2
e5
ee
08
06
e1
e5
e3
f3
e6
f5
fd
0b
2d
1b
0d
fa
f6
f2
ec
ec
eb
eb
08
25
3e
22
14
02
f0
dd
f3
f1
d7
ef
ec
f0
f3
05
09
1b
31
24
02
ef
f0
f6
dd
db
d0
d3
dc
db
00
19
11
02
fa
e0
ff
f9
f1
f4
fb
fc
fb
02
05
1c
24
13
ed
dd
ee
ec
e4
de
d9
e2
e7
e1
db
03
e5
0f
04
ed
f7
f8
f8
f7
02
01
07
04
03
19
11
fd
ef
e3
e1
e1
e4
f4
03
fe
00
01
d7
d4
ed
0d
0f
f7
e9
07
0b
fd
ef
f1
f9
04
17
1b
ff
e5
d3
ee
df
f1
fe
10
0c
0d
17
21
e4
e5
df
f0
1b
05
0e
0e
0d
f3
cf
d8
eb
01
0b
f3
e2
e1
db
e9
eb
0e
13
0f
11
11
20
26
d2
db
e0
00
18
fb
31
14
14
0e
e5
d4
cf
df
d0
bb
b3
d4
ea
ee
07
15
16
04
0b
12
0a
f5
bd
d2
fc
e4
08
f6
31
19
1a
1c
08
f4
df
d6
bd
b4
c7
e8
fe
08
21
14
0f
07
0d
14
fc
ec
e2
d5
ec
0a
ff
f1
25
1f
1e
1d
1e
1f
0f
08
f9
f1
01
fe
0e
12
1f
1d
11
0e
0d
0a
0d
02
f5
e2
f5
fe
15
fa
2d
25
25
28
17
27
31
28
27
13
1c
0f
10
14
1a
1b
07
0e
07
14
03
f6
f5
fe
14
0c
09
15
31
26
19
1f
1c
1b
16
14
1b
24
18
18
13
0f
0e
11
0a
0a
06
02
02
ea
ee
ef
03
0b
12
15
2a
18
18
0d
07
12
18
11
1a
1c
20
15
11
14
15
12
0f
06
f4
03
05
df
f7
0e
04
02
02
1a
3b
19
25
11
0b
14
1e
20
29
1a
17
14
15
0a
0c
01
f7
f6
e8
f6
ee
f9
f9
18
fd
fb
05
ff
2c
1f
08
13
13
11
1c
1f
11
1d
17
11
0c
fe
08
f3
d3
e1
f4
fd
f9
06
0e
14
fd
05
00
13
ff
ff
fc
0d
11
15
14
03
07
0b
00
f0
ed
ef
f2
e8
f3
e4
ed
0b
02
0f
0b
fc
05
fe
fe
fc
06
10
09
09
fb
ef
f3
f2
f7
fb
01
fd
fe
fd
ff
fa
05
14
14
0f
01
0a
fe
05
05
fe
03
05
02
fd
fb
f8
e9
ee
02
14
15
0e
eb
f4
0b
fa
f1
00
fd
fa
f2
f9
fb
fb
ff
fd
fc
