18
00
c8
d8
0f
15
b2
bc
2e
c4
33
d3
26
1c
04
23
b6
16
16
39
d4
c3
d9
34
ff
23
bf
21
05
db
3a
12
20
12
ec
2a
dc
1a
ce
28
2c
28
2c
c9
1b
d6
c4
fa
ce
f4
11
10
0e
e3
35
32
f1
0c
ee
ae
1a
fd
d4
2f
2d
97
28
dc
1b
0b
06
fb
a4
f7
81
2b
c4
fc
01
b9
08
28
d9
bc
f4
1d
34
23
29
cd
33
1f
c8
c8
01
20
04
2f
91
d1
04
00
a9
cd
cc
26
df
3c
d1
27
0a
07
fa
f2
29
2e
c9
d7
26
27
3e
cf
e8
00
3b
30
bd
ac
10
f1
b6
1b
0c
f8
1f
f2
05
14
0a
dc
bd
0e
30
ea
2c
f9
25
c6
de
ac
10
a6
c7
04
14
da
11
28
24
f0
