dae1e2fa27365a5c28000ffaf8e6f5fef30210130b090f0ef7f8dfbfcee3e2151c1b664b210b1505070708181e1b120c13120b12fcebd5bfb1f1d0fc0130693425120e19170e171a241a130e05fe03fdeccbc6c9bd00e6fe1d435b2a1210161c1d12200f080c0a060c01faeadabca3bedcf1fd051c2944463b24170a0c0c0f0d06feeef0f7f6f0dde1cdbfdadfe7ea04fe1c01223d4537160f1dfaeff0eaf5f406140a00f7f8dc231fe9fafa06ffedeb1a2f211e252209e3e4dce4ffff0c0529392b181d1201fdfd03fc04021a221c29302c13e4e4df282c2d1c141c301d1813fbff03fe0604fffcfbfe05fcffff03fb03fa120f01040003ff04fdff00fdfc04
1920f9e7d0e7e0f8fbc0e606faf0f8fdfafe070bf8eff51f373c2818030ef2d1e0e4dd03e4cc00e4f2e9e9ece7f502ff04fa032835261811fbfce5caded0dffce2d507e7eee1eae5f1f8fa01020113282f2a211608fff0e8e6c9f00be8d3dfeef2fcfcfafaf9010308ff152b372e1618180e09f6f0dbf319e9bec9f51d260c110cfcf1ff01f41f2d291c15152c221cfeeedef6f3dfe2e9232e0e0f0808f7eee7dfea231d20161a1f2a3811eee8d6e9fff741406d35f4fce9f3dfdcd4d0e50f1b15222f382c200ae8cfd4eefffa25316b28f0ecece1d9c7bdc1dc03272c332e2d1f0cf2e9cfceeef6f52c576317f2faf1eadfd6d4cae208252c1e1410fffce6c7
0cefeeefff01edf104fc05fd05fbf71a09eefafadfedf7f0f5fbf507feeceeebec040c251804fb0404f2fd2f421e0d150f1118181601f7e1ecefd4c2d3dcd9ea110d02fcfde7f2273d29132d2b28071c1c100e11070208f9dabfbcc4e5ecfefcfbfa0c1d422f21210f040b1b121c1e1d1005fe08dac7d8e5f7e904fdf714031f2f261c070205071412232f28150c0503f6eae2f7ede2e6ebfa04f1fe242e1912fefd060a22242a20131211040afbfaf5dfe9f2edf4d9f704242b190a04070e0a160811131412121409020befd501fefeefd4da13171c14100809050507fb04151b2f2118151402e9d7f9eaf2ddcee21110fcfd0407fd060400fe021734402917
f3ee00f9eef3e0d9e8e8ebf2ea02dee4f118f40009140ef902fcf1f0e0e0dddde2e3d9eae1e4e4f3dae7da0307080c0f230d040809fcfcf5f6e6e5f3eaeee9eae8e0ebf8ede5e4fc00f8021931222a231a1f22211d18081505fefceff2f6fc07f80e0401f304f3f51203081806fe0f140d1a201707fe0cfff90a08efce08fc01feedf3041006f9d3e1dbe7fcf2f502eef2f710e5f7e9e3e0dd13feffff051113f5eefafbe4ed0220342712f3eae905e9d3e900e3e4fefbfd03fffbfbf1e7e6dddde0e0f4011fd1ccd6deeceddeebf2f8020402010004ff0104fefa04fbfffb030308f2ef000505fefffbfefefc030300fffc0402dfe1eafcf2ebdff3fffbe10b
d8dfe309193837201412100c0804fff8fb15eafd16514601ede9e3d1ceddfc1f2b392d1e0b080e0f0e0bfe001703f0001b402ce9dad6cdc7dfdff9262b40321c0d011722170d09102216f30b194225eeece4dfe1f5f0021d25352e1b07fb09120d0901091eeaf11222442c0703fe0305fbf70012232224170cff0b0ff8fef5f4f7f00515f50b161afa070f0204efeb030408010e0509120b00f90a06f8f0fdfff1f5dedce1ebf5ec03e9e8f5fceee308080e140302ff1905e9e9e5f6fee6bfc1dce9f4f1fbecf8ebfdedff18180ffcf8f4f5f6fceee1eef0e0f6dbd4f6f3f8f2f8f8faf8f6ee01081002f4e1eee4f6e8f7fadeec041300edf8f4f8f808fe06f2
f4c9c3b7b2bac7c9c1b8cbdacdccc0d8d8e5f6080605fa03fe0d0bcbdde4d7e0c0d9e3e1efede1c8c5b9b7b3b8bfb0c3e7f9fefbff132209fd111520232507fff2f1f2f8f6edf4dac1b1a1a6c9f403fdfd01100a05263c39372f1b1907faff0702fb1009f0ebe9e8dcf7ff04f8f10d21191d36293330150702f701fd030a100e06141f140df80d1af6f70d1f3026242c2e31280c0a03fffdfe030f020c090cfef8f10410072e11211c232824222919151301f70708fefafe0d03e8f1f209ebfd1137401920130a0c080c0a1c10111807fe0404fe0b01f4eaeafee1101e0d392c13f7fef4ecf0ecfd0b2529270e0a130c06fa03fdfffcf7e1011c340af7edf6e8
0d1a23070203f804fe0417050214040402f3fdededddf1ecd8ececfd0015180c0509fa07ff00fdf6ff0c1008000100f7e3d2f1ebd2fee303f6f2f30f180af2020505fef803fefefcfe08fcdfddcedee2fcf70302eae3001424140cfc020604f6f9f5f7f8f9e5c8c9d3d6f10818ff04fe011aff1c10191f1a140300f3f6f5d0e2ddd3c8d2e7f8f51709e703fffa01fcf7041c0f0d1d000b01fc0effeaf5f2ed03fb04090504f106fb05ff0103eef502f9f90bf8e2f90413050f0f05fdf0edfd01fbfbfc05fc0003020205fbfe02feff0301020709fffefcfefc00fefb04fcfdff03fbff02e4e7e501e5e0d4f6fad6dafaeedae2e2e5e5eeeefc040501fafcf1e5
f0fc1204e5c3b6c3d6f3fc13282d20191706e60321160d0ae9c0d3d9e30310f3f5d6bdcfeffd0b101d22261f0ef5f31c2c35231b02dfd9e8e809120ceac2c5d2e00006161d21211a02f3fe1d21292c1a09f2f4f2e2f20213ecc2c1d1e2e0f10309141e1800f90f2934381a0b08faebecdee8050de7d4d5dcdacfc9e5f303060201042139352b090400f8e2d7d7e4f4fb08f7efdacdc4cbd3d9e8f301ece9091c090001faeee6e0dddcdff2fc081a0efbd5d9d2dcd1dae6ebf4f10808fceef9f4e3cccfdbd1e2faf50efc0b0cf2f0e3e2dde3e9f5fdff0e05f2efe7e5e2d5d1e4d6eff8f4f6071704f7fdf9f6f2ef0005061001f6f1e6eceee3e7ece5dff8f202
ea0c0f1a0d0402fe01f50800232c08ffe8f3eae6e7f1f6000a110e0702071f1b190a02ff020505fb0e14eff0f4fd0cf7f7fb0300040c0907192a333d260afffb0011f6e6efdfdff2f5fc060b0a0f0309191d1c110a0921202d0a00fd0811ebdae1e4e8f5fcfa0a0b120405080b090e07f7f605100ef8f5040102e9ece5f5f4ebecfa01161709090dfdfbf3fffc00081a23010cfe07fbf2dde4e8e9e0e7f70e1a191b01f9e6cbd5e0e1f508152b271303fee9cfd2d8deeee2edf508201d1ef2e0d9bab8c8d4f904121a1def0503e1b8bccde2ecebec04151e1712ebd6dad5ced2d4e5e2010b0611e5e2d2b7b6cfe2f9f1052920171611e2d9fa01e4e4dacecce6
091f2c1b2719261c232e200a0df8fb04170d03faf2e0f1eff0e2e40a05091d30292b240f0a17f60506fb08172001f8eadfdcedeeebf6ec06f404223b2d1e140de1e7000614ef02110efd02ffece5efe3d1e5f5f9f00b172016121222eef0fa04fa00052b220402f80df9fc04f80804f8092014142b27240bfaed0002fd04f90a0f1b1d0d0f1a130c303b213422262032281b10fee806000500fe04021c19141b1813f9e4f3080900022214141e1b120a0105050204010502fd01fd0202fffb00fa030a1006ff0001fd03fffb0601fcff01050204fce9e4f6e3ebe3effeede70707f0ece1d9dcf3ff04fd03ffff000100fdf4ecfde8dbe4e7f0e5f3f1f702f3e3
2e1f1900e3cbcfe5050bf7f51309000df3d4ecff182017142616291d261200f1efe8dce8f90500ff1f2903ffeac9f613352111172c1d191f12faedf007faefebfb0b1604103205f4e2d1f81d2b181b0d07070c1e0cded3f5160dfcf204090a04102e0bed09cbdd0a0f231600f905012008dae00b140aff110ff805081f251e0303c6a6e0f7170801ff04041800e8f2100611140f1101092610251204f8c7bedfee12180e0b000b11f9e5ebedf0fc0e1710040c1a0425140ef9e2cbdf0411110cfdfefcf7e7ede9f4f407101b0f0b1c2b111c200ef1f3e3e20e0afe05fe04eef5e9e9e70007132925271e2a2d282125ee0c04d7f40e11100e01fef9eeefe5e8fb
e7f2f8fa0400f7fe0c08fefcf9fbf00c09defbfd02ebf2f5d9e7edf9fef5010e181a0b0a02f3eff2ef0e0ef1ed080200010b0beadedce8ecf5f5ff07131002f9eeebebdaf701f1e8bce2ff02ff1308ecd5cde2e0f2d9e4fb0cff06fbe7e8e3e9e5cedccabce5ede9fa0ae9f3d4cecbdbdedff3fc08111a110afcf3f6c9b3b9c2c6ddece8f1f2dde8c1bfc3d7ddddebf50b211c2f1d11ebd6d5c7c0c5e703fd01def7ddf0cecad2d8e8f2f9fd102525383607c6b5c3d2ddd6f22415f1e7130bf0d3dfe6ebf30d05061119353b25dba6b0bac8e6ed0129f713e2ee170ef2f1f0f80720201d1f25291d0ac9b8c7d7edefedfc1d01ffe7ccf7fefbf9030d181c2a25
faff020000fb02feff0301fa00f9fefdfffc0002fffdfa02ff02fbfc0302fa0404fff9fbfe01fafbfe06fdffff05fefc04fe050002fffd010600fefafe00fdfef9fdfa03fd0401fd0506fa00ffff02fffe0403fa020303fbfe040302fffdfd07fffefdff0604fcfbfbff040103fbfd00fe05fefd0101fd040206fcfc02fffd040003fbfc0302fffe02fffefa0500000205fb0003fefe04fffa01fd020300fbfffefe02050304fc000004fd0202fbfcfdfffe04ff020004fd01fbfd02fe050606030204fd05f40702010e290f000223f1fa0d05fef7072515fffe02fa04031204f6e8e3f4faefebeff9edf7f3f4f9fe0b09f7e3d7e403fa0302ffe5ebf3e8dee1
fafafffd05ff0202fbfc0504fefe0400fb00030000fdfdfbfbff0005fc010101030305f9fd00fcfa02fb020100fefb05fb0100fbfe00fc03fe00fb05fcfefcf9feff02fdfffeff03fa0302fd06fdfafdfdfbfdfb03fe050200fdf9fdfafffffcfefe0400fdfbfdfcfe02fa02050302ff000001fd0304fbfc0502fdfdfd00fb0302030002fb04fc060100fefd0401fa0102fc04f9fafdfd03fa02fe0003fffdfdfbfcfe02fefefbfbff01fa00fcfefafa03030004fafe00fcfa03fdfe020304040503fefe05fc02f9fcfd01fb03f904f9000102f9fefd02fb020302fcfd0203ff010302fc03fb01fafffcfbfb01fff901fdfb04fefbfdfc0500fefd04fffe0004
fdfd03ff0302fb00ff040205fcfd03fcfe030302ff01030200fefb0403fd0502fc0403fcfd02fd04f9fe0401fb03fbfefafd02fefcfdfd05fbfffe020105fefc04fdfb04fcff0302fd01f9fbfe000201f9fd0603000200fc0304fd04fdfdfafa00fe04fefe030104f9fa04010201fe0206fdfafd01fd02fd0301ff0000fe00ff030303fcfdfd03fc04fe000303fbfb02fd0400fe04fd00050202fc01fcfffa01fb02fefafffcfd0405010005fb01fa04fbff03fffe00fdfff9fd0002fafc00fafefafffd01fefd05fb03fa01fc030002fbfafc04fcff01fffc0301fa030304fefc01fdfefefb000104fb0400fa03fb03f90002fc00fc00fd0204fefe05fafd06
e1dde506ffe7e20204edc9eaf4f602010f1618151d1d0dfdf2f4ebf1e900e822f2f0fc0210f2dad1fb00fa09fff60b00f8fb05ecf6f30a140bfff02005f10705fb02f10c12f8efecf2eff80301ff03f20d0008180700f3fe1e070200fbfd0717211d220e0afff7050b04ff1f292c0c242f1e15231f0203fc050404ff1618182b28221e0813f42931321b0f1a251b1105feff02050505fffffd00010500fffd05f9fb0e0b0300fffcfefcfbfffe0104fd0404fdfb0504fcfffffdfefb0504fbfd0103fe000004050404fffe010404fdfefd04fc0005050604fffcfcfe0202fffbfe0202fc01010100fefefefefc000201fbfffd00fe0303fdfc0205fd02fbfd03
0d0919333a1a2c0feacff5eef1da07141722200efffcf3e5e3e8f40502f30e2837362f16f6d7ebf6e6c2e72d3a30281306fff9f4e4e5e3f6f0f40f282e331d1907e6fc03e6b5d1394a3d3b200e03ffe6d2dcf1f8f0f60812202916fcf3e7e901f2a49df2162631311b0a06e0d1d6ebecefff0b120c0e0cebf6e90304f6a382c1fe0c131f1e2525f7eae9e6eef4effa02f60914f702fcf503fda481c8f4f5051819221d180bf6faede6fe01fbfc01fd09f302e8fee0bf92c3ee030a0c0a141d1c0bfae9eafaf8fdfbedf1edfdf5ffea1400d4a9d4f4030a1413211e1309fcfff9fffcf7dcdfe0f402e7e5d504fed1c3cdf206181017191c14070c0bf6fdf6e6d4
edefee03f9fefafff2e8ebe2c3e2feff02d7f4f0f60affeffb02ffef081310100a0811110c04ecb8d9e900ff04e9e6e1e404fdfef0f2f4fe09081514111a151100170fdbf81a18ff0611cfe7e3f8eef50306fc08ff000a13191b1114160a0ff3fb090d050f0edbe0e5f3ff050910fcfd0003031e282a1609120f09fbe7f60c02f6fae2daed0a0b0215110cfbedeaf00e293221101a09f7f0daed0a09eefeffdbf8060906131204faf0e1e1fd23382e2119fbe7eccafaf7f912e710e3fa12050c0e0e05f8e5d8e8ff23443623200803f1cbffe7fef3d800eff90f100d04fffff2d9d4e3f3202a2c303419230edaebf202eddffffe041a191b00fcf1e2d9dbf009
1a130e1f1204fcfbef04110e1d252a391d1f03fd2001edddee0308181c121a24152425221f31293522353f2e25120afe01faf1080c0302141b1a0b1a23282f35302f292e30352407190d01feff05f30a26292324251a1e2739343343413f1926302709101106040302fcfb02181d1e2f252c200a2c091520191c1219281c0b05fc04ff0102fffffc020401fcfc05ff04fefa1310020501050503fafc01fdfffb0502fefbe6effb13110ff8f0fc09f8130f07090c0e00e4ec04fe01fc0400e8170df1000503f1defdfd0e011200f9fc06091323241600fc02fef2ffe5ebe30210fecec4d4c7c8cccacdc3d4d7e1e70aeadf1403fefbf314f60bf6eef0ebe3ebee
080201f2feeff1112e3b2e260af9f4ecd8e5d6c0130b040605d4022f23f1eeeee7f1f91c2930301ff9e9e8e0d8f0e2d103f7ef13f8cf193917f9f1ece8e7fb12222c2921f6e7f0e5e9e2ebeffcebf7050be5f21112f2ebf3f9e1ee00132626ffe4d7dfd8eae6f21014fc0c0c03e1d3e0faf5f3fef8eef70c142416e6d4ded6e6fdf8f21a14ee1007e7f9f0dbe7f2faf9f7e8ec04181bfdeddadde8fafdff093b171201090304e1d7e9eceaf3f3e5faf6080606f5e5f3f4f0fc0112421cfd12fc1206ee02fffbe7efeae3edec02fbf5f1edf1f4f70a081c3e0dea2103180d191a1704f8f7eef0f40105f7f1eff3fa0e07080e162d24f31b031f0ff9070b071110
fb14e8decdd9e7050c13050a0f030d0401f803fb01151820181dfcfff6f3f1d1c8d8f2151c1c1817231d100a0e0a060200101a0719102114f605f5e0ddecfe1e2c2c2b22273527201619101e190ff5fd1f1311150003f5f304041d311d29211d292c17241c25281a210bf2f613eaf4fa0cf50af612111613181d151b20181f1d181d210809f6f1f20ff3030918f614fa1c140c03040e0e02fe0a2923080b1008f8e9eeed2a020d03e6ee0010141204fb0afdf3e8f0232f22201f110fffeaf1f41e1d1700e7f82622180604f30e00e2e41243452c2d1811f6fff8f0f319291206f7e723140704050a0ef0e4ff2657472c15fef5e9f0f8e7d212311407eff4100c
e903fffaf2f002232e2b2c16212325171808070d141306fd09f6f20713fe01fefc150814101e221d1718202227231f18121112191009f9242a0603fffdfcecee0c1b11162420222413131b141711fc1c301b1817150403050100ff04110d031612182012251c312d1f1c0c1623180f0cfc05fbfffbfeff040403fe0101fd01fb01020a070301fdfe0306fbfb02fe0104fffc0502fe00eaf9e3d8dee3d6cde6d5e6e3ebe5eeef13160005060503fcfdfdfbddd2d6d3dddcd8d2b8c5c1dae9dce0e0e2e1d7edfefd05000c01f3d4d8d5e2dbd7e6e3e3e4f506f4f60204f903e7e9f50bfffd051110f6cee3eae2e7e7f0eeebfff90607fe0400000ff50a1d00ff01
34372d0d043a101be3dce2fc0404fdf6edf3ede9e1d6cefa22392928343b220b06311901f003f0e6dfece2eae600fcf7e5d9f72d39381f292b2a0b071423270a0b14180defe2efeaf70204f9eaef28434237291d1909f505072b21070935503a07f7fffff4f901f7f3ff2e3d3a2b201211f3fe1106291d111a1049522c041005fb04f8f2e4ed1330270a100efcfa010d02152112ef103a402b0c0a0cfe05fdece7ebf81311060609060607e80a1c2f210c2c3b352206ff080d11f7ebd8dfe0f6fbfcfcfd0c0511e5ff1124ff08232c351e1f1a07090af5e3e0ebe2ebebecedfd070612faee24000308170b2b2830281a191b1504f7f1ecf3f10a0a1101fbeadc
f404fcefebf0f1e6faf504fd0a1dfcf7f4f609121d1c2422221b0f0a02f4f5f1dcd1dcebe7d1f2030019fffcf2041a190f171f1d28100e1a1c0a03fde8dde4f2f9d8f7fc05e2f4fbf60306040c1a1d16150e031f1e180f06e5eceefdfe01fe00f0e4ef2204030a160f0d08050201f7fc0efe0b0bfcfef51621191ffbe1def211030e181c150505fcf8fddacee6f1030b0400fc0b1309fe18fdcbe71416131d160c12faf0fbfac6c9e2f1f8040c040f0308fa04fdeac7df101e19191407f5e2e103e7c9c0d9ec0518210d01f6fd0f060ee6d2e40f2a2515fdefedeee7f1dfd4d4e3031a2436280af80337151af1d0de2f2c2108fdede8edecf1dfc4d4f1212d36
12131a2b37313527211f11f90bf41002000f1f20f1f6ff0f1219211e223e41474d3f3a260d0509e811f2fe0500ff1b20110c130cfb141312050f1e3b472e3323190c02181206fe060304fb00080c131e150a283516062f261a0c0c15140f0908000001fe02fffbfb0504ff0204fa0404fd050603fd04fbfefd0301020103fcfffbfd010623190af7040a3017faf632ff000806ff0007150a0205fb0202fd09e8f30efaf718fcf80a0ded090b06fe0503fe0500fa04fd02010204f419141e16f710110c1611011b1f20172b2f2110060314e7fc0403fae6ece0fce1e6000712030b1212040615101510040bee0e050306fc1a01e6e2d6eafb0b050f171819fa00
f1f8e9e2d8f405faf60206f3efd3c7c6ddf0ece9e8ebf2f6e1f3f8f3fef2e5d0c4d8e8e1e3f7f0e2ccc4b2bcd4e7080cf204050a0d0d130302f9ecc5bdd8ddced5cfd2cfc0c6bfd2f3fa1c110d13081c38211c2213140f00e404e2cbd4ccd2dad0e4e9ea110a0e12170406113135232c2f1f2526211bfef5e8f7f0f2f1f50315130c110f03f6e1ed1f2f2623292f3546453918140c120e04fb04fd190c08211701d9f6f3f20b1213233331403e35241d18161213ff0d122416082508f0dcfaead8ff0f121b2d313739291f1e171f1a130e16111222111900091321e0d1efeef708191c2412151d1b2827191e1d14051212fc0004151d09ecd6d9dedef717180e
19250a0815170a13131924262116171e180ff2fb2032fbed082506f4111afc0211090d0c08171e241c0608071418fb081c3616effd1004f6fd0e0f0a0908fcfd0a0b1d170b10121a17242627150119fa0c1c10f9fa0efffbfb07110704f7fc0b070e090a0f14171801ef15fa150b1bfe0301f3eef8fb0e12fbdad4d5eef8f3f8070d1d1b13f20618111512f7f6f6e2ddf0ed12fde8d1d1e7fbfae9e7f80f28251a0f0bfd1b16150cfbe9e5e4ebf605fce4deee060a0ff7e6ff162f2a171c0a0a12121211f3d9e5ecf0f5f8edf9eef8fd0808fcf1090d1708f2150c0a0a1bfdf1e4d7ebedeaf9f2e6f2fd0d0a000606fc08f4e6d6d811ec0b0bf4f5f1dcdde8e5
06e813e8cee0d7d2ced3f505f3fd120efefe08f7e7e0e9f712120301fefd1617fddce4e1d2e0ff17090a0a0e09000c03fd0802fb0cfc0301040502fef7f9fdf3edf6262d1d0b09f7fefbf706fcfbf0f4060403050004fbff02fd050203fbfb02fd06070506fdfb04fd03020400fffc040200feff05eeeff9fb002e322f2d2b02102e0b2625271b16fd05ffff03011600fafbf0f725190d23213238252b2e221e12f2f5e7ea06ff0403100901e5f2edff1c1727302924313d3132342e2b1a1207ecfa0100fb0c1838080a0efa051e2a26223639392323111710090b321efcfdfb01e4071f2d280e0211120f0d1017272031272418270cf716292204fc07ef0200
d91d11070c1312f4e4efe7eae3ece9dde5d0a5a5b4c2cbe1dfe7e8ecdc141a01f401f6e3edf9f5eaf2f9e9fd06f0c6c5e4e6f4fa000604f6ea0d190bfffde8d4e0f9fcf8f9031b2c3c36220e1a131a16171421fcfd23120f0ee0bdd1f3fff900121c28313d432e3326221c16100913fd1215210eeccaa3be0a120b151e1f29273b392629292226251d0505010d102410e1c89bc4f71e191d2327211b10222720241d1c100f15fd0320200107e3d1a0d4e4121004090d0d090315121516110f0e13191a0b0cf6ea05e6dad9e5f60d08f4e9f8f3f8020a0d100e020104fa030bfb0e0802fde1fcedd4efe0dee0e7ebf6f1fb050c0601edede5e1faebe1e908fbff
22333e13f40101120a323f4624fd0900fffaff0e0a0b0a080910090a040615070000011a0d2741281406fbf8f8eff40303090a1a1701030efcf4f304f80b0efc173d461e03fefb0af6edf4f8020e1612110e0f120debd802e2fe111127443f1c0905ff00faf7f7edf50b100f1710080609f0f1f5dae6f10f2f424a13f40a0800e9f2edeff5031016121713faf6fffdf1cef6f10428392815f80811fff1ecf3edf2050c0a040f0600fcfcf0eed7feed052329181d05fc03f4ed01faeaf2f301f3ee00f5efe1e3e5e4e21eeb09103707140efeeef7fb03f7e6eef7f5dcd9dcdcceddd1d9d2d71ced0213211113f6f0efe3e4f0ede0e1edc2b3bac7cbc8d1d6d7d7
adc6dbe7110b01091a1604fb01050705122e333e6c17ebc0d9c5b4c4bdd7e4faf5f90918fd03fe00ff0302fb1222313727fbcac8fbfde1f4e8fdfdfb0602fdfefbfafe0200fefb000503000501020102fdff010303fb0402fd02fa02fe02fd050404fcfd1c0b08fb0304272412173103ff1f131d1f26201bfcfefdfcfcfb16fef9140e0c2e1b0f211c171412110f0b130af7ebe1e8fe02020319082dfa030cf9fa0b190b0c05f801fde8efeeedf7ff181ce1fffdfd1d2738ecf301f5fa080bef0705fdfef4eef7ecf0071df4d401030602f90e18fe06faeaefecfd0800fffd120f13170c263832fbcceffdff04f1252d0c0003f9f500fc0b0c0c0103070e201e
172c2d222408eee6ddc5c9e7ec01eafd06fc444025f8f0ddeaf8fb0a232e381b0ef4d6cdb8c9dfe7ed0002f1e11a495c2e0a0a06150e112a3f3c2f08ede2cebdbdccf0f9f4e009f005f5112b0e161b12241f1f21383320e1cbecdec8c2d1f6e8f1dbe9ee00fb08130f1e1f0e1b14190f131a09d2c1d6c8e0d0d5e8e710ebd2ec0e16fdf21719180307070cfff508e9d9cabebedeedd1dede1ce6e1021510ed132412faffeefefbe9e7fcc8bac6c9d80605f6f12612e4ea03fc00f4182205ede9e4e3e1ddddd6beb4b7c6d8edfefa1c1e0a20ff05f5e4f60d2c12fefbf6e5e8d4c9b9b69caeb2bed5fa0910000f1c0005001311f101110a09faf5e3cabc9a899a
d6f3e9d7eb030208040c06fef3ecf6d5bddaee11171d0606d8d0c7c4e8ebe1e9df0f151c2610f8fdf9fee4b4a5cceefc191a0bffd3c6c5c2f700e8ebe510323e3405faf8070cecd2c4d9e6121d32fdebd6c6ced0f308fde8f92c362c07f9edf0040d0bf9d1d60aeff41403e9e6d7dfe2e9fef5f60b1d1f0bfafef0e6fc1b2213e9e305fff6f8c8d5c4b5c9d4f4fcfa080e191cff0704e6e4defd1804e9eeeefbf0e1cacccbc5d5dbf108050f121a1a1d150cecf0edf6fcfef3fefb06fbe1d8c8adafbcc4d8f6ff140a17181e191108ede2d2dad312fc06ff04e7d9b396a1aebfd1f20c0b171d2623261604f5fdd7bcef09ebf80e0401fae4d1b8b8c0c5eef6fe
2120221206030a04181e132a414e353722190e1509000201fcfc05ff1b171c2b1f1d2d3218f819130d1c0f1a251b050c02fbfbfe02030402fdfe05fd01fefa01fd040f07fc06020300fc02fd050503fd03feff03fc04fe0012181d1b1f2f092d241b05f7f8f3dff0fc04faff04fbf203e5f019112b13344d3f23103922101806100a13251301fefefcff0005271c1c0b0bea0313ff090f0cfef809fde8d5fb0121fc03fb051b14222015f6f4e0d2f1e0f4edf5f4f5ff0f0902fc0ddbd3e50003fe1b15180b11f3f2c3c4dde4faf5fa000008fef9f1fd18eac0e6fdfd031c171f2310fbecdbeef7e5ef00f3fdf1fa00feedf1fceccbf10a19052b130af0ddd7dd
f2bc968da7e919252a1b1d16030209141b1009faf6f309050114110502c1a28495cfe8040c171210112614130d07f0ecf10822070613100e07c3a39cacc0cde5f2feff1c2e331c0cfaf9f1edf5011d1a0c061b0adccdc8b5c3d0d7e1dfea01132b290ff8faedf4f7fe04011c0b171ff200e8d3d4d1e1e7dbe1ed0418241710fef6ebf4f20200fb08123306060fe3e4ced9e1ead0d7eb020d130cfdf4fdfe0b1108fef606100ce6fb11f8edecf9e3dbdbdcdfe4eef0faf902ff0d0c13ff02f010ec00fd0016edefe1fffdebfde9dce6ddd8edf0f0f1fd0601081d00fde2ebfbfdfe09f90c0e04fcedf7ecf6f5f40904f91013210f1212fdf511f203ff02fe1a25
f00205e9f01a0515f3ebfbf8fde7e4edf8050f0f07fdf3e6e3d1e600f603f8fc0d251701000509fcf6eaeef0fb1414192004f2e6ead7dd00f40311ee153f5212ff0005fdf3fef80516242524211404feedcfd0f2fa00f51728426b08f4fe03f4f7080e1b262a2a3024241c10f2d8dbe7f50aec051c3647f9e8f9fcf708142e3129180b101f2125220ef0ecfb02fff50c22282cf9f6fafe04121e3322221206f91122120d01eeeaef0ffef9ef1f3f230508ff03061d2d252d1a08ff02181f0f02f6e5eaf6031cf9e71b28101503fb120b23242d341b070003111d07fee0e4e300fb1d0be91de0e4e2ed07201e292d2b240bf9ff041a101308ecdff80601220e07
d1dfe0dfe4f6fd0004fe0401e4e5e8d4d5dad5d4d0fbd9c4d1dad3d8dcddf6fbfcff01fbff010100ff0102fffefc0005fdfbf4ec03fe0503fe02ff02fafbfefc020605fa1b2624172b2f3728232d1aff021b16212519140f00fcff06fc030d0f140e08ff14201314101c0a08011825392e1e0b0103fe0406030f18dad4d3eefedde9eaeeedfaebebe3ebebf9040a1f1f0efafcfcfd193b10fcfb09faf1f5f3f1e3dadae2e5dfe3f6fe030c03d8010505fee50300fd0a04eef6f9efe8f301fb0301f5f6edfdede5e4d0e7020508e70100f9fafde9eee6edeef7f2f9010004f8f0dbdbecebf702faee0112f70708edeee7f5f0edf7f2f90e0c08fcf8ead3cfe4ed
171a201c1003f90c2201e1fe10e8e5d4f024272a3332202007f3fd06fbfe090009ff00111009fceb0303fff30d212c282a2c282112080cfcf1fa050c15251212070700ea0009161a1212251b22311e1e1b1812f9fcfe161a1c232214260beee5ecfcf20b1514111814212725220809f7fb0e1511150e0b081908f5ffeafef6ee0bfc07100a0d13110c0401020c0c140a0d0d0f040a14fafeefeaf4eaeaecf0eff1eaf9000402021012f705fb03101d0310ff05fbe6100710eef0fef7efeaeef8f6f1ebf0e9d5dbe0e4e1fd0a07220f0200efe8dce8e7e8e3eaece4cfc6b19792999b9a999dc0e5e7db0dfe02ff04f1e5d4ddcdc4c3d3d2cfacbfb1929da4adc1
ecede2d2c0c9d0d7d7eceaeafcf6f201e9f4b5c7dad7ebf0f3e7e2ecf2f9e0d3cad0dae2d9e8f3e6090ae2f8e3f59cb7d5e3f3f7e5e3ea000d0b08f5f2e8f1f0e6e3e2dff4110ff6e2e2b3d7e8e8f8ede2f41720291e221804f80014ffe0dbece6fb14fcf5ddbcd7f1f4f0f6ee17373029191a2000020d1d11fbeaf6f7ed1513eef3d4c6ef09f4f40a2342382815101a12090a110c01fe1f1bf613e6eacefacfdeeff0081c2c423c2916111b140e1212180e133520fb1ceae7e508cadef60a1a1330313b381a0b0e1f1e20202216131f12fb0bebfdf8fae4f2011417241f2c383716011728231f221d0b06111e040af90504e2c9e10d0c231e242f2d3304ff1a
d5da0e250201edefecdbefe7d7dff8fafd04fc0403fb01fb05fbfe0100fcfafe0102f5eb0604ff030205fd010105fe03ff00fc041a262b2416170b11251cfcfff4fa00eaf3f6f1ea05050500fc04edf41507100b011c241d1933252223363643413426220a0000fdfdf4f7e501ff0f210e191118202f242246543f3134293a1cf50ffc01fee9e3c503010f1a0bfc05180b0d14122c2d2227322b22261412ff01fbf7ead7f0f50001010709090a11130d1c130d1214ffeb010de4fbfbfafddbdde1f802f3f3f8f4f4f5fbff060300f800fefce8f1eafdfde6f6e1d2d9d8ebeff5ece3ebf3f0dee0e2d5d1daecedfaf0f1e7f114e4f8ead2dae1d9edf0eceaeef1
1a0a12171e28261401131a0af2effcf7fd0100101a02edfbf0294c3f341e1e28271f272606070bf0e9f60701020a161d1111e5fa1e303a42341f13141c14120d01f7f9fafa0d07091918232a1606f419fa0b2f2c2b1d05f60900f7f1e2e8e3e7f9ff0b1a16293d3005f411fef30316091d2202fdfef601f3eff4f4f0f2050a141b222a1e06f518fbed042100f8180e0e14172b241405fa020f1118151c13020717f005ffef273017ebfbf4f903172123261d1b2030252c19170bf6e7f9ef0703fbfc1ef1e7fe00faedf605fcf50806111a0b0404f3eaedeff6ecfd03fffb180cd8d2dcded0dde6dfd0e2dae0e4e0ffe1d0ddf3f617f8fcfefaff0400e9e4e5cf
041b02f91e22200efc0c0f0103080b0c07140f1c1d28382d18f1fdfa17f90a262d2917080c08060c00f90d0ffef90615172c3832240a08e82d1e0d152c25190a15090a08fcfd00fffbf7fbfd061a1c2e262b03032140212f321c1a10130b14090b030c15080409f7fe0704101a2a0ef41a39202d1900fbf502fffbfbfe06102115110c02fcf80502fa250f0f1b3a241b03ebece8f70a0beff2f81330321606fdf4e6eadde0fbfb1625463619fbe7e3eaf906fce8e8eb1145341103eaeae6e4d1edf5fff6ff2e2c1bd2d8dff103f9f6f1dfec27432100e9dde2dbded8fbf804faf533281ff7e9e6eb0eff06f9ecfa1a1a04eeebe7eaf6f2f614f80efb06202032
fdfbfcfc04fc04fb05fc04fc00fffffe0601faf3fefcfd0404000001fdff01fb000606ffe4d6d2d9d7d7dad6cfbee4e8f2dae2e3e7e91419fb040103050005e2e4d3c8c8d2cecbbfb1a1c6d8d8d4c3cccddde3eaf1fffeff031004f8e1eaccd6e3e2f40109ff03f70004f6e5edecd9e1e6fdfb05030f1f14e8f4f5f20403011c18372e231d131905f5efd5f918fd050301f30bf9f902090a1211070a1118251f333029221305f510292b020600f800f30a1c0a081103070006061b17211312081116f2fd1c2ef3e90723fce8181f0308010007fa00ff0b0c140a08071a1705191c3815ecfe0bf4f011191e1000040bfc03000a1518111b1d21292e362c1310fc
0a100cf414deeff705e610ddfd080102f2f1f0fe01eae9e6f90307100f01060ef706f5fdf50724effa050c0800f7ececfafef1ea080b030900fefd1af0f5f4e3102128fbddfcfeff04f8fe010513020411050e12ff010b2509f114f915221f1dfff7f7090011060d030902ff0a1e210f0102092c18011afbf5fb19171402000c060b0408f5edf2fc05120605020716272909fbfcfeff1b25140601030b1605fcf3eefafe0101000e1135270f1bf90b04fc1a1e19fb0b2b3134291a0d0d150c242f2730252a1d1b05f6eafd06fefd162014fb0a19161026170e24172e331d2a15f003fde6e7fe05ff06050102eeedebe2ebf6f9fbf308f2eeeff301feece6f0f0
0ef5f7081723272e31f5daf51d144015080c1f15282a2625161a1908f0e8e1fd1321252e53140fe3f1233ff7fd0f23122a2622171e151904f2e4e2f10615141430301004134842210619221b221f1e1c17171c1702eae8e6f8111c10271d09031b471813f4011417140a1f28190a100a07fbf60105210c0316ee12001c3e0af6f00309160d1414251513110f030103070803ee0308da06ff1c3716f1dfe70a1415111b1b041312130a05fcfdf4f4f0ebf7e0f2f1100bfccdcdd5e4fc0e130a0e05faeaf1f904eafcf3fcf800f4ebe5e9f5de02c4c7d7daedf6ff0d12fac9c7dbe2e2f2fcf90008fd0eeedbed05f026dee1ede9ebebf1f800f0d1cde1e1ecfa08
0507f2f200fd010004030401000501fd00fe04fdeefcf5fee9ddc9f30a00de03feddeef602f9e5e9fa01fdfc0502eaf405071323f8010215121d171b161e0f09112b322a1204fb01fb121c2a363c2e2d0b16091b202b392e2c39303834393e13e619fb05051036403a3a36220814200c0405fcfd0a0c00011d140d2e20fefd01010c1e40282627221c15faedf2efebedfffcfbf1fefd092941260201fbe912221a1512161510fb00f3edf1f8ff0afefcede9ee0c283108eefef21d201c03fe12221b080afdf4f8fcfe010807fbf3fd08213420f0fd1f2f1612f90d151a1a1218030afbf4ffff060c0a181b1f2e0becfc142b300d08fe1a141b19221915170f0b
050c1115303f25231c110a1b1c18fe080dfa1b0920231c14fb090910131f1a2c2f37282216150e180f0efaf104f20adf01fa190800fd091a181e263a3b36282b1a1b141205fde7f206fc1dfaf50e1705ebf708161722272c2c312e2524180906f700fdf815120f05f60a0ff8e7f701fffcfafe07191628261a0805f60c0c25041415fb05f5190f05f2f1fef3040e020d231a1d1d1c10070c000b13101f230701fef906e9eef1f40d030afc0004020504ece5e7fffa0913fffb14fcfcfffde0dee3e0dbea00f8f8fbf3e8feedd3d4dbd2dbebf4ff0af80504ff0301fffbf8f4f4eeede2ef0d06ebe6edf3f0e1eff7f9f9fb02fb03fcfc05fd02fe04fe02fefe00
f503fc090c0508fc0c03f1e2f7eee7e1e3f9f6f10cfe0e1cfef0b0f804f0f600040002fcfafdfdfae8e4dadadce1eaff1eed17fce8ceaffdfbf8e6ecf4fafffcff0510fde9e7d7d0ccd8e408060d1507e2d2ceedf3f6fbfffc0800010d1819fde8e6d7d2cce3eafcfce912f5eee6cad4e6e8fcfafd070c15242014f7dde1dfdedbebf80d14f906eceae5d8bdd0e1ee090a111820232719f5e8e9f2f3fff5162c19f7ee0f0f1effccf7ebf3030a18221728371ef9f7fdfdfa09151b2d15f9f0ed163f41110c07f91108141a152842350f0f0e00140e0b121e0e0df1ff0c37411a0d01050904090918293c2e1a15100b0d1011031a0f030d0f133f4322040e0a08
04fcfd01152f2e19202e26273d471e31312421181918eae5fffd00fc0504eb1b2438555e4d6e766f5c7a6f6669576a51532011091300faff05ecfe2b2422323f4440433f2e3d495345414a54402b370ffd1805fdfdecd5f4120c0211080c100b1c1a1b1b221e181119152936321ffefc030bfc1112fdeff6f2fd0813141f201a0e120307fd0719212a0005fcfb0e09101102f3f6ef0307141a1c0f110c0f080b0c170e1202f61813f9d50b0cfbff000403040b19161513030007fc0c1b2a100ffaf8fb1104e80f0c0c0afe080b0f0f0e0b070bf1effb010f04100df1f6e5f201f0def30b05f9fc061a0d0907040405f3e8f4fffbf3fa04fc06f70d03f0f8cde6
