0f
c3
18
f8
00
41
cc
19
2d
0a
f7
17
d8
2d
b8
df
b3
3e
07
d8
f1
07
34
14
c4
1c
21
cf
e0
cd
e4
27
f0
35
b9
12
1a
fc
00
c3
38
3d
81
1c
cf
2e
26
d1
bf
d3
f7
bf
fb
cf
23
04
27
d8
ae
dc
09
27
26
29
03
23
3a
28
ec
01
d2
0e
92
c0
f7
f9
34
13
17
be
34
e0
29
b6
e9
9d
d8
32
01
06
3d
a0
dc
13
22
18
28
02
32
3d
f9
1e
2f
15
f0
c2
15
20
a4
de
05
be
b8
ba
eb
46
f3
e3
de
57
07
40
f7
1b
22
d6
e6
04
38
12
9c
1a
eb
d7
04
c1
fb
d1
c9
d4
17
22
c2
1f
1a
df
0c
d7
0b
22
9e
c3
e2
d4
2e
0d
2a
b2
0e
32
