aa
e5
00
0d
0d
f7
08
e8
ff
20
15
c5
fe
fb
e2
f9
16
15
fc
15
09
13
09
cb
28
ca
0f
15
0f
05
16
f3
d7
f6
06
0c
d8
1e
ef
03
12
04
e6
dd
d3
0d
fa
1c
1c
0f
0d
fd
10
04
01
b7
0d
00
08
15
d2
e8
0f
f3
bd
19
e2
1a
f1
e2
f5
f2
c6
ff
ec
02
d8
e9
fe
0f
16
d8
d6
25
e2
06
bd
24
0d
1c
c2
1c
ee
e0
e7
ff
05
01
0f
ff
fa
16
09
08
df
ff
12
d2
ea
0f
b4
0f
fb
f4
24
81
13
f1
17
0a
ed
03
f7
ed
c0
e4
da
19
fb
fd
fa
bf
14
15
17
e1
df
f6
f0
1c
10
0c
e9
cf
e0
25
eb
e2
1e
13
e9
e9
18
0b
dd
eb
fe
ee
10
14
0c
23
f1
e9
d9
c1
fa
fd
16
c9
2b
13
10
d6
00
ea
ce
e4
e1
d0
ec
0e
0f
13
f6
f6
12
04
08
1b
0f
0b
02
ea
d1
da
e3
e4
dc
1b
d0
18
f0
02
48
06
20
2a
e4
1b
0e
cb
14
df
3a
47
0e
2c
02
e6
01
21
00
f3
e4
cd
c9
d5
df
f1
cd
ed
18
11
0e
34
16
f1
14
db
fd
0e
34
30
df
ec
de
f2
cf
e1
c0
fd
d6
10
4f
1c
03
25
05
fa
fd
19
13
cb
08
20
03
39
0b
1e
ea
f3
0b
21
ee
16
03
af
14
ae
07
ff
f4
0c
aa
09
e6
e9
d2
24
e8
16
0d
f8
14
28
fb
df
9c
05
18
f0
03
45
1e
f8
0a
fc
04
32
26
0c
1b
e6
1a
20
ff
d9
19
b8
12
1b
13
11
e8
0b
e1
26
d4
11
e2
92
e0
fb
f5
15
1c
23
15
f7
09
e4
13
dc
f9
fe
f2
14
0a
cc
eb
02
07
fa
d1
dc
1e
13
ec
10
1e
00
1f
13
1a
db
16
08
03
0e
fe
e0
37
0c
f0
1a
0e
10
36
d2
07
fc
bb
d4
db
f7
00
0f
0b
0f
da
d7
08
06
0b
05
ff
16
34
02
e1
0d
1a
0f
9a
dc
e8
1e
dd
0f
f0
d8
f5
0f
f0
05
95
c1
ec
19
35
eb
08
2d
2e
db
28
fc
dd
f0
f2
12
1a
fd
18
fa
ec
cb
f7
0a
f0
10
c4
0a
14
e1
0c
03
06
07
e9
04
12
0f
08
c5
0d
fb
d1
21
dd
13
d9
ee
0d
09
fb
02
00
ff
e4
d3
14
f3
ce
c6
10
1f
13
0d
05
1d
d3
22
2b
fb
15
07
cf
09
f3
26
13
bd
04
e6
f6
11
f1
46
ef
0a
f9
e6
cb
0c
eb
1d
16
08
0e
2c
e8
08
fa
ee
d2
dd
19
1d
ce
9c
fa
a2
db
0c
c8
f5
d5
ca
ea
ed
1e
22
19
1f
f0
0b
04
07
de
04
00
09
fc
17
09
ec
12
c4
8a
0e
ec
04
0d
e7
12
15
0b
8f
d2
e7
c2
0f
f7
12
dc
0d
e1
18
07
d4
08
28
ab
0a
b4
1c
0b
05
02
0b
11
22
02
e9
14
e9
a7
15
bb
08
e1
fd
00
e4
f0
0d
23
29
ba
2b
09
0c
13
47
ff
0a
14
0e
1a
f8
97
d4
e0
eb
0a
0f
ed
3f
18
15
a5
10
07
13
2d
0f
12
f6
0d
09
0f
05
08
e9
14
11
f1
bb
38
1f
ff
02
05
ff
e2
38
fd
0b
0a
3a
ec
b2
2d
f0
db
cf
ed
eb
c4
05
df
03
a5
02
02
12
46
00
0b
ee
22
e7
f0
14
ca
0d
2e
f1
ba
05
2c
0c
ec
0d
fa
03
fb
0b
f4
e7
12
98
c2
08
d2
04
f3
1b
09
f8
f9
f2
28
f9
30
e9
06
e5
f6
c2
13
f5
14
21
50
c4
07
e2
f3
0d
fa
f3
0c
0c
08
15
10
e9
10
0b
0e
01
eb
12
ed
0b
0f
10
d0
0c
1a
fb
ca
cf
f3
cb
bd
ff
36
f6
fe
f8
f2
42
02
f8
06
12
1d
ce
14
0c
17
fb
0e
ed
17
15
0c
15
02
e6
0f
10
06
02
0c
b4
06
d7
af
2f
de
e1
40
ee
ef
f3
0c
aa
21
0a
c6
fe
f3
ff
1f
e6
3e
08
f8
d0
d8
f3
26
06
19
08
fc
fe
18
eb
f5
d2
d5
f4
e3
18
10
f7
ab
d3
f7
ed
16
c1
04
df
f6
e9
18
11
a9
da
d3
f0
04
15
d7
05
04
17
17
bf
23
ee
db
ec
ff
0f
df
ea
fb
1d
ef
08
ef
e2
f0
0b
13
e4
0e
12
18
ff
e1
0e
fb
10
05
b3
16
08
dd
2e
e0
12
fa
ee
17
ab
16
0a
0b
0f
15
e6
23
e4
cc
17
16
11
0f
a8
ff
c9
e8
2b
d4
04
f7
07
e4
1f
eb
01
9e
14
1a
01
11
13
25
03
04
f1
db
09
05
db
f2
d9
dc
1a
cc
22
14
09
03
08
0b
01
09
0f
d5
c9
d0
f2
f7
28
08
e6
0a
e2
d2
18
1d
14
00
09
08
f9
c3
e4
f7
17
e8
cd
18
0b
10
0f
0e
14
fc
1a
18
09
14
15
09
12
1c
da
f9
d8
e0
07
f6
0f
14
b2
e1
13
c3
e9
05
3a
ed
1f
f3
20
27
0a
c8
d8
32
19
27
25
dc
e2
20
ff
04
e9
50
00
de
db
ec
d6
d5
14
0b
06
ea
d8
21
ff
f1
1b
f3
0b
15
0d
0f
24
01
fd
0f
e2
13
e4
ad
02
14
05
ce
f0
e1
fe
0f
ed
0d
16
05
17
cf
14
15
13
df
c4
10
ec
05
14
01
b7
dd
10
c5
0b
02
12
06
d9
f8
16
14
0b
04
02
e5
10
0b
16
cc
df
17
10
12
0d
0d
d4
e6
cd
10
0c
13
b7
0b
01
18
fc
bb
03
10
ce
fc
15
18
fd
11
0a
14
b5
07
da
1d
db
17
ec
08
f1
0d
ef
03
c2
ec
ee
16
13
14
08
ce
b3
01
dc
ee
01
f5
12
ba
86
d5
0b
18
fe
22
0b
f9
04
15
17
e6
01
27
ea
fc
17
ec
99
03
ae
e0
e7
ea
c3
01
12
34
10
0b
d7
f2
14
14
f3
10
1d
1d
ef
16
ff
26
0d
fa
03
1c
f6
12
e3
18
11
ba
d8
ef
f5
2a
fc
11
15
02
16
17
06
13
0b
08
fb
14
fa
20
fe
21
01
0b
20
f7
14
ec
c8
08
16
fe
0a
10
1e
09
aa
05
ec
e6
fd
04
1b
d6
bd
eb
16
16
16
cc
25
e7
eb
07
17
f2
ab
10
c9
f9
d5
06
ff
16
00
0f
ef
b6
0d
b6
ae
03
10
e0
eb
f3
e6
9c
09
bd
0d
e9
d2
dc
14
97
11
0f
0c
0b
11
