04
fc
fd
00
ff
fd
04
ff
03
00
04
01
0f
12
fa
03
fb
03
ff
ff
fc
05
fe
fb
fc
ff
04
06
fe
03
ff
fb
13
18
1d
30
1c
14
1c
2d
2c
28
df
e4
e4
13
2c
30
29
1c
22
1a
02
04
fc
03
fd
fd
01
12
1d
18
2b
39
29
05
0c
ff
ff
e4
dc
e4
e3
09
22
25
1e
21
2f
1a
eb
ed
ff
06
fa
fa
e9
1f
23
dc
f8
f7
00
0a
14
06
f4
f5
ea
f0
ef
fa
1d
0f
16
37
45
3d
22
01
1c
fe
04
ea
e7
df
da
bf
cd
e1
dd
f0
f6
f7
f0
ee
fe
06
0d
0f
0c
0c
0a
17
24
3b
46
44
29
1c
05
fd
f1
dc
be
a3
bc
da
ea
fa
01
0c
06
0a
0c
08
0f
20
12
1d
1c
16
10
12
2a
5b
43
1d
fe
e6
00
bd
c9
c6
cb
ec
fd
03
fe
05
0e
13
1a
24
1a
17
0e
17
19
0e
12
25
34
69
30
01
fc
d0
f1
b1
bf
d5
eb
fc
12
0b
12
13
0c
12
1b
1e
18
08
07
07
05
15
0b
21
4b
66
1b
1c
15
e2
e3
ce
bf
df
f8
f7
0e
0f
09
0b
13
10
02
f3
fe
f5
e6
f8
fa
0f
00
28
5c
5a
36
27
fa
e2
e1
da
c7
e6
fc
ff
10
14
1e
2c
25
08
e2
ca
d4
d6
df
ea
f1
fa
f2
17
63
57
2c
f5
f6
ee
ce
cf
e9
f2
0c
1f
2d
2e
33
2c
27
03
dc
c1
bd
c7
d9
e1
ec
ec
f0
28
6b
31
25
fa
ff
ee
d4
cf
e8
0a
20
2c
38
2f
22
15
1b
0f
e5
d0
d4
dc
df
f3
e9
fc
f4
35
6d
40
41
f7
ff
e9
d6
e8
ee
11
38
2a
1f
1a
16
20
1d
23
ea
df
e7
ee
f7
08
08
0f
0e
2e
23
e9
e2
df
f3
f6
de
ee
fe
1c
22
2c
15
15
1c
29
2d
1f
f4
01
ff
f1
fc
0c
11
0c
26
1d
f5
c9
be
e9
19
f3
db
f0
f6
09
0e
18
18
16
2e
37
2b
15
ff
08
03
01
f9
fa
fa
fc
fc
f2
ee
df
d3
e8
0b
f0
c9
e6
e8
f0
ff
08
16
21
2a
2f
28
13
01
02
01
fa
f8
f1
e5
ea
e1
ee
e7
07
d5
e2
fc
df
d0
de
ca
e5
fc
fb
11
18
26
35
28
03
fa
04
ff
02
f5
e7
ec
e9
e9
f2
e4
00
cc
e4
03
dd
e4
e0
d1
f2
0e
03
18
28
3c
37
1f
f5
ef
f8
0b
07
fe
fa
fd
f8
f0
fa
06
e6
c0
fb
f8
e0
e7
d0
e7
f9
20
19
17
29
40
34
17
02
fe
00
04
06
fd
07
04
fd
fc
10
11
e2
ce
dd
f2
ea
f9
d7
e9
02
14
15
18
21
2f
1b
15
04
fb
07
05
05
09
08
10
14
1c
17
13
da
d4
ef
fe
fe
01
d5
ef
0b
02
09
14
12
12
14
13
11
08
16
0a
0e
07
04
0a
19
2b
24
04
f7
d9
f4
ed
f2
e9
df
f5
fa
fb
0a
04
11
12
13
20
2a
24
22
0a
06
fd
fe
12
19
2e
24
fe
f1
04
fa
eb
e6
e2
ed
f7
e2
ea
f6
03
05
0c
15
28
2f
23
12
14
07
05
02
07
1c
26
2f
1f
03
14
f7
fd
04
e9
f7
e5
d8
c7
da
08
fe
05
10
1d
1e
1c
12
1b
0b
04
0f
21
21
2f
42
1d
0c
fa
fb
fc
fe
ec
e5
c4
bc
bf
da
f9
08
02
07
11
0e
10
1c
1c
07
28
2b
2d
13
29
3d
27
f2
e7
fd
fc
02
0d
11
ea
d9
dc
d3
c2
d4
ef
ec
e1
f7
01
16
18
18
11
0f
15
0d
1e
42
2f
fd
f2
04
04
fb
04
18
25
0c
04
ec
eb
ee
ec
fe
07
f5
fb
f5
f0
f7
ed
df
fa
fa
ee
09
1a
f7
fb
05
fd
05
fc
04
f1
ed
01
ff
ef
ee
ef
0c
0b
e1
fb
ff
f3
df
eb
f2
fc
ea
e1
df
02
04
fc
ff
00
03
03
fc
fe
fe
fb
ff
fe
05
05
00
ef
f2
08
03
03
fb
ff
fb
04
fa
fe
04
01
ff
04
00
01
02
04
02
f8
f2
eb
de
ed
ec
de
d6
cc
d1
1f
01
f4
e0
e0
dd
dd
e6
e7
f1
fb
fb
ff
03
fd
fb
fe
e4
e3
00
e9
d3
e9
05
e9
ea
f3
12
27
34
20
02
ed
e4
fb
fa
ee
f5
13
11
05
ff
ff
fe
13
dd
e0
e3
e9
f7
e5
10
f7
f2
ee
02
f5
f2
fc
e7
db
e1
d3
f9
06
10
04
f3
ed
fe
01
fc
08
ce
ef
08
0a
f9
ff
0c
fe
07
17
20
1a
0d
14
0f
fe
06
18
08
03
12
f5
f3
04
f3
01
04
0e
f8
07
fc
f6
f2
ef
fc
fe
05
15
08
18
1d
21
22
1f
1a
23
2a
22
31
19
02
f8
00
fc
e4
e5
ed
f8
eb
e0
e8
ea
e9
ee
ea
f3
e5
e6
f6
f5
fc
fc
09
08
04
0d
23
0f
0c
08
07
03
da
e7
da
f3
e4
e4
e1
ea
d9
e3
e2
dd
dd
e0
e0
f0
f1
fc
02
f9
0e
14
09
00
f4
18
f1
e4
de
02
ea
f2
eb
e8
e8
d9
e0
f3
ee
f9
00
ee
f3
f2
06
fe
08
f8
f8
f4
f8
ed
00
13
04
ec
de
fa
f7
e8
f6
e4
ee
e1
f4
02
10
08
01
ee
f6
f8
fa
f8
f8
f2
f8
f3
f6
d4
db
f6
e0
f0
ee
e1
ee
fc
f6
f5
f4
f8
fc
0f
18
18
ff
ed
fd
eb
f8
ec
fb
f1
f4
e9
dc
c1
bf
e6
fe
f6
e5
e9
e9
05
19
ff
02
03
14
0e
08
08
e3
ee
fc
f5
e8
e9
03
ec
f5
eb
e1
dc
de
f5
f1
ff
fd
f0
f8
06
0a
f9
00
0b
12
09
05
0e
01
08
04
03
eb
ef
04
02
0f
07
fa
1a
16
0b
f5
15
05
f0
f7
f4
f5
fe
f8
0f
0b
ff
0c
17
24
22
23
12
00
f7
fb
05
03
fe
03
07
2c
44
22
12
f1
ea
1e
09
01
09
0d
12
09
fb
07
1b
2e
35
25
1d
02
f0
f5
e1
df
e4
ec
ee
25
42
19
0b
f3
16
22
10
09
0d
17
22
17
01
0d
1c
32
40
2b
26
f9
df
df
c7
cd
d6
da
e9
2c
40
1b
00
f0
03
17
00
fe
0b
0e
0f
0e
08
0b
1e
2d
39
2b
1f
fc
dd
ce
d1
e3
e9
ed
01
46
51
16
fd
ea
15
fb
f8
ff
04
08
0c
10
12
14
20
37
38
19
09
e3
df
d8
e8
f6
ed
f7
0a
34
1c
01
e1
f7
fc
ff
fd
03
fa
06
0c
13
0a
0e
27
29
25
0b
fd
ec
f0
ec
f4
fe
f7
13
2c
39
0d
1e
10
e1
fe
ea
ea
f4
01
0b
fe
04
04
fe
07
18
11
10
1c
0a
0c
08
0c
0a
13
20
19
40
37
11
fd
eb
09
f2
f1
e8
03
0d
fe
fa
fe
08
07
f7
01
13
15
19
29
22
24
28
23
1c
21
11
2e
07
10
04
f1
f8
fe
0c
09
0c
02
0f
03
fe
fd
ff
03
0a
0c
28
31
2e
2c
24
26
30
1f
0d
f7
f6
1a
0d
f8
0d
14
1f
14
06
0e
10
0a
03
fd
01
f7
02
07
15
30
33
29
36
1d
19
21
0d
f1
f8
04
ff
f7
dc
e8
e9
eb
f0
09
10
fb
02
07
ff
fa
07
19
1b
2f
37
39
3c
26
05
0a
10
01
fd
fd
03
f4
c9
a6
a1
b1
c1
da
f4
ed
f6
f8
f2
f1
f2
ff
07
25
23
20
15
11
fd
09
22
13
ff
fb
fe
f9
e7
c3
b0
bf
b8
b3
b7
b9
c5
c8
e1
ed
ef
e1
e3
d9
c0
e0
d7
e4
dd
cb
0b
0d
fe
03
fa
05
06
08
f6
e5
d8
d8
c0
cc
cd
da
cb
b8
c1
c9
c7
ba
b2
b7
c3
c9
f4
e5
f1
fc
fa
01
05
04
fc
ee
ee
e5
e5
e2
e2
da
ee
fa
da
d6
fa
f6
d4
e0
e5
01
e5
e7
e4
02
ff
fb
03
ff
fd
fc
04
fb
fe
00
fc
fe
fc
fe
ff
09
07
02
01
03
ff
fe
02
fe
fb
05
02
02
03
00
fc
05
fc
fb
fb
01
fd
ed
f0
fd
05
0f
0f
05
13
04
f9
e2
f8
0b
f9
f9
02
f5
ee
03
01
ff
05
fb
06
f1
04
05
09
04
fb
03
ed
f2
f5
ea
ff
0e
fc
01
0b
00
1d
0d
0f
1c
04
f7
fc
01
fa
ff
03
e7
09
17
f5
f8
e7
d2
c8
d3
dd
e2
d0
f5
f6
f3
00
03
14
1a
1f
19
10
1c
ff
1a
01
fe
04
ff
18
08
f1
d6
d3
c9
c8
e5
f9
f8
f7
f5
f9
f6
04
06
02
fc
0c
14
24
14
00
e3
ea
02
03
f7
fc
e2
de
ce
dd
df
fc
08
fe
fc
fe
fe
03
f8
fe
05
05
02
f2
0a
18
0f
f3
f2
f6
03
e3
fe
d2
eb
f1
d2
e3
f7
00
01
00
08
10
0c
ff
f6
fd
00
ff
07
fa
09
05
0c
18
15
00
fd
ec
ec
d8
ec
f1
dd
ed
ed
fd
f3
02
04
04
14
02
05
17
04
fe
04
f8
03
02
07
23
1a
0d
02
f2
f8
df
e5
ec
e7
e3
ee
ec
e6
f1
f6
01
10
06
05
00
ef
f2
f6
f9
fd
f7
04
17
07
f6
f4
f8
ef
d6
e4
d1
d5
e2
e5
e7
ef
f2
05
0e
ff
fd
f5
e9
e3
dd
e2
e3
f0
f2
0c
0b
fc
0e
f5
fa
e2
d1
db
cf
cc
e3
f4
f9
ee
fc
08
08
f1
f4
eb
e6
da
d1
dc
d2
d9
d5
fb
0e
1a
08
fc
f2
df
dc
dd
e0
e6
ee
fa
01
00
09
1c
09
e9
ec
01
f3
e8
d9
d3
cb
c4
cd
da
ef
f7
08
fb
f4
e4
d7
d7
e2
f8
00
04
09
2b
35
39
21
04
01
02
06
03
f3
e5
c9
cf
da
dc
d5
d4
e7
0d
05
e8
de
ec
eb
fa
08
0b
1a
38
34
29
0f
f9
00
18
1e
14
09
03
f1
e0
e2
d1
c1
c2
ec
13
02
f2
e2
f2
f4
f2
09
1a
2c
29
21
1d
fe
f3
02
1a
21
21
1d
16
06
00
e0
d2
c5
c2
ea
0c
12
09
e8
e8
d9
df
02
1b
23
35
2c
1c
f3
f5
0e
1f
26
22
1d
10
0b
fd
ef
cf
bd
d6
f5
f3
10
03
e3
d9
d3
c0
e9
0a
0d
16
21
03
e6
06
17
19
20
2d
28
13
fc
f3
d6
c3
b6
c3
e5
04
12
fc
f0
e6
cc
ce
da
e4
e4
01
fa
d9
e2
11
16
17
20
29
05
f1
f9
e2
cf
b6
b7
d2
e2
e5
11
06
0b
01
e2
e5
d4
d2
ce
d5
da
d6
eb
12
17
1e
15
04
ec
eb
ec
e2
cd
bc
b8
e1
03
05
ef
1d
1a
12
04
f9
d4
c8
b8
ba
d9
e0
f2
1e
1d
20
08
f5
ed
e2
ee
de
d8
d2
cf
e9
fe
03
13
27
2b
15
08
f5
e1
e0
d5
cb
e6
f9
01
1b
19
1a
0e
f7
e7
e0
e9
e8
e4
dd
f2
fb
07
fe
0c
01
23
1a
08
00
fc
ff
f3
fb
fd
0d
09
09
17
16
01
fa
ec
eb
f4
f5
e5
ec
e9
02
01
04
f5
f8
0e
10
05
f6
f7
07
0e
09
0b
08
05
04
12
0b
0a
fa
fc
f5
e8
e4
e1
da
eb
11
08
fd
00
0a
2d
20
21
09
0a
11
1c
1d
19
09
03
0f
0a
0b
06
fc
f5
f2
df
df
ef
e6
f6
11
00
fb
ff
0a
26
3d
33
2a
19
07
09
0c
04
00
03
fb
f7
f7
0c
fd
f4
f0
ef
14
0e
fb
05
05
02
ff
02
0a
19
1b
1f
07
02
07
0e
11
0a
00
f6
f1
e7
e6
ea
f3
e8
ff
08
2c
23
00
08
f5
01
fe
02
04
0d
1a
0f
0c
ea
e3
f3
02
f7
f1
f3
e5
f0
e7
e4
db
e8
fd
ec
f4
fd
00
01
00
ff
ff
03
fd
04
ff
f3
dc
d9
e1
ec
f0
07
07
e7
ed
fe
ef
e3
eb
e3
f6
e4
e9
fc
04
02
05
01
ff
fc
01
06
fb
ff
03
fd
01
00
ff
06
10
0a
03
fa
00
fb
ff
02
02
fd
01
fd
02
05
01
04
02
05
05
01
0a
12
1b
1e
14
14
22
02
00
09
08
f3
e4
f9
13
18
1b
14
19
1c
02
04
fe
00
05
00
06
e8
fe
10
1b
28
32
20
26
22
34
21
3b
30
0c
13
1a
0f
0d
1d
1b
0f
0a
f9
04
fd
02
00
ed
fa
0b
24
27
2b
14
14
20
09
f8
04
08
f8
04
fc
f9
0d
f8
02
04
22
2b
05
00
fa
04
fa
f0
ee
22
12
12
16
20
17
0b
f0
f9
f5
e5
d1
e3
ef
e5
ec
ff
02
fd
0e
11
02
ef
14
06
00
e7
e1
0d
14
1e
2d
3b
22
04
f4
06
ec
f6
eb
ee
ed
dc
df
ea
f8
01
20
17
08
fb
06
05
f6
17
0a
0f
24
2b
29
30
1d
09
05
0a
e4
e2
f0
ef
f1
e0
f2
fa
03
0d
17
04
fb
f8
0d
0a
20
2e
23
1c
26
19
27
1b
2c
1f
09
fb
e8
e5
ef
ee
f9
fe
01
0e
10
11
0e
f4
d7
04
0c
ee
25
21
28
2d
2a
1e
27
25
29
13
07
00
e7
e9
e9
f5
ee
04
fe
05
fe
0a
0e
e2
e3
f3
f1
0e
20
1c
11
2b
1c
0b
0f
1b
10
07
f4
f4
e9
ed
e7
f7
fc
fe
fd
0c
11
11
04
df
cb
e2
f9
0e
14
25
04
1a
0c
04
10
17
0e
fc
f0
ed
eb
e5
f9
11
0b
00
0b
0e
18
12
ee
df
be
c7
f8
04
12
25
10
26
09
01
11
0f
14
11
06
10
f2
e8
00
18
04
04
ff
01
08
17
f7
e0
a6
c6
03
03
1e
25
1f
08
05
f8
0f
11
ff
0a
14
0b
e0
da
08
20
01
05
f9
00
16
23
0f
0a
dd
cb
09
ed
0b
2e
10
04
0a
09
04
f2
fc
0d
16
f5
d3
de
0c
1e
0c
07
07
0d
1b
18
2b
1d
f8
d1
e2
f4
05
32
10
04
16
0b
fb
eb
ef
fa
07
f0
ed
fa
12
1f
19
1d
2c
17
11
21
35
13
f6
c9
ea
ff
03
29
1f
ff
00
05
f9
e8
dc
e8
ef
f1
00
12
26
1d
29
16
26
14
17
20
18
ff
ec
d4
f3
0d
00
09
13
f5
f7
0b
05
e5
cf
cb
e3
00
19
1f
2e
25
2a
1c
18
0d
03
f9
fb
fe
f7
cc
e7
ff
01
1d
fc
ed
ef
ed
d7
c7
b8
c9
0a
1d
29
25
1f
1d
20
20
07
f8
f0
f1
f2
0e
17
ee
e2
13
f7
29
01
ed
e6
c8
ba
b0
a6
db
25
3b
35
19
11
06
05
0d
f3
eb
e6
df
d3
f0
0b
13
e7
f1
15
24
f2
d6
dd
d2
c3
b5
c6
07
36
38
25
25
10
fd
f9
f2
e8
d8
d2
ca
ce
f0
dd
f7
de
01
fd
03
e7
c5
c0
c7
d5
d6
eb
11
1d
2f
1c
21
0b
f5
eb
dd
dd
d7
c3
bf
c1
e8
dd
f2
f1
e8
ec
dd
c6
c2
b9
b3
c9
f6
f3
fc
0a
11
1a
11
08
fc
f3
df
de
db
cb
ce
d4
f3
e9
0a
fa
e9
ed
e5
bc
ca
dc
ce
e5
e9
e3
e8
e7
fb
06
ff
0c
fb
e4
d9
f2
e0
e2
cd
d5
ec
08
13
ff
02
ff
e2
bc
e8
f1
01
f7
da
eb
eb
ee
f9
02
10
13
07
ff
f5
f5
ec
e8
dc
de
ea
0b
0b
01
00
02
08
ed
f1
0e
0e
ef
f2
ef
f3
02
0a
0b
1a
18
0e
01
f5
fe
f9
ed
e7
d9
f5
f2
eb
02
fd
fb
de
09
0c
f0
fb
f9
fc
fe
08
0c
fe
f7
00
04
fa
f8
f2
e7
e1
de
e8
f3
eb
e5
ff
02
03
fa
03
e4
d7
e3
f7
09
0b
fe
f9
f4
f3
f7
ed
f9
ef
eb
ef
fa
f4
e3
e8
f6
04
12
03
04
fa
02
fe
ff
15
25
07
f7
fe
05
0d
fa
f1
23
02
00
0f
29
0e
01
02
07
f4
05
fd
04
02
03
06
06
05
fe
02
fd
fb
01
fd
04
00
02
ff
04
fe
ff
fd
fc
fb
02
02
fd
04
00
00
fc
04
03
05
02
fe
fe
ff
fb
00
03
02
fd
01
fa
ff
04
fe
fe
03
00
fb
05
02
00
00
05
fa
fe
ff
02
fe
ff
02
03
fc
fb
03
00
04
fd
ff
02
fc
fc
06
02
04
fd
01
01
fd
fe
05
fe
00
fd
fb
03
01
04
ff
fb
fb
fc
04
06
ff
fd
fe
ff
07
fd
fd
ff
02
03
04
fe
fb
03
03
02
fa
03
04
fe
ff
02
ff
ff
00
fa
06
05
fd
01
04
fd
03
fa
fd
f9
fe
fd
00
fe
fa
fe
00
06
01
fd
ff
02
00
05
fe
04
fc
fe
05
ff
ff
fd
06
fe
fb
fa
01
fe
fb
f9
ff
04
04
fa
02
03
fc
fb
02
ff
02
fa
fd
ff
02
00
fc
ff
fd
fe
f9
00
fa
01
03
ff
fe
02
fb
00
00
02
ff
fa
04
00
fe
ff
04
fd
fe
00
05
fc
fd
fb
fe
04
fb
fd
01
f9
ff
01
fb
fb
fc
ff
fa
01
fb
03
fc
02
03
01
ff
03
02
fd
fc
02
03
02
fb
02
fd
fe
f9
02
01
00
f9
04
f9
03
fb
01
fd
fc
f9
02
fc
05
fe
fe
03
05
04
04
03
02
fe
fd
03
fa
fc
00
fe
fa
04
00
03
03
fa
fa
fe
fc
00
fa
01
ff
fb
fb
fe
fe
02
fe
fc
fb
fd
fd
ff
03
00
fe
02
fa
03
fd
fd
fa
f9
04
fc
02
01
fa
01
04
fd
fe
00
01
06
fc
04
fb
02
00
03
02
03
fb
00
fd
fd
fd
02
05
fc
fb
04
03
fd
01
00
00
ff
02
03
05
02
fa
02
fe
fc
fd
fb
fd
00
04
fe
fe
fc
ff
ff
fa
fd
f9
fd
00
02
05
fe
03
fb
fd
fb
fd
fd
fa
fd
06
fd
02
03
fa
03
ff
fe
ff
fd
02
ff
fe
f9
fc
fe
fc
05
fb
00
fe
03
fc
00
fe
fb
00
01
fb
05
fb
fe
00
01
02
fb
02
fa
fc
00
fd
f9
05
03
03
01
01
01
fc
05
00
ff
fb
fb
fd
fd
00
00
03
00
fb
00
04
fe
fe
04
05
fc
fb
02
02
ff
05
fd
ff
fa
fa
06
fd
fa
05
fe
fe
04
02
fd
00
fc
00
fc
02
00
f9
03
fb
03
fa
00
04
fb
04
01
00
fb
fe
fe
fd
01
fc
fe
04
03
03
fa
01
03
fc
ff
01
ff
fc
04
fc
fa
fb
02
00
03
fc
01
fa
03
fb
05
fd
fe
01
fd
ff
fa
fe
fa
00
fc
fa
02
00
fd
f9
ff
fd
00
fe
ff
03
ff
fb
04
fa
01
fb
05
00
01
05
04
fd
fc
ff
fa
fe
02
fb
01
fa
ff
fc
01
fc
02
02
05
00
fd
04
fe
00
04
fd
02
fb
fb
03
03
00
fe
04
fc
03
fd
fd
fc
03
03
03
ff
00
fe
00
00
ff
01
03
fd
02
fd
01
fd
fa
fd
06
02
fe
01
02
01
04
fa
f9
04
01
03
fe
fe
04
fe
00
fa
fa
fd
fd
04
fd
04
03
fc
00
02
00
03
06
fd
f9
01
02
00
fe
fb
f9
01
fd
02
03
ff
fc
04
fb
fd
04
fc
fe
05
01
02
fe
ff
fb
05
fd
fd
fc
fe
02
fd
fa
fe
fb
03
fb
01
04
fe
f9
04
fd
02
fd
fc
03
04
fc
02
05
fd
03
04
fb
fe
00
02
03
01
ff
02
03
03
fe
fc
03
fd
fc
05
02
04
ff
00
fb
02
03
ff
03
fd
fd
03
fd
fb
02
fd
05
02
fc
fd
03
03
fe
00
fd
ff
fb
01
02
00
fc
fe
fe
fe
fe
00
01
01
01
fc
02
02
fe
fb
ff
02
02
fe
fc
fc
ff
04
06
05
05
00
fc
04
fd
fe
fd
04
04
01
fe
ff
04
04
05
04
00
00
fe
03
01
fd
fb
04
05
fb
fe
fd
ff
ff
fc
04
05
fb
fd
04
04
fd
04
01
fe
ff
fb
fc
fe
fc
ff
00
03
0b
0e
fb
f9
05
fd
ff
00
05
01
00
fd
ff
ff
05
05
05
02
ff
fe
05
11
1b
25
1a
0f
1b
32
31
29
f4
13
08
1e
22
28
2b
18
18
16
ff
04
04
05
fc
03
02
1f
23
15
1e
2f
24
0c
2c
29
1f
ff
04
0b
05
f7
ff
0a
0e
22
1d
21
17
07
fd
fb
00
02
07
1e
fe
f3
00
07
18
08
00
0d
f2
03
ff
01
03
f8
ef
f2
ec
ef
f8
12
0c
f1
02
fb
05
07
f1
05
20
f0
ff
0b
14
0a
f3
f6
ec
05
fb
f8
00
0b
f6
ff
09
fa
00
fb
d1
da
f2
10
02
fc
f0
f2
22
e8
00
e9
f1
eb
f4
f2
fd
0d
1d
1d
15
18
16
0f
01
02
f6
f4
ea
c9
ed
04
02
e2
e7
ff
06
e5
dd
e1
d4
e6
f6
fd
f6
0b
0c
07
14
1c
19
17
10
18
06
f2
cd
c3
d1
fe
04
d5
e5
e7
02
f4
e0
df
dc
f7
fc
ff
f9
ff
fc
09
13
1e
21
13
14
0a
03
f4
d4
a9
d4
00
14
ea
ff
f5
fd
ed
f1
ed
fb
fd
f8
fa
ea
e9
fa
0b
1c
1d
14
0a
0c
0a
03
ee
c3
92
bf
e0
fe
e8
02
f3
09
fd
01
fc
fb
01
fe
e6
ed
fa
f6
0b
18
1d
22
19
18
05
f5
f4
c8
81
a4
fd
03
f5
fc
02
f7
14
09
f6
02
fa
ef
f4
ee
e6
e9
ea
f7
25
25
1e
1f
13
0c
fe
c1
82
a3
f6
04
03
e9
f6
eb
0c
0e
0c
12
0b
ff
ef
ec
eb
d6
d1
e0
06
0a
1b
31
31
26
16
f2
9d
a4
f2
01
e9
e7
f3
fc
16
29
20
12
08
f6
f0
f8
f1
dc
d2
e6
ff
03
0e
20
3b
3d
4a
39
d1
b5
e6
03
fc
e6
07
19
1d
33
2e
28
0f
f4
f0
f6
e3
e5
e4
f4
f9
ff
06
13
28
30
3a
2d
e7
c2
e6
f6
eb
d7
f6
16
2f
36
37
28
0e
f3
02
05
f4
e8
e3
e5
f3
fc
ff
0e
20
22
17
14
07
da
f1
ee
f5
cf
ea
0f
2c
1a
3a
33
19
09
0d
09
f0
db
d9
e2
f1
fc
00
1b
19
1a
04
fe
ff
df
ed
02
f2
eb
da
0e
23
19
34
30
2c
2a
20
f3
e3
d4
d9
f2
ff
ff
04
0d
10
0f
f9
ef
00
d8
f3
fe
e7
ff
cb
f1
03
08
20
23
36
44
23
ff
e8
d8
e5
f8
05
0e
0e
0c
05
12
fa
e3
10
e7
12
f9
f7
fa
ca
ec
e7
fb
19
21
2e
38
23
fd
e1
e1
f0
fa
04
12
13
06
09
06
f8
db
ff
fe
ee
09
0a
ed
da
f0
f7
09
1a
10
21
32
29
0e
f0
ea
ed
fb
0c
11
15
02
0b
0a
ed
da
e2
fa
f6
02
0c
f6
e7
fb
09
0f
12
09
16
2a
28
1e
03
03
00
fd
fc
10
09
05
ff
f3
e5
e0
db
0e
0f
05
0d
09
fb
f3
0f
0a
16
14
11
1b
19
13
0a
00
ff
08
fc
06
03
f5
ee
f8
e3
e7
cf
11
06
ff
18
1a
f8
db
0f
17
00
11
15
1a
11
14
15
08
09
fe
f4
f2
f0
fe
fd
04
e4
e1
e6
e9
04
ff
00
e9
d9
b8
ec
04
0c
11
11
08
0a
10
10
13
08
ef
ff
02
fb
ef
ff
0a
f6
f0
f4
d7
02
ff
fe
e2
c3
e2
eb
e8
f2
ff
fa
fe
f9
03
ee
ef
ed
ee
eb
e3
eb
f0
ee
f6
0b
f6
14
f3
fb
fe
03
14
df
ea
0a
e7
e1
d7
d4
c3
cd
ca
cc
c8
c7
d4
c4
ce
fe
10
02
e3
eb
e5
ff
f2
fe
02
fc
00
16
24
23
13
09
06
fc
f9
00
12
01
0e
fd
fd
de
f1
03
05
00
f1
0d
17
e8
00
04
fc
01
fe
04
ec
e4
00
0e
0c
09
07
0f
13
f8
09
fc
f0
f8
0f
11
13
fb
ef
e6
fb
fe
02
05
fb
ff
fd
01
fc
fa
03
05
05
01
05
02
10
13
fa
fe
04
ff
05
fc
fc
01
04
02
fc
ff
ff
02
01
ff
04
fc
05
0b
1c
28
19
12
1c
19
20
15
09
2c
0a
20
2c
25
2f
1e
1d
18
02
fb
fc
02
03
04
06
11
10
09
27
30
26
19
3f
41
43
33
34
39
27
1e
1a
25
24
23
29
26
0a
f3
05
ff
fe
01
0d
19
07
24
35
30
2e
29
2f
30
35
2f
28
23
1a
0b
1a
1b
14
02
03
0c
08
f1
fa
01
fe
0a
12
25
2e
3f
35
22
35
29
31
1f
22
25
24
15
24
1a
12
1c
18
08
03
ee
dd
ed
01
20
fd
03
1f
1d
39
2a
25
1d
0e
11
04
ef
fb
fc
04
12
1f
0e
13
1a
10
11
07
0b
07
f9
0f
1f
03
1b
f3
24
2d
16
0e
08
07
0e
fa
f3
ef
f1
f7
05
01
f4
f0
ee
f7
f8
04
17
1a
19
0d
18
03
21
ea
0d
3e
1c
08
0a
f7
f4
f1
ed
f1
f5
fb
02
ec
ed
e3
ea
ef
e7
fb
ff
02
ee
06
12
fc
12
fd
1c
42
12
01
fc
f0
f4
f3
e5
f5
06
06
08
f6
fa
e5
f3
f3
ea
ec
e9
d7
e1
04
03
09
01
12
17
3b
09
ff
fd
fa
e8
dd
da
ed
fd
1b
18
04
ec
e8
f7
f9
fa
f2
e7
db
f0
f9
e7
07
10
ee
14
1a
f2
f8
fd
e6
d6
de
d4
e6
16
24
14
0c
f7
ee
f8
fe
f3
f5
fa
e0
d3
e1
03
0c
0c
fc
14
10
f2
e6
ea
d8
df
d7
e4
ff
26
26
13
00
ee
e1
f9
f3
eb
f2
12
11
f2
e5
0b
05
f7
eb
fc
ef
eb
e2
e9
e5
f0
e7
f6
21
29
2c
22
12
fb
e7
e8
ec
f1
f9
17
39
19
cf
f8
13
ef
f7
03
d1
e2
f0
d8
e0
e8
e9
f9
1f
30
30
29
1c
f9
f1
e7
ee
ee
f1
23
2f
02
d4
05
06
04
0b
13
c0
d6
e5
d8
ec
f4
f9
0a
26
2e
3b
2e
11
f1
ef
fe
f2
01
02
08
0c
10
f4
ef
07
14
31
12
d2
e7
f8
f0
e9
f5
fe
15
2c
47
57
26
ff
e4
f0
0e
0a
05
04
07
14
23
e7
f7
06
12
29
19
f3
f0
f8
ff
f6
11
18
2d
2c
45
43
12
e4
e2
00
0e
f3
04
06
18
22
26
f8
e7
00
17
1d
1e
f4
f1
ea
ff
0f
11
1f
20
22
2f
23
f0
e8
f3
fd
0a
fb
04
12
14
10
00
ee
e6
03
0d
02
2a
ed
ee
e9
f8
08
10
0b
08
23
29
0a
fe
02
0e
0e
04
03
0c
14
1c
fa
14
f6
18
09
03
f3
0f
f2
f1
f6
09
08
21
1d
18
1d
1f
18
20
1b
15
1d
18
13
16
11
12
f6
0a
f5
0c
fa
f4
ea
13
f6
f2
0b
21
1a
28
25
1c
24
17
2c
29
1d
21
29
1d
31
1d
04
04
f3
f5
03
00
15
11
13
1f
fd
f5
0f
19
1e
10
19
16
20
27
35
27
22
2b
2c
2c
1e
fe
ec
dd
e0
f5
05
f6
14
21
10
19
07
1a
10
00
02
06
0a
0e
0a
10
1d
23
17
18
1c
1c
15
f2
d8
c8
d1
f1
f3
f6
ff
fc
1d
18
20
18
15
01
fb
03
f8
01
04
0d
03
0f
0a
05
13
0c
05
e7
d9
cd
de
e8
14
fb
01
ff
00
1d
0a
f5
0f
00
00
04
fe
07
06
f9
ff
eb
ee
f0
e7
e7
e2
ea
e3
ce
f6
10
11
05
fd
ff
0b
f5
e9
e7
03
f9
04
02
f6
f4
06
f5
e4
e3
e3
e6
d7
db
e2
d5
d8
d4
f3
01
0c
00
05
fd
fe
ed
d7
e1
e2
e0
e0
dc
e9
da
c1
c5
b8
d2
d8
dc
dd
d3
d6
d2
dd
fb
fd
fd
fc
03
05
06
05
00
16
13
ef
ee
e5
eb
e3
e6
d5
e6
cd
d6
e3
de
d8
e3
f9
ea
00
fe
02
05
fc
ff
04
01
fe
02
fb
fb
06
03
fe
fd
01
03
07
0a
02
01
fb
01
fd
01
01
fe
03
04
04
ff
fe
fb
ff
fb
05
fc
0c
0f
18
23
16
0c
1c
1f
2d
31
1c
25
12
20
18
12
16
03
0d
11
04
ff
00
01
05
03
04
15
17
18
1b
30
1c
fc
11
17
14
1b
13
13
24
22
20
24
16
11
1b
0c
ee
ec
fc
fd
ff
03
06
2a
24
f9
09
10
19
12
11
12
18
1f
23
27
22
20
18
17
1d
22
1e
10
14
08
15
fc
fe
01
fe
13
07
f2
f6
09
fd
06
13
14
0d
07
08
18
17
25
23
21
16
2c
2b
2e
23
02
f0
f2
fa
ff
03
e9
dc
ea
fb
01
11
0a
0a
f1
f3
ec
f1
f7
04
15
1b
19
1a
28
30
28
2b
0b
17
08
03
00
24
ee
fa
12
06
07
fd
ed
ec
eb
eb
e2
eb
e0
e3
f5
0a
09
07
1a
1f
1e
35
2c
23
08
ff
24
11
ff
e5
11
05
0c
fd
fc
fc
fb
f6
e0
df
d8
eb
f7
11
0d
08
ff
06
22
35
3b
2c
0c
21
2f
1c
0a
e8
07
06
06
09
06
06
11
13
f8
eb
e7
ec
fd
05
fe
0c
0a
0c
2b
40
3a
10
ef
12
21
15
02
0d
01
fa
fc
0e
10
0a
27
30
13
ed
e4
f2
f8
04
fb
05
10
04
2c
52
49
10
1a
11
1d
29
06
11
fe
f3
11
12
20
2b
3a
3d
2e
ff
f3
f7
01
f9
f4
ff
ff
f7
07
3a
50
35
09
07
21
2b
07
05
f5
09
19
1d
29
37
42
43
28
ef
ea
f9
04
02
f7
ea
ef
e2
ef
0d
18
14
0b
0a
27
23
14
07
0b
2a
2b
29
1f
38
39
2d
f7
d9
e5
f7
fc
00
e6
ea
e2
ec
df
e6
f0
03
f0
01
19
31
06
0b
22
3b
34
28
29
39
22
fa
ce
d6
e1
e9
ed
f3
ed
f6
fd
04
04
fc
e2
dc
e3
1b
10
3a
04
0d
2d
37
34
36
2d
21
f1
d4
c4
df
f1
ec
ed
e8
ed
fd
08
21
2c
2f
de
d0
f1
1a
15
37
03
f8
0a
28
36
24
1a
03
e3
d4
d4
df
f1
e7
ee
ed
ef
fd
15
25
2a
0f
e4
d2
e6
0e
06
0f
fd
f6
01
0d
21
18
05
ec
d9
c0
c9
e7
03
e1
e2
f5
07
14
19
19
1e
10
df
c7
ea
fd
04
fa
08
03
0f
04
0c
04
f8
f1
e2
c9
c6
fa
fb
f0
fa
12
0c
16
1d
13
16
14
e7
cb
fd
18
fe
09
13
0b
fc
00
04
0b
03
f1
e6
ce
da
fd
f8
fc
05
05
15
1c
18
0e
03
11
f2
de
e1
fb
1f
19
21
16
f5
fe
fc
0b
0b
fe
0e
fc
f7
01
02
05
08
0d
0f
16
0a
03
04
22
ef
e4
f0
00
fe
01
fe
fd
ee
ec
e5
06
0f
18
1e
1f
03
0e
15
16
1d
1a
0c
04
06
03
f6
fb
f4
e2
05
fc
f7
d8
f9
f2
e4
dd
e8
fd
03
0a
1c
1a
0e
10
28
1d
1f
17
0f
19
1a
04
f2
fc
ff
19
00
03
f2
d1
e7
eb
dc
d1
dc
f1
f5
f4
02
0a
0f
1b
22
22
24
1c
1d
12
09
f6
f4
f7
fc
1d
0a
fd
04
f5
fa
e6
f1
f0
eb
ef
fc
04
f4
00
fa
19
18
17
0f
05
0b
fb
ea
d6
e2
e6
01
1a
fc
06
03
05
0e
ee
0b
04
10
15
10
15
06
04
12
12
0b
03
12
07
00
e6
e1
fc
e0
ec
e6
fa
03
04
fc
e7
14
03
06
10
21
2f
2b
17
20
1f
1b
01
11
16
0c
11
10
f7
16
1e
14
19
f4
04
02
01
02
fd
04
fa
00
05
fe
03
05
fe
06
0b
09
ed
0d
0a
f8
fc
18
f7
fa
0e
f3
e8
09
fd
02
02
fb
05
02
0a
15
07
00
ff
06
08
00
ff
32
f6
fa
17
30
0a
04
f7
0a
19
23
06
01
fd
fb
ff
fc
03
01
02
01
03
fd
fe
fb
04
fd
03
06
05
fd
04
04
fa
04
02
ff
04
05
fb
fb
ff
02
fe
01
00
00
08
09
0f
14
15
0c
0c
1a
26
2f
06
16
35
28
0a
15
1e
13
0c
08
00
fb
04
03
06
fe
06
12
18
02
0c
19
23
33
2e
47
3b
1e
0f
05
12
13
14
fb
0c
13
0c
11
20
1b
ff
00
05
fe
f2
11
e8
09
05
0d
26
3a
3f
4d
47
41
3e
22
1e
21
19
12
0f
ff
f6
f1
20
1f
0f
00
02
10
f4
0b
f9
11
1f
21
27
35
31
37
2b
1a
13
12
0e
18
17
f7
de
de
d9
d6
ec
09
1d
15
04
00
fc
12
12
05
14
1d
1e
19
27
28
1b
1d
15
12
24
1c
19
08
f7
ee
ef
d1
e0
21
13
09
00
19
11
22
12
11
16
0e
13
1a
1f
17
1e
1f
29
39
37
31
2d
1b
12
0f
ff
d8
ea
fa
dc
f0
08
25
08
16
24
12
0d
ff
13
12
16
18
1d
24
35
3e
40
31
33
23
13
12
0b
f2
f3
f6
d9
01
17
21
08
0c
19
fd
04
fb
04
0e
12
0c
14
18
39
45
46
35
2f
29
23
26
2f
1f
ed
e1
f6
03
0f
11
0c
13
15
03
f5
f1
f2
f0
f7
e8
f5
fe
1b
21
26
25
1f
2f
2c
23
35
31
11
06
04
17
12
0e
0a
11
ea
e9
e4
d0
da
d2
cc
d4
cb
e2
04
e4
00
0f
14
13
22
1c
21
38
1c
08
13
0d
11
1c
fa
f3
d2
bf
c6
c0
cf
d2
cf
d5
ce
dd
d8
bd
c5
ec
f9
02
03
13
0d
0d
0a
05
04
f2
0c
08
e7
d4
bc
b2
c4
cc
e2
f0
f7
e3
e1
e8
d8
c4
d0
e5
f2
fe
f3
f8
f3
e1
f6
f2
eb
e8
e9
ec
f0
dd
c6
c7
d3
ef
f3
06
02
f6
fa
05
f4
d8
e2
e9
f8
f1
e5
e8
dd
dc
f1
f5
f4
0b
0b
ec
11
d8
d6
e6
f4
08
fc
06
06
00
0a
0d
fd
f2
e6
f2
f9
ea
ed
eb
d7
e4
f1
fd
1b
0a
0a
0c
15
f2
08
17
0d
09
f1
fc
08
08
fd
f8
ee
f9
ed
f8
f5
f0
ec
e5
d9
f3
11
12
12
12
0a
0a
1c
17
2a
2f
16
ff
e6
f7
0f
0a
06
ee
de
e4
fc
05
f6
eb
e4
e5
e9
fb
0c
15
16
1b
fd
0b
0f
1a
25
28
0f
f8
e7
e9
fa
fb
e7
d1
d1
e8
fd
12
ed
f0
dd
e2
f6
f6
f7
12
15
11
18
06
f2
13
1b
1d
0d
07
f8
f3
f8
ee
d5
d4
da
fb
12
0e
fb
f8
ee
f3
01
03
fe
1b
0b
15
fa
15
ef
01
18
17
14
0f
0a
09
0e
07
0b
fc
f7
04
07
11
07
fb
fb
ff
0e
fa
f9
10
1c
0c
fa
19
01
15
27
26
24
17
1a
12
10
0b
17
1d
0b
0a
fd
fc
08
09
0a
0f
0e
fd
f6
04
10
fd
ef
16
36
1c
08
fb
18
14
07
08
06
1c
24
1e
17
08
0c
0d
09
11
02
fc
1a
11
f4
06
25
08
ed
fb
32
20
fb
f2
0f
18
1e
17
16
21
26
24
19
13
13
0a
17
15
08
0a
25
19
00
02
ef
07
fc
04
22
29
16
f7
0c
27
18
24
27
31
20
27
17
10
0d
0f
12
11
02
0e
28
2d
1f
07
e4
01
fb
fd
fc
1e
32
0b
09
10
17
11
23
23
39
39
36
22
26
2a
1e
05
fa
0e
0a
08
38
18
0c
fb
00
01
fa
ec
07
12
1a
2b
2e
34
32
31
3d
31
24
29
30
27
17
1c
ff
ed
f2
e5
01
09
10
03
04
ff
06
ea
e7
f5
f2
12
1e
22
2e
2b
25
38
32
21
23
0d
19
25
f7
f0
fb
fa
00
16
01
03
ff
ff
05
fd
16
1b
27
25
26
0b
2e
10
02
2b
2d
2f
32
2e
00
fb
f9
ef
ee
05
ff
fe
00
02
04
fc
ff
00
04
02
03
fd
04
fb
fd
06
05
07
06
fd
02
fb
fb
03
02
05
fd
02
ff
fb
04
00
05
03
04
06
f4
f0
fb
fc
06
f7
fb
fe
f7
09
0b
1d
2d
26
f6
ed
f3
fd
f9
f7
fe
02
05
04
01
03
fc
0c
fb
02
08
fd
03
0c
00
09
0e
0a
0a
09
17
ff
e0
d2
e1
e4
dc
fd
17
16
fd
fe
01
03
12
12
f7
e9
e0
e7
f7
08
fe
fe
0e
12
fd
f3
05
f5
d3
ce
d2
d7
e0
ce
e8
13
e8
06
ff
fb
08
e9
e1
eb
fa
e1
e5
ed
ed
01
06
0c
05
fb
f1
f6
eb
e7
e0
de
e0
ef
d4
ed
fc
e1
fd
02
08
0e
fb
0b
03
fa
04
01
02
0e
10
0d
0a
02
f8
f3
f8
e9
f4
08
0d
f6
e5
d9
da
e6
05
ea
f6
0c
0b
1a
19
13
0e
0f
11
16
15
12
15
03
09
0d
0d
09
04
10
12
e4
d4
a0
d1
e3
07
01
20
20
03
fd
15
0f
10
1c
1d
24
20
27
22
10
1b
21
27
23
1d
19
1e
f7
c4
9b
c8
e1
10
24
10
0d
01
05
05
1d
25
26
22
29
29
26
39
3b
27
29
1f
1e
15
0b
12
0a
be
a3
ca
ec
0e
21
15
12
fd
13
09
10
16
1c
22
26
33
2e
43
3d
31
28
1c
12
00
f9
ff
f3
d1
bd
e0
0e
0f
12
23
fd
fc
21
14
17
16
1a
13
1a
0e
22
36
3c
2c
1b
03
f9
f8
fc
f9
e0
d4
e8
fd
ff
0b
19
0d
ea
f6
04
06
00
fa
f4
e6
e4
c5
c6
f0
06
fd
e9
f9
f2
ea
f5
f9
ed
e3
f6
01
f4
01
1a
14
dc
ec
e8
e7
df
e1
cb
c2
b4
a5
a5
d0
e5
dd
e9
ec
e3
ea
e7
ef
e4
f4
12
13
0c
07
11
1d
d9
d7
d7
d6
d1
c8
cb
c7
ba
b3
c2
ed
e1
e0
ed
f0
e4
e3
ef
f0
f6
13
11
21
13
02
ed
1c
d7
d2
d9
d1
dd
ce
dc
dc
d9
dc
f5
f7
ee
e6
f7
03
fb
f7
ee
fe
0e
14
07
37
10
09
eb
1e
e2
e4
e5
e3
e1
ef
f5
00
ee
f3
01
f3
f2
ea
fa
01
ed
f4
03
fc
05
1d
18
29
23
05
ed
fe
d7
ee
f0
fc
fc
00
06
0f
04
0a
0c
05
f2
ed
f3
ec
f1
ff
11
08
f8
15
28
39
28
04
f1
f6
ce
f1
fd
ff
f6
fa
13
17
12
16
10
03
f5
ef
ed
f2
e9
00
08
0a
f4
13
4a
42
2f
0f
f1
e6
da
f5
f1
f0
09
06
08
10
17
0f
10
0b
f5
ed
f7
f7
fa
00
ff
05
09
1c
3f
44
27
11
11
fe
e2
02
d8
eb
0d
12
0f
0e
11
12
16
0e
02
f8
f4
ed
f6
0a
fb
fe
03
1e
46
3d
17
fc
0e
0b
f8
04
f3
f4
fc
0e
03
01
17
1a
0a
09
03
03
f4
ef
f8
f8
fb
06
14
28
41
27
0d
1a
01
00
00
07
15
06
04
0a
09
10
09
08
0a
0b
0a
0e
ff
fa
ff
00
09
fd
24
46
3f
32
0a
12
01
01
f4
13
3e
33
22
1e
20
0e
07
03
01
0c
0c
0b
fc
00
f5
f9
03
00
0c
2d
25
f1
04
ff
fd
ef
cc
fb
32
38
26
0c
17
13
0f
12
fd
ff
00
08
fd
ec
ef
ea
fa
06
fe
18
0e
f9
02
06
03
01
d4
f4
1d
07
f0
ec
f7
ee
f4
fe
fd
05
07
ef
0b
08
fa
f5
01
f3
ec
38
27
1d
fd
fd
ff
e1
1c
18
ff
f7
ed
ee
ef
e8
fd
01
f8
05
0c
0b
19
0b
fa
f9
0c
03
fa
2d
08
19
03
02
02
fe
e8
e1
eb
f7
0a
13
0b
0f
11
12
14
17
1c
21
0f
1b
2e
0c
0e
14
f9
fe
16
fb
fc
fc
fd
fe
fc
1b
20
26
1f
1d
13
1f
ff
03
31
17
12
24
27
04
03
fb
08
0b
1c
fd
fc
04
04
05
fd
02
fe
02
fa
02
fd
02
04
fb
03
03
01
ff
fd
02
01
02
01
05
00
03
05
00
fb
fe
00
02
fe
fa
fb
fe
fd
02
06
fb
fd
fd
e8
f4
e1
fd
fb
c8
ca
fb
27
37
31
22
12
fb
02
03
ff
00
fe
03
fd
18
09
f9
f5
fa
e4
d7
bd
c4
b4
c5
d9
c0
eb
17
6c
3e
33
2e
12
05
07
05
01
fb
04
16
1a
09
01
0b
11
e7
db
c6
ad
9a
89
9a
bc
ca
e3
f5
fa
09
0a
11
01
f1
11
13
00
05
00
1c
0f
00
10
09
fa
d5
be
b2
ae
9c
b6
b9
c9
d4
e8
e5
f6
fb
fe
12
2c
0d
f6
e4
f5
05
ff
20
0a
1e
1c
fa
fe
ed
d8
c6
b7
b4
be
d6
dd
dd
e1
e3
e4
e9
ed
05
22
18
f4
00
fc
03
ea
e4
12
26
f1
f6
05
06
d8
c9
c6
ba
c8
fc
e7
e9
fb
fe
ee
ff
fa
12
24
13
ed
10
15
02
e1
e6
1c
de
de
d1
ed
de
be
be
ca
d9
e9
08
f5
ff
0c
07
07
03
18
19
17
f2
fd
16
0e
ec
d2
eb
10
e7
e8
d5
d0
e0
c8
d6
c1
d2
09
1a
13
0f
19
14
1b
0e
1f
1e
0f
13
08
fb
00
ee
e9
db
f1
e8
f6
d1
c2
c8
de
ec
cb
e1
20
33
38
21
1f
1f
24
12
1b
16
0e
2b
11
f5
05
f0
09
e0
f4
f9
f0
cc
bd
bd
ce
e2
ed
08
2f
3c
3f
2a
11
0e
15
06
0a
0a
2e
5c
49
1a
e1
f1
02
00
ed
e7
df
c9
b8
cd
d6
f4
0e
1b
38
2e
23
0a
fb
f8
ea
dd
f0
f8
25
40
44
fc
06
fd
ea
01
ec
e7
c9
c5
dd
e6
ee
08
24
22
2d
2c
17
fe
f6
ee
c5
c0
b8
b8
d1
e4
fa
01
04
0e
f8
eb
09
ef
bc
d7
fd
f5
04
16
26
23
26
1d
17
0b
0c
f2
d1
bf
ae
a1
96
b3
d9
e7
04
ff
06
fc
12
d3
da
d2
e2
ed
08
11
19
1e
18
17
0a
14
ff
f6
d8
c4
bc
af
ad
c8
d8
e1
fb
06
fb
fe
f3
fe
fc
f6
ed
f0
ec
0c
15
1d
1a
1a
12
0f
05
08
f1
db
d5
c5
cb
cc
ca
e1
f0
fb
ee
ee
e9
04
18
fd
de
e4
e6
04
07
ff
1c
19
0e
08
fa
fc
f4
d4
c9
b5
c4
d5
c8
f8
f6
ff
05
e3
e9
13
22
1b
fc
e6
f0
fe
fa
0b
1f
1d
0b
f6
f5
fe
e9
e2
df
d7
e6
e9
03
14
f4
ef
0a
d6
d1
f9
0b
0d
04
f0
ed
f9
07
2c
36
2c
f9
e8
fd
08
f3
d0
ce
c6
d6
eb
fd
32
1d
12
e6
d9
c4
d2
ec
0c
07
f8
fa
05
34
3e
32
10
e5
eb
e8
00
f7
c2
c5
c6
d3
ff
0b
1a
19
fc
ee
cc
a5
b4
e4
fe
f9
fd
f8
10
26
1c
15
0f
df
e9
e1
eb
e8
c4
c7
d0
d8
06
06
1d
17
11
ee
da
bd
d5
f6
ec
f3
fe
06
0c
04
08
02
03
eb
d7
e9
f3
d6
dd
d7
dd
f0
0a
13
2b
05
19
0a
f1
cb
ec
fc
f1
ed
fe
00
fa
f1
fd
f3
00
ef
e5
f7
ee
db
ec
fb
10
23
1f
17
1c
03
fd
fd
e6
c0
ea
18
fd
f1
f9
fe
08
00
00
fa
f5
fa
e4
dd
c4
c3
f2
f3
11
0b
18
15
1b
fe
03
00
e5
d3
db
0d
fc
02
09
0f
ff
f5
f4
f5
ed
f4
e0
f1
d2
e0
f4
f6
15
20
22
14
1b
05
fb
03
fc
21
01
fb
d5
e8
fd
09
f8
fe
0c
0f
09
ff
13
03
ea
0b
0b
1c
1c
27
05
00
ff
fc
fe
fe
01
13
25
13
0a
10
06
18
10
22
39
10
23
3f
4d
34
13
2b
11
19
f0
e5
03
f2
fb
04
ff
fa
04
fc
f0
df
f3
f8
f7
05
1b
24
2d
09
2f
1f
1b
1d
18
12
00
fe
04
fc
03
ff
fe
03
fd
03
05
05
fd
02
fc
00
03
02
06
fc
07
0f
04
fd
01
fa
fe
01
fd
05
fe
fd
02
04
03
02
fe
fb
fb
02
0c
05
1b
25
1a
0f
1c
0d
13
19
f8
18
32
2d
1d
1f
2b
1c
17
1b
ff
05
fc
fc
01
02
00
09
15
0e
19
22
37
35
4e
41
2a
13
1e
18
04
0a
03
06
12
22
20
21
25
1a
fe
02
ff
03
f2
11
f5
fd
12
12
0f
21
13
10
f9
04
09
f4
f5
f6
ec
f7
ed
fc
04
0e
0c
f9
09
fe
fd
fb
eb
e2
fd
00
1d
08
01
06
fd
f1
f0
f0
ed
d8
dd
e6
dc
e9
fd
eb
fd
ff
e1
ef
ed
16
00
fd
00
ec
10
f0
02
ff
13
0c
0d
ff
02
f9
fa
f0
ee
e4
df
dc
db
db
e3
f9
ec
ed
f8
11
fb
e6
0c
10
06
f6
fe
08
11
0b
fe
fd
f4
fd
0c
13
0d
02
eb
d7
d0
ea
e1
d9
ce
e4
e3
0f
06
06
33
12
08
fb
00
02
f2
f4
eb
f6
fe
10
17
24
18
04
ed
e1
db
e7
e1
d1
d4
d3
e8
00
f2
1f
17
0b
1c
01
04
fe
f7
f4
ed
fa
f8
0f
29
2b
13
01
ea
df
e1
d7
d0
c3
b5
c8
cd
dc
0a
1b
06
0c
1a
1d
01
f5
ed
f1
f9
fa
0c
1c
33
2e
1c
ff
fe
f2
e5
cd
c0
ac
9c
a3
c3
07
0e
10
13
06
07
22
08
f1
ec
f0
07
0d
13
14
26
11
10
12
17
0c
04
e8
cf
95
84
a2
c1
02
05
11
14
01
05
09
f3
f6
fa
09
10
1b
14
09
02
03
16
1d
1b
2a
25
19
e9
a7
8d
96
bc
f2
07
0e
22
01
06
f8
df
ec
08
13
10
1a
04
ff
f9
0b
24
2b
2d
29
1e
20
07
ed
e2
e4
e0
1d
e9
0b
1d
fb
00
e3
e4
e0
fe
07
1d
11
03
00
07
1b
34
2d
24
23
0b
12
fb
03
15
10
28
1b
e7
f9
1c
03
f6
ea
e5
f6
02
0f
1f
18
02
ff
08
1a
2d
25
2d
1d
06
03
ff
08
05
23
3f
1f
ef
f9
fe
0f
ef
ea
ee
01
0d
12
22
11
f9
06
12
22
22
33
1e
12
04
fe
fa
f6
f9
2c
28
22
0c
f5
ff
02
fb
ec
f0
0e
22
25
21
1f
10
0b
18
29
31
2e
14
08
f7
fc
f9
e8
f9
47
36
1c
05
ec
0a
f5
e7
db
d8
f2
10
1c
24
24
30
2a
2a
26
1b
0e
08
f7
f4
03
fe
f4
08
6b
42
28
17
f5
00
fa
f2
d0
cf
ed
fe
04
14
21
24
25
24
16
05
f8
fe
f3
fd
05
00
ff
12
52
3f
15
ee
11
03
f4
00
dd
d7
ea
e6
f2
04
20
19
14
14
fb
f0
ee
ea
f6
fc
09
05
00
01
17
25
0d
fc
f8
03
f6
00
e6
d1
e3
e6
f3
fd
07
0f
0f
05
f8
ed
e4
e7
fd
f8
fb
eb
f3
15
05
1a
f0
e9
05
02
f0
ed
e4
cf
d3
ea
f8
fc
08
0c
0e
f9
f2
f7
ed
f0
f5
e7
ee
ed
08
07
f7
12
01
ee
fa
02
f7
eb
ec
db
db
f0
f8
04
00
01
f9
f2
f7
ee
ed
e6
ee
e9
fd
fa
f9
00
01
e7
08
05
02
e7
d0
e4
e5
ed
fd
ed
f6
f5
01
03
fb
01
f3
e8
ef
f9
f6
ee
04
0a
fd
00
03
e5
fe
05
05
01
d8
03
0c
03
fe
f6
e3
df
e5
e2
da
da
e3
f1
f3
f5
f1
fa
09
fb
fc
10
3b
19
fd
fc
fc
fa
0e
1f
1f
0a
04
f9
eb
eb
e3
eb
eb
fa
ed
ee
ea
e9
dd
fe
ee
d3
d4
da
18
0f
03
06
04
fe
03
01
0b
1e
2e
39
25
18
01
08
0a
1c
10
14
13
20
14
ff
08
0e
14
0f
0d
03
fc
06
ff
fc
00
0f
14
19
25
21
16
1b
02
ff
1a
2d
23
28
37
2f
2b
17
24
26
1b
fa
05
06
02
fc
fe
fb
fa
02
ff
02
fe
03
05
fe
03
ec
f4
fb
fd
05
00
fc
fe
ff
02
01
ff
00
01
01
ff
fb
01
ff
fc
fb
f6
dd
dc
d8
d3
da
d1
c4
d9
fb
d0
d4
d5
da
d5
d4
e8
e5
e4
01
04
fe
04
00
fd
f6
e4
df
e0
df
d1
c1
ad
a4
9d
92
b1
bf
ac
cf
d2
d3
c3
c4
cd
dd
d4
e5
f1
04
ff
02
fe
0d
db
e7
e5
c0
9d
99
9a
9b
99
92
97
b1
c6
cf
e4
ec
ea
e3
e8
e7
e8
dc
e8
ef
00
02
0f
22
07
0a
fd
e1
e4
e0
db
d5
e9
f0
eb
f1
f6
f8
ee
ea
ef
f7
fe
f0
ee
10
07
10
e6
fb
05
ff
10
03
1d
10
03
fb
05
f7
12
10
02
02
04
00
f9
ea
f1
ef
f0
ec
ea
ea
f4
ea
ef
fe
fa
14
0a
04
0f
0d
0d
0a
14
0c
0c
02
01
04
0c
11
13
0d
0a
10
07
fc
0b
ee
f6
fe
ea
ff
f5
08
19
08
0b
0e
15
11
15
0e
fb
f7
09
08
22
25
27
21
14
18
11
14
15
0b
f2
fc
ec
e5
ee
0b
26
14
22
23
1c
1a
16
fe
fc
f9
12
18
1b
1e
1e
31
22
1b
25
12
12
1a
16
09
00
ea
00
07
07
12
12
25
15
0c
05
fa
f1
fc
0c
08
12
21
28
2c
2a
28
2c
21
0d
f3
ff
03
03
eb
fc
09
10
11
00
ff
09
00
09
fe
fb
06
fd
f3
07
20
20
32
33
2a
27
24
f0
d4
e5
e8
10
fe
e1
01
22
0c
f9
03
10
1c
20
1a
17
1a
ff
04
33
2d
2f
24
1e
23
0c
0d
e1
c9
e2
04
05
f9
0a
04
1e
11
06
0b
1d
22
1f
23
28
17
01
16
37
38
2c
1f
24
17
14
01
f2
e4
fa
f8
fd
eb
0b
fb
12
1f
13
16
22
20
20
1e
1f
0e
0b
1a
38
3b
31
30
13
1a
0a
f6
de
ca
08
e5
e7
ea
1c
fb
20
35
13
0e
18
12
12
0e
14
1b
11
16
29
3c
42
2c
1c
08
f0
ef
de
cf
fa
ce
ea
e6
13
f6
1b
1f
fe
01
0c
11
0a
09
12
1a
10
15
28
38
42
23
0a
f4
f4
09
ef
c6
d4
f3
ee
13
15
ed
f7
f6
ea
fb
11
1d
0d
02
00
20
1a
19
29
30
37
17
ee
f6
f0
f4
f1
d7
bc
dd
f5
fc
14
fb
e6
ec
db
e0
ff
14
00
f8
04
18
22
1e
29
20
17
f4
e2
ed
f8
e8
e8
d7
b3
e2
e2
f6
0f
11
f4
df
e2
e3
e6
f0
f1
e8
f2
f5
08
0b
0d
00
ea
e3
e5
f7
f3
e3
d5
b7
9c
f5
e3
f8
e2
0a
09
e6
f3
e8
d9
e2
da
d0
ca
d3
e0
f9
f2
ec
e2
e7
f3
f0
eb
d7
da
c7
b5
f4
e9
01
f2
f6
fc
ea
ea
ec
d7
d7
d0
c9
c0
d2
e2
ed
ec
f1
ee
ea
ec
f0
ed
d9
e1
da
d2
ea
f8
e4
14
f1
e7
f1
f0
fa
ed
ec
da
d1
d5
e2
e0
de
f0
f3
eb
e3
ec
f5
ef
eb
d8
d9
d2
e1
f6
e6
fd
fd
ea
f1
e8
fc
fe
00
f8
00
03
06
ff
fb
f5
f4
f4
f8
f3
f3
02
f8
e1
dd
db
fd
fa
fb
fb
e4
0d
01
eb
ff
14
12
0d
13
1c
0d
13
11
0a
09
09
07
01
01
00
f5
f0
d7
ea
f7
fb
01
ff
12
14
26
22
2b
32
27
22
2d
2c
12
14
0d
0b
18
05
fc
0b
1a
0f
01
03
c5
e3
e9
fe
01
fc
0f
f5
1c
3a
29
34
31
3f
54
46
22
24
2f
20
18
11
19
0e
21
0f
ff
01
e5
f7
f4
fd
fd
00
00
0a
22
26
34
41
43
36
36
23
22
25
33
19
1d
24
1c
01
0b
10
07
15
f4
ed
04
fc
00
05
05
05
ea
f1
f6
f3
ea
00
fa
f4
ff
fc
1c
25
11
0b
17
16
24
2b
26
1a
04
fc
00
ff
03
fe
05
01
01
fd
05
02
03
ff
04
06
eb
f5
02
01
fe
fa
fc
00
01
fe
fb
05
fb
01
fb
03
04
fc
04
fd
fa
f8
df
d7
e7
ef
db
ec
ef
ed
01
02
25
0e
da
d5
cf
e5
e4
e9
00
04
ff
fa
fe
fc
f8
17
f6
f3
dd
d0
e1
ff
e0
e4
e0
da
e2
d0
df
e6
dd
d0
de
dc
d2
d8
0c
18
fb
ff
03
fd
ec
f6
ef
ed
ea
f3
04
04
0b
1a
11
06
08
f5
fc
05
f6
ed
fa
00
fe
e7
f1
1e
fc
fb
03
07
ef
f9
e7
f6
0b
17
19
2c
25
30
20
1b
1d
26
23
21
17
03
f9
f4
fb
eb
17
30
27
ef
ff
05
f0
17
07
02
13
1c
15
18
11
0f
02
fa
05
14
24
2b
17
14
0e
0e
18
f8
00
21
04
ed
fb
18
f5
06
1e
2a
22
1b
14
0a
05
f2
f0
f4
f4
ef
f3
01
f6
fe
fd
02
22
1d
09
16
03
f3
fe
11
f4
05
30
3d
29
16
1a
0b
ff
f9
e7
e3
e8
e2
f1
f7
00
09
f6
05
1d
2b
2c
2f
0b
fa
19
f4
06
16
2a
23
18
19
09
07
0d
fa
fa
f9
f7
01
0d
12
14
1c
14
13
1f
34
42
3a
30
1e
fa
e5
11
11
1d
16
0a
02
01
07
f6
e9
f0
0b
07
06
26
27
1f
27
28
1e
1e
34
3f
4c
29
f0
fb
ed
02
1a
10
00
01
fd
f7
fc
ef
f2
0a
1a
13
01
14
26
28
1e
17
12
0a
1a
32
20
20
06
fb
0e
f8
14
f6
f2
f6
ea
e7
eb
ee
04
1a
1a
fa
ec
f9
06
ff
0e
eb
e6
e9
f7
1f
28
33
f5
fa
04
f8
fb
d8
de
db
e2
dd
e9
00
21
43
27
ec
df
f1
f6
f9
03
f1
df
d8
d2
1b
2c
2e
ff
f6
ff
f5
ed
d1
e4
e6
ea
ea
03
11
34
45
11
eb
e8
e8
fc
06
f9
ea
e3
e7
fb
19
36
46
25
16
fb
fb
e0
dd
ea
e6
f4
fd
06
16
32
30
13
f8
f2
ef
0b
0a
f7
e8
ec
eb
03
1b
24
3a
1b
0f
0f
25
fa
02
05
f8
fc
02
0c
11
15
21
10
06
fe
fb
fb
ff
02
f5
fb
00
19
2d
20
39
1a
f4
0e
2a
1a
10
04
07
fe
f7
09
04
08
15
0c
03
0b
09
14
0b
13
10
1a
1c
32
2f
21
40
21
03
03
2b
26
2e
1c
1a
06
fd
fb
f7
fb
ff
00
fd
fc
08
0a
09
15
0a
19
25
2c
15
0d
1e
2d
e8
08
0a
24
32
38
2c
17
15
06
f9
fe
0f
0d
f9
00
0c
06
08
0c
08
17
29
2d
26
0a
f9
17
fa
fd
f1
18
2d
38
28
1d
1c
0f
14
07
0c
0b
08
03
01
0f
0c
fc
0e
20
22
1e
f9
02
1b
04
fc
10
13
2c
36
2e
29
21
1d
1b
11
18
15
0a
00
03
fc
0b
04
00
10
1e
19
11
f0
f4
0b
fe
ec
15
38
1c
19
05
17
1a
07
08
0a
14
0c
0b
ff
00
fa
07
00
01
08
03
1f
18
e8
fc
23
07
e9
f3
2e
1c
fd
f2
16
11
08
12
13
21
17
1b
06
06
00
07
03
11
08
0a
1c
0a
f3
00
f8
00
06
02
2b
29
10
f5
05
13
22
29
30
33
1f
25
18
11
0a
07
11
12
0a
09
02
f9
f9
0b
f3
01
03
05
fd
18
f9
d5
ef
f5
05
19
13
1d
23
2e
37
18
1c
01
03
04
f2
f5
f4
e8
14
1f
0f
03
05
fb
fd
e6
e1
d9
ec
ed
e5
f6
04
00
f7
03
ff
09
01
f4
e2
e3
d6
cc
ea
e1
f8
04
10
03
ff
fe
ff
f1
ea
e3
dd
cd
cc
c3
d4
d8
d8
c6
a1
b1
bf
cb
ce
d2
c8
c8
d3
e4
e2
05
00
05
03
01
04
fb
19
14
e9
e7
e3
e2
da
f2
e8
e4
be
cf
d6
da
d7
d7
d9
d2
d6
e4
ff
06
06
00
fb
01
ff
fd
01
00
00
04
04
fd
fc
fe
f3
fa
01
06
fe
ff
ff
00
fc
04
fc
05
fb
04
fc
04
fc
fc
fb
fd
f0
f0
e6
ec
fe
01
f3
ef
ee
f2
08
f3
fb
f9
f6
eb
e2
eb
ed
ee
02
01
05
06
ff
05
fe
e7
e6
fd
03
f0
15
2a
1d
33
2e
17
24
0e
17
26
10
16
19
0a
fb
14
20
16
fd
fe
06
fd
ea
f6
05
1b
1d
2a
25
30
27
2f
24
0c
15
0d
0d
1a
29
34
31
2b
0b
fb
19
1e
1a
fc
04
0b
f9
1b
0f
27
35
11
0e
00
01
01
fe
fa
ee
f3
fc
05
16
0b
03
01
06
14
25
1b
ff
fe
fc
fb
09
29
27
16
07
02
05
06
12
05
fc
f2
ed
f5
08
04
0b
06
0c
00
02
14
17
19
fb
f5
fb
1a
01
18
2c
09
02
01
0f
21
1e
0a
ff
02
09
03
0d
06
11
00
09
f7
f7
ff
1d
1f
22
15
f9
14
f1
09
25
0b
01
ff
12
0e
05
11
04
02
13
05
01
fe
f8
04
ff
fe
fc
dd
fb
28
21
10
e3
f4
f5
f0
1a
fd
fe
00
09
03
0b
08
ea
f1
fe
fa
ec
ec
f7
00
08
0c
05
fa
ef
24
07
f5
fd
f5
06
f7
0e
06
01
0f
10
07
03
f9
e6
e9
ea
01
fe
f0
f1
f2
02
01
08
fd
dd
10
e6
05
f7
ef
de
14
f4
0c
10
0a
08
fa
ec
e1
e1
cd
d1
f0
00
f8
f1
eb
eb
e9
ed
e1
de
26
f0
05
ed
db
ee
0e
fd
08
00
f9
fc
f2
e2
e2
db
c7
c9
fa
12
0d
ff
f6
ed
da
d7
c7
c4
02
de
f5
e9
e5
eb
f4
00
f8
fc
f3
fc
ea
04
f9
f1
ea
fa
05
0e
0a
13
0e
fc
e4
d5
cd
cd
fc
0b
10
f1
f2
e0
f7
eb
f0
f4
f4
fd
fc
05
0a
13
12
13
04
1b
1b
11
15
14
0a
e7
df
f1
16
37
1c
ff
06
da
08
03
ee
03
08
07
03
01
03
0f
11
13
15
25
14
14
0d
16
09
03
f0
f6
0a
3e
1c
00
12
ee
16
03
0c
21
05
01
f6
fb
07
0a
10
0a
19
28
1f
0a
14
17
14
01
f4
13
18
47
1b
03
09
1d
27
10
1c
11
f8
e6
e8
ea
02
17
1c
17
17
1c
1e
1f
22
1b
22
19
06
21
42
48
13
04
10
30
30
14
14
15
06
f1
e2
e4
f2
04
19
15
1e
17
22
26
2a
12
23
0f
fd
f7
3f
23
f1
e3
0f
14
53
2e
25
21
13
fd
e1
e8
f0
08
19
1a
16
25
26
2a
28
15
1f
0c
08
15
40
14
1d
f5
da
f5
31
2e
27
23
17
08
f7
f5
0e
0b
0f
17
15
19
22
19
1b
14
1a
fe
08
0d
30
2b
14
fc
ec
0b
2e
1f
1b
18
0a
0c
06
ff
ff
f4
fb
0a
03
18
12
1a
1a
15
0d
f9
12
16
2f
1f
fd
f0
20
34
21
08
fd
f3
fb
07
08
01
fe
fc
f8
f4
fd
0a
08
1b
22
12
fe
03
1c
20
1d
f2
fe
ee
08
31
28
0c
ee
e9
ed
fc
fe
0a
ff
f8
f1
ed
f3
00
fb
10
15
16
12
15
1a
22
12
e9
fb
01
02
26
41
29
09
fd
fe
f1
fb
fc
ff
ed
eb
ef
f2
ed
fa
15
1c
22
27
26
28
40
1e
0c
01
01
fd
fe
20
2e
0d
14
1d
01
00
0c
0a
fd
fc
05
04
0c
20
14
08
22
36
3a
3a
40
36
10
05
05
fb
19
e6
13
3e
39
34
38
30
39
2c
2e
39
2b
20
1b
09
16
0b
2d
2e
3c
36
2a
1c
12
fb
01
fb
04
12
2a
32
2b
11
09
0f
1e
16
1b
17
1d
12
15
02
01
f8
23
13
07
05
f4
ea
02
05
fc
fd
01
fa
e9
e5
f9
02
f6
ee
dd
fe
03
de
00
0a
f3
c9
dd
e9
fe
f5
fc
ee
fd
04
fe
00
fd
01
05
00
01
04
03
04
00
01
fd
00
f2
f2
07
05
00
fe
fe
02
fe
04
fe
02
fd
05
fc
fc
03
fb
02
fb
f9
f9
f7
ef
e1
f0
f3
ed
e6
eb
06
0d
ef
e2
ed
ee
f4
f4
f8
fb
ff
01
03
ff
04
05
f8
0a
ff
f4
eb
db
d2
db
d4
d3
ed
fe
e8
f3
fb
f8
f8
00
ea
db
e0
e3
de
e0
fd
ff
fc
fc
14
fb
ff
13
09
fa
ff
e7
e5
ec
04
05
02
04
00
fc
0a
03
0d
f4
f1
ee
e9
06
f9
fe
01
07
23
1f
10
13
0b
00
0c
07
10
1c
1d
1d
1a
23
0d
02
0e
04
f3
fe
f1
f2
05
0f
19
f5
05
fb
15
14
04
25
0c
0c
f6
05
08
1a
26
28
16
19
07
fe
fa
fc
ff
01
f7
e7
f8
0f
0a
f6
05
0f
12
15
f8
fd
00
f7
06
09
18
24
25
2e
31
2c
2c
27
22
17
16
08
f7
eb
05
17
0e
f5
fa
1d
fc
06
f2
e7
fd
05
12
14
1b
1a
2b
28
36
3b
3a
26
1e
18
1a
09
fd
00
08
19
fa
01
df
0a
f2
04
f1
fa
0e
0f
18
0e
15
16
22
28
37
2f
2c
1a
1f
13
10
09
09
fb
14
1c
23
20
09
1b
fa
0d
08
fe
18
1c
1b
0a
11
1c
23
25
3f
30
15
11
0c
05
08
0a
0e
04
22
43
3f
13
0f
0d
03
0f
1a
03
11
10
0d
0b
10
15
1a
2e
3c
29
18
09
09
04
09
05
01
0d
1a
41
37
0c
ff
f1
0d
0e
1e
12
0b
0e
14
00
0e
0f
0f
35
42
28
15
1a
14
08
11
f9
07
0c
11
41
3f
16
ed
f0
f9
15
2d
1b
15
09
fa
fd
fd
f7
f9
1e
37
28
17
22
18
0a
03
f3
eb
f7
cc
ff
1e
0f
0f
ee
f7
19
2c
16
f5
ff
f3
f2
e9
e8
f5
19
27
23
20
18
11
0a
09
ee
e1
d0
bd
d8
e5
ea
ec
06
f9
14
0d
f8
eb
db
de
df
e1
dd
f7
14
20
24
15
0c
07
fd
fa
fc
e8
e6
d4
ca
e6
ee
f5
12
e9
fc
fc
ea
e3
cc
d2
d7
e6
e8
fd
19
18
0d
01
00
08
fc
ff
fb
f6
f3
ed
ce
d2
e2
07
15
0d
06
08
e4
d8
cc
d0
d7
e7
e9
fd
10
05
ff
fc
ff
fa
f4
ec
e6
f8
fb
fd
af
ce
e8
fc
17
ed
1e
ff
ea
e1
dc
da
da
e4
e8
fa
fd
fd
fa
fc
02
00
04
00
f6
f0
04
f8
b0
f0
fe
1c
0e
fe
0c
f1
f6
f9
e3
e1
e7
ee
f7
e2
f1
03
0c
fc
08
05
0c
09
fc
03
f5
e6
cd
f8
f0
03
0d
f7
06
fc
04
fa
f3
fb
ff
f4
e8
f3
05
04
04
07
09
0d
1a
06
fc
f9
05
0b
f3
de
f0
01
f2
e5
f6
f1
0d
10
04
0f
01
fb
ef
f1
0b
07
0b
0e
0f
0f
0b
08
fe
0a
0c
0c
0f
e8
04
11
fb
f8
fa
0f
10
2a
1b
0c
fc
07
00
03
13
15
16
19
0b
04
03
04
00
ff
fb
0c
0b
d5
f9
13
18
f6
02
12
0e
17
0c
0b
08
0f
0c
11
0f
1c
1a
14
07
03
ef
f6
f3
02
11
10
09
0e
fb
fc
05
00
2a
21
19
07
fd
07
03
12
0e
1a
20
1f
14
13
08
fd
f2
f6
ef
fd
12
11
fc
0b
03
fc
fe
1f
32
36
29
15
19
11
18
1e
22
1b
1b
1a
1c
0b
10
0c
08
11
02
0c
12
f4
d5
ec
fd
fd
05
18
fd
0f
37
2b
40
54
4a
41
45
53
49
3d
2e
3f
43
40
44
3f
32
22
24
2b
fe
ec
05
ff
fa
00
13
09
11
20
53
51
6a
57
69
66
6f
7a
5c
6f
76
6e
4d
5e
55
38
24
1b
eb
04
05
fc
00
fd
ff
e5
ea
18
19
18
21
24
31
31
1e
47
3d
27
26
2e
20
19
2e
2f
15
01
fd
fc
04
