000008e5
0000183f
000001a2
ffffe6b8
fffffa66
fffffdd6
00000acd
00000e73
fffff423
00000244
fffff947
00000cc4
fffff784
0000061c
ffffed80
00000dd7
fffffffe
fffff9de
fffffb86
ffffed26
00000c70
0000116d
ffffff7f
000001a8
0000049e
0000118f
000006c6
00000e32
000025f7
ffffe677
000005b3
00000b83
00002162
00001ce9
00000409
fffffbcc
00000487
00000caa
fffff5f9
fffff633
000003b1
00000fd1
000005d1
00000ce3
0000106f
00000c5a
0000019f
00000681
ffffef2b
fffff49a
ffffe4d9
fffffb73
0000019f
00000dd1
0000016b
00000730
fffff9a5
000009db
000008ec
000003c1
00000b59
00001263
fffff71a
00001706
000013f9
000001e7
000027ca
00000779
000000d3
fffffe21
0000051c
00000e9c
00000c2f
fffffc59
0000142d
00000956
00000813
fffffa40
00000d2a
00000c81
fffffd14
000008ee
0000144a
fffff816
00000be6
00000850
000012d6
00001bd6
00000388
fffffc00
00001590
00000565
00000adb
00000f82
00000242
00001ed3
fffff3bf
00001420
00000b0e
00000ac2
fffffefd
00000072
fffff4f2
fffffc4f
00000904
00000a0f
0000078d
00000cba
fffffb5e
fffffe7a
00000a64
00000e22
00000435
00000642
00002492
00002235
000011d9
fffff921
ffffff6a
00001402
00001a36
0000002e
00001f8d
ffffff3e
fffff936
00000023
fffffe93
fffff438
